{
  "version": "1.0",
  "truncation": null,
  "padding": null,
  "added_tokens": [
    {
      "id": 0,
      "content": "<s>",
      "single_word": false,
      "lstrip": false,
      "rstrip": false,
      "normalized": false,
      "special": true
    },
    {
      "id": 1,
      "content": "</s>",
      "single_word": false,
      "lstrip": false,
      "rstrip": false,
      "normalized": false,
      "special": true
    },
    {
      "id": 2,
      "content": "<pad>",
      "single_word": false,
      "lstrip": false,
      "rstrip": false,
      "normalized": false,
      "special": true
    },
    {
      "id": 3,
      "content": "<unk>",
      "single_word": false,
      "lstrip": false,
      "rstrip": false,
      "normalized": false,
      "special": true
    }
  ],
  "normalizer": {
    "type": "Sequence",
    "normalizers": [
      {
        "type": "NFC"
      },
      {
        "type": "Replace",
        "pattern": {
          "String": "’"
        },
        "content": "'"
      },
      {
        "type": "Replace",
        "pattern": {
          "String": "‘"
        },
        "content": "'"
      },
      {
        "type": "Replace",
        "pattern": {
          "String": "ʼ"
        },
        "content": "'"
      },
      {
        "type": "Replace",
        "pattern": {
          "String": "＇"
        },
        "content": "'"
      },
      {
        "type": "Replace",
        "pattern": {
          "String": "`"
        },
        "content": "'"
      },
      {
        "type": "Replace",
        "pattern": {
          "String": "´"
        },
        "content": "'"
      },
      {
        "type": "Lowercase"
      },
      {
        "type": "Replace",
        "pattern": {
          "Regex": "\\s+"
        },
        "content": " "
      },
      {
        "type": "Strip",
        "strip_left": true,
        "strip_right": true
      },
      {
        "type": "Prepend",
        "prepend": "▁"
      },
      {
        "type": "Replace",
        "pattern": {
          "String": " "
        },
        "content": "▁"
      }
    ]
  },
  "pre_tokenizer": null,
  "post_processor": {
    "type": "TemplateProcessing",
    "single": [
      {
        "SpecialToken": {
          "id": "<s>",
          "type_id": 0
        }
      },
      {
        "Sequence": {
          "id": "A",
          "type_id": 0
        }
      }
    ],
    "pair": [
      {
        "SpecialToken": {
          "id": "<s>",
          "type_id": 0
        }
      },
      {
        "Sequence": {
          "id": "A",
          "type_id": 0
        }
      },
      {
        "SpecialToken": {
          "id": "<s>",
          "type_id": 1
        }
      },
      {
        "Sequence": {
          "id": "B",
          "type_id": 1
        }
      }
    ],
    "special_tokens": {
      "<s>": {
        "id": "<s>",
        "ids": [
          0
        ],
        "tokens": [
          "<s>"
        ]
      }
    }
  },
  "decoder": {
    "type": "Sequence",
    "decoders": [
      {
        "type": "Replace",
        "pattern": {
          "String": "▁"
        },
        "content": " "
      },
      {
        "type": "ByteFallback"
      },
      {
        "type": "Fuse"
      },
      {
        "type": "Strip",
        "content": " ",
        "start": 1,
        "stop": 0
      }
    ]
  },
  "model": {
    "type": "BPE",
    "dropout": null,
    "unk_token": "<unk>",
    "continuing_subword_prefix": null,
    "end_of_word_suffix": null,
    "fuse_unk": true,
    "byte_fallback": true,
    "ignore_merges": false,
    "vocab": {
      "<s>": 0,
      "</s>": 1,
      "<pad>": 2,
      "<unk>": 3,
      "<0x00>": 4,
      "<0x01>": 5,
      "<0x02>": 6,
      "<0x03>": 7,
      "<0x04>": 8,
      "<0x05>": 9,
      "<0x06>": 10,
      "<0x07>": 11,
      "<0x08>": 12,
      "<0x09>": 13,
      "<0x0A>": 14,
      "<0x0B>": 15,
      "<0x0C>": 16,
      "<0x0D>": 17,
      "<0x0E>": 18,
      "<0x0F>": 19,
      "<0x10>": 20,
      "<0x11>": 21,
      "<0x12>": 22,
      "<0x13>": 23,
      "<0x14>": 24,
      "<0x15>": 25,
      "<0x16>": 26,
      "<0x17>": 27,
      "<0x18>": 28,
      "<0x19>": 29,
      "<0x1A>": 30,
      "<0x1B>": 31,
      "<0x1C>": 32,
      "<0x1D>": 33,
      "<0x1E>": 34,
      "<0x1F>": 35,
      "<0x20>": 36,
      "<0x21>": 37,
      "<0x22>": 38,
      "<0x23>": 39,
      "<0x24>": 40,
      "<0x25>": 41,
      "<0x26>": 42,
      "<0x27>": 43,
      "<0x28>": 44,
      "<0x29>": 45,
      "<0x2A>": 46,
      "<0x2B>": 47,
      "<0x2C>": 48,
      "<0x2D>": 49,
      "<0x2E>": 50,
      "<0x2F>": 51,
      "<0x30>": 52,
      "<0x31>": 53,
      "<0x32>": 54,
      "<0x33>": 55,
      "<0x34>": 56,
      "<0x35>": 57,
      "<0x36>": 58,
      "<0x37>": 59,
      "<0x38>": 60,
      "<0x39>": 61,
      "<0x3A>": 62,
      "<0x3B>": 63,
      "<0x3C>": 64,
      "<0x3D>": 65,
      "<0x3E>": 66,
      "<0x3F>": 67,
      "<0x40>": 68,
      "<0x41>": 69,
      "<0x42>": 70,
      "<0x43>": 71,
      "<0x44>": 72,
      "<0x45>": 73,
      "<0x46>": 74,
      "<0x47>": 75,
      "<0x48>": 76,
      "<0x49>": 77,
      "<0x4A>": 78,
      "<0x4B>": 79,
      "<0x4C>": 80,
      "<0x4D>": 81,
      "<0x4E>": 82,
      "<0x4F>": 83,
      "<0x50>": 84,
      "<0x51>": 85,
      "<0x52>": 86,
      "<0x53>": 87,
      "<0x54>": 88,
      "<0x55>": 89,
      "<0x56>": 90,
      "<0x57>": 91,
      "<0x58>": 92,
      "<0x59>": 93,
      "<0x5A>": 94,
      "<0x5B>": 95,
      "<0x5C>": 96,
      "<0x5D>": 97,
      "<0x5E>": 98,
      "<0x5F>": 99,
      "<0x60>": 100,
      "<0x61>": 101,
      "<0x62>": 102,
      "<0x63>": 103,
      "<0x64>": 104,
      "<0x65>": 105,
      "<0x66>": 106,
      "<0x67>": 107,
      "<0x68>": 108,
      "<0x69>": 109,
      "<0x6A>": 110,
      "<0x6B>": 111,
      "<0x6C>": 112,
      "<0x6D>": 113,
      "<0x6E>": 114,
      "<0x6F>": 115,
      "<0x70>": 116,
      "<0x71>": 117,
      "<0x72>": 118,
      "<0x73>": 119,
      "<0x74>": 120,
      "<0x75>": 121,
      "<0x76>": 122,
      "<0x77>": 123,
      "<0x78>": 124,
      "<0x79>": 125,
      "<0x7A>": 126,
      "<0x7B>": 127,
      "<0x7C>": 128,
      "<0x7D>": 129,
      "<0x7E>": 130,
      "<0x7F>": 131,
      "<0x80>": 132,
      "<0x81>": 133,
      "<0x82>": 134,
      "<0x83>": 135,
      "<0x84>": 136,
      "<0x85>": 137,
      "<0x86>": 138,
      "<0x87>": 139,
      "<0x88>": 140,
      "<0x89>": 141,
      "<0x8A>": 142,
      "<0x8B>": 143,
      "<0x8C>": 144,
      "<0x8D>": 145,
      "<0x8E>": 146,
      "<0x8F>": 147,
      "<0x90>": 148,
      "<0x91>": 149,
      "<0x92>": 150,
      "<0x93>": 151,
      "<0x94>": 152,
      "<0x95>": 153,
      "<0x96>": 154,
      "<0x97>": 155,
      "<0x98>": 156,
      "<0x99>": 157,
      "<0x9A>": 158,
      "<0x9B>": 159,
      "<0x9C>": 160,
      "<0x9D>": 161,
      "<0x9E>": 162,
      "<0x9F>": 163,
      "<0xA0>": 164,
      "<0xA1>": 165,
      "<0xA2>": 166,
      "<0xA3>": 167,
      "<0xA4>": 168,
      "<0xA5>": 169,
      "<0xA6>": 170,
      "<0xA7>": 171,
      "<0xA8>": 172,
      "<0xA9>": 173,
      "<0xAA>": 174,
      "<0xAB>": 175,
      "<0xAC>": 176,
      "<0xAD>": 177,
      "<0xAE>": 178,
      "<0xAF>": 179,
      "<0xB0>": 180,
      "<0xB1>": 181,
      "<0xB2>": 182,
      "<0xB3>": 183,
      "<0xB4>": 184,
      "<0xB5>": 185,
      "<0xB6>": 186,
      "<0xB7>": 187,
      "<0xB8>": 188,
      "<0xB9>": 189,
      "<0xBA>": 190,
      "<0xBB>": 191,
      "<0xBC>": 192,
      "<0xBD>": 193,
      "<0xBE>": 194,
      "<0xBF>": 195,
      "<0xC0>": 196,
      "<0xC1>": 197,
      "<0xC2>": 198,
      "<0xC3>": 199,
      "<0xC4>": 200,
      "<0xC5>": 201,
      "<0xC6>": 202,
      "<0xC7>": 203,
      "<0xC8>": 204,
      "<0xC9>": 205,
      "<0xCA>": 206,
      "<0xCB>": 207,
      "<0xCC>": 208,
      "<0xCD>": 209,
      "<0xCE>": 210,
      "<0xCF>": 211,
      "<0xD0>": 212,
      "<0xD1>": 213,
      "<0xD2>": 214,
      "<0xD3>": 215,
      "<0xD4>": 216,
      "<0xD5>": 217,
      "<0xD6>": 218,
      "<0xD7>": 219,
      "<0xD8>": 220,
      "<0xD9>": 221,
      "<0xDA>": 222,
      "<0xDB>": 223,
      "<0xDC>": 224,
      "<0xDD>": 225,
      "<0xDE>": 226,
      "<0xDF>": 227,
      "<0xE0>": 228,
      "<0xE1>": 229,
      "<0xE2>": 230,
      "<0xE3>": 231,
      "<0xE4>": 232,
      "<0xE5>": 233,
      "<0xE6>": 234,
      "<0xE7>": 235,
      "<0xE8>": 236,
      "<0xE9>": 237,
      "<0xEA>": 238,
      "<0xEB>": 239,
      "<0xEC>": 240,
      "<0xED>": 241,
      "<0xEE>": 242,
      "<0xEF>": 243,
      "<0xF0>": 244,
      "<0xF1>": 245,
      "<0xF2>": 246,
      "<0xF3>": 247,
      "<0xF4>": 248,
      "<0xF5>": 249,
      "<0xF6>": 250,
      "<0xF7>": 251,
      "<0xF8>": 252,
      "<0xF9>": 253,
      "<0xFA>": 254,
      "<0xFB>": 255,
      "<0xFC>": 256,
      "<0xFD>": 257,
      "<0xFE>": 258,
      "<0xFF>": 259,
      "▁d": 260,
      "es": 261,
      "▁l": 262,
      "▁p": 263,
      "en": 264,
      "on": 265,
      "▁c": 266,
      "ou": 267,
      "▁s": 268,
      "▁a": 269,
      "▁de": 270,
      "re": 271,
      "er": 272,
      "an": 273,
      "ti": 274,
      "is": 275,
      "▁m": 276,
      "qu": 277,
      "in": 278,
      "et": 279,
      "ent": 280,
      "le": 281,
      "te": 282,
      "▁v": 283,
      "un": 284,
      "ar": 285,
      "ur": 286,
      "▁la": 287,
      "▁t": 288,
      "it": 289,
      "▁f": 290,
      "▁et": 291,
      "▁le": 292,
      "▁n": 293,
      "il": 294,
      "or": 295,
      "our": 296,
      "tion": 297,
      "▁r": 298,
      "▁un": 299,
      "▁qu": 300,
      "▁b": 301,
      "▁à": 302,
      "▁en": 303,
      "▁les": 304,
      "om": 305,
      "▁pr": 306,
      "el": 307,
      "ment": 308,
      "al": 309,
      "▁des": 310,
      "us": 311,
      "ous": 312,
      "ra": 313,
      "ce": 314,
      "as": 315,
      "ant": 316,
      "▁pour": 317,
      "ch": 318,
      "▁g": 319,
      "▁j": 320,
      "est": 321,
      "ve": 322,
      "ir": 323,
      "tre": 324,
      "os": 325,
      "au": 326,
      "▁au": 327,
      "ie": 328,
      "▁par": 329,
      "ation": 330,
      "▁con": 331,
      "▁é": 332,
      "ag": 333,
      "ans": 334,
      "és": 335,
      "me": 336,
      "▁du": 337,
      "▁ch": 338,
      "ic": 339,
      "▁pl": 340,
      "que": 341,
      "▁dé": 342,
      "▁une": 343,
      "▁re": 344,
      "ire": 345,
      "▁com": 346,
      "ont": 347,
      "▁pro": 348,
      "at": 349,
      "ol": 350,
      "▁in": 351,
      "de": 352,
      "▁e": 353,
      "ais": 354,
      "ne": 355,
      "▁sur": 356,
      "ri": 357,
      "si": 358,
      "▁dans": 359,
      "se": 360,
      "▁vous": 361,
      "▁est": 362,
      "▁h": 363,
      "ac": 364,
      "eu": 365,
      "ée": 366,
      "▁que": 367,
      "mp": 368,
      "té": 369,
      "li": 370,
      "ab": 371,
      "di": 372,
      "ci": 373,
      "ff": 374,
      "▁se": 375,
      "res": 376,
      "les": 377,
      "▁qui": 378,
      "▁vo": 379,
      "▁2": 380,
      "▁ré": 381,
      "▁pas": 382,
      "ers": 383,
      "▁1": 384,
      "▁ave": 385,
      "pp": 386,
      "▁o": 387,
      "▁plus": 388,
      "am": 389,
      "ain": 390,
      "▁il": 391,
      "ons": 392,
      "▁avec": 393,
      "ouv": 394,
      "tu": 395,
      "ait": 396,
      "▁-": 397,
      "▁:": 398,
      "urs": 399,
      "elle": 400,
      "ig": 401,
      "▁tr": 402,
      "ter": 403,
      "▁ce": 404,
      "ité": 405,
      "▁an": 406,
      "age": 407,
      "aire": 408,
      "ite": 409,
      "end": 410,
      "▁mo": 411,
      "▁tou": 412,
      "id": 413,
      "▁ou": 414,
      "onn": 415,
      "tes": 416,
      "▁su": 417,
      "ran": 418,
      "iv": 419,
      "pr": 420,
      "ul": 421,
      "ale": 422,
      "ér": 423,
      "ès": 424,
      "▁(": 425,
      "ien": 426,
      "ère": 427,
      "im": 428,
      "ille": 429,
      "ux": 430,
      "▁ex": 431,
      "▁av": 432,
      "▁votre": 433,
      "ois": 434,
      "pe": 435,
      "ot": 436,
      "ques": 437,
      "ort": 438,
      "ge": 439,
      "ette": 440,
      "▁je": 441,
      "▁sa": 442,
      "▁ne": 443,
      "▁nous": 444,
      "oir": 445,
      "▁ac": 446,
      "ier": 447,
      "ure": 448,
      "che": 449,
      "ue": 450,
      "tr": 451,
      "ces": 452,
      "▁20": 453,
      "..": 454,
      "ées": 455,
      "ati": 456,
      "▁sont": 457,
      "ction": 458,
      "▁son": 459,
      "oc": 460,
      "ai": 461,
      "orm": 462,
      "▁mar": 463,
      "ré": 464,
      "▁ser": 465,
      "▁te": 466,
      "um": 467,
      "ine": 468,
      "op": 469,
      "▁mais": 470,
      "ap": 471,
      "du": 472,
      "▁comp": 473,
      "une": 474,
      "aux": 475,
      "ique": 476,
      "mb": 477,
      "▁si": 478,
      "og": 479,
      "▁tra": 480,
      "ill": 481,
      "entre": 482,
      "▁peu": 483,
      "and": 484,
      "ad": 485,
      "ise": 486,
      "▁no": 487,
      "ance": 488,
      "ate": 489,
      "ten": 490,
      "▁al": 491,
      "00": 492,
      "▁ar": 493,
      "▁cette": 494,
      "lé": 495,
      "▁aux": 496,
      "ins": 497,
      "ence": 498,
      "able": 499,
      "▁so": 500,
      "uis": 501,
      "▁w": 502,
      "ouve": 503,
      "ro": 504,
      "ations": 505,
      "ours": 506,
      "▁!": 507,
      "av": 508,
      "én": 509,
      "air": 510,
      "▁dis": 511,
      "ace": 512,
      "▁app": 513,
      "▁me": 514,
      "▁per": 515,
      "▁comm": 516,
      "▁déc": 517,
      "ay": 518,
      "éc": 519,
      "pos": 520,
      "ts": 521,
      "▁mon": 522,
      "ib": 523,
      "▁«": 524,
      "▁y": 525,
      "ion": 526,
      "mes": 527,
      "être": 528,
      "til": 529,
      "▁tout": 530,
      "▁parti": 531,
      "▁3": 532,
      "ants": 533,
      "ub": 534,
      "ors": 535,
      "▁di": 536,
      "▁st": 537,
      "▁co": 538,
      "▁ren": 539,
      "ui": 540,
      "▁i": 541,
      "▁cons": 542,
      "▁car": 543,
      "▁bien": 544,
      "tions": 545,
      "pé": 546,
      "ard": 547,
      "▁ét": 548,
      "alis": 549,
      "▁pe": 550,
      "▁as": 551,
      "ét": 552,
      "▁?": 553,
      "aires": 554,
      "tif": 555,
      "▁th": 556,
      "▁ma": 557,
      "▁on": 558,
      "ici": 559,
      "▁k": 560,
      "▁pos": 561,
      "▁fran": 562,
      "▁»": 563,
      "oi": 564,
      "▁pers": 565,
      "ments": 566,
      "ore": 567,
      "ut": 568,
      "onne": 569,
      "ens": 570,
      "aut": 571,
      "▁gr": 572,
      "ing": 573,
      "▁ses": 574,
      "▁entre": 575,
      "▁fait": 576,
      "ond": 577,
      "▁ont": 578,
      "ess": 579,
      "ert": 580,
      "ob": 581,
      "ign": 582,
      "▁am": 583,
      "ord": 584,
      "ct": 585,
      "▁aut": 586,
      "▁comme": 587,
      "▁faire": 588,
      "ussi": 589,
      "▁rés": 590,
      "▁cou": 591,
      "app": 592,
      "tra": 593,
      "ents": 594,
      "elles": 595,
      "▁cl": 596,
      "tin": 597,
      "▁notre": 598,
      "▁vos": 599,
      "▁sou": 600,
      "▁été": 601,
      "oin": 602,
      "▁gran": 603,
      "tis": 604,
      "teur": 605,
      "con": 606,
      "▁prés": 607,
      "▁for": 608,
      "com": 609,
      "▁trav": 610,
      "sion": 611,
      "▁ad": 612,
      "eau": 613,
      "util": 614,
      "endre": 615,
      "lic": 616,
      "par": 617,
      "ph": 618,
      "ez": 619,
      "▁inter": 620,
      "▁produ": 621,
      "form": 622,
      "▁gra": 623,
      "ures": 624,
      "bre": 625,
      "ture": 626,
      "▁col": 627,
      "▁ph": 628,
      "its": 629,
      "▁très": 630,
      "ouver": 631,
      "alement": 632,
      "▁at": 633,
      "▁201": 634,
      "all": 635,
      "ière": 636,
      "▁pré": 637,
      "ême": 638,
      "ang": 639,
      "▁pre": 640,
      "ail": 641,
      "met": 642,
      "▁être": 643,
      "ex": 644,
      "ist": 645,
      "▁prof": 646,
      "▁fin": 647,
      "vi": 648,
      "▁aussi": 649,
      "aine": 650,
      "▁ces": 651,
      "▁leur": 652,
      "▁tous": 653,
      "...": 654,
      "ass": 655,
      "éra": 656,
      "▁mé": 657,
      "ème": 658,
      "▁ann": 659,
      "||": 660,
      "cher": 661,
      "▁deux": 662,
      "st": 663,
      "tique": 664,
      "ix": 665,
      "▁cha": 666,
      "▁peut": 667,
      "lement": 668,
      "ven": 669,
      "▁personn": 670,
      "▁|": 671,
      "▁4": 672,
      "près": 673,
      "▁elle": 674,
      "ourn": 675,
      "jet": 676,
      "ages": 677,
      "▁nom": 678,
      "utilis": 679,
      "▁conf": 680,
      "▁\"": 681,
      "if": 682,
      "▁prem": 683,
      "▁imp": 684,
      "ente": 685,
      "▁ca": 686,
      "▁ter": 687,
      "▁5": 688,
      "rez": 689,
      "tiv": 690,
      "▁off": 691,
      "éri": 692,
      "esp": 693,
      "ités": 694,
      "▁sans": 695,
      "use": 696,
      "▁quel": 697,
      "▁or": 698,
      "oy": 699,
      "ég": 700,
      "em": 701,
      "iss": 702,
      "▁nos": 703,
      "alité": 704,
      "qui": 705,
      "ante": 706,
      "eux": 707,
      "pl": 708,
      "oire": 709,
      "mps": 710,
      "▁diff": 711,
      "▁min": 712,
      "ble": 713,
      "▁peti": 714,
      "ec": 715,
      "▁man": 716,
      "▁même": 717,
      "▁der": 718,
      "▁site": 719,
      "fin": 720,
      "▁eff": 721,
      "▁cré": 722,
      "▁propos": 723,
      "▁vi": 724,
      "per": 725,
      "▁sal": 726,
      "onc": 727,
      "agn": 728,
      "▁pub": 729,
      "▁ass": 730,
      "▁permet": 731,
      "▁bl": 732,
      "▁cli": 733,
      "▁cel": 734,
      "▁ég": 735,
      "20": 736,
      "cu": 737,
      "igne": 738,
      "ies": 739,
      "tér": 740,
      "▁ob": 741,
      "isse": 742,
      "▁jus": 743,
      "ères": 744,
      "▁ans": 745,
      "▁cr": 746,
      "▁ti": 747,
      "iques": 748,
      "▁bou": 749,
      "▁conc": 750,
      "élé": 751,
      "▁vis": 752,
      "▁sé": 753,
      "▁dire": 754,
      "▁fil": 755,
      "▁form": 756,
      "▁dern": 757,
      "▁sy": 758,
      "enti": 759,
      "▁grand": 760,
      "▁cas": 761,
      "▁après": 762,
      "ong": 763,
      "▁enc": 764,
      "▁dev": 765,
      "puis": 766,
      "anc": 767,
      "▁rec": 768,
      "ales": 769,
      "ver": 770,
      "▁sol": 771,
      "ann": 772,
      "els": 773,
      "▁acc": 774,
      "tic": 775,
      "▁rég": 776,
      "rer": 777,
      "ém": 778,
      "▁bon": 779,
      "tement": 780,
      "▁également": 781,
      "ande": 782,
      "▁vie": 783,
      "▁avant": 784,
      "▁depuis": 785,
      "▁ain": 786,
      "ats": 787,
      "▁ainsi": 788,
      "▁comment": 789,
      "▁lors": 790,
      "eur": 791,
      "▁nouv": 792,
      "ouvez": 793,
      "▁éc": 794,
      "▁trans": 795,
      "▁temps": 796,
      "éd": 797,
      "▁utilis": 798,
      "▁soci": 799,
      "ide": 800,
      "▁cor": 801,
      "lè": 802,
      "ler": 803,
      "▁év": 804,
      "▁im": 805,
      "▁–": 806,
      "▁gratu": 807,
      "▁por": 808,
      "pon": 809,
      ").": 810,
      "▁ver": 811,
      "▁ab": 812,
      "ition": 813,
      "▁nouve": 814,
      "▁sit": 815,
      "▁br": 816,
      "olog": 817,
      "▁6": 818,
      "▁meille": 819,
      "▁part": 820,
      "iste": 821,
      "▁env": 822,
      "▁dem": 823,
      "ieux": 824,
      "▁ag": 825,
      "▁dou": 826,
      "▁mer": 827,
      "▁nombre": 828,
      "▁puis": 829,
      "one": 830,
      "▁cont": 831,
      "ption": 832,
      "▁beau": 833,
      "tel": 834,
      "mpl": 835,
      "contre": 836,
      "▁pay": 837,
      "ves": 838,
      "idé": 839,
      "ils": 840,
      "ser": 841,
      "tru": 842,
      "▁donn": 843,
      "▁sous": 844,
      "▁ju": 845,
      "opp": 846,
      "▁pol": 847,
      "ok": 848,
      "▁france": 849,
      "▁mil": 850,
      "▁sp": 851,
      "sionn": 852,
      "voir": 853,
      "▁char": 854,
      "▁encore": 855,
      "▁mat": 856,
      "▁gén": 857,
      "▁bas": 858,
      "▁mal": 859,
      "out": 860,
      "▁res": 861,
      "ains": 862,
      "▁liv": 863,
      "▁télé": 864,
      "▁mes": 865,
      "▁7": 866,
      "oup": 867,
      "ateur": 868,
      "▁fac": 869,
      "▁rencontre": 870,
      "oit": 871,
      "▁fem": 872,
      "ches": 873,
      "mbre": 874,
      "min": 875,
      "▁ni": 876,
      "▁jou": 877,
      "▁met": 878,
      "▁commun": 879,
      "mar": 880,
      "▁dév": 881,
      "▁fon": 882,
      "nement": 883,
      "jour": 884,
      "are": 885,
      "▁ils": 886,
      "▁toute": 887,
      "▁seu": 888,
      "▁ins": 889,
      "endant": 890,
      "▁monde": 891,
      "gan": 892,
      "iter": 893,
      "▁lui": 894,
      "▁prix": 895,
      "▁cour": 896,
      "des": 897,
      "▁z": 898,
      "▁où": 899,
      "mple": 900,
      "teurs": 901,
      "cl": 902,
      "▁phot": 903,
      "▁19": 904,
      "▁sec": 905,
      "▁sc": 906,
      "▁leurs": 907,
      "ense": 908,
      "▁gar": 909,
      "ari": 910,
      "▁toutes": 911,
      "ances": 912,
      "ilité": 913,
      "▁rou": 914,
      "vent": 915,
      "ieurs": 916,
      "ieu": 917,
      "▁place": 918,
      "▁pouvez": 919,
      "chn": 920,
      "ole": 921,
      "▁the": 922,
      "ange": 923,
      "ête": 924,
      "▁projet": 925,
      "vous": 926,
      "▁mont": 927,
      "▁sera": 928,
      "▁fonction": 929,
      "▁fois": 930,
      "aient": 931,
      "été": 932,
      "▁cert": 933,
      "▁cap": 934,
      "ger": 935,
      "▁différ": 936,
      "▁donc": 937,
      "▁profes": 938,
      "▁main": 939,
      "▁can": 940,
      "jours": 941,
      "▁conn": 942,
      "▁enf": 943,
      "▁jour": 944,
      "péci": 945,
      "▁po": 946,
      "▁découv": 947,
      "▁prop": 948,
      "▁recher": 949,
      "▁8": 950,
      "▁spéci": 951,
      "iti": 952,
      "▁10": 953,
      "▁déb": 954,
      "▁mus": 955,
      "▁alors": 956,
      "cess": 957,
      "▁maison": 958,
      "ile": 959,
      "▁cela": 960,
      "ices": 961,
      "▁cet": 962,
      "ues": 963,
      "quipe": 964,
      "ivers": 965,
      "▁mod": 966,
      "▁techn": 967,
      "▁conse": 968,
      "aison": 969,
      "ises": 970,
      "cip": 971,
      "aille": 972,
      "rir": 973,
      "iers": 974,
      "elopp": 975,
      "▁quelques": 976,
      "▁chaque": 977,
      "ables": 978,
      "▁hom": 979,
      "),": 980,
      "▁toujours": 981,
      "atique": 982,
      "▁0": 983,
      "lection": 984,
      "▁rép": 985,
      "▁fr": 986,
      "▁franç": 987,
      "▁long": 988,
      "aines": 989,
      "antes": 990,
      "▁jeu": 991,
      "▁non": 992,
      "▁intern": 993,
      "▁dés": 994,
      "gra": 995,
      "mer": 996,
      "▁gu": 997,
      "▁fer": 998,
      "▁rest": 999,
      "▁suiv": 1000,
      "ps": 1001,
      "▁avoir": 1002,
      "▁loc": 1003,
      "▁poin": 1004,
      "acc": 1005,
      "mble": 1006,
      "ach": 1007,
      "ieur": 1008,
      "▁we": 1009,
      "ature": 1010,
      "▁présent": 1011,
      "▁réalis": 1012,
      "prise": 1013,
      "▁servi": 1014,
      "▁aff": 1015,
      "▁pi": 1016,
      "▁202": 1017,
      "év": 1018,
      "ern": 1019,
      "ind": 1020,
      "▁plusieurs": 1021,
      "ell": 1022,
      "▁fa": 1023,
      "ient": 1024,
      "▁développ": 1025,
      "lier": 1026,
      "▁rapp": 1027,
      "oci": 1028,
      "▁dom": 1029,
      "lec": 1030,
      "▁possi": 1031,
      "enne": 1032,
      "ow": 1033,
      "ich": 1034,
      "▁9": 1035,
      "▁pays": 1036,
      "asse": 1037,
      "rais": 1038,
      "estion": 1039,
      "▁afin": 1040,
      "ateurs": 1041,
      "▁prin": 1042,
      "▁bes": 1043,
      "▁ligne": 1044,
      "ution": 1045,
      "ose": 1046,
      "▁public": 1047,
      "▁dont": 1048,
      "ganis": 1049,
      "ponib": 1050,
      "▁inform": 1051,
      "▁contre": 1052,
      "ult": 1053,
      "rit": 1054,
      "mis": 1055,
      "▁ent": 1056,
      "▁sel": 1057,
      "titu": 1058,
      "▁dur": 1059,
      "mé": 1060,
      "▁mois": 1061,
      "ha": 1062,
      "▁att": 1063,
      "vez": 1064,
      "su": 1065,
      "▁parf": 1066,
      "▁moins": 1067,
      "▁plan": 1068,
      "▁personnes": 1069,
      "▁nouveau": 1070,
      "▁.": 1071,
      "▁che": 1072,
      "ets": 1073,
      "▁préc": 1074,
      "▁rel": 1075,
      "od": 1076,
      "▁eur": 1077,
      "th": 1078,
      "ric": 1079,
      "▁disponib": 1080,
      "ché": 1081,
      "▁x": 1082,
      "▁serv": 1083,
      "▁français": 1084,
      "▁produits": 1085,
      "ov": 1086,
      "▁es": 1087,
      "▁travail": 1088,
      "▁situ": 1089,
      "▁déj": 1090,
      "▁pass": 1091,
      "quer": 1092,
      "nes": 1093,
      "qué": 1094,
      "▁sem": 1095,
      "▁ven": 1096,
      "▁professionn": 1097,
      "entes": 1098,
      "▁fl": 1099,
      "▁va": 1100,
      "tiques": 1101,
      "ça": 1102,
      "▁fam": 1103,
      "▁cher": 1104,
      "▁som": 1105,
      "▁esp": 1106,
      "▁exp": 1107,
      "▁chez": 1108,
      "▁vol": 1109,
      "ences": 1110,
      "▁lib": 1111,
      "▁service": 1112,
      "▁sor": 1113,
      "▁cul": 1114,
      "▁autres": 1115,
      "▁jours": 1116,
      "rait": 1117,
      "▁nouvelle": 1118,
      "▁né": 1119,
      "az": 1120,
      "tez": 1121,
      "▁mom": 1122,
      "ôt": 1123,
      "cri": 1124,
      "ner": 1125,
      "uses": 1126,
      "dition": 1127,
      "▁qualité": 1128,
      "▁tu": 1129,
      "▁paris": 1130,
      "péri": 1131,
      "▁vers": 1132,
      "▁mis": 1133,
      "jou": 1134,
      "▁journ": 1135,
      "ress": 1136,
      "oupe": 1137,
      "▁voir": 1138,
      "▁soit": 1139,
      "ines": 1140,
      "hui": 1141,
      "▁trois": 1142,
      "▁compr": 1143,
      "▁,": 1144,
      "▁reg": 1145,
      "lig": 1146,
      "▁ind": 1147,
      "▁premier": 1148,
      "▁dép": 1149,
      "▁and": 1150,
      "agne": 1151,
      "▁pouv": 1152,
      "▁repr": 1153,
      "aiss": 1154,
      "▁jusqu": 1155,
      "coup": 1156,
      "tres": 1157,
      "amb": 1158,
      "éli": 1159,
      "▁op": 1160,
      "char": 1161,
      "▁déf": 1162,
      "écur": 1163,
      "▁dro": 1164,
      "rib": 1165,
      "▁était": 1166,
      "▁petit": 1167,
      "▁suis": 1168,
      "ager": 1169,
      "▁beaucoup": 1170,
      "▁selon": 1171,
      "oul": 1172,
      "▁bi": 1173,
      "▁savoir": 1174,
      "bles": 1175,
      "▁peuvent": 1176,
      "êtes": 1177,
      "▁voy": 1178,
      "▁ça": 1179,
      "▁inst": 1180,
      "▁recherche": 1181,
      "▁contac": 1182,
      "▁avez": 1183,
      "▁dispos": 1184,
      "▁cours": 1185,
      "▁15": 1186,
      "anti": 1187,
      "▁chois": 1188,
      "tive": 1189,
      "itez": 1190,
      "ras": 1191,
      "▁supp": 1192,
      "▁artic": 1193,
      "▁sécur": 1194,
      "▁bar": 1195,
      "000": 1196,
      "▁ville": 1197,
      "▁grande": 1198,
      "▁rap": 1199,
      "ellement": 1200,
      "illes": 1201,
      "▁retr": 1202,
      "ites": 1203,
      "▁nature": 1204,
      "comp": 1205,
      "▁déjà": 1206,
      "ions": 1207,
      "ication": 1208,
      "▁port": 1209,
      "eure": 1210,
      "tant": 1211,
      "bl": 1212,
      "▁fond": 1213,
      "ges": 1214,
      "▁he": 1215,
      "imp": 1216,
      "▁ret": 1217,
      "▁réf": 1218,
      "▁sain": 1219,
      "lique": 1220,
      "▁première": 1221,
      "▁quand": 1222,
      "ade": 1223,
      "▁compte": 1224,
      "él": 1225,
      "▁vra": 1226,
      "▁dét": 1227,
      "be": 1228,
      "▁milli": 1229,
      "ke": 1230,
      "▁ty": 1231,
      "ettes": 1232,
      "▁sign": 1233,
      "▁li": 1234,
      "autres": 1235,
      "aill": 1236,
      "▁avait": 1237,
      "▁lég": 1238,
      "▁ess": 1239,
      "érie": 1240,
      "▁particu": 1241,
      "▁produit": 1242,
      "▁tour": 1243,
      "tenir": 1244,
      "âce": 1245,
      "aur": 1246,
      "abl": 1247,
      "▁tel": 1248,
      "▁id": 1249,
      "▁coule": 1250,
      "▁services": 1251,
      "▁grâce": 1252,
      "▁vidé": 1253,
      "▁suite": 1254,
      "▁inf": 1255,
      "▁pres": 1256,
      "▁bonne": 1257,
      "cont": 1258,
      "▁avons": 1259,
      "▁moy": 1260,
      "▁not": 1261,
      "▁aur": 1262,
      "▁moment": 1263,
      "▁autre": 1264,
      "▁men": 1265,
      "tég": 1266,
      "▁indi": 1267,
      "itement": 1268,
      "▁pendant": 1269,
      "▁femme": 1270,
      "▁mati": 1271,
      "iez": 1272,
      "ode": 1273,
      "▁prom": 1274,
      "▁ach": 1275,
      "uer": 1276,
      "sions": 1277,
      "▁import": 1278,
      "uss": 1279,
      "▁ép": 1280,
      "▁faut": 1281,
      "ières": 1282,
      "pect": 1283,
      "▁cuis": 1284,
      "enc": 1285,
      "▁enfants": 1286,
      "gram": 1287,
      "▁coup": 1288,
      "▁/": 1289,
      "ép": 1290,
      "▁face": 1291,
      "▁gratuit": 1292,
      "▁200": 1293,
      "▁bo": 1294,
      "abit": 1295,
      "▁to": 1296,
      "tien": 1297,
      "jourd": 1298,
      "vis": 1299,
      "tifs": 1300,
      "▁»,": 1301,
      "▁mise": 1302,
      "iment": 1303,
      "▁mag": 1304,
      "▁trouver": 1305,
      "êt": 1306,
      "la": 1307,
      "▁of": 1308,
      "cas": 1309,
      "▁ten": 1310,
      "amment": 1311,
      "▁groupe": 1312,
      "ock": 1313,
      "▁ici": 1314,
      "▁program": 1315,
      "cep": 1316,
      "▁film": 1317,
      "ia": 1318,
      "aî": 1319,
      "iens": 1320,
      "▁cal": 1321,
      "▁18": 1322,
      "ider": 1323,
      "anger": 1324,
      "ène": 1325,
      "▁is": 1326,
      "▁sex": 1327,
      "térieur": 1328,
      "oris": 1329,
      "unes": 1330,
      "▁12": 1331,
      "▁partie": 1332,
      "▁go": 1333,
      "éb": 1334,
      "mo": 1335,
      "▁forum": 1336,
      "▁ple": 1337,
      "▁organis": 1338,
      "▁sh": 1339,
      "▁actu": 1340,
      "▁nation": 1341,
      "ack": 1342,
      "▁présid": 1343,
      "▁;": 1344,
      "lar": 1345,
      "▁lieu": 1346,
      "▁hau": 1347,
      "▁val": 1348,
      "▁activ": 1349,
      "aff": 1350,
      "▁gl": 1351,
      "▁dernier": 1352,
      "orts": 1353,
      "tier": 1354,
      "▁nive": 1355,
      "▁partir": 1356,
      "▁chau": 1357,
      "anté": 1358,
      "▁contra": 1359,
      "mi": 1360,
      "▁souv": 1361,
      "▁arri": 1362,
      "▁dim": 1363,
      "▁cô": 1364,
      "bo": 1365,
      "oix": 1366,
      "▁log": 1367,
      "ron": 1368,
      "erv": 1369,
      "▁direc": 1370,
      "ception": 1371,
      "▁cad": 1372,
      "uit": 1373,
      "ôle": 1374,
      "att": 1375,
      "▁syst": 1376,
      "rée": 1377,
      "▁aujourd": 1378,
      "▁saint": 1379,
      "▁rapide": 1380,
      "dic": 1381,
      "èrement": 1382,
      "▁prendre": 1383,
      "for": 1384,
      "▁mettre": 1385,
      "▁contin": 1386,
      "dez": 1387,
      "ement": 1388,
      "▁bén": 1389,
      "▁auc": 1390,
      "▁choix": 1391,
      "▁princip": 1392,
      "istoire": 1393,
      "▁commer": 1394,
      "pes": 1395,
      "ital": 1396,
      "af": 1397,
      "▁effet": 1398,
      "anche": 1399,
      "▁cat": 1400,
      "▁ouv": 1401,
      "▁centre": 1402,
      "▁all": 1403,
      "cid": 1404,
      "▁30": 1405,
      "▁u": 1406,
      "▁région": 1407,
      "je": 1408,
      "▁sorti": 1409,
      "co": 1410,
      "cul": 1411,
      "▁sau": 1412,
      "ame": 1413,
      "▁be": 1414,
      "▁mob": 1415,
      "▁constru": 1416,
      "▁propose": 1417,
      "▁bois": 1418,
      "▁dépar": 1419,
      "▁web": 1420,
      "▁fab": 1421,
      "man": 1422,
      "oires": 1423,
      "ût": 1424,
      "gement": 1425,
      "▁expéri": 1426,
      "▁lo": 1427,
      "▁sour": 1428,
      "ak": 1429,
      "ret": 1430,
      "▁doit": 1431,
      "▁soir": 1432,
      "▁anim": 1433,
      "èle": 1434,
      "▁resp": 1435,
      "30": 1436,
      "▁éle": 1437,
      "oration": 1438,
      "▁cent": 1439,
      "orer": 1440,
      "▁proch": 1441,
      "art": 1442,
      "▁années": 1443,
      "oph": 1444,
      "▁équipe": 1445,
      "lez": 1446,
      "▁num": 1447,
      "▁bu": 1448,
      "▁santé": 1449,
      "▁jam": 1450,
      "anci": 1451,
      "▁besoin": 1452,
      "nent": 1453,
      "ww": 1454,
      "atif": 1455,
      "era": 1456,
      "▁sécurité": 1457,
      "orte": 1458,
      "▁suc": 1459,
      "▁poli": 1460,
      "▁offre": 1461,
      "▁clients": 1462,
      "eurs": 1463,
      "▁viv": 1464,
      "inter": 1465,
      "▁demande": 1466,
      "ogra": 1467,
      "▁piè": 1468,
      "▁étu": 1469,
      "▁parc": 1470,
      "iles": 1471,
      "rique": 1472,
      "▁appar": 1473,
      "lex": 1474,
      "▁rep": 1475,
      "▁généra": 1476,
      "▁pat": 1477,
      "▁trouve": 1478,
      "▁veu": 1479,
      "aise": 1480,
      "▁possible": 1481,
      "▁formation": 1482,
      "omb": 1483,
      "▁14": 1484,
      "▁super": 1485,
      "resse": 1486,
      "▁gros": 1487,
      "▁fourn": 1488,
      "istre": 1489,
      "▁voit": 1490,
      "▁envir": 1491,
      "rier": 1492,
      "jec": 1493,
      "▁do": 1494,
      "▁mieux": 1495,
      "▁jeux": 1496,
      "▁cin": 1497,
      "phone": 1498,
      "onnement": 1499,
      "▁sep": 1500,
      "ime": 1501,
      "fic": 1502,
      "tenant": 1503,
      "▁moi": 1504,
      "▁porte": 1505,
      "▁niveau": 1506,
      "▁personne": 1507,
      "▁priv": 1508,
      "▁ense": 1509,
      "▁minu": 1510,
      "▁mét": 1511,
      "▁comb": 1512,
      "▁lar": 1513,
      "fi": 1514,
      "▁meilleur": 1515,
      "ative": 1516,
      "erg": 1517,
      "ôtel": 1518,
      "▁».": 1519,
      "let": 1520,
      "▁inc": 1521,
      "/20": 1522,
      "▁pu": 1523,
      "▁informations": 1524,
      "▁sélection": 1525,
      "rent": 1526,
      "ologie": 1527,
      "▁inv": 1528,
      "▁gen": 1529,
      "▁trop": 1530,
      "▁rencont": 1531,
      "▁téléchar": 1532,
      "ira": 1533,
      "▁nécess": 1534,
      "cture": 1535,
      "▁rédu": 1536,
      "int": 1537,
      "▁notamment": 1538,
      "▁parten": 1539,
      "▁salle": 1540,
      "▁dès": 1541,
      "▁merci": 1542,
      "pec": 1543,
      "çon": 1544,
      "▁jeunes": 1545,
      "vre": 1546,
      "▁conne": 1547,
      "▁femmes": 1548,
      "ili": 1549,
      "▁unique": 1550,
      "▁belle": 1551,
      "▁êtes": 1552,
      "▁us": 1553,
      "ditions": 1554,
      "tt": 1555,
      "ograph": 1556,
      "▁pop": 1557,
      "▁société": 1558,
      "▁11": 1559,
      "▁famille": 1560,
      "▁point": 1561,
      "▁appr": 1562,
      "issement": 1563,
      "ori": 1564,
      "▁exe": 1565,
      "dre": 1566,
      "▁pa": 1567,
      "▁compos": 1568,
      "▁associ": 1569,
      "▁photos": 1570,
      "▁saison": 1571,
      "uel": 1572,
      "▁certains": 1573,
      "conom": 1574,
      "ule": 1575,
      "adi": 1576,
      "19": 1577,
      "▁habit": 1578,
      "cription": 1579,
      "comm": 1580,
      "lément": 1581,
      "▁dess": 1582,
      "▁100": 1583,
      "▁ceux": 1584,
      "▁fra": 1585,
      "▁année": 1586,
      "▁mas": 1587,
      "▁dit": 1588,
      "▁avis": 1589,
      "▁lire": 1590,
      "atiques": 1591,
      "ys": 1592,
      "▁découvrir": 1593,
      "venir": 1594,
      "▁rien": 1595,
      "alités": 1596,
      "▁semaine": 1597,
      "▁nombreux": 1598,
      "▁entrepr": 1599,
      "▁artis": 1600,
      "▁hum": 1601,
      "▁demand": 1602,
      "▁là": 1603,
      "▁simple": 1604,
      "vient": 1605,
      "▁seront": 1606,
      "ième": 1607,
      "aces": 1608,
      "oles": 1609,
      "▁rev": 1610,
      "▁tant": 1611,
      "▁mari": 1612,
      "▁oc": 1613,
      "▁pouvoir": 1614,
      "▁jamais": 1615,
      "▁“": 1616,
      "▁simp": 1617,
      "▁petite": 1618,
      "▁accomp": 1619,
      "▁mul": 1620,
      "▁page": 1621,
      "▁vidéo": 1622,
      "▁16": 1623,
      "fr": 1624,
      "▁&": 1625,
      "▁cadre": 1626,
      "xim": 1627,
      "urer": 1628,
      "tionn": 1629,
      "sez": 1630,
      "▁système": 1631,
      "/0": 1632,
      "▁développement": 1633,
      "▁coll": 1634,
      "▁eu": 1635,
      "▁cuisine": 1636,
      "▁cer": 1637,
      "▁doc": 1638,
      "▁souha": 1639,
      "▁résult": 1640,
      "▁naturel": 1641,
      "10": 1642,
      "▁lim": 1643,
      "▁ajou": 1644,
      "▁données": 1645,
      "▁reste": 1646,
      "▁sens": 1647,
      "50": 1648,
      "▁dém": 1649,
      "ting": 1650,
      "▁publi": 1651,
      "▁17": 1652,
      "▁béné": 1653,
      "▁camp": 1654,
      "▁marché": 1655,
      "▁effec": 1656,
      "▁matéri": 1657,
      "▁gestion": 1658,
      "▁début": 1659,
      "▁respons": 1660,
      "gent": 1661,
      "▁préf": 1662,
      "▁travers": 1663,
      "▁€": 1664,
      "ront": 1665,
      "env": 1666,
      "ton": 1667,
      "▁table": 1668,
      "érence": 1669,
      "▁net": 1670,
      "▁seulement": 1671,
      "vid": 1672,
      "▁rob": 1673,
      "▁président": 1674,
      "illet": 1675,
      "▁répond": 1676,
      "▁eng": 1677,
      "isme": 1678,
      "▁sommes": 1679,
      "▁club": 1680,
      "tention": 1681,
      "isc": 1682,
      "▁lit": 1683,
      "▁vendre": 1684,
      "▁cu": 1685,
      "▁vit": 1686,
      "▁jeune": 1687,
      "erre": 1688,
      "▁internet": 1689,
      "année": 1690,
      "▁tot": 1691,
      "œu": 1692,
      "▁lun": 1693,
      "▁13": 1694,
      "rice": 1695,
      "rage": 1696,
      "lu": 1697,
      "▁dos": 1698,
      "▁contr": 1699,
      "▁représ": 1700,
      "▁économ": 1701,
      "▁internation": 1702,
      "▁ref": 1703,
      "▁24": 1704,
      "lication": 1705,
      "▁proc": 1706,
      "quoi": 1707,
      "cle": 1708,
      "▁question": 1709,
      "▁celui": 1710,
      "▁pan": 1711,
      "▁champ": 1712,
      "▁journée": 1713,
      "équipe": 1714,
      "ane": 1715,
      "off": 1716,
      "▁voyage": 1717,
      "ah": 1718,
      "casion": 1719,
      "▁achet": 1720,
      "▁elles": 1721,
      "▁fais": 1722,
      "ope": 1723,
      "▁tar": 1724,
      "▁ps": 1725,
      "▁ali": 1726,
      "ust": 1727,
      "▁génér": 1728,
      "▁gam": 1729,
      "action": 1730,
      "▁sub": 1731,
      "▁heures": 1732,
      "tout": 1733,
      "▁série": 1734,
      "▁ris": 1735,
      "▁ci": 1736,
      "▁pris": 1737,
      "▁sty": 1738,
      "▁propri": 1739,
      "▁empl": 1740,
      "▁seul": 1741,
      "omm": 1742,
      "inform": 1743,
      "▁inté": 1744,
      "▁créer": 1745,
      "▁retour": 1746,
      "▁accue": 1747,
      "agement": 1748,
      "gé": 1749,
      "lectr": 1750,
      "▁em": 1751,
      "▁rom": 1752,
      "▁côté": 1753,
      "dit": 1754,
      "▁cit": 1755,
      "▁pourquoi": 1756,
      "▁disponible": 1757,
      "▁adap": 1758,
      "▁ang": 1759,
      "ath": 1760,
      "▁programme": 1761,
      "▁cham": 1762,
      "▁homme": 1763,
      "▁jean": 1764,
      "▁marque": 1765,
      "▁nouvelles": 1766,
      "\",": 1767,
      "▁différents": 1768,
      "ération": 1769,
      "▁près": 1770,
      "▁[": 1771,
      "ied": 1772,
      "act": 1773,
      "▁exc": 1774,
      "▁souvent": 1775,
      "▁popul": 1776,
      "▁dernière": 1777,
      "▁minutes": 1778,
      "▁équi": 1779,
      "endu": 1780,
      "nov": 1781,
      "▁design": 1782,
      "onom": 1783,
      "▁droit": 1784,
      "▁spécialis": 1785,
      "▁maintenant": 1786,
      "tenu": 1787,
      "▁type": 1788,
      "éh": 1789,
      "▁mot": 1790,
      "▁péri": 1791,
      "entif": 1792,
      "tent": 1793,
      "▁restaur": 1794,
      "▁article": 1795,
      "▁prob": 1796,
      "▁ta": 1797,
      "▁culture": 1798,
      "▁tex": 1799,
      "èg": 1800,
      "▁gouver": 1801,
      "▁ress": 1802,
      "▁change": 1803,
      "ru": 1804,
      "--": 1805,
      "erie": 1806,
      "itaire": 1807,
      "▁appel": 1808,
      "istes": 1809,
      "▁laiss": 1810,
      "▁livre": 1811,
      "▁ri": 1812,
      "iance": 1813,
      "▁forme": 1814,
      "▁lorsque": 1815,
      "▁travaill": 1816,
      "▁rempl": 1817,
      "once": 1818,
      "▁vic": 1819,
      "▁compé": 1820,
      "▁vraiment": 1821,
      "oti": 1822,
      "▁concern": 1823,
      "▁base": 1824,
      "▁mars": 1825,
      "rain": 1826,
      "▁voici": 1827,
      "éric": 1828,
      "ément": 1829,
      "▁cir": 1830,
      "▁dist": 1831,
      "▁dépl": 1832,
      "▁cam": 1833,
      "▁regard": 1834,
      "▁bal": 1835,
      "icile": 1836,
      "▁mess": 1837,
      "▁test": 1838,
      "▁new": 1839,
      "▁jard": 1840,
      "vé": 1841,
      "▁haut": 1842,
      "▁nav": 1843,
      "▁jan": 1844,
      "duc": 1845,
      "tim": 1846,
      "ctions": 1847,
      "▁sujet": 1848,
      "▁idé": 1849,
      "ienne": 1850,
      "▁aider": 1851,
      "▁font": 1852,
      "orter": 1853,
      "▁gé": 1854,
      "▁particuli": 1855,
      "▁orig": 1856,
      "ry": 1857,
      "ed": 1858,
      "▁imm": 1859,
      "▁chambre": 1860,
      "▁confort": 1861,
      "▁éch": 1862,
      "aisir": 1863,
      "rière": 1864,
      "▁frais": 1865,
      "▁passe": 1866,
      "▁améli": 1867,
      "▁cro": 1868,
      "▁install": 1869,
      "▁déclar": 1870,
      "gré": 1871,
      "abilité": 1872,
      "▁hy": 1873,
      "▁vari": 1874,
      "aleur": 1875,
      "▁mor": 1876,
      "▁conseil": 1877,
      "▁lum": 1878,
      "▁meu": 1879,
      "▁rencontres": 1880,
      "▁photo": 1881,
      "ordin": 1882,
      "iser": 1883,
      "▁lu": 1884,
      "▁tri": 1885,
      "▁plate": 1886,
      "rou": 1887,
      "▁surtout": 1888,
      "▁passer": 1889,
      "▁entreprise": 1890,
      "//": 1891,
      "▁25": 1892,
      "ression": 1893,
      "▁bel": 1894,
      "▁...": 1895,
      "▁exemple": 1896,
      "arm": 1897,
      "▁élé": 1898,
      "tisse": 1899,
      "▁rapport": 1900,
      "▁livrais": 1901,
      "yn": 1902,
      "▁découvrez": 1903,
      "çu": 1904,
      "▁carte": 1905,
      "vier": 1906,
      "▁2020": 1907,
      "▁vue": 1908,
      "▁crois": 1909,
      "▁date": 1910,
      "▁juin": 1911,
      "oins": 1912,
      "▁puiss": 1913,
      "▁septe": 1914,
      "▁millions": 1915,
      "▁mai": 1916,
      "ument": 1917,
      "suite": 1918,
      "▁heure": 1919,
      "▁fi": 1920,
      "oth": 1921,
      "▁expérience": 1922,
      "opé": 1923,
      "▁000": 1924,
      "▁sites": 1925,
      "://": 1926,
      "▁mode": 1927,
      "▁cm": 1928,
      "▁transp": 1929,
      "▁rem": 1930,
      "▁vente": 1931,
      "▁parce": 1932,
      "▁couleurs": 1933,
      "▁entreprises": 1934,
      "▁moyen": 1935,
      "▁autour": 1936,
      "▁nouveaux": 1937,
      "▁visite": 1938,
      "▁disc": 1939,
      "▁mi": 1940,
      "était": 1941,
      "▁vill": 1942,
      "unis": 1943,
      "▁effic": 1944,
      "▁septembre": 1945,
      "▁pap": 1946,
      "mbl": 1947,
      "▁recomm": 1948,
      "▁autom": 1949,
      "▁destin": 1950,
      "▁conv": 1951,
      "agner": 1952,
      "vée": 1953,
      "entreprise": 1954,
      "gment": 1955,
      "▁2019": 1956,
      "bilité": 1957,
      "iller": 1958,
      "▁garanti": 1959,
      "▁prote": 1960,
      "▁client": 1961,
      "▁feu": 1962,
      "▁celle": 1963,
      "ume": 1964,
      "▁quoti": 1965,
      "▁juste": 1966,
      "▁tourn": 1967,
      "medi": 1968,
      "▁but": 1969,
      "▁commenc": 1970,
      "▁ly": 1971,
      "▁manière": 1972,
      "▁politique": 1973,
      "▁blanc": 1974,
      "▁taille": 1975,
      "équ": 1976,
      "▁quotidi": 1977,
      "▁charge": 1978,
      "▁collec": 1979,
      "mment": 1980,
      "roid": 1981,
      "issez": 1982,
      "▁trouv": 1983,
      "▁prév": 1984,
      "▁mach": 1985,
      "aud": 1986,
      "▁livraison": 1987,
      "▁oct": 1988,
      "fs": 1989,
      "▁jo": 1990,
      "▁%": 1991,
      "ril": 1992,
      "erne": 1993,
      "▁fut": 1994,
      "▁donner": 1995,
      "activ": 1996,
      "▁divers": 1997,
      "eff": 1998,
      "▁réc": 1999,
      "▁mesure": 2000,
      "▁conditions": 2001,
      "▁bat": 2002,
      "▁cherche": 2003,
      "▁pratique": 2004,
      "▁aucun": 2005,
      "▁pens": 2006,
      "▁propre": 2007,
      "iff": 2008,
      "▁choisir": 2009,
      "▁façon": 2010,
      "péra": 2011,
      "▁ay": 2012,
      "▁consi": 2013,
      "▁htt": 2014,
      "▁donne": 2015,
      "▁corps": 2016,
      "lo": 2017,
      "▁version": 2018,
      "cre": 2019,
      "âte": 2020,
      "né": 2021,
      "▁lanc": 2022,
      "▁petits": 2023,
      "▁raison": 2024,
      "utions": 2025,
      "▁situation": 2026,
      "iciel": 2027,
      "agit": 2028,
      "▁50": 2029,
      "obre": 2030,
      "▁memb": 2031,
      "▁pier": 2032,
      "œur": 2033,
      "avoir": 2034,
      "!!": 2035,
      "▁travaux": 2036,
      "▁outil": 2037,
      "▁noir": 2038,
      "▁différentes": 2039,
      "raî": 2040,
      "did": 2041,
      "atre": 2042,
      "▁ban": 2043,
      "▁ensuite": 2044,
      "▁europé": 2045,
      "▁plaisir": 2046,
      "ouverture": 2047,
      "▁sac": 2048,
      "▁création": 2049,
      "▁connaiss": 2050,
      "iver": 2051,
      "oyer": 2052,
      "ige": 2053,
      "▁facile": 2054,
      "ug": 2055,
      "▁sim": 2056,
      "▁projets": 2057,
      "▁janvier": 2058,
      "▁chose": 2059,
      "▁bure": 2060,
      "▁ques": 2061,
      "▁pied": 2062,
      "▁jardin": 2063,
      "▁particip": 2064,
      "son": 2065,
      "▁sû": 2066,
      "tiss": 2067,
      "▁représent": 2068,
      "▁stra": 2069,
      "inc": 2070,
      "aître": 2071,
      "▁siè": 2072,
      "▁samedi": 2073,
      "▁commerci": 2074,
      "▁nombreuses": 2075,
      "▁2018": 2076,
      "aide": 2077,
      "reg": 2078,
      "▁norm": 2079,
      "▁anci": 2080,
      "oun": 2081,
      "cessi": 2082,
      "ision": 2083,
      "▁sci": 2084,
      "▁cy": 2085,
      "dess": 2086,
      "sique": 2087,
      "hés": 2088,
      "▁réserv": 2089,
      "▁vendredi": 2090,
      "éro": 2091,
      "▁règ": 2092,
      "▁ton": 2093,
      "avant": 2094,
      "▁emp": 2095,
      "clus": 2096,
      "▁questions": 2097,
      "▁enfin": 2098,
      "▁souh": 2099,
      "ides": 2100,
      "▁médi": 2101,
      "acité": 2102,
      "histoire": 2103,
      "▁syn": 2104,
      "▁21": 2105,
      "▁sus": 2106,
      "▁thé": 2107,
      "▁cri": 2108,
      "▁activités": 2109,
      "▁vér": 2110,
      "▁points": 2111,
      "▁disponibles": 2112,
      "▁besoins": 2113,
      "▁titre": 2114,
      "▁fo": 2115,
      "▁end": 2116,
      "inst": 2117,
      "inf": 2118,
      "▁objec": 2119,
      "▁mic": 2120,
      "▁important": 2121,
      "▁prépar": 2122,
      "▁reconn": 2123,
      "autre": 2124,
      "▁nove": 2125,
      "▁el": 2126,
      "aly": 2127,
      "▁devant": 2128,
      "▁perform": 2129,
      "▁pourrait": 2130,
      "▁vac": 2131,
      "ino": 2132,
      "▁réseau": 2133,
      "ses": 2134,
      "rés": 2135,
      "▁vu": 2136,
      "▁gouvernement": 2137,
      "ensemble": 2138,
      "obil": 2139,
      "alisation": 2140,
      "▁utiliser": 2141,
      "utilisation": 2142,
      "nous": 2143,
      "▁quoi": 2144,
      "▁membres": 2145,
      "▁parmi": 2146,
      "▁origin": 2147,
      "ones": 2148,
      "▁anti": 2149,
      "▁rece": 2150,
      "▁partici": 2151,
      "▁musique": 2152,
      "▁professionnels": 2153,
      "▁fle": 2154,
      "olution": 2155,
      "aul": 2156,
      "val": 2157,
      "\".": 2158,
      "▁souhait": 2159,
      "▁sais": 2160,
      "▁déce": 2161,
      "istra": 2162,
      "▁match": 2163,
      "▁+": 2164,
      "▁pal": 2165,
      "▁conseils": 2166,
      "éré": 2167,
      "book": 2168,
      "occasion": 2169,
      "▁emb": 2170,
      "urg": 2171,
      "▁collection": 2172,
      "temps": 2173,
      "▁collab": 2174,
      "▁lundi": 2175,
      "ël": 2176,
      "▁novembre": 2177,
      "acement": 2178,
      "▁chr": 2179,
      "▁couleur": 2180,
      "▁rue": 2181,
      "▁etc": 2182,
      "▁lang": 2183,
      "▁octobre": 2184,
      "pa": 2185,
      "▁rendez": 2186,
      "▁promo": 2187,
      "▁2021": 2188,
      "▁san": 2189,
      "12": 2190,
      "empl": 2191,
      "hom": 2192,
      "oses": 2193,
      "cr": 2194,
      "▁modi": 2195,
      "▁tête": 2196,
      "▁faites": 2197,
      "▁gal": 2198,
      "lais": 2199,
      "▁stock": 2200,
      "rant": 2201,
      "▁suff": 2202,
      "▁dimanche": 2203,
      "▁bâ": 2204,
      "▁multi": 2205,
      "érique": 2206,
      "▁haute": 2207,
      "▁grands": 2208,
      "▁hommes": 2209,
      "join": 2210,
      "▁quatre": 2211,
      "▁conte": 2212,
      "ki": 2213,
      "▁2017": 2214,
      "▁assur": 2215,
      "▁code": 2216,
      "▁mac": 2217,
      "▁détail": 2218,
      "ètres": 2219,
      "▁rév": 2220,
      "▁répon": 2221,
      "▁sud": 2222,
      "▁22": 2223,
      "▁pot": 2224,
      "lus": 2225,
      "▁effectu": 2226,
      "▁commande": 2227,
      "enir": 2228,
      "▁senti": 2229,
      "▁prov": 2230,
      "▁you": 2231,
      "▁chac": 2232,
      "▁production": 2233,
      "▁tend": 2234,
      "▁vou": 2235,
      "itions": 2236,
      "usement": 2237,
      "éhic": 2238,
      "▁démar": 2239,
      "▁ensemble": 2240,
      "▁articles": 2241,
      "▁réun": 2242,
      "▁chem": 2243,
      "▁souhaitez": 2244,
      ":||": 2245,
      "▁voiture": 2246,
      "▁expl": 2247,
      "▁meilleurs": 2248,
      "▁liste": 2249,
      "▁air": 2250,
      "▁consul": 2251,
      "▁secteur": 2252,
      "▁chamb": 2253,
      "▁véhic": 2254,
      "ouverte": 2255,
      "ek": 2256,
      "▁consid": 2257,
      "▁ro": 2258,
      "▁arr": 2259,
      "▁ministre": 2260,
      "▁mondi": 2261,
      "▁opéra": 2262,
      "▁nu": 2263,
      "▁sein": 2264,
      "▁défin": 2265,
      "▁large": 2266,
      "▁nuit": 2267,
      "▁gamme": 2268,
      "▁rapidement": 2269,
      "ensi": 2270,
      "rig": 2271,
      "▁compagn": 2272,
      "isation": 2273,
      "▁décembre": 2274,
      "▁via": 2275,
      "▁vient": 2276,
      "ma": 2277,
      "▁plein": 2278,
      "▁améric": 2279,
      "▁sexe": 2280,
      "entiel": 2281,
      "▁général": 2282,
      "▁â": 2283,
      "▁personnel": 2284,
      "▁temp": 2285,
      "ft": 2286,
      "▁juillet": 2287,
      "vention": 2288,
      "▁candid": 2289,
      "▁neu": 2290,
      "onde": 2291,
      "ologique": 2292,
      "ards": 2293,
      "▁montre": 2294,
      "▁style": 2295,
      "▁sav": 2296,
      "▁protection": 2297,
      "▁probl": 2298,
      "ck": 2299,
      "▁complè": 2300,
      "▁pou": 2301,
      "▁contact": 2302,
      "▁élect": 2303,
      "▁étudi": 2304,
      "quel": 2305,
      "no": 2306,
      "▁meilleure": 2307,
      "▁eux": 2308,
      "▁matin": 2309,
      "▁longue": 2310,
      "isez": 2311,
      "▁pren": 2312,
      "▁domaine": 2313,
      "▁modèle": 2314,
      "ly": 2315,
      "▁fre": 2316,
      "fier": 2317,
      "eng": 2318,
      "▁quar": 2319,
      "▁assez": 2320,
      "▁problème": 2321,
      "▁cœur": 2322,
      "▁mél": 2323,
      "ive": 2324,
      "ète": 2325,
      "ave": 2326,
      "▁pense": 2327,
      "▁jouer": 2328,
      "▁prend": 2329,
      "▁2022": 2330,
      "iement": 2331,
      "▁particulier": 2332,
      "▁terre": 2333,
      "oure": 2334,
      "tro": 2335,
      "▁direct": 2336,
      "▁technique": 2337,
      "▁avril": 2338,
      "▁serait": 2339,
      "▁auprès": 2340,
      "ivent": 2341,
      "▁navig": 2342,
      "▁constitu": 2343,
      "oque": 2344,
      "▁amb": 2345,
      "▁rendre": 2346,
      "ministra": 2347,
      "▁source": 2348,
      "▁fav": 2349,
      "▁maj": 2350,
      "▁solution": 2351,
      "▁spect": 2352,
      "quant": 2353,
      "organis": 2354,
      "ht": 2355,
      "ith": 2356,
      "▁décid": 2357,
      "heure": 2358,
      "▁voul": 2359,
      "intérieur": 2360,
      "ze": 2361,
      "▁esc": 2362,
      "▁œu": 2363,
      "▁obtenir": 2364,
      "▁vacances": 2365,
      "▁fille": 2366,
      "▁dég": 2367,
      "▁maî": 2368,
      "▁dernières": 2369,
      "▁af": 2370,
      "▁matière": 2371,
      "▁chef": 2372,
      "▁rac": 2373,
      "▁classe": 2374,
      "▁ve": 2375,
      "▁chauff": 2376,
      "▁red": 2377,
      "orme": 2378,
      "ox": 2379,
      "pendant": 2380,
      "▁espace": 2381,
      "ows": 2382,
      "▁pièces": 2383,
      "▁prise": 2384,
      "iner": 2385,
      "▁lien": 2386,
      "▁présente": 2387,
      "▁nord": 2388,
      "▁peau": 2389,
      "▁territ": 2390,
      "lem": 2391,
      "▁plu": 2392,
      "▁univers": 2393,
      "▁carac": 2394,
      "atis": 2395,
      "▁quotidien": 2396,
      "▁télécharger": 2397,
      "uelle": 2398,
      "▁financi": 2399,
      "▁médic": 2400,
      "▁cre": 2401,
      "▁fév": 2402,
      "hôtel": 2403,
      "enf": 2404,
      "indre": 2405,
      "onnes": 2406,
      "associ": 2407,
      "▁magn": 2408,
      "▁pourrez": 2409,
      "▁aller": 2410,
      "▁lou": 2411,
      "▁réaliser": 2412,
      "▁parfa": 2413,
      "▁certaines": 2414,
      "▁stratég": 2415,
      "▁cependant": 2416,
      "ouse": 2417,
      "ablement": 2418,
      "▁bre": 2419,
      "▁intéress": 2420,
      "cteur": 2421,
      "▁viol": 2422,
      "▁annonc": 2423,
      "▁salon": 2424,
      "▁gens": 2425,
      "▁loin": 2426,
      "exp": 2427,
      "▁agré": 2428,
      "ible": 2429,
      "▁km": 2430,
      "▁professionnel": 2431,
      "▁simplement": 2432,
      "▁vir": 2433,
      "▁inves": 2434,
      "ailleurs": 2435,
      "▁ayant": 2436,
      "éch": 2437,
      "èmes": 2438,
      "tées": 2439,
      "médi": 2440,
      "pt": 2441,
      "▁poste": 2442,
      "ice": 2443,
      "tives": 2444,
      "▁magas": 2445,
      "▁passé": 2446,
      "▁joueurs": 2447,
      "▁gay": 2448,
      "he": 2449,
      "▁util": 2450,
      "ids": 2451,
      "▁consomm": 2452,
      "ouss": 2453,
      "aisse": 2454,
      "▁dra": 2455,
      "▁atte": 2456,
      "▁établ": 2457,
      "erm": 2458,
      "▁fort": 2459,
      "▁bureau": 2460,
      "isé": 2461,
      "▁partager": 2462,
      "forme": 2463,
      "▁chambres": 2464,
      "▁fonctionn": 2465,
      "▁augment": 2466,
      "ip": 2467,
      "▁succ": 2468,
      "▁23": 2469,
      "ape": 2470,
      "▁rend": 2471,
      "▁caractér": 2472,
      "tient": 2473,
      "ionn": 2474,
      "atives": 2475,
      "vers": 2476,
      "▁abs": 2477,
      "king": 2478,
      "▁nett": 2479,
      "▁hist": 2480,
      "▁pati": 2481,
      "▁méth": 2482,
      "quez": 2483,
      "▁résultats": 2484,
      "18": 2485,
      "▁jeudi": 2486,
      "▁solutions": 2487,
      "▁profiter": 2488,
      "▁vivre": 2489,
      "▁dr": 2490,
      "▁ble": 2491,
      "▁amis": 2492,
      "▁mercre": 2493,
      "▁période": 2494,
      "▁aide": 2495,
      "▁concernant": 2496,
      "▁février": 2497,
      "▁bord": 2498,
      "état": 2499,
      "▁pom": 2500,
      "▁pierre": 2501,
      "▁plut": 2502,
      "▁devrait": 2503,
      "▁stru": 2504,
      "▁gard": 2505,
      "▁sport": 2506,
      "▁évé": 2507,
      "urb": 2508,
      "ast": 2509,
      "▁tradition": 2510,
      "▁dir": 2511,
      "▁réser": 2512,
      "▁cause": 2513,
      "▁fes": 2514,
      "▁histoire": 2515,
      "▁contrib": 2516,
      "ourg": 2517,
      "▁excell": 2518,
      "univers": 2519,
      "▁bénéfic": 2520,
      "▁permettre": 2521,
      "argent": 2522,
      "ych": 2523,
      "▁tarif": 2524,
      "▁départ": 2525,
      "▁franc": 2526,
      "▁répondre": 2527,
      "▁surf": 2528,
      "▁*": 2529,
      "▁suivre": 2530,
      "▁quelque": 2531,
      "▁loi": 2532,
      "▁sup": 2533,
      "▁pourra": 2534,
      "▁cook": 2535,
      "▁•": 2536,
      "uli": 2537,
      "▁ho": 2538,
      "▁images": 2539,
      "ax": 2540,
      "oût": 2541,
      "▁bra": 2542,
      "ormais": 2543,
      "tern": 2544,
      "▁fix": 2545,
      "▁my": 2546,
      "▁département": 2547,
      "▁blog": 2548,
      "▁phy": 2549,
      "ié": 2550,
      "▁techniques": 2551,
      "ots": 2552,
      "▁cade": 2553,
      "▁mardi": 2554,
      "même": 2555,
      "▁chat": 2556,
      "▁nationale": 2557,
      "▁deuxième": 2558,
      "▁française": 2559,
      "▁sortie": 2560,
      "élè": 2561,
      "11": 2562,
      "cer": 2563,
      "▁rê": 2564,
      "prit": 2565,
      "▁euros": 2566,
      "uy": 2567,
      "▁aura": 2568,
      "▁pil": 2569,
      "envir": 2570,
      "▁second": 2571,
      "atoire": 2572,
      "resp": 2573,
      "▁nécessaire": 2574,
      "▁personnalis": 2575,
      "orig": 2576,
      "▁choses": 2577,
      "▁top": 2578,
      "▁recommand": 2579,
      "istiques": 2580,
      "▁désormais": 2581,
      "▁éner": 2582,
      "▁appare": 2583,
      "▁construction": 2584,
      "tiers": 2585,
      "▁mercredi": 2586,
      "▁propriét": 2587,
      "ash": 2588,
      "dg": 2589,
      "èles": 2590,
      "▁vide": 2591,
      "▁exper": 2592,
      "▁2016": 2593,
      "▁téléphone": 2594,
      "▁ol": 2595,
      "▁poursu": 2596,
      "égor": 2597,
      "▁aliment": 2598,
      "enn": 2599,
      "▁fich": 2600,
      "ustr": 2601,
      "▁jol": 2602,
      "▁faci": 2603,
      "▁music": 2604,
      "▁2023": 2605,
      "▁deven": 2606,
      "oise": 2607,
      "rim": 2608,
      "▁durant": 2609,
      "dio": 2610,
      "▁valeur": 2611,
      "▁publié": 2612,
      "▁direction": 2613,
      "▁ir": 2614,
      "▁offres": 2615,
      "time": 2616,
      "▁const": 2617,
      "▁résid": 2618,
      "ué": 2619,
      "▁veut": 2620,
      "artic": 2621,
      "▁directement": 2622,
      "▁plutôt": 2623,
      "▁dossi": 2624,
      "▁alb": 2625,
      "▁situé": 2626,
      "ates": 2627,
      "▁40": 2628,
      "▁communication": 2629,
      "ros": 2630,
      "arch": 2631,
      "we": 2632,
      "▁quelle": 2633,
      "aï": 2634,
      "▁spor": 2635,
      "▁durée": 2636,
      "▁cab": 2637,
      "▁confiance": 2638,
      "▁oui": 2639,
      "▁contrôle": 2640,
      "▁accep": 2641,
      "▁condu": 2642,
      "dec": 2643,
      "▁connec": 2644,
      "▁bonjour": 2645,
      "▁semble": 2646,
      "▁fig": 2647,
      "▁relation": 2648,
      "uide": 2649,
      "▁intég": 2650,
      "ars": 2651,
      "▁description": 2652,
      "part": 2653,
      "▁qual": 2654,
      "▁immobil": 2655,
      "▁réponse": 2656,
      "veux": 2657,
      "▁vérit": 2658,
      "▁doivent": 2659,
      "▁libre": 2660,
      "▁prest": 2661,
      "▁étaient": 2662,
      "▁confir": 2663,
      "▁satis": 2664,
      "15": 2665,
      "cel": 2666,
      "andes": 2667,
      "▁satisf": 2668,
      "▁…": 2669,
      "auté": 2670,
      "ulaire": 2671,
      "▁national": 2672,
      "▁fré": 2673,
      "▁procéd": 2674,
      "▁plac": 2675,
      "▁enfant": 2676,
      "▁hor": 2677,
      "igue": 2678,
      "▁parfois": 2679,
      "▁rôle": 2680,
      "▁enti": 2681,
      "▁respec": 2682,
      "indows": 2683,
      "▁clim": 2684,
      "quelle": 2685,
      "▁hôtel": 2686,
      "▁devez": 2687,
      "▁bâti": 2688,
      "▁let": 2689,
      "▁fabric": 2690,
      "▁maxim": 2691,
      "▁expos": 2692,
      "▁contenu": 2693,
      "▁lab": 2694,
      "▁sociaux": 2695,
      "eaux": 2696,
      "association": 2697,
      "install": 2698,
      "▁facilement": 2699,
      "▁process": 2700,
      "▁psych": 2701,
      "▁déclaré": 2702,
      "▁accès": 2703,
      "▁extra": 2704,
      "▁sûr": 2705,
      "▁caf": 2706,
      "ote": 2707,
      "▁rouge": 2708,
      "▁#": 2709,
      "▁nég": 2710,
      "chés": 2711,
      "▁catégor": 2712,
      "▁ate": 2713,
      "▁chacun": 2714,
      "achat": 2715,
      "onie": 2716,
      "▁vont": 2717,
      "▁véri": 2718,
      "entrée": 2719,
      "ada": 2720,
      "cier": 2721,
      "▁aucune": 2722,
      "▁traitement": 2723,
      "onomie": 2724,
      "▁aim": 2725,
      "▁intér": 2726,
      "étu": 2727,
      "▁clas": 2728,
      "ension": 2729,
      "ium": 2730,
      "▁gratuitement": 2731,
      "▁poss": 2732,
      "▁coupe": 2733,
      "▁acheter": 2734,
      "▁initi": 2735,
      "▁mouve": 2736,
      "▁seule": 2737,
      "▁tal": 2738,
      "▁possibilité": 2739,
      "vie": 2740,
      "▁tom": 2741,
      "▁route": 2742,
      "ville": 2743,
      "▁'": 2744,
      "▁parler": 2745,
      "ennes": 2746,
      "▁directeur": 2747,
      "▁tent": 2748,
      "▁mort": 2749,
      "▁essay": 2750,
      "▁attention": 2751,
      "▁pièce": 2752,
      "▁mun": 2753,
      "lin": 2754,
      "▁contacter": 2755,
      "▁pisc": 2756,
      "▁laquelle": 2757,
      "▁retrouver": 2758,
      "▁semaines": 2759,
      "▁environ": 2760,
      "▁oblig": 2761,
      "▁vin": 2762,
      "▁autant": 2763,
      "oo": 2764,
      "▁mass": 2765,
      "▁parfait": 2766,
      "17": 2767,
      "aque": 2768,
      "▁compéten": 2769,
      "▁existe": 2770,
      "▁accord": 2771,
      "▁cra": 2772,
      "▁idéal": 2773,
      "▁prog": 2774,
      "▁termin": 2775,
      "▁spectac": 2776,
      "▁div": 2777,
      "▁retra": 2778,
      "▁cop": 2779,
      "issant": 2780,
      "▁terrain": 2781,
      "orité": 2782,
      "▁aj": 2783,
      "aît": 2784,
      "▁chauss": 2785,
      "veur": 2786,
      "▁électr": 2787,
      "▁venir": 2788,
      "arri": 2789,
      "▁minim": 2790,
      "▁bus": 2791,
      "ousse": 2792,
      "▁reven": 2793,
      "▁renfor": 2794,
      "oss": 2795,
      "▁derniers": 2796,
      "itter": 2797,
      "érer": 2798,
      "▁cookies": 2799,
      "▁diffus": 2800,
      "▁communi": 2801,
      "ules": 2802,
      "ase": 2803,
      "▁droits": 2804,
      "▁toi": 2805,
      "ogle": 2806,
      "nements": 2807,
      "▁supplément": 2808,
      "vision": 2809,
      "▁appré": 2810,
      "quis": 2811,
      "respond": 2812,
      "oré": 2813,
      "zz": 2814,
      "itaires": 2815,
      "▁prochain": 2816,
      "expéri": 2817,
      "▁actuellement": 2818,
      "vement": 2819,
      "▁ul": 2820,
      "▁grandes": 2821,
      "oll": 2822,
      "▁28": 2823,
      "▁gratuite": 2824,
      "▁diffic": 2825,
      "▁individ": 2826,
      "ède": 2827,
      "▁correspond": 2828,
      "▁access": 2829,
      "hum": 2830,
      "hy": 2831,
      "▁zone": 2832,
      "▁26": 2833,
      "ork": 2834,
      "▁soutien": 2835,
      "org": 2836,
      "rance": 2837,
      "▁succès": 2838,
      "onique": 2839,
      "iennent": 2840,
      "▁mobil": 2841,
      "▁cos": 2842,
      "▁voil": 2843,
      "tor": 2844,
      "▁bain": 2845,
      "▁location": 2846,
      "▁appro": 2847,
      "ulation": 2848,
      "▁presse": 2849,
      "▁transform": 2850,
      "▁réseaux": 2851,
      "▁permis": 2852,
      "tine": 2853,
      "ission": 2854,
      "▁disposition": 2855,
      "arr": 2856,
      "▁laisser": 2857,
      "auv": 2858,
      "▁suivi": 2859,
      "ergie": 2860,
      "▁27": 2861,
      "▁lut": 2862,
      "▁août": 2863,
      "homme": 2864,
      "▁vite": 2865,
      "roit": 2866,
      "▁sil": 2867,
      "▁malgré": 2868,
      "tir": 2869,
      "tile": 2870,
      "amour": 2871,
      "▁étant": 2872,
      "▁partage": 2873,
      "▁respect": 2874,
      "quent": 2875,
      "▁douce": 2876,
      "▁roy": 2877,
      "ancement": 2878,
      "▁rais": 2879,
      "▁scène": 2880,
      "▁sole": 2881,
      "ud": 2882,
      "▁communauté": 2883,
      "lèmes": 2884,
      "▁proposer": 2885,
      "lications": 2886,
      "▁séjour": 2887,
      "oute": 2888,
      "illez": 2889,
      "▁répar": 2890,
      "▁complet": 2891,
      "▁google": 2892,
      "▁commentaires": 2893,
      "▁responsable": 2894,
      "▁bro": 2895,
      "ta": 2896,
      "▁ressour": 2897,
      "▁rappel": 2898,
      "ick": 2899,
      "▁symp": 2900,
      "ades": 2901,
      "▁travailler": 2902,
      "▁bout": 2903,
      "▁stu": 2904,
      "inement": 2905,
      "▁mur": 2906,
      "▁problèmes": 2907,
      "▁ap": 2908,
      "iné": 2909,
      "▁serr": 2910,
      "▁cinq": 2911,
      "novation": 2912,
      "▁casino": 2913,
      "▁ordin": 2914,
      "▁environnement": 2915,
      "▁meilleures": 2916,
      "usse": 2917,
      "▁éléments": 2918,
      "▁processus": 2919,
      "▁mich": 2920,
      "▁numéro": 2921,
      "rons": 2922,
      "▁document": 2923,
      "alog": 2924,
      "ustri": 2925,
      "▁ben": 2926,
      "▁proté": 2927,
      "▁tard": 2928,
      "▁2015": 2929,
      "istance": 2930,
      "▁foot": 2931,
      "▁efficace": 2932,
      "▁annonce": 2933,
      "▁médec": 2934,
      "▁risque": 2935,
      "quée": 2936,
      "▁week": 2937,
      "▁liber": 2938,
      "▁modèles": 2939,
      "▁fabri": 2940,
      "▁mariage": 2941,
      "▁logiciel": 2942,
      "▁photograph": 2943,
      "▁commune": 2944,
      "quet": 2945,
      "▁mission": 2946,
      "expl": 2947,
      "▁post": 2948,
      "sur": 2949,
      "▁attend": 2950,
      "▁adapt": 2951,
      "tival": 2952,
      "▁enreg": 2953,
      "▁parents": 2954,
      "abord": 2955,
      "tissement": 2956,
      "▁jur": 2957,
      "▁changer": 2958,
      "uve": 2959,
      "origine": 2960,
      "▁ha": 2961,
      "▁envie": 2962,
      "information": 2963,
      "16": 2964,
      "▁position": 2965,
      "▁prochaine": 2966,
      "▁élè": 2967,
      "▁outils": 2968,
      "▁distrib": 2969,
      "▁soleil": 2970,
      "▁petites": 2971,
      "▁arch": 2972,
      "▁ouvert": 2973,
      "▁mots": 2974,
      "▁certif": 2975,
      "▁choc": 2976,
      "étique": 2977,
      "▁terme": 2978,
      "▁stre": 2979,
      "▁signif": 2980,
      "▁bons": 2981,
      ",5": 2982,
      "▁magnif": 2983,
      "▁référence": 2984,
      "www": 2985,
      "▁paiement": 2986,
      "▁détails": 2987,
      "ds": 2988,
      "▁utilisé": 2989,
      "▁comprendre": 2990,
      "▁devenir": 2991,
      "▁chemin": 2992,
      "▁québ": 2993,
      "▁accompagn": 2994,
      "▁gagner": 2995,
      "cup": 2996,
      "▁compar": 2997,
      "▁réussi": 2998,
      "▁vidéos": 2999,
      "▁del": 3000,
      "école": 3001,
      "▁économique": 3002,
      "hésitez": 3003,
      "▁trouverez": 3004,
      "▁tv": 3005,
      "▁tém": 3006,
      "▁chiff": 3007,
      "anim": 3008,
      "ball": 3009,
      "▁force": 3010,
      "orde": 3011,
      "▁soirée": 3012,
      "▁difficile": 3013,
      "▁dig": 3014,
      "accès": 3015,
      "▁milieu": 3016,
      "14": 3017,
      "▁proxim": 3018,
      "▁199": 3019,
      "▁béb": 3020,
      "▁ment": 3021,
      "▁état": 3022,
      "▁voulez": 3023,
      "activité": 3024,
      "▁cheveux": 3025,
      "▁fou": 3026,
      "ber": 3027,
      "▁souff": 3028,
      "df": 3029,
      "après": 3030,
      "▁objet": 3031,
      "▁double": 3032,
      "▁aime": 3033,
      "▁réguli": 3034,
      "▁opp": 3035,
      "▁ajouter": 3036,
      "ueil": 3037,
      "▁taux": 3038,
      "nel": 3039,
      "▁aurait": 3040,
      "▁allez": 3041,
      "▁facebook": 3042,
      "espace": 3043,
      "ynam": 3044,
      "io": 3045,
      "▁contrat": 3046,
      "▁pein": 3047,
      "▁meubles": 3048,
      "▁commencer": 3049,
      "▁idées": 3050,
      "▁60": 3051,
      "▁lux": 3052,
      "ana": 3053,
      "▁guide": 3054,
      "▁mobile": 3055,
      "▁vrai": 3056,
      "▁lecture": 3057,
      "1.": 3058,
      "▁passionn": 3059,
      "odes": 3060,
      "ende": 3061,
      "▁sensi": 3062,
      "▁présence": 3063,
      "hô": 3064,
      "êts": 3065,
      "▁wh": 3066,
      "▁capit": 3067,
      "▁radi": 3068,
      "aime": 3069,
      "▁message": 3070,
      "▁piscine": 3071,
      "▁lieux": 3072,
      "▁assure": 3073,
      "▁restaurant": 3074,
      "▁livres": 3075,
      "car": 3076,
      "▁er": 3077,
      "▁permettant": 3078,
      "▁lumière": 3079,
      "▁29": 3080,
      "appr": 3081,
      "ivre": 3082,
      "▁lorsqu": 3083,
      "▁écrit": 3084,
      "▁ge": 3085,
      "▁insp": 3086,
      "abil": 3087,
      "ka": 3088,
      "▁soins": 3089,
      "ordre": 3090,
      "▁parcours": 3091,
      "▁industri": 3092,
      "▁support": 3093,
      "▁guerre": 3094,
      "application": 3095,
      "▁développer": 3096,
      "▁hotel": 3097,
      "érap": 3098,
      "▁véritable": 3099,
      "▁types": 3100,
      "▁couv": 3101,
      "▁compris": 3102,
      "▁préparation": 3103,
      "pro": 3104,
      "▁essenti": 3105,
      "▁proximité": 3106,
      "duction": 3107,
      "▁équipes": 3108,
      "sh": 3109,
      "aissance": 3110,
      "▁four": 3111,
      "▁genre": 3112,
      "tivement": 3113,
      "emploi": 3114,
      "der": 3115,
      "otte": 3116,
      "2.": 3117,
      "▁compagnie": 3118,
      "▁graph": 3119,
      "▁festival": 3120,
      "ple": 3121,
      "▁proche": 3122,
      "▁pratiques": 3123,
      "mart": 3124,
      "▁spécif": 3125,
      "▁cliquez": 3126,
      "illeurs": 3127,
      "▁partenaires": 3128,
      "▁poly": 3129,
      "▁offrir": 3130,
      "▁compétences": 3131,
      "▁poids": 3132,
      "▁mad": 3133,
      "fois": 3134,
      "▁pourtant": 3135,
      "▁email": 3136,
      "cs": 3137,
      "▁social": 3138,
      "▁minist": 3139,
      "▁donné": 3140,
      "dessous": 3141,
      "▁https": 3142,
      "bil": 3143,
      "▁dédi": 3144,
      "▁annoncé": 3145,
      "▁transport": 3146,
      "▁dol": 3147,
      "inte": 3148,
      "▁délic": 3149,
      "▁gaz": 3150,
      "▁windows": 3151,
      "▁activité": 3152,
      "▁généralement": 3153,
      "▁rejoin": 3154,
      "énergie": 3155,
      "ina": 3156,
      "auche": 3157,
      "▁group": 3158,
      "▁manif": 3159,
      "rimer": 3160,
      "ample": 3161,
      "▁noël": 3162,
      "▁équ": 3163,
      "aliser": 3164,
      "▁yeux": 3165,
      "▁sch": 3166,
      "éder": 3167,
      "article": 3168,
      "▁prêt": 3169,
      "▁mesures": 3170,
      "▁mam": 3171,
      "▁décidé": 3172,
      "24": 3173,
      "13": 3174,
      "gar": 3175,
      "▁impos": 3176,
      "ude": 3177,
      "▁hors": 3178,
      "60": 3179,
      "▁tels": 3180,
      "mpor": 3181,
      "up": 3182,
      "▁by": 3183,
      "▁domicile": 3184,
      "▁international": 3185,
      "go": 3186,
      "▁remar": 3187,
      "▁note": 3188,
      "▁conception": 3189,
      "▁adul": 3190,
      "emp": 3191,
      "land": 3192,
      "▁adresse": 3193,
      "▁qualif": 3194,
      "alyse": 3195,
      "ity": 3196,
      "▁capacité": 3197,
      "▁père": 3198,
      "expérience": 3199,
      "lai": 3200,
      "▁jap": 3201,
      "▁histor": 3202,
      "▁accessi": 3203,
      "▁permettent": 3204,
      "itif": 3205,
      "aliste": 3206,
      "▁laur": 3207,
      "▁stand": 3208,
      "▁améliorer": 3209,
      "veill": 3210,
      "▁machine": 3211,
      "fe": 3212,
      "gie": 3213,
      "----": 3214,
      "dique": 3215,
      "▁village": 3216,
      "tie": 3217,
      "quête": 3218,
      "▁réel": 3219,
      "▁employ": 3220,
      "▁conséqu": 3221,
      "▁croiss": 3222,
      "▁animaux": 3223,
      "▁star": 3224,
      "▁offici": 3225,
      "▁méc": 3226,
      "▁exception": 3227,
      "net": 3228,
      "▁train": 3229,
      "▁concep": 3230,
      "atifs": 3231,
      "astique": 3232,
      "endra": 3233,
      "emb": 3234,
      "▁2014": 3235,
      "▁prot": 3236,
      "▁ailleurs": 3237,
      "ancer": 3238,
      "▁news": 3239,
      "▁accueill": 3240,
      "▁exclus": 3241,
      "actu": 3242,
      "▁six": 3243,
      "lég": 3244,
      "▁décoration": 3245,
      "▁budg": 3246,
      "tice": 3247,
      "▁fu": 3248,
      "▁participer": 3249,
      "▁permettra": 3250,
      "▁os": 3251,
      "▁décision": 3252,
      "▁résultat": 3253,
      "▁édition": 3254,
      "▁commentaire": 3255,
      "qués": 3256,
      "ariat": 3257,
      "termin": 3258,
      "liquer": 3259,
      "▁utilisateurs": 3260,
      "uments": 3261,
      "▁avantages": 3262,
      "▁films": 3263,
      "▁civ": 3264,
      "▁options": 3265,
      "▁pc": 3266,
      "▁gre": 3267,
      "seur": 3268,
      "▁bienven": 3269,
      "▁fête": 3270,
      "▁ital": 3271,
      "▁campagne": 3272,
      "▁sam": 3273,
      "vres": 3274,
      "▁nettoy": 3275,
      "▁cur": 3276,
      "▁class": 3277,
      "cteurs": 3278,
      "▁scol": 3279,
      "▁1.": 3280,
      "▁terras": 3281,
      "liers": 3282,
      "▁marche": 3283,
      "arité": 3284,
      "....": 3285,
      "▁boutique": 3286,
      "▁numérique": 3287,
      "cident": 3288,
      "▁dynam": 3289,
      "▁ste": 3290,
      "▁smart": 3291,
      "▁prépa": 3292,
      "uels": 3293,
      "▁profil": 3294,
      "ration": 3295,
      "to": 3296,
      "ignes": 3297,
      "rand": 3298,
      "▁commence": 3299,
      "▁tomb": 3300,
      "▁outre": 3301,
      "▁dén": 3302,
      "▁premiers": 3303,
      "▁corre": 3304,
      "écu": 3305,
      "ung": 3306,
      "▁quartier": 3307,
      "▁recette": 3308,
      "▁ray": 3309,
      "▁bio": 3310,
      "▁mauv": 3311,
      "▁précéd": 3312,
      "assur": 3313,
      "▁connaître": 3314,
      "▁ressources": 3315,
      "▁glob": 3316,
      "▁covid": 3317,
      "▁chaî": 3318,
      "▁bonnes": 3319,
      "▁répub": 3320,
      "▁élèves": 3321,
      "▁sk": 3322,
      "▁uniquement": 3323,
      "▁dipl": 3324,
      "▁image": 3325,
      "▁magasin": 3326,
      "▁fru": 3327,
      "▁tw": 3328,
      "▁plateforme": 3329,
      "▁matériel": 3330,
      "▁pages": 3331,
      "anne": 3332,
      "terie": 3333,
      "ama": 3334,
      "ppe": 3335,
      "▁vert": 3336,
      "by": 3337,
      "eter": 3338,
      "ailles": 3339,
      "onner": 3340,
      "less": 3341,
      "▁continue": 3342,
      "▁él": 3343,
      "êmes": 3344,
      "acer": 3345,
      "▁don": 3346,
      "▁ciném": 3347,
      "lent": 3348,
      "2,": 3349,
      "bes": 3350,
      "▁coû": 3351,
      "▁couple": 3352,
      "▁plupart": 3353,
      "▁technologie": 3354,
      "▁rense": 3355,
      "▁celles": 3356,
      "▁dossier": 3357,
      "▁total": 3358,
      "▁ber": 3359,
      "▁rester": 3360,
      "▁format": 3361,
      "▁crise": 3362,
      "▁culturel": 3363,
      "dé": 3364,
      "▁administra": 3365,
      "émie": 3366,
      "▁roman": 3367,
      "agé": 3368,
      "▁papier": 3369,
      "▁générale": 3370,
      "aute": 3371,
      "▁exer": 3372,
      "▁garde": 3373,
      "▁compéti": 3374,
      "▁black": 3375,
      "▁étran": 3376,
      "▁concours": 3377,
      "▁from": 3378,
      "▁100%": 3379,
      "▁retrouvez": 3380,
      "▁soin": 3381,
      "âteau": 3382,
      "▁har": 3383,
      "▁lequel": 3384,
      "▁beauté": 3385,
      "»,": 3386,
      "▁professionnelle": 3387,
      "▁tes": 3388,
      "▁coeur": 3389,
      "▁territoire": 3390,
      "ram": 3391,
      "ducation": 3392,
      "▁conseill": 3393,
      "▁japon": 3394,
      "name": 3395,
      "environnement": 3396,
      "▁logement": 3397,
      "établ": 3398,
      "▁féd": 3399,
      "▁album": 3400,
      "▁pén": 3401,
      "▁présentation": 3402,
      "▁veuillez": 3403,
      "▁réalisé": 3404,
      "▁émo": 3405,
      "ost": 3406,
      "lant": 3407,
      "issent": 3408,
      "▁thème": 3409,
      "▁volont": 3410,
      "▁mu": 3411,
      "oign": 3412,
      "▁cartes": 3413,
      "▁états": 3414,
      "▁agréable": 3415,
      "ara": 3416,
      ".0": 3417,
      "▁décor": 3418,
      "▁android": 3419,
      "▁étape": 3420,
      "▁doute": 3421,
      "▁évol": 3422,
      "▁boî": 3423,
      "▁devis": 3424,
      "▁dépos": 3425,
      "▁continuer": 3426,
      "▁application": 3427,
      "▁maroc": 3428,
      "organisation": 3429,
      "▁lin": 3430,
      "ieuse": 3431,
      "habit": 3432,
      "▁police": 3433,
      "▁voilà": 3434,
      "▁vél": 3435,
      "▁identif": 3436,
      "▁arm": 3437,
      "▁salari": 3438,
      "image": 3439,
      "-19": 3440,
      "titude": 3441,
      "▁texte": 3442,
      "▁soy": 3443,
      "▁bour": 3444,
      "▁mouvement": 3445,
      "pens": 3446,
      "▁structure": 3447,
      "▁allem": 3448,
      "adap": 3449,
      "▁fai": 3450,
      "23": 3451,
      "▁iss": 3452,
      "▁ra": 3453,
      "ague": 3454,
      "40": 3455,
      "▁peux": 3456,
      "bres": 3457,
      "▁chance": 3458,
      "1,": 3459,
      "▁connu": 3460,
      "▁incl": 3461,
      "uellement": 3462,
      "▁q": 3463,
      "ôme": 3464,
      "▁mém": 3465,
      "▁tor": 3466,
      "▁célè": 3467,
      "informations": 3468,
      "▁explique": 3469,
      "▁physique": 3470,
      "▁nour": 3471,
      "▁rav": 3472,
      "▁hauteur": 3473,
      "▁éviter": 3474,
      "hn": 3475,
      "▁parking": 3476,
      "esprit": 3477,
      "▁course": 3478,
      "ilib": 3479,
      "▁bénéf": 3480,
      "▁portes": 3481,
      "▁quant": 3482,
      "▁siècle": 3483,
      "▁venez": 3484,
      "▁propriété": 3485,
      "▁ry": 3486,
      "▁ram": 3487,
      "▁dispose": 3488,
      "mettre": 3489,
      "▁repos": 3490,
      "▁fils": 3491,
      "▁technolog": 3492,
      "▁fant": 3493,
      "▁facil": 3494,
      "▁longtemps": 3495,
      "itation": 3496,
      "icol": 3497,
      "▁pose": 3498,
      "▁locaux": 3499,
      "aume": 3500,
      "▁changement": 3501,
      "▁certaine": 3502,
      "▁verre": 3503,
      "ister": 3504,
      "▁actions": 3505,
      "▁presque": 3506,
      "sif": 3507,
      "▁repas": 3508,
      "▁bébé": 3509,
      "▁trouvé": 3510,
      "gique": 3511,
      "▁bient": 3512,
      "ètre": 3513,
      "▁parties": 3514,
      "▁tru": 3515,
      "èque": 3516,
      "▁objectif": 3517,
      "ik": 3518,
      "▁abord": 3519,
      "enture": 3520,
      "▁comprend": 3521,
      "example": 3522,
      "ano": 3523,
      "▁envoy": 3524,
      "▁assurer": 3525,
      "cal": 3526,
      "▁fen": 3527,
      "▁tempéra": 3528,
      "▁café": 3529,
      "▁pé": 3530,
      "▁famili": 3531,
      "▁précis": 3532,
      "▁parfaitement": 3533,
      "▁véhicule": 3534,
      "80": 3535,
      "▁consult": 3536,
      "mage": 3537,
      "ieure": 3538,
      "▁entraî": 3539,
      "▁mère": 3540,
      "▁publique": 3541,
      "▁2013": 3542,
      "▁bleu": 3543,
      "▁œuvre": 3544,
      "rale": 3545,
      "line": 3546,
      "liqué": 3547,
      "▁remb": 3548,
      "atrice": 3549,
      "▁électrique": 3550,
      "ca": 3551,
      "▁automatique": 3552,
      "▁ba": 3553,
      "▁manque": 3554,
      "▁soient": 3555,
      "avantage": 3556,
      "agence": 3557,
      "ome": 3558,
      "▁touche": 3559,
      "ève": 3560,
      "▁canada": 3561,
      "▁membre": 3562,
      "▁accueil": 3563,
      "▁sociale": 3564,
      "▁fir": 3565,
      "22": 3566,
      "crire": 3567,
      "▁with": 3568,
      "▁én": 3569,
      "▁nouvel": 3570,
      "▁ja": 3571,
      "nelle": 3572,
      "ute": 3573,
      "▁manifest": 3574,
      "dra": 3575,
      "chant": 3576,
      "çons": 3577,
      "▁surface": 3578,
      "▁intérieur": 3579,
      "▁québec": 3580,
      "▁retrouve": 3581,
      "urr": 3582,
      "▁tap": 3583,
      "▁transf": 3584,
      "ader": 3585,
      "mission": 3586,
      "▁cadeau": 3587,
      "umes": 3588,
      "alu": 3589,
      "▁multip": 3590,
      "▁moyens": 3591,
      "▁porter": 3592,
      "icip": 3593,
      "▁http": 3594,
      "▁connex": 3595,
      "▁lois": 3596,
      "inet": 3597,
      "▁vois": 3598,
      "▁circul": 3599,
      "▁détermin": 3600,
      "leur": 3601,
      "▁fonds": 3602,
      "▁80": 3603,
      "▁présenter": 3604,
      ",9": 3605,
      "▁catégorie": 3606,
      "timis": 3607,
      "âtre": 3608,
      "da": 3609,
      "▁sait": 3610,
      "▁intel": 3611,
      "▁municip": 3612,
      "iz": 3613,
      "▁bientôt": 3614,
      "▁play": 3615,
      "▁illus": 3616,
      "▁tur": 3617,
      "▁complex": 3618,
      "▁tendance": 3619,
      "▁indép": 3620,
      "▁réalisation": 3621,
      "ris": 3622,
      "▁sort": 3623,
      "▁moderne": 3624,
      "▁immédi": 3625,
      "ani": 3626,
      "▁faisant": 3627,
      "asser": 3628,
      "▁reçu": 3629,
      "▁souhaite": 3630,
      "▁bac": 3631,
      "▁court": 3632,
      "accord": 3633,
      "▁mm": 3634,
      "érop": 3635,
      "êche": 3636,
      "▁toutefois": 3637,
      "estre": 3638,
      "roy": 3639,
      "▁sin": 3640,
      "▁agric": 3641,
      "▁partenaire": 3642,
      "21": 3643,
      "toire": 3644,
      "▁dollar": 3645,
      "riques": 3646,
      "inté": 3647,
      "▁lic": 3648,
      "▁riv": 3649,
      "▁mou": 3650,
      "▁règles": 3651,
      "ination": 3652,
      "▁voix": 3653,
      "▁recru": 3654,
      "▁avaient": 3655,
      "rées": 3656,
      "affaires": 3657,
      "idée": 3658,
      "▁it": 3659,
      "dia": 3660,
      "▁tre": 3661,
      "▁annon": 3662,
      "▁complète": 3663,
      "do": 3664,
      "▁pri": 3665,
      "▁gol": 3666,
      "▁durable": 3667,
      "▁mons": 3668,
      "▁déch": 3669,
      "▁soulig": 3670,
      "▁matériaux": 3671,
      "▁accessoires": 3672,
      "▁conten": 3673,
      "ustrie": 3674,
      "▁rencontrer": 3675,
      "▁sang": 3676,
      "▁surpr": 3677,
      "▁europe": 3678,
      "▁prim": 3679,
      "▁écl": 3680,
      "▁suisse": 3681,
      "▁suivant": 3682,
      "▁belles": 3683,
      "lev": 3684,
      "▁vas": 3685,
      "her": 3686,
      "offre": 3687,
      "▁forte": 3688,
      "ony": 3689,
      "▁suffit": 3690,
      "▁imag": 3691,
      "▁recevoir": 3692,
      "▁défense": 3693,
      "cm": 3694,
      "▁anglais": 3695,
      "▁cot": 3696,
      "▁lyon": 3697,
      "▁affir": 3698,
      "▁magnifique": 3699,
      "mail": 3700,
      "▁équip": 3701,
      "▁certain": 3702,
      "▁31": 3703,
      "▁commerce": 3704,
      "▁oub": 3705,
      "▁idée": 3706,
      "▁acteurs": 3707,
      "▁gir": 3708,
      "oitation": 3709,
      "uler": 3710,
      "artis": 3711,
      "▁banc": 3712,
      "▁bras": 3713,
      "orités": 3714,
      "▁moyenne": 3715,
      "▁terrasse": 3716,
      "▁mains": 3717,
      "etat": 3718,
      "▁langue": 3719,
      "avais": 3720,
      "▁créé": 3721,
      "auteur": 3722,
      "érences": 3723,
      "▁rose": 3724,
      "▁lac": 3725,
      "▁dat": 3726,
      "▁parle": 3727,
      "▁passage": 3728,
      "aler": 3729,
      "▁bil": 3730,
      "itant": 3731,
      "▁far": 3732,
      "▁collè": 3733,
      "oil": 3734,
      "▁garantie": 3735,
      "▁découverte": 3736,
      "▁mélange": 3737,
      "▁troisième": 3738,
      "▁classique": 3739,
      "▁plage": 3740,
      "▁dispar": 3741,
      "▁concerne": 3742,
      "▁somme": 3743,
      "▁indis": 3744,
      "▁retrouv": 3745,
      "▁sn": 3746,
      "del": 3747,
      "île": 3748,
      "▁dérou": 3749,
      "▁objectifs": 3750,
      "▁manger": 3751,
      "gr": 3752,
      "▁micro": 3753,
      "▁marie": 3754,
      "lam": 3755,
      "▁fe": 3756,
      "itié": 3757,
      "dis": 3758,
      "objet": 3759,
      "▁filles": 3760,
      "▁politi": 3761,
      "▁sortir": 3762,
      "▁montré": 3763,
      "èse": 3764,
      "25": 3765,
      "▁art": 3766,
      "▁citoy": 3767,
      "▁demander": 3768,
      "huile": 3769,
      "▁cuir": 3770,
      "▁devra": 3771,
      "▁complément": 3772,
      "installation": 3773,
      "yl": 3774,
      "dr": 3775,
      "ignement": 3776,
      "cles": 3777,
      "appar": 3778,
      "énagement": 3779,
      "▁fleurs": 3780,
      "▁solid": 3781,
      "▁espaces": 3782,
      "▁compt": 3783,
      "uelles": 3784,
      "ortun": 3785,
      "▁européenne": 3786,
      "▁entièrement": 3787,
      "▁péd": 3788,
      "pour": 3789,
      "avez": 3790,
      "▁collabor": 3791,
      "▁altern": 3792,
      "▁protéger": 3793,
      "▁favoris": 3794,
      "ordonn": 3795,
      "▁élég": 3796,
      "▁bénéficier": 3797,
      "onte": 3798,
      "▁ministère": 3799,
      "▁réduire": 3800,
      "▁moteur": 3801,
      "identi": 3802,
      "▁plat": 3803,
      "▁journal": 3804,
      "▁consulter": 3805,
      "▁tran": 3806,
      "▁affaires": 3807,
      "▁affi": 3808,
      "▁panne": 3809,
      "▁institu": 3810,
      "▁internationale": 3811,
      "▁bran": 3812,
      "▁sér": 3813,
      "▁patri": 3814,
      "▁hand": 3815,
      "▁bande": 3816,
      "▁maximum": 3817,
      "▁distance": 3818,
      "ty": 3819,
      "▁joueur": 3820,
      "euros": 3821,
      "anges": 3822,
      "▁bienvenue": 3823,
      "fait": 3824,
      "▁fruits": 3825,
      "▁soi": 3826,
      "▁premières": 3827,
      "▁dix": 3828,
      "▁crédit": 3829,
      "▁trib": 3830,
      "émin": 3831,
      "▁marques": 3832,
      "▁gagn": 3833,
      "▁stratégie": 3834,
      "▁station": 3835,
      "améli": 3836,
      "intér": 3837,
      "▁adop": 3838,
      "▁connaissance": 3839,
      "▁nécessaires": 3840,
      "▁fera": 3841,
      "▁2.": 3842,
      "▁bless": 3843,
      "ares": 3844,
      "▁ordinateur": 3845,
      "keting": 3846,
      "▁ball": 3847,
      "▁machines": 3848,
      "opri": 3849,
      "oie": 3850,
      "▁auto": 3851,
      "oud": 3852,
      "▁partout": 3853,
      "▁scientif": 3854,
      "▁endroit": 3855,
      "▁quanti": 3856,
      "accueil": 3857,
      "▁inten": 3858,
      "▁mini": 3859,
      "istr": 3860,
      "▁maire": 3861,
      "▁réalité": 3862,
      "▁pin": 3863,
      "▁innov": 3864,
      "▁goût": 3865,
      "adresse": 3866,
      "▁>": 3867,
      "▁étudiants": 3868,
      "▁préparer": 3869,
      "▁risques": 3870,
      "▁continu": 3871,
      "▁habitants": 3872,
      "▁your": 3873,
      "▁spectacle": 3874,
      "▁500": 3875,
      "▁fonctionnement": 3876,
      "▁croissance": 3877,
      "gn": 3878,
      "ensions": 3879,
      "andis": 3880,
      "ications": 3881,
      "rement": 3882,
      "êtements": 3883,
      "▁her": 3884,
      "▁pleine": 3885,
      "▁vend": 3886,
      "vide": 3887,
      "▁color": 3888,
      "▁devient": 3889,
      "oureux": 3890,
      "mm": 3891,
      "po": 3892,
      "▁république": 3893,
      "importe": 3894,
      "ège": 3895,
      "ament": 3896,
      "ctures": 3897,
      "▁immobilier": 3898,
      "▁carrière": 3899,
      "objec": 3900,
      "crit": 3901,
      "uil": 3902,
      "▁—": 3903,
      "ires": 3904,
      "▁performance": 3905,
      "▁réuss": 3906,
      "resser": 3907,
      "▁métal": 3908,
      "issements": 3909,
      "▁cinéma": 3910,
      "▁fabrication": 3911,
      "▁consac": 3912,
      "▁familles": 3913,
      "▁maîtr": 3914,
      "▁35": 3915,
      "▁parfum": 3916,
      "▁clé": 3917,
      "âge": 3918,
      "▁soyez": 3919,
      "ms": 3920,
      "erver": 3921,
      "▁neuf": 3922,
      "▁réd": 3923,
      "▁réduction": 3924,
      "imm": 3925,
      "▁marse": 3926,
      "dients": 3927,
      "ater": 3928,
      "erts": 3929,
      "▁puisque": 3930,
      "▁bib": 3931,
      "▁mécan": 3932,
      "este": 3933,
      "▁combat": 3934,
      "europe": 3935,
      "▁symb": 3936,
      "▁relations": 3937,
      "▁gratuits": 3938,
      "conde": 3939,
      "tise": 3940,
      "▁renouv": 3941,
      "xte": 3942,
      "▁contactez": 3943,
      "université": 3944,
      "▁apprendre": 3945,
      "▁tis": 3946,
      "▁utilisation": 3947,
      "aming": 3948,
      "▁anne": 3949,
      "▁ai": 3950,
      "▁apporter": 3951,
      "▁gauche": 3952,
      "▁command": 3953,
      "lim": 3954,
      "▁mail": 3955,
      "rid": 3956,
      "illage": 3957,
      "gements": 3958,
      "▁susp": 3959,
      "▁quels": 3960,
      "▁population": 3961,
      "▁passion": 3962,
      "▁travaille": 3963,
      "édi": 3964,
      "▁meuble": 3965,
      "▁chans": 3966,
      "aises": 3967,
      "▁zones": 3968,
      "▁jac": 3969,
      "▁budget": 3970,
      "▁dessin": 3971,
      "70": 3972,
      "inaire": 3973,
      "rel": 3974,
      "▁différence": 3975,
      "adie": 3976,
      "▁garder": 3977,
      "▁bâtiment": 3978,
      "▁discussi": 3979,
      "▁pâ": 3980,
      "▁consommation": 3981,
      "▁chron": 3982,
      "▁souvenir": 3983,
      "▁réunion": 3984,
      "▁derrière": 3985,
      "▁extr": 3986,
      "▁pic": 3987,
      "itée": 3988,
      "utiliser": 3989,
      "▁chocol": 3990,
      "heur": 3991,
      "tures": 3992,
      "▁regarder": 3993,
      "énom": 3994,
      "▁groupes": 3995,
      "▁mètres": 3996,
      "▁seconde": 3997,
      "▁villes": 3998,
      "▁claire": 3999,
      "▁conserv": 4000,
      "▁profitez": 4001,
      "▁pois": 4002,
      "▁instru": 4003,
      "pital": 4004,
      "▁choisi": 4005,
      "▁sar": 4006,
      "▁www": 4007,
      "▁minimum": 4008,
      "▁football": 4009,
      "▁70": 4010,
      "▁organ": 4011,
      "▁lesqu": 4012,
      "▁dollars": 4013,
      "▁pros": 4014,
      "▁politiques": 4015,
      "▁importante": 4016,
      "éros": 4017,
      "▁inscri": 4018,
      "oft": 4019,
      "▁simil": 4020,
      "rite": 4021,
      "exc": 4022,
      "aleurs": 4023,
      "ish": 4024,
      "▁commission": 4025,
      "▁droite": 4026,
      "annonce": 4027,
      "▁tandis": 4028,
      "▁gérer": 4029,
      "▁systèmes": 4030,
      "▁reb": 4031,
      "▁trou": 4032,
      "serv": 4033,
      "cons": 4034,
      "▁massage": 4035,
      "▁lav": 4036,
      "▁chien": 4037,
      "▁publics": 4038,
      "▁bijou": 4039,
      "▁mondiale": 4040,
      "▁vég": 4041,
      "uner": 4042,
      "▁stat": 4043,
      "▁prati": 4044,
      "own": 4045,
      "▁toul": 4046,
      "dam": 4047,
      "▁appréci": 4048,
      "rire": 4049,
      "▁régulièrement": 4050,
      "sible": 4051,
      "▁agence": 4052,
      "▁aurez": 4053,
      "▁finalement": 4054,
      "itesse": 4055,
      "▁van": 4056,
      "▁vais": 4057,
      "inves": 4058,
      "▁pla": 4059,
      "▁fémin": 4060,
      "▁dieu": 4061,
      "▁conférence": 4062,
      "▁local": 4063,
      "alogue": 4064,
      "▁fichier": 4065,
      "▁action": 4066,
      "▁documents": 4067,
      "▁méthode": 4068,
      "▁sén": 4069,
      "ènes": 4070,
      "▁heureux": 4071,
      "▁applications": 4072,
      "ives": 4073,
      "▁this": 4074,
      "istant": 4075,
      "▁attra": 4076,
      "uration": 4077,
      "objectif": 4078,
      "▁marketing": 4079,
      "▁chaleur": 4080,
      "▁terr": 4081,
      "▁banque": 4082,
      "▁collaboration": 4083,
      "▁chaussures": 4084,
      "▁puissance": 4085,
      "▁hier": 4086,
      "▁alli": 4087,
      "▁contraire": 4088,
      "▁réservation": 4089,
      "▁célèbre": 4090,
      "▁peinture": 4091,
      "▁montant": 4092,
      "▁coût": 4093,
      "aix": 4094,
      "▁médias": 4095,
      "▁hab": 4096,
      "▁principal": 4097,
      "▁changements": 4098,
      "chent": 4099,
      "▁rasse": 4100,
      "▁dirige": 4101,
      "igner": 4102,
      "▁liens": 4103,
      "▁riche": 4104,
      "▁justice": 4105,
      "cie": 4106,
      "▁finale": 4107,
      "▁artistes": 4108,
      "itent": 4109,
      "▁achat": 4110,
      "▁musée": 4111,
      "▁visage": 4112,
      "▁pieds": 4113,
      "4.": 4114,
      "veille": 4115,
      "▁plans": 4116,
      "lectric": 4117,
      "▁ke": 4118,
      "▁méd": 4119,
      "▁reç": 4120,
      "▁fans": 4121,
      "▁ligue": 4122,
      "▁flor": 4123,
      "▁45": 4124,
      "vel": 4125,
      "▁laisse": 4126,
      "▁moments": 4127,
      "▁événements": 4128,
      "étés": 4129,
      "▁véhicules": 4130,
      "ataire": 4131,
      "ident": 4132,
      "▁ventes": 4133,
      "▁conç": 4134,
      "▁lancer": 4135,
      "établissement": 4136,
      ".\"": 4137,
      "▁laissez": 4138,
      "▁gour": 4139,
      "▁contempor": 4140,
      "êter": 4141,
      "iés": 4142,
      "▁reti": 4143,
      "ataires": 4144,
      "▁rub": 4145,
      "arrivée": 4146,
      "▁tâ": 4147,
      "ss": 4148,
      "▁confortable": 4149,
      "view": 4150,
      "▁communiqué": 4151,
      "▁phili": 4152,
      "moine": 4153,
      "▁chaîne": 4154,
      "bas": 4155,
      "xe": 4156,
      "▁interven": 4157,
      "fort": 4158,
      "▁consci": 4159,
      "ancien": 4160,
      "▁payer": 4161,
      "▁choisissez": 4162,
      "▁exig": 4163,
      "tuelle": 4164,
      "▁max": 4165,
      "▁fleur": 4166,
      "exploitation": 4167,
      "45": 4168,
      "▁côte": 4169,
      "èrent": 4170,
      "ii": 4171,
      "▁annonces": 4172,
      "ral": 4173,
      "éroport": 4174,
      "▁crème": 4175,
      "▁ferme": 4176,
      "▁more": 4177,
      "▁complé": 4178,
      "fa": 4179,
      "▁therm": 4180,
      "▁chin": 4181,
      "▁maladie": 4182,
      "ivi": 4183,
      "▁célé": 4184,
      "▁rand": 4185,
      "▁formes": 4186,
      "illon": 4187,
      "▁possède": 4188,
      "ga": 4189,
      "▁fournir": 4190,
      "▁oeu": 4191,
      "▁dav": 4192,
      "riture": 4193,
      "▁partenariat": 4194,
      "▁1,": 4195,
      "▁astu": 4196,
      "▁proposons": 4197,
      "▁indispens": 4198,
      "istique": 4199,
      "▁faud": 4200,
      "▁privé": 4201,
      "▁poser": 4202,
      "▁ancien": 4203,
      "▁90": 4204,
      "▁pouvons": 4205,
      "▁fall": 4206,
      "▁ingré": 4207,
      "intes": 4208,
      "▁peine": 4209,
      "gl": 4210,
      "▁appartement": 4211,
      "▁kil": 4212,
      "▁lait": 4213,
      "▁chap": 4214,
      "▁video": 4215,
      "▁ryth": 4216,
      "iversaire": 4217,
      "▁urb": 4218,
      "▁épis": 4219,
      "200": 4220,
      "oirs": 4221,
      "▁$": 4222,
      "irs": 4223,
      "▁concurr": 4224,
      "▁demi": 4225,
      "▁connexion": 4226,
      "fication": 4227,
      "▁convient": 4228,
      "▁liberté": 4229,
      "br": 4230,
      "▁vitesse": 4231,
      "▁excellent": 4232,
      "aller": 4233,
      "▁immédiate": 4234,
      "▁mand": 4235,
      "industrie": 4236,
      "▁végét": 4237,
      "▁chaud": 4238,
      "▁métier": 4239,
      "▁orient": 4240,
      "▁valeurs": 4241,
      "urgence": 4242,
      "ulture": 4243,
      "gue": 4244,
      "▁trouvez": 4245,
      "▁nettoyage": 4246,
      "assurance": 4247,
      "▁contrô": 4248,
      "chement": 4249,
      "▁salles": 4250,
      "▁joue": 4251,
      "pérer": 4252,
      "▁pourront": 4253,
      "ocra": 4254,
      "▁robe": 4255,
      "▁den": 4256,
      "-20": 4257,
      "▁modern": 4258,
      "isant": 4259,
      "▁option": 4260,
      "idité": 4261,
      "tés": 4262,
      "▁radio": 4263,
      "▁information": 4264,
      "onné": 4265,
      "tiles": 4266,
      "▁propres": 4267,
      "▁remer": 4268,
      "import": 4269,
      "çant": 4270,
      "apes": 4271,
      "▁russ": 4272,
      "bon": 4273,
      "▁personnages": 4274,
      "▁arrive": 4275,
      "▁optim": 4276,
      "ba": 4277,
      "▁motiv": 4278,
      "▁ceci": 4279,
      "▁bul": 4280,
      "▁profonde": 4281,
      "▁futur": 4282,
      "opération": 4283,
      "▁théâtre": 4284,
      "matique": 4285,
      "dessus": 4286,
      "▁sw": 4287,
      "téra": 4288,
      "érieur": 4289,
      "▁remp": 4290,
      "▁entier": 4291,
      "érés": 4292,
      "érée": 4293,
      "mont": 4294,
      "alys": 4295,
      "actions": 4296,
      "▁milliards": 4297,
      "▁rig": 4298,
      "▁atelier": 4299,
      "▁rejoindre": 4300,
      "▁concert": 4301,
      "▁chris": 4302,
      "▁afric": 4303,
      "▁recettes": 4304,
      "▁autoris": 4305,
      "▁compter": 4306,
      "▁organisation": 4307,
      "▁calcul": 4308,
      "▁totalement": 4309,
      "▁bonheur": 4310,
      "▁pur": 4311,
      "▁perman": 4312,
      "rich": 4313,
      "gu": 4314,
      "agnement": 4315,
      "uni": 4316,
      "▁patrimoine": 4317,
      "▁pression": 4318,
      "▁ara": 4319,
      "cemment": 4320,
      "▁belgique": 4321,
      "pad": 4322,
      "▁grosse": 4323,
      "▁objets": 4324,
      "▁vélo": 4325,
      "▁vision": 4326,
      "▁proches": 4327,
      "▁coff": 4328,
      "▁tarifs": 4329,
      "onge": 4330,
      "▁américain": 4331,
      "duit": 4332,
      "▁conver": 4333,
      "▁située": 4334,
      "▁clair": 4335,
      "▁raisons": 4336,
      "▁tenue": 4337,
      "▁sug": 4338,
      "▁quelqu": 4339,
      "iration": 4340,
      "▁réflex": 4341,
      "rog": 4342,
      "éber": 4343,
      "aim": 4344,
      "▁équipements": 4345,
      "▁lutte": 4346,
      "fl": 4347,
      "▁michel": 4348,
      "▁porno": 4349,
      "ley": 4350,
      "astr": 4351,
      "▁nat": 4352,
      "▁technologies": 4353,
      "▁crée": 4354,
      "▁inspir": 4355,
      "▁victoire": 4356,
      "ographie": 4357,
      "accomp": 4358,
      "tière": 4359,
      "▁récemment": 4360,
      "▁association": 4361,
      "▁études": 4362,
      "user": 4363,
      "oux": 4364,
      "deur": 4365,
      "chez": 4366,
      "▁accompagner": 4367,
      "▁promotion": 4368,
      "▁ami": 4369,
      "ld": 4370,
      "agram": 4371,
      "uté": 4372,
      "▁are": 4373,
      "▁ultra": 4374,
      "▁sorte": 4375,
      "main": 4376,
      "▁coc": 4377,
      "▁événement": 4378,
      "▁séance": 4379,
      "▁comité": 4380,
      "▁françois": 4381,
      "▁look": 4382,
      "▁lettre": 4383,
      "6.": 4384,
      "▁ouverte": 4385,
      "▁froid": 4386,
      "▁vêtements": 4387,
      "esse": 4388,
      "▁condition": 4389,
      "▁2010": 4390,
      "entretien": 4391,
      "▁lignes": 4392,
      "▁fournisse": 4393,
      "▁perdu": 4394,
      "eté": 4395,
      "èche": 4396,
      "▁exam": 4397,
      "▁côt": 4398,
      "union": 4399,
      "appro": 4400,
      "▁calme": 4401,
      "▁utilise": 4402,
      "▁var": 4403,
      "▁ec": 4404,
      "▁historique": 4405,
      "▁privil": 4406,
      "▁évent": 4407,
      "▁participation": 4408,
      "va": 4409,
      "siques": 4410,
      "ester": 4411,
      "the": 4412,
      "enfant": 4413,
      "▁streaming": 4414,
      "▁doux": 4415,
      "mation": 4416,
      "ml": 4417,
      "autés": 4418,
      "intérêt": 4419,
      "▁raf": 4420,
      "▁lancé": 4421,
      "▁conform": 4422,
      "▁réception": 4423,
      "inos": 4424,
      "▁quelles": 4425,
      "▁vacc": 4426,
      "▁free": 4427,
      "▁telles": 4428,
      "▁davantage": 4429,
      "▁chauffage": 4430,
      "ench": 4431,
      "▁one": 4432,
      "▁paul": 4433,
      "nom": 4434,
      "▁hô": 4435,
      "oiles": 4436,
      "▁indiqué": 4437,
      "den": 4438,
      "▁atti": 4439,
      "▁voie": 4440,
      "3.": 4441,
      "▁syndic": 4442,
      "▁int": 4443,
      "▁toit": 4444,
      "▁atta": 4445,
      "▁mondial": 4446,
      "▁veux": 4447,
      "▁fonctionne": 4448,
      "▁contexte": 4449,
      "▁lour": 4450,
      "ômes": 4451,
      "▁récu": 4452,
      "▁experts": 4453,
      "▁déte": 4454,
      "▁championn": 4455,
      "▁accessible": 4456,
      "▁beaux": 4457,
      "▁publicité": 4458,
      "▁vent": 4459,
      "▁serez": 4460,
      "▁missions": 4461,
      "▁ingrédients": 4462,
      "▁absol": 4463,
      "▁ep": 4464,
      "isée": 4465,
      "▁chocolat": 4466,
      "9.": 4467,
      "▁conçu": 4468,
      "▁bill": 4469,
      "▁commencé": 4470,
      "▁marseille": 4471,
      "▁lance": 4472,
      "tionnel": 4473,
      "▁caract": 4474,
      "▁ajout": 4475,
      "▁connaissances": 4476,
      "▁tissu": 4477,
      "▁élevé": 4478,
      "riv": 4479,
      "▁chine": 4480,
      "gi": 4481,
      "abs": 4482,
      "▁dû": 4483,
      "gén": 4484,
      "▁maisons": 4485,
      "▁concept": 4486,
      "ores": 4487,
      "▁blanche": 4488,
      "▁château": 4489,
      "cée": 4490,
      "étude": 4491,
      "▁termes": 4492,
      "êtres": 4493,
      "tements": 4494,
      "▁faute": 4495,
      "-0": 4496,
      "▁témoign": 4497,
      "▁studio": 4498,
      "▁température": 4499,
      "umé": 4500,
      "▁appareil": 4501,
      "▁fermet": 4502,
      "▁formations": 4503,
      "▁prévu": 4504,
      "ologiques": 4505,
      "▁pont": 4506,
      "▁param": 4507,
      "▁sentir": 4508,
      "▁boîte": 4509,
      "▁faits": 4510,
      "ho": 4511,
      "évé": 4512,
      "▁march": 4513,
      "dom": 4514,
      "▁cann": 4515,
      "▁utilisant": 4516,
      "érieure": 4517,
      "veurs": 4518,
      "▁forces": 4519,
      "▁boul": 4520,
      "▁join": 4521,
      "▁occasion": 4522,
      "rie": 4523,
      "lever": 4524,
      "▁clés": 4525,
      "▁mén": 4526,
      "▁places": 4527,
      "▁adapté": 4528,
      "▁remise": 4529,
      "▁formulaire": 4530,
      "▁lot": 4531,
      "onses": 4532,
      "▁prestations": 4533,
      "▁sent": 4534,
      "till": 4535,
      "▁argent": 4536,
      "▁utilisez": 4537,
      "▁planif": 4538,
      "▁expériment": 4539,
      "box": 4540,
      "nez": 4541,
      "ibles": 4542,
      "▁disponibilité": 4543,
      "▁eau": 4544,
      "▁rendu": 4545,
      "▁logici": 4546,
      "▁chercher": 4547,
      "▁voyages": 4548,
      "▁ya": 4549,
      "▁compati": 4550,
      "▁sauv": 4551,
      "▁kit": 4552,
      "▁précise": 4553,
      "▁crit": 4554,
      "▁dessus": 4555,
      "hi": 4556,
      "men": 4557,
      "▁peur": 4558,
      "hor": 4559,
      "administra": 4560,
      "mon": 4561,
      "▁proposé": 4562,
      "▁voyageurs": 4563,
      "▁requ": 4564,
      "▁etats": 4565,
      "▁plantes": 4566,
      "▁performances": 4567,
      "tube": 4568,
      "bi": 4569,
      "▁commercial": 4570,
      "quette": 4571,
      "▁circu": 4572,
      "▁cru": 4573,
      "▁sujets": 4574,
      "▁enj": 4575,
      "▁mises": 4576,
      "▁prenez": 4577,
      "sons": 4578,
      "▁cabinet": 4579,
      "▁sépar": 4580,
      "▁diam": 4581,
      "azon": 4582,
      "▁entretien": 4583,
      "▁présenté": 4584,
      "5.": 4585,
      "appel": 4586,
      "▁mix": 4587,
      "▁plomb": 4588,
      "ault": 4589,
      "jo": 4590,
      "▁parfaite": 4591,
      "avenir": 4592,
      "iant": 4593,
      "▁principalement": 4594,
      "▁courant": 4595,
      "port": 4596,
      "▁incroy": 4597,
      "vo": 4598,
      "nis": 4599,
      "entiss": 4600,
      "▁bibli": 4601,
      "▁phil": 4602,
      "ham": 4603,
      "90": 4604,
      "▁alex": 4605,
      "▁télévision": 4606,
      "▁énergé": 4607,
      "▁effets": 4608,
      "▁propriétaire": 4609,
      "▁dynamique": 4610,
      "▁spécialiste": 4611,
      "▁compren": 4612,
      "▁mémoire": 4613,
      "ection": 4614,
      "▁faite": 4615,
      "tivité": 4616,
      "agers": 4617,
      "arer": 4618,
      "ight": 4619,
      "cé": 4620,
      "▁publication": 4621,
      "plus": 4622,
      "agog": 4623,
      "assurer": 4624,
      "▁danse": 4625,
      "ks": 4626,
      "▁carb": 4627,
      "▁étapes": 4628,
      "▁escort": 4629,
      "anie": 4630,
      "mblée": 4631,
      "érapie": 4632,
      "avait": 4633,
      "▁étrang": 4634,
      "4,": 4635,
      "sement": 4636,
      "▁destination": 4637,
      "dd": 4638,
      "▁vieux": 4639,
      "yp": 4640,
      "▁fun": 4641,
      "▁autorités": 4642,
      "▁littéra": 4643,
      "mée": 4644,
      "▁capable": 4645,
      "oxy": 4646,
      "▁diver": 4647,
      "han": 4648,
      "lan": 4649,
      "▁négoci": 4650,
      "éducation": 4651,
      "nés": 4652,
      "actualité": 4653,
      "écran": 4654,
      "▁résidence": 4655,
      "icap": 4656,
      "▁fus": 4657,
      "tur": 4658,
      "▁bag": 4659,
      "▁erre": 4660,
      "▁supplémentaires": 4661,
      "▁appareils": 4662,
      "érant": 4663,
      "».": 4664,
      "▁has": 4665,
      "▁fol": 4666,
      "▁ateliers": 4667,
      "umin": 4668,
      "▁officiel": 4669,
      "dire": 4670,
      "▁section": 4671,
      "rages": 4672,
      "ko": 4673,
      "ectu": 4674,
      "rét": 4675,
      "▁perdre": 4676,
      "▁pel": 4677,
      "▁chanti": 4678,
      "▁fisc": 4679,
      "▁téléph": 4680,
      "▁communes": 4681,
      "8.": 4682,
      "hors": 4683,
      "▁déje": 4684,
      "times": 4685,
      "▁quantité": 4686,
      "▁conseiller": 4687,
      "col": 4688,
      "▁coqu": 4689,
      "▁wi": 4690,
      "▁tabl": 4691,
      "tric": 4692,
      "cha": 4693,
      "avec": 4694,
      "▁cér": 4695,
      "▁bret": 4696,
      "expos": 4697,
      "▁demandé": 4698,
      "▁incont": 4699,
      "▁naturelle": 4700,
      "9,": 4701,
      "▁limite": 4702,
      "▁archite": 4703,
      "dans": 4704,
      "▁bonus": 4705,
      "▁programmes": 4706,
      "▁sucre": 4707,
      "▁diverses": 4708,
      "mn": 4709,
      "▁pdf": 4710,
      "▁participants": 4711,
      "▁complètement": 4712,
      "riez": 4713,
      "▁pharm": 4714,
      "▁repro": 4715,
      "▁effectuer": 4716,
      "▁bur": 4717,
      "▁first": 4718,
      "▁config": 4719,
      "▁sports": 4720,
      "▁douche": 4721,
      "▁amour": 4722,
      "▁servir": 4723,
      "aleure": 4724,
      "▁3.": 4725,
      "▁iphone": 4726,
      "▁installation": 4727,
      "rets": 4728,
      "▁naissance": 4729,
      "alistes": 4730,
      "olé": 4731,
      "onneur": 4732,
      "pel": 4733,
      "orient": 4734,
      "yst": 4735,
      "▁morce": 4736,
      "▁extér": 4737,
      "▁optimis": 4738,
      "▁noter": 4739,
      "▁populaire": 4740,
      "▁sl": 4741,
      "vité": 4742,
      "cide": 4743,
      "▁magaz": 4744,
      "7.": 4745,
      "▁combin": 4746,
      "▁tele": 4747,
      "▁capitale": 4748,
      "▁fichiers": 4749,
      "▁stade": 4750,
      "▁navigation": 4751,
      "▁devenu": 4752,
      "▁visiter": 4753,
      "▁coin": 4754,
      "▁rent": 4755,
      "▁)": 4756,
      "bourg": 4757,
      "▁75": 4758,
      "oub": 4759,
      "▁écran": 4760,
      "ymp": 4761,
      "▁dimensions": 4762,
      "pn": 4763,
      "▁twitter": 4764,
      "▁audi": 4765,
      "▁horaires": 4766,
      "▁bass": 4767,
      "cte": 4768,
      "▁micros": 4769,
      "▁favor": 4770,
      "▁original": 4771,
      "▁classement": 4772,
      "▁tableau": 4773,
      "▁tab": 4774,
      "lire": 4775,
      "▁300": 4776,
      "france": 4777,
      "▁coton": 4778,
      "▁grosses": 4779,
      "▁panier": 4780,
      "autom": 4781,
      "avis": 4782,
      "▁hu": 4783,
      "▁perd": 4784,
      "▁borde": 4785,
      "onnée": 4786,
      "▁contient": 4787,
      "▁utile": 4788,
      "▁principaux": 4789,
      "▁wil": 4790,
      "onnés": 4791,
      "▁câ": 4792,
      "▁printemps": 4793,
      "▁sanitaire": 4794,
      "▁salariés": 4795,
      "économie": 4796,
      "▁sept": 4797,
      "▁hos": 4798,
      "▁recherches": 4799,
      "▁visiteurs": 4800,
      "alle": 4801,
      "▁inscription": 4802,
      "▁domin": 4803,
      "▁enregistre": 4804,
      "▁sembl": 4805,
      "▁délai": 4806,
      "esses": 4807,
      "▁personnage": 4808,
      "hér": 4809,
      "▁coiff": 4810,
      "omp": 4811,
      "▁arrivée": 4812,
      "▁perte": 4813,
      "quées": 4814,
      "▁198": 4815,
      "▁siège": 4816,
      "▁rêve": 4817,
      "▁candidat": 4818,
      "▁dévoil": 4819,
      "▁signifie": 4820,
      "▁passant": 4821,
      "▁réponses": 4822,
      "…]": 4823,
      "raine": 4824,
      "▁relig": 4825,
      "▁étoiles": 4826,
      "▁construire": 4827,
      "▁détaill": 4828,
      "▁bénéfici": 4829,
      "cou": 4830,
      "alie": 4831,
      "▁john": 4832,
      "▁chaleure": 4833,
      "▁régime": 4834,
      "▁notes": 4835,
      "▁gri": 4836,
      "▁range": 4837,
      "▁faible": 4838,
      "▁tourisme": 4839,
      "▁écou": 4840,
      "ws": 4841,
      "midi": 4842,
      "▁auteur": 4843,
      "aj": 4844,
      "▁liés": 4845,
      "▁adultes": 4846,
      "▁cass": 4847,
      "▁responsabilité": 4848,
      "▁milliers": 4849,
      "aie": 4850,
      "ket": 4851,
      "▁dépend": 4852,
      "▁live": 4853,
      "▁bri": 4854,
      "▁inclus": 4855,
      "▁provin": 4856,
      "▁chev": 4857,
      "▁preuve": 4858,
      "▁organisé": 4859,
      "▁demain": 4860,
      "ics": 4861,
      "aliment": 4862,
      "ings": 4863,
      "▁mir": 4864,
      "▁mine": 4865,
      "▁christ": 4866,
      "ory": 4867,
      "▁secrét": 4868,
      "▁discu": 4869,
      "▁pourraient": 4870,
      "▁privée": 4871,
      "▁vérifier": 4872,
      "▁pok": 4873,
      "▁coach": 4874,
      "▁enseign": 4875,
      "▁scén": 4876,
      "▁enregistr": 4877,
      "▁luxe": 4878,
      "▁handicap": 4879,
      "▁final": 4880,
      "long": 4881,
      "ouest": 4882,
      "▁démocra": 4883,
      "▁voitures": 4884,
      "ulté": 4885,
      "▁côtés": 4886,
      "▁dj": 4887,
      "▁candidats": 4888,
      "▁domaines": 4889,
      "▁sing": 4890,
      "▁malheure": 4891,
      "▁essayer": 4892,
      "▁variété": 4893,
      "usage": 4894,
      "▁franch": 4895,
      "ultés": 4896,
      "▁électronique": 4897,
      "usé": 4898,
      "ouvrir": 4899,
      "▁bloc": 4900,
      "▁fonctionnalités": 4901,
      "▁étude": 4902,
      "▁gris": 4903,
      "▁tub": 4904,
      "▁roul": 4905,
      "8,": 4906,
      "neur": 4907,
      "▁@": 4908,
      "▁basse": 4909,
      "hiver": 4910,
      "▁viennent": 4911,
      "▁rénovation": 4912,
      "▁téléchargement": 4913,
      "gés": 4914,
      "▁bains": 4915,
      "▁bate": 4916,
      "▁mang": 4917,
      "entraî": 4918,
      "▁paix": 4919,
      "▁démarche": 4920,
      "▁marchés": 4921,
      "entrepr": 4922,
      "▁rare": 4923,
      "▁menu": 4924,
      "mat": 4925,
      "ingt": 4926,
      "▁impres": 4927,
      "▁composé": 4928,
      "▁merveille": 4929,
      "▁quit": 4930,
      "▁mêmes": 4931,
      "éries": 4932,
      "agent": 4933,
      "meub": 4934,
      "▁bref": 4935,
      "▁messages": 4936,
      "▁tenu": 4937,
      "ney": 4938,
      "▁cheval": 4939,
      "▁consultez": 4940,
      "▁pensez": 4941,
      "▁!!!": 4942,
      "▁renforcer": 4943,
      "▁bouton": 4944,
      "iness": 4945,
      "▁couverture": 4946,
      "las": 4947,
      "▁installer": 4948,
      "▁représente": 4949,
      "ica": 4950,
      "▁artisan": 4951,
      "opéra": 4952,
      "faire": 4953,
      "orge": 4954,
      "▁soutenir": 4955,
      "▁logiciels": 4956,
      "▁influ": 4957,
      "▁bis": 4958,
      "▁om": 4959,
      "▁informatique": 4960,
      "▁fraî": 4961,
      "▁pous": 4962,
      "▁alg": 4963,
      "▁rock": 4964,
      "▁particuliers": 4965,
      "▁renouvel": 4966,
      "▁martin": 4967,
      "▁accéder": 4968,
      "▁fonctions": 4969,
      "▁affich": 4970,
      "▁ios": 4971,
      "▁volonté": 4972,
      "airie": 4973,
      "ker": 4974,
      "▁ros": 4975,
      "▁centres": 4976,
      "▁avanc": 4977,
      "▁établissement": 4978,
      "▁pack": 4979,
      "▁dépens": 4980,
      "▁lond": 4981,
      "▁ajouté": 4982,
      "arc": 4983,
      "videmment": 4984,
      "▁aqu": 4985,
      "ood": 4986,
      "▁brit": 4987,
      "▁entrée": 4988,
      "▁chant": 4989,
      "▁desc": 4990,
      "▁canadi": 4991,
      "entissage": 4992,
      "▁bordeaux": 4993,
      "▁david": 4994,
      "3,": 4995,
      "cool": 4996,
      "oriz": 4997,
      "▁barb": 4998,
      "pin": 4999,
      "▁pau": 5000,
      "ni": 5001,
      "institu": 5002,
      "▁pédagog": 5003,
      "▁scolaire": 5004,
      "ophe": 5005,
      "chet": 5006,
      "arde": 5007,
      "iennes": 5008,
      "rimé": 5009,
      "▁jeunesse": 5010,
      "extérieur": 5011,
      "▁engagement": 5012,
      "75": 5013,
      "cipe": 5014,
      "agnos": 5015,
      "▁gourm": 5016,
      "igueur": 5017,
      "duire": 5018,
      "▁coul": 5019,
      "▁réglement": 5020,
      "▁majorité": 5021,
      "▁ski": 5022,
      "▁deme": 5023,
      "ére": 5024,
      "entrer": 5025,
      "▁opportun": 5026,
      "lise": 5027,
      "▁puisse": 5028,
      "▁tellement": 5029,
      "▁vall": 5030,
      "▁apple": 5031,
      "cent": 5032,
      "▁math": 5033,
      "là": 5034,
      "▁fas": 5035,
      "oile": 5036,
      "▁montréal": 5037,
      "▁diz": 5038,
      "face": 5039,
      "▁atteindre": 5040,
      "▁tunis": 5041,
      "▁niveaux": 5042,
      "ott": 5043,
      "▁goû": 5044,
      "▁beur": 5045,
      "▁instagram": 5046,
      "lect": 5047,
      "aw": 5048,
      "ull": 5049,
      "▁2,": 5050,
      "▁offrant": 5051,
      "administration": 5052,
      "érir": 5053,
      "▁2012": 5054,
      "▁allons": 5055,
      "▁hui": 5056,
      "aude": 5057,
      "▁ambiance": 5058,
      "▁modifier": 5059,
      "▁certainement": 5060,
      "irus": 5061,
      "▁privilég": 5062,
      "▁mens": 5063,
      "▁dispositif": 5064,
      "initi": 5065,
      "▁brun": 5066,
      "gez": 5067,
      "▁suffis": 5068,
      "▁pêche": 5069,
      "”,": 5070,
      "▁jolie": 5071,
      "▁plats": 5072,
      "obile": 5073,
      "▁transpar": 5074,
      "ep": 5075,
      "▁wor": 5076,
      "▁décl": 5077,
      "▁longueur": 5078,
      "▁distribution": 5079,
      "licité": 5080,
      "▁financement": 5081,
      "▁rédaction": 5082,
      "▁indépend": 5083,
      "▁tenir": 5084,
      "▁effectivement": 5085,
      "ola": 5086,
      "▁maître": 5087,
      "▁pen": 5088,
      "▁sm": 5089,
      "ignements": 5090,
      "prés": 5091,
      "▁emploi": 5092,
      ":00": 5093,
      "▁telle": 5094,
      "can": 5095,
      "▁arriver": 5096,
      "▁[…]": 5097,
      "▁fiche": 5098,
      "▁faudra": 5099,
      "ja": 5100,
      "▁cadeaux": 5101,
      "▁ev": 5102,
      "▁bilan": 5103,
      "gée": 5104,
      "gne": 5105,
      "▁encour": 5106,
      "▁patients": 5107,
      "ray": 5108,
      "orté": 5109,
      "esti": 5110,
      "▁fib": 5111,
      "▁revenir": 5112,
      "▁rh": 5113,
      "ibilité": 5114,
      "▁stress": 5115,
      "trop": 5116,
      "allé": 5117,
      "▁jet": 5118,
      "▁ur": 5119,
      "rix": 5120,
      "▁convivi": 5121,
      "aéroport": 5122,
      "▁chan": 5123,
      "indi": 5124,
      "▁demandes": 5125,
      "▁penser": 5126,
      "▁phase": 5127,
      "entin": 5128,
      "▁fournit": 5129,
      "▁ém": 5130,
      "ouvertes": 5131,
      "▁désir": 5132,
      "▁smartphone": 5133,
      "bilités": 5134,
      "▁surprise": 5135,
      "aluation": 5136,
      "7,": 5137,
      "arn": 5138,
      "▁trés": 5139,
      "ura": 5140,
      "▁chim": 5141,
      "▁06": 5142,
      "▁montrer": 5143,
      "▁extrême": 5144,
      "cice": 5145,
      "ycl": 5146,
      "▁principale": 5147,
      "▁plastique": 5148,
      "▁clin": 5149,
      "attend": 5150,
      "▁génération": 5151,
      "▁spécifique": 5152,
      "▁lancement": 5153,
      "▁métiers": 5154,
      "▁nicol": 5155,
      "▁pâte": 5156,
      "▁diagnos": 5157,
      "▁veulent": 5158,
      "▁offrent": 5159,
      "agée": 5160,
      "▁attendre": 5161,
      "▁sociétés": 5162,
      "ifi": 5163,
      "orn": 5164,
      "delà": 5165,
      "▁régl": 5166,
      "▁gren": 5167,
      "▁report": 5168,
      "▁obligatoire": 5169,
      "▁commandes": 5170,
      "cipl": 5171,
      "mos": 5172,
      "vant": 5173,
      "▁approche": 5174,
      "▁déjeuner": 5175,
      "▁prises": 5176,
      "▁associations": 5177,
      "rine": 5178,
      "tons": 5179,
      "▁sté": 5180,
      "igh": 5181,
      "▁poign": 5182,
      "▁déli": 5183,
      "▁sources": 5184,
      "...)": 5185,
      "▁fermeture": 5186,
      "▁standard": 5187,
      "▁utilisés": 5188,
      "▁caractère": 5189,
      "veillance": 5190,
      "▁vingt": 5191,
      "▁garantir": 5192,
      "atri": 5193,
      "▁ait": 5194,
      "▁pointe": 5195,
      "▁difficultés": 5196,
      "▁navigateur": 5197,
      "êté": 5198,
      "alise": 5199,
      "▁resse": 5200,
      "impression": 5201,
      "▁désire": 5202,
      "35": 5203,
      "▁tient": 5204,
      "▁biblioth": 5205,
      "▁investisse": 5206,
      "ressi": 5207,
      "▁aper": 5208,
      "▁simples": 5209,
      "▁envoyer": 5210,
      "ary": 5211,
      "▁immédiatement": 5212,
      "▁envis": 5213,
      "▁traite": 5214,
      "▁up": 5215,
      "uster": 5216,
      "▁juri": 5217,
      "▁py": 5218,
      "▁signe": 5219,
      "▁critique": 5220,
      "acte": 5221,
      "▁inde": 5222,
      "ériques": 5223,
      "autes": 5224,
      "ini": 5225,
      "tit": 5226,
      "moins": 5227,
      "▁débar": 5228,
      "▁amazon": 5229,
      "▁dédié": 5230,
      "▁critères": 5231,
      "▁écoles": 5232,
      "▁riches": 5233,
      "▁chasse": 5234,
      "▁maman": 5235,
      "ourner": 5236,
      "▁mainten": 5237,
      "▁book": 5238,
      "▁bern": 5239,
      "▁anniversaire": 5240,
      "▁interne": 5241,
      "▁atten": 5242,
      "▁faciliter": 5243,
      "▁supérieur": 5244,
      "▁intellig": 5245,
      "▁boute": 5246,
      "▁obten": 5247,
      "▁150": 5248,
      "▁philippe": 5249,
      "pects": 5250,
      "▁légumes": 5251,
      "▁chang": 5252,
      "▁flex": 5253,
      "▁dirig": 5254,
      "▁lis": 5255,
      "▁brill": 5256,
      "▁attentes": 5257,
      "▁titres": 5258,
      "léch": 5259,
      "play": 5260,
      "▁multiples": 5261,
      "▁fan": 5262,
      "▁kar": 5263,
      "▁locale": 5264,
      "alisme": 5265,
      "▁cd": 5266,
      "▁tapis": 5267,
      "▁technic": 5268,
      "▁baisse": 5269,
      "▁soph": 5270,
      "▁pouss": 5271,
      "▁spe": 5272,
      "▁©": 5273,
      "6,": 5274,
      "clé": 5275,
      "▁régions": 5276,
      "▁portable": 5277,
      "▁extérieur": 5278,
      "▁fêtes": 5279,
      "/10": 5280,
      "fran": 5281,
      "obtenir": 5282,
      "▁pand": 5283,
      "▁céli": 5284,
      "▁juli": 5285,
      "▁tôt": 5286,
      "▁ru": 5287,
      "▁amélior": 5288,
      "▁rond": 5289,
      "erte": 5290,
      "▁opérations": 5291,
      "ranger": 5292,
      "▁exist": 5293,
      "ial": 5294,
      "ario": 5295,
      "▁centrale": 5296,
      "▁équilib": 5297,
      "▁maintenir": 5298,
      "▁noire": 5299,
      "▁may": 5300,
      "▁décis": 5301,
      "▁mos": 5302,
      "▁proven": 5303,
      "▁moul": 5304,
      "▁européen": 5305,
      "▁esth": 5306,
      "▁spécifiques": 5307,
      "▁profond": 5308,
      ".000": 5309,
      "▁connecter": 5310,
      "▁professeur": 5311,
      "▁volume": 5312,
      "▁élection": 5313,
      "▁apporte": 5314,
      "agnes": 5315,
      "sa": 5316,
      "▁analys": 5317,
      "▁royaume": 5318,
      "uent": 5319,
      "analyse": 5320,
      "gues": 5321,
      "▁toulouse": 5322,
      "▁infos": 5323,
      "charger": 5324,
      "▁normes": 5325,
      "▁pouvant": 5326,
      "▁compétition": 5327,
      "▁concent": 5328,
      "▁présents": 5329,
      "▁principales": 5330,
      "atta": 5331,
      "▁respecter": 5332,
      "ene": 5333,
      "▁résistance": 5334,
      "ye": 5335,
      "▁youtube": 5336,
      "ald": 5337,
      "▁mairie": 5338,
      "▁associé": 5339,
      "▁garan": 5340,
      "▁âge": 5341,
      "▁actualités": 5342,
      "▁méthodes": 5343,
      "▁délais": 5344,
      "trer": 5345,
      "▁batterie": 5346,
      "▁indispensable": 5347,
      "▁camping": 5348,
      "▁convain": 5349,
      "▁supérieure": 5350,
      "▁sauf": 5351,
      "pg": 5352,
      "▁calend": 5353,
      "▁sciences": 5354,
      "▁restauration": 5355,
      "▁rythme": 5356,
      "▁correc": 5357,
      "▁tir": 5358,
      "▁médecin": 5359,
      "▁amp": 5360,
      "▁revient": 5361,
      "▁rembour": 5362,
      "▁blan": 5363,
      "▁fid": 5364,
      "▁invités": 5365,
      "▁fur": 5366,
      "▁monsieur": 5367,
      "▁sexy": 5368,
      "▁mol": 5369,
      "aint": 5370,
      "▁sand": 5371,
      "▁championnat": 5372,
      "▁américaine": 5373,
      "▁box": 5374,
      "utri": 5375,
      "▁expé": 5376,
      "osse": 5377,
      "époque": 5378,
      "▁responsables": 5379,
      "égal": 5380,
      "▁évidemment": 5381,
      "99": 5382,
      "▁business": 5383,
      "▁magazine": 5384,
      "▁team": 5385,
      "▁amateurs": 5386,
      "▁dimin": 5387,
      "▁montagne": 5388,
      "▁principe": 5389,
      "▁douceur": 5390,
      "ogne": 5391,
      "avance": 5392,
      "▁cérém": 5393,
      "sc": 5394,
      "▁york": 5395,
      "▁délég": 5396,
      "▁idéale": 5397,
      "tration": 5398,
      "▁formule": 5399,
      "feu": 5400,
      "▁supplémentaire": 5401,
      "étais": 5402,
      "▁girl": 5403,
      "▁artistique": 5404,
      "▁leader": 5405,
      "▁réparation": 5406,
      "▁sérieux": 5407,
      "▁mété": 5408,
      "▁secret": 5409,
      "▁assurance": 5410,
      "alisé": 5411,
      "▁apport": 5412,
      "lie": 5413,
      "▁bijoux": 5414,
      "▁célib": 5415,
      "▁retraite": 5416,
      "▁kg": 5417,
      "▁caméra": 5418,
      "▁louis": 5419,
      "▁essentiel": 5420,
      "▁tch": 5421,
      "orisation": 5422,
      "ste": 5423,
      "fié": 5424,
      "▁veille": 5425,
      "▁débat": 5426,
      "pi": 5427,
      "pit": 5428,
      "bit": 5429,
      "ico": 5430,
      "▁contenus": 5431,
      "▁entour": 5432,
      "limin": 5433,
      "▁portée": 5434,
      "atoires": 5435,
      "▁collectif": 5436,
      "oncer": 5437,
      "▁labor": 5438,
      "▁hausse": 5439,
      "uré": 5440,
      "▁restaurants": 5441,
      "33": 5442,
      "▁front": 5443,
      "▁!!": 5444,
      "▁excellente": 5445,
      "▁magasins": 5446,
      "▁arts": 5447,
      "évolution": 5448,
      "▁instant": 5449,
      "▁plateau": 5450,
      "▁établissements": 5451,
      "▁analyse": 5452,
      "▁fé": 5453,
      "occup": 5454,
      "▁comptes": 5455,
      "▁ciel": 5456,
      "hen": 5457,
      "auff": 5458,
      "▁aéri": 5459,
      "▁mig": 5460,
      "▁justif": 5461,
      "més": 5462,
      "▁considéra": 5463,
      "▁bab": 5464,
      "▁gare": 5465,
      "▁savez": 5466,
      "▁48": 5467,
      "▁ham": 5468,
      "▁salope": 5469,
      "▁diffusion": 5470,
      "▁malheureusement": 5471,
      "last": 5472,
      "▁superbe": 5473,
      "▁dec": 5474,
      "▁possibilités": 5475,
      "▁gab": 5476,
      "ajou": 5477,
      "fer": 5478,
      "▁légère": 5479,
      "▁victimes": 5480,
      "▁newslet": 5481,
      "aitre": 5482,
      "tte": 5483,
      "▁anciens": 5484,
      "▁conven": 5485,
      "uts": 5486,
      "isés": 5487,
      "itive": 5488,
      "▁rentrée": 5489,
      "exer": 5490,
      "▁défi": 5491,
      "5,": 5492,
      "▁alimentaire": 5493,
      "cy": 5494,
      "▁dent": 5495,
      "▁chargé": 5496,
      "▁out": 5497,
      "▁asse": 5498,
      "▁cité": 5499,
      "▁aventure": 5500,
      "effectu": 5501,
      "▁condam": 5502,
      "run": 5503,
      "irer": 5504,
      "arg": 5505,
      "▁hol": 5506,
      "▁école": 5507,
      "▁serrur": 5508,
      "▁sui": 5509,
      "▁tests": 5510,
      "formes": 5511,
      "umeur": 5512,
      "ount": 5513,
      "||0": 5514,
      "▁loisirs": 5515,
      "▁bol": 5516,
      "oquer": 5517,
      "▁stage": 5518,
      "▁ax": 5519,
      "▁microsoft": 5520,
      "fond": 5521,
      "▁cherchez": 5522,
      "oqué": 5523,
      "▁toil": 5524,
      "▁isol": 5525,
      "▁tax": 5526,
      "▁arrière": 5527,
      "▁réussite": 5528,
      "▁combien": 5529,
      "ignez": 5530,
      "▁lamp": 5531,
      "mbler": 5532,
      "▁bais": 5533,
      "▁incontourn": 5534,
      "▁britann": 5535,
      "▁fron": 5536,
      "▁tribun": 5537,
      "▁esprit": 5538,
      "▁tranqu": 5539,
      "euse": 5540,
      "▁constat": 5541,
      "▁pant": 5542,
      "▁midi": 5543,
      "▁nicolas": 5544,
      "▁bouche": 5545,
      "areil": 5546,
      "ignon": 5547,
      "honneur": 5548,
      "▁36": 5549,
      "▁énergétique": 5550,
      "▁circulation": 5551,
      "▁appelé": 5552,
      "pier": 5553,
      "▁amen": 5554,
      "▁kilom": 5555,
      "▁pron": 5556,
      "▁stockage": 5557,
      "▁fini": 5558,
      "isl": 5559,
      "enseignement": 5560,
      "intég": 5561,
      "▁coups": 5562,
      "oubl": 5563,
      "▁charme": 5564,
      "▁gel": 5565,
      "▁fréqu": 5566,
      "▁intéressant": 5567,
      "tionnelle": 5568,
      "▁rang": 5569,
      "▁roi": 5570,
      "excell": 5571,
      "ays": 5572,
      "▁thom": 5573,
      "▁connais": 5574,
      "▁complexe": 5575,
      "▁accueillir": 5576,
      "▁appropri": 5577,
      "▁game": 5578,
      "▁cuisson": 5579,
      "aye": 5580,
      "▁réserve": 5581,
      "▁forc": 5582,
      "▁acier": 5583,
      "▁moto": 5584,
      "▁home": 5585,
      "▁ic": 5586,
      "▁chaude": 5587,
      "▁regr": 5588,
      "▁voire": 5589,
      "▁chiffre": 5590,
      "▁jaune": 5591,
      "entielle": 5592,
      "cin": 5593,
      "▁déclaration": 5594,
      "ieuses": 5595,
      "exper": 5596,
      "exposition": 5597,
      "▁composition": 5598,
      "▁matières": 5599,
      "▁reprise": 5600,
      "▁pér": 5601,
      "▁mp": 5602,
      "▁talent": 5603,
      "▁inqui": 5604,
      "▁aimer": 5605,
      "▁déchets": 5606,
      "▁récomp": 5607,
      "▁espagn": 5608,
      "▁dehors": 5609,
      "▁feuilles": 5610,
      "itifs": 5611,
      "▁barre": 5612,
      "acheter": 5613,
      "▁suivez": 5614,
      "▁enquête": 5615,
      "▁indique": 5616,
      "▁4.": 5617,
      "téri": 5618,
      "pas": 5619,
      "▁rad": 5620,
      "▁01": 5621,
      "▁amoureux": 5622,
      "▁suivants": 5623,
      "afrique": 5624,
      "ourir": 5625,
      "▁vise": 5626,
      "▁invite": 5627,
      "▁marc": 5628,
      "▁parlement": 5629,
      "▁jamb": 5630,
      "▁détente": 5631,
      "▁ko": 5632,
      "tation": 5633,
      "▁spécialisée": 5634,
      "▁fc": 5635,
      "▁employés": 5636,
      "ologue": 5637,
      "▁entendu": 5638,
      "reur": 5639,
      "▁surv": 5640,
      "▁bet": 5641,
      "▁chinois": 5642,
      "▁vins": 5643,
      "▁joli": 5644,
      "--------": 5645,
      "▁coron": 5646,
      "▁avoc": 5647,
      "▁brux": 5648,
      "ena": 5649,
      "▁moitié": 5650,
      "▁intro": 5651,
      "▁vaut": 5652,
      "▁proposés": 5653,
      "inscription": 5654,
      "▁jack": 5655,
      "▁gras": 5656,
      "ky": 5657,
      "▁sha": 5658,
      "▁astuces": 5659,
      "lastname": 5660,
      "▁show": 5661,
      "▁attrib": 5662,
      "chée": 5663,
      "▁premium": 5664,
      "▁consiste": 5665,
      "▁lé": 5666,
      "▁dépôt": 5667,
      "▁procédure": 5668,
      "▁chiffres": 5669,
      "▁probablement": 5670,
      "▁animal": 5671,
      "▁arg": 5672,
      "insp": 5673,
      "▁dor": 5674,
      "▁spir": 5675,
      "▁serveur": 5676,
      "amp": 5677,
      "▁léger": 5678,
      "ortement": 5679,
      "anmoins": 5680,
      "▁collaborateurs": 5681,
      "▁bourg": 5682,
      "▁planète": 5683,
      "▁révolution": 5684,
      "▁sinon": 5685,
      "ya": 5686,
      "▁interpr": 5687,
      "▁personnelles": 5688,
      "▁ed": 5689,
      "▁cry": 5690,
      "▁déco": 5691,
      "▁traditionn": 5692,
      "iée": 5693,
      "▁expériences": 5694,
      "▁dam": 5695,
      "▁tours": 5696,
      "▁puisqu": 5697,
      "▁oppos": 5698,
      "▁record": 5699,
      "▁amén": 5700,
      "▁affaire": 5701,
      "▁virtu": 5702,
      "▁doig": 5703,
      "environ": 5704,
      "▁tester": 5705,
      "78": 5706,
      "agir": 5707,
      "▁chic": 5708,
      "êtement": 5709,
      "▁produire": 5710,
      "▁joie": 5711,
      "tienne": 5712,
      "▁hd": 5713,
      "▁bite": 5714,
      "▁basé": 5715,
      "lié": 5716,
      "▁impact": 5717,
      "▁exter": 5718,
      "▁09": 5719,
      "▁sommet": 5720,
      "gies": 5721,
      "▁discussion": 5722,
      "▁solide": 5723,
      "hol": 5724,
      "▁recommande": 5725,
      "▁expert": 5726,
      "▁augmenter": 5727,
      "uant": 5728,
      "▁affec": 5729,
      "▁transports": 5730,
      "uter": 5731,
      "▁néanmoins": 5732,
      "▁capital": 5733,
      "orel": 5734,
      "▁automatiquement": 5735,
      "▁murs": 5736,
      "▁spécial": 5737,
      "▁métrop": 5738,
      "▁fati": 5739,
      "▁espè": 5740,
      "▁lettres": 5741,
      "▁rab": 5742,
      "▁financière": 5743,
      "▁statis": 5744,
      "▁jud": 5745,
      "▁tut": 5746,
      "isses": 5747,
      "▁graphique": 5748,
      "▁marchand": 5749,
      "▁billet": 5750,
      "▁forêt": 5751,
      "écoute": 5752,
      "▁synth": 5753,
      "▁actuelle": 5754,
      "ourt": 5755,
      "▁énergie": 5756,
      "ding": 5757,
      "isent": 5758,
      "▁·": 5759,
      "▁tiss": 5760,
      "26": 5761,
      "▁impossible": 5762,
      "lit": 5763,
      "▁nul": 5764,
      "▁hall": 5765,
      "inv": 5766,
      "orth": 5767,
      "▁peuple": 5768,
      "▁fédération": 5769,
      "▁possibles": 5770,
      "archite": 5771,
      "artiste": 5772,
      "igu": 5773,
      "asp": 5774,
      "▁recev": 5775,
      "▁proposent": 5776,
      "▁règlement": 5777,
      "▁conduite": 5778,
      "▁cycl": 5779,
      "▁occu": 5780,
      "▁capac": 5781,
      "▁populaires": 5782,
      "lectricité": 5783,
      "▁acqu": 5784,
      "▁master": 5785,
      "▁interview": 5786,
      "▁voc": 5787,
      "▁mobilier": 5788,
      "option": 5789,
      "mun": 5790,
      "▁citoyens": 5791,
      "outil": 5792,
      "phère": 5793,
      "▁lecteur": 5794,
      "▁isra": 5795,
      "tension": 5796,
      "dier": 5797,
      "▁locales": 5798,
      "▁biens": 5799,
      "▁world": 5800,
      "ottes": 5801,
      "▁stim": 5802,
      "▁oublier": 5803,
      "otes": 5804,
      "▁atteint": 5805,
      "▁colis": 5806,
      "▁conscience": 5807,
      "▁plong": 5808,
      "▁électriques": 5809,
      "▁utilisée": 5810,
      "…)": 5811,
      "▁adulte": 5812,
      "▁nutri": 5813,
      "▁totale": 5814,
      "▁exposition": 5815,
      "▁suivantes": 5816,
      "▁figur": 5817,
      "▁originale": 5818,
      "▁pharmac": 5819,
      "quide": 5820,
      "▁cav": 5821,
      "▁pain": 5822,
      "▁clientèle": 5823,
      "▁thém": 5824,
      "aug": 5825,
      "▁revenus": 5826,
      "▁rich": 5827,
      "andre": 5828,
      "▁textes": 5829,
      "28": 5830,
      "▁central": 5831,
      "▁hydra": 5832,
      "émission": 5833,
      "▁transition": 5834,
      "▁vaste": 5835,
      "▁importants": 5836,
      "▁opération": 5837,
      "▁fier": 5838,
      "▁agents": 5839,
      "▁firstname": 5840,
      "tc": 5841,
      "▁leg": 5842,
      "▁digital": 5843,
      "▁meur": 5844,
      "▁satisfait": 5845,
      "avons": 5846,
      "▁secrétaire": 5847,
      "gration": 5848,
      "▁conserver": 5849,
      "ali": 5850,
      "▁relative": 5851,
      "▁audio": 5852,
      "▁mme": 5853,
      "fications": 5854,
      "ébergement": 5855,
      "▁élément": 5856,
      "espère": 5857,
      "mine": 5858,
      "▁réserver": 5859,
      "▁canap": 5860,
      "blement": 5861,
      "▁fondation": 5862,
      "▁sportif": 5863,
      "▁impressionn": 5864,
      "atin": 5865,
      "▁chante": 5866,
      "▁modu": 5867,
      "▁rd": 5868,
      "ulé": 5869,
      "orez": 5870,
      "▁sentiment": 5871,
      "œil": 5872,
      "▁largement": 5873,
      "▁cérémonie": 5874,
      "nation": 5875,
      "importance": 5876,
      "”.": 5877,
      "itch": 5878,
      "▁huit": 5879,
      "100": 5880,
      "als": 5881,
      "▁victime": 5882,
      "▁chanson": 5883,
      "▁perspec": 5884,
      "▁déplacement": 5885,
      "▁city": 5886,
      "▁épisode": 5887,
      "alb": 5888,
      "▁ouvrir": 5889,
      "▁palais": 5890,
      "▁incroyable": 5891,
      "tig": 5892,
      "inaires": 5893,
      "▁sen": 5894,
      "▁comporte": 5895,
      "▁will": 5896,
      "▁compréh": 5897,
      "▁content": 5898,
      "▁facteurs": 5899,
      "▁rappelle": 5900,
      "▁profondeur": 5901,
      "▁assi": 5902,
      "affi": 5903,
      "▁ajoutez": 5904,
      "raîch": 5905,
      "my": 5906,
      "▁participe": 5907,
      "▁gratuites": 5908,
      "œuvre": 5909,
      "▁chir": 5910,
      "▁humain": 5911,
      "tence": 5912,
      "▁licence": 5913,
      "ren": 5914,
      "tisme": 5915,
      "▁management": 5916,
      "icat": 5917,
      "med": 5918,
      "▁usage": 5919,
      "▁élev": 5920,
      "▁exclusive": 5921,
      "▁coordonn": 5922,
      "▁cb": 5923,
      "za": 5924,
      "avirus": 5925,
      "manuel": 5926,
      "▁potentiel": 5927,
      "▁exigences": 5928,
      "quettes": 5929,
      "gon": 5930,
      "▁soup": 5931,
      "▁seuls": 5932,
      "▁neige": 5933,
      "▁joué": 5934,
      "nées": 5935,
      "▁masque": 5936,
      "leurs": 5937,
      "agric": 5938,
      "▁that": 5939,
      "▁poul": 5940,
      "▁garage": 5941,
      "▁économiques": 5942,
      "uminium": 5943,
      "naire": 5944,
      "▁codes": 5945,
      "▁obtenu": 5946,
      "▁séries": 5947,
      "▁orange": 5948,
      "▁dessins": 5949,
      "▁flux": 5950,
      "▁finir": 5951,
      "▁nice": 5952,
      "▁mauvais": 5953,
      "▁champion": 5954,
      "▁soul": 5955,
      "▁2000": 5956,
      "▁dates": 5957,
      "▁déplace": 5958,
      "▁secondes": 5959,
      "▁rafraîch": 5960,
      "▁adress": 5961,
      "▁toile": 5962,
      "▁reconnu": 5963,
      "ends": 5964,
      "tiens": 5965,
      "▁prime": 5966,
      "▁montage": 5967,
      "événement": 5968,
      "ios": 5969,
      "▁statut": 5970,
      "▁recrutement": 5971,
      "▁scientifique": 5972,
      "▁légèrement": 5973,
      "▁beurre": 5974,
      "▁macron": 5975,
      "▁bracel": 5976,
      "illé": 5977,
      "ystème": 5978,
      "▁secteurs": 5979,
      "▁connect": 5980,
      "▁iv": 5981,
      "deurs": 5982,
      "aies": 5983,
      "ographique": 5984,
      "agés": 5985,
      "▁liées": 5986,
      "▁32": 5987,
      "▁signé": 5988,
      "▁entrepren": 5989,
      "▁visites": 5990,
      "▁absolument": 5991,
      "▁zo": 5992,
      "▁mel": 5993,
      "▁frag": 5994,
      "▁russie": 5995,
      "▁auteurs": 5996,
      "▁patron": 5997,
      "▁imprim": 5998,
      "▁enjeux": 5999,
      "▁huile": 6000,
      "▁2011": 6001,
      "▁lev": 6002,
      "apprentissage": 6003,
      "ueill": 6004,
      "ouverts": 6005,
      "itées": 6006,
      "▁online": 6007,
      "▁installations": 6008,
      "innovation": 6009,
      "▁calendrier": 6010,
      "▁ingén": 6011,
      "née": 6012,
      "▁résumé": 6013,
      "▁dossiers": 6014,
      "▁sert": 6015,
      "inée": 6016,
      "▁400": 6017,
      "▁fenêtre": 6018,
      "▁forcément": 6019,
      "▁élections": 6020,
      "▁réfléch": 6021,
      "aissent": 6022,
      "riel": 6023,
      "oppos": 6024,
      "▁installé": 6025,
      "▁sorties": 6026,
      "▁devoir": 6027,
      "▁prévention": 6028,
      "▁loire": 6029,
      "▁offert": 6030,
      "▁devraient": 6031,
      "▁allemand": 6032,
      "▁patient": 6033,
      "▁confidenti": 6034,
      "▁galerie": 6035,
      "uste": 6036,
      "▁développé": 6037,
      "▁led": 6038,
      "▁sams": 6039,
      "▁promen": 6040,
      "▁histoires": 6041,
      "▁dér": 6042,
      "prix": 6043,
      "aventure": 6044,
      "▁climat": 6045,
      "▁bénév": 6046,
      "▁hon": 6047,
      "ami": 6048,
      "estes": 6049,
      "alon": 6050,
      "▁monter": 6051,
      "▁décès": 6052,
      "assemblée": 6053,
      "▁remplacement": 6054,
      "▁personnalisé": 6055,
      "▁vice": 6056,
      "▁édi": 6057,
      "ora": 6058,
      "▁prolong": 6059,
      "▁plaf": 6060,
      "...]": 6061,
      "▁pne": 6062,
      "rime": 6063,
      "chauff": 6064,
      "oncé": 6065,
      "gh": 6066,
      "▁coûte": 6067,
      "▁poursuivre": 6068,
      "▁chaise": 6069,
      "▁naturels": 6070,
      "occu": 6071,
      "▁catégories": 6072,
      "ètes": 6073,
      "▁modes": 6074,
      "▁journaliste": 6075,
      "▁chantier": 6076,
      "▁quin": 6077,
      "▁corp": 6078,
      "angere": 6079,
      "▁minute": 6080,
      "▁pilote": 6081,
      "▁écr": 6082,
      "▁tiers": 6083,
      "▁lende": 6084,
      "▁capacités": 6085,
      "▁quas": 6086,
      "▁maîtrise": 6087,
      "▁exac": 6088,
      "rick": 6089,
      "27": 6090,
      "▁expertise": 6091,
      "▁confront": 6092,
      "▁disp": 6093,
      "▁récl": 6094,
      "uc": 6095,
      "▁dure": 6096,
      "▁33": 6097,
      "▁réussir": 6098,
      "▁propriétaires": 6099,
      "▁séances": 6100,
      "iale": 6101,
      "▁laurent": 6102,
      "améliorer": 6103,
      "▁remont": 6104,
      "▁défis": 6105,
      "▁renseignements": 6106,
      "chons": 6107,
      "▁ii": 6108,
      "▁humaine": 6109,
      "▁intérieure": 6110,
      "▁londres": 6111,
      "▁mc": 6112,
      "▁eaux": 6113,
      "▁spéciale": 6114,
      "▁croire": 6115,
      "ptions": 6116,
      "hôpital": 6117,
      "▁fit": 6118,
      "▁racont": 6119,
      "▁vel": 6120,
      "▁coronavirus": 6121,
      "▁accueille": 6122,
      "▁newsletter": 6123,
      "▁parole": 6124,
      "ala": 6125,
      "▁restent": 6126,
      "cessite": 6127,
      "▁plant": 6128,
      "institut": 6129,
      "▁profit": 6130,
      "▁trouvent": 6131,
      "▁auront": 6132,
      "▁réalisée": 6133,
      "▁sensibil": 6134,
      "▁dî": 6135,
      "▁2020,": 6136,
      "dits": 6137,
      "▁dépann": 6138,
      "▁rat": 6139,
      "cule": 6140,
      "▁sociales": 6141,
      "tian": 6142,
      "rastru": 6143,
      "▁dangere": 6144,
      "▁appren": 6145,
      "▁identi": 6146,
      "tou": 6147,
      "▁rangement": 6148,
      "▁extrêmement": 6149,
      "truction": 6150,
      "ènement": 6151,
      "sière": 6152,
      "gées": 6153,
      "▁disting": 6154,
      "▁diagnostic": 6155,
      "▁expliqué": 6156,
      "▁protég": 6157,
      "▁arrêt": 6158,
      "▁matern": 6159,
      "attention": 6160,
      "affaire": 6161,
      "▁coûts": 6162,
      "▁sainte": 6163,
      "ivier": 6164,
      "▁maur": 6165,
      "▁garantiss": 6166,
      "berg": 6167,
      "▁spécialisé": 6168,
      "ails": 6169,
      "▁prison": 6170,
      "▁plain": 6171,
      "zy": 6172,
      "▁consommateurs": 6173,
      "▁situations": 6174,
      "▁circuit": 6175,
      "▁joy": 6176,
      "▁tribunal": 6177,
      "olesc": 6178,
      "▁transformation": 6179,
      "quisition": 6180,
      "▁charges": 6181,
      "ône": 6182,
      "▁utiles": 6183,
      "▁tenter": 6184,
      "non": 6185,
      "▁envoyé": 6186,
      "▁échanges": 6187,
      "▁vé": 6188,
      "▁figure": 6189,
      "▁précédent": 6190,
      "▁afrique": 6191,
      "▁langues": 6192,
      "▁adaptés": 6193,
      "▁organiser": 6194,
      "▁réflexion": 6195,
      "▁cle": 6196,
      "dy": 6197,
      "▁occup": 6198,
      "▁russe": 6199,
      "▁adaptée": 6200,
      "tée": 6201,
      "**": 6202,
      "otique": 6203,
      "inde": 6204,
      "▁prestation": 6205,
      "▁ml": 6206,
      "▁arrivé": 6207,
      "atelier": 6208,
      "▁fum": 6209,
      "avier": 6210,
      "dent": 6211,
      "▁ouverture": 6212,
      "▁carre": 6213,
      "▁similaires": 6214,
      "▁(1": 6215,
      "▁logo": 6216,
      "oniques": 6217,
      "▁suivante": 6218,
      "▁04": 6219,
      "▁dan": 6220,
      "▁harm": 6221,
      "ical": 6222,
      "▁vib": 6223,
      "▁acheté": 6224,
      "▁best": 6225,
      "▁récol": 6226,
      "▁accro": 6227,
      "▁constitue": 6228,
      "▁lesquels": 6229,
      "▁lendemain": 6230,
      "▁cycle": 6231,
      "iction": 6232,
      "▁nécessite": 6233,
      "▁comportement": 6234,
      "▁samsung": 6235,
      "▁bruxelles": 6236,
      "▁créée": 6237,
      "▁élimin": 6238,
      "▁allant": 6239,
      "▁crypt": 6240,
      "tible": 6241,
      "atisation": 6242,
      "oudre": 6243,
      "▁08": 6244,
      "ark": 6245,
      "▁avantage": 6246,
      "▁vraie": 6247,
      "▁tac": 6248,
      "▁discuter": 6249,
      "▁revue": 6250,
      "▁nantes": 6251,
      "nd": 6252,
      "▁découvert": 6253,
      "▁styles": 6254,
      "▁militaire": 6255,
      "▁raconte": 6256,
      "▁engage": 6257,
      "imag": 6258,
      "église": 6259,
      "▁science": 6260,
      "▁actif": 6261,
      "▁tâches": 6262,
      "▁obser": 6263,
      "▁accompagne": 6264,
      "▁champs": 6265,
      "▁virus": 6266,
      "▁bad": 6267,
      "▁mobilité": 6268,
      "▁pure": 6269,
      "▁signal": 6270,
      "investissement": 6271,
      "▁écologique": 6272,
      "vies": 6273,
      "▁réduit": 6274,
      "▁hommage": 6275,
      "▁longues": 6276,
      "effic": 6277,
      "▁enn": 6278,
      "▁hi": 6279,
      "▁bit": 6280,
      "▁accompagné": 6281,
      "▁paramètres": 6282,
      "ettez": 6283,
      "▁fraîche": 6284,
      "riers": 6285,
      "▁hôtels": 6286,
      "▁faveur": 6287,
      "▁fortement": 6288,
      "uves": 6289,
      "▁fabriqué": 6290,
      "▁0,": 6291,
      "▁porté": 6292,
      "rég": 6293,
      "eth": 6294,
      "▁quitter": 6295,
      "▁uk": 6296,
      "▁législ": 6297,
      "▁bateau": 6298,
      "édie": 6299,
      "▁assurez": 6300,
      "aider": 6301,
      "nant": 6302,
      "cis": 6303,
      "▁théor": 6304,
      "▁forfait": 6305,
      "▁philos": 6306,
      "▁gagne": 6307,
      "▁avent": 6308,
      "▁vols": 6309,
      "▁jacques": 6310,
      "▁modification": 6311,
      "sp": 6312,
      "▁publiée": 6313,
      "▁efforts": 6314,
      "▁spa": 6315,
      "▁conséquences": 6316,
      "▁difficulté": 6317,
      "▁mys": 6318,
      "▁remplacer": 6319,
      "▁our": 6320,
      "▁dani": 6321,
      "loc": 6322,
      "na": 6323,
      "érées": 6324,
      "▁maladi": 6325,
      "▁store": 6326,
      "▁big": 6327,
      "▁appli": 6328,
      "seurs": 6329,
      "udes": 6330,
      "▁croy": 6331,
      "▁énorme": 6332,
      "▁pouvait": 6333,
      "wer": 6334,
      "▁transformer": 6335,
      "▁achats": 6336,
      "▁fame": 6337,
      "▁ajoute": 6338,
      "▁propriétés": 6339,
      "▁défaut": 6340,
      "▁marine": 6341,
      "▁phénom": 6342,
      "▁interrog": 6343,
      "▁matchs": 6344,
      "oe": 6345,
      "eld": 6346,
      "études": 6347,
      "▁revanche": 6348,
      "oga": 6349,
      "▁serrurier": 6350,
      "▁recherchez": 6351,
      "▁signaler": 6352,
      "▁afficher": 6353,
      "▁pandémie": 6354,
      "▁prévue": 6355,
      "▁pac": 6356,
      "▁cliquant": 6357,
      "▁correctement": 6358,
      "/2020": 6359,
      "▁émis": 6360,
      "▁piste": 6361,
      "estation": 6362,
      "ny": 6363,
      "▁chirurg": 6364,
      "▁chiens": 6365,
      "ect": 6366,
      "▁rembours": 6367,
      "▁proposition": 6368,
      "instant": 6369,
      "saint": 6370,
      "▁trajet": 6371,
      "▁dois": 6372,
      "▁disque": 6373,
      "▁masse": 6374,
      "▁raff": 6375,
      "▁faisait": 6376,
      "▁chi": 6377,
      "reuve": 6378,
      "▁2019,": 6379,
      "▁consom": 6380,
      "▁transfert": 6381,
      "allen": 6382,
      "augment": 6383,
      "▁nar": 6384,
      "▁rappro": 6385,
      "▁clubs": 6386,
      "▁olymp": 6387,
      "allage": 6388,
      "▁scul": 6389,
      "lairage": 6390,
      "▁lycée": 6391,
      "enue": 6392,
      "▁sécurisé": 6393,
      "▁ench": 6394,
      "▁sauve": 6395,
      "▁remettre": 6396,
      "▁chacune": 6397,
      "▁prêts": 6398,
      "oureuse": 6399,
      "▁tendances": 6400,
      "▁stras": 6401,
      "chage": 6402,
      "▁pertin": 6403,
      "usion": 6404,
      "▁morts": 6405,
      "▁aid": 6406,
      "▁conclus": 6407,
      "▁34": 6408,
      "acteur": 6409,
      "▁financier": 6410,
      "▁récupérer": 6411,
      "▁maintenance": 6412,
      "ésil": 6413,
      "▁sympath": 6414,
      "info": 6415,
      "accep": 6416,
      "▁maill": 6417,
      "où": 6418,
      "▁aimé": 6419,
      "▁salut": 6420,
      "▁inscrivez": 6421,
      "vin": 6422,
      "29": 6423,
      "▁révél": 6424,
      "▁vote": 6425,
      "▁thèmes": 6426,
      "ival": 6427,
      "ayer": 6428,
      "▁analy": 6429,
      "joint": 6430,
      "▁polici": 6431,
      "▁collège": 6432,
      "édition": 6433,
      "▁maladies": 6434,
      "▁spirit": 6435,
      "▁précision": 6436,
      "itime": 6437,
      "▁catalogue": 6438,
      "▁avance": 6439,
      "▁ancienne": 6440,
      "▁brésil": 6441,
      "▁bancaire": 6442,
      "▁cib": 6443,
      "▁journées": 6444,
      "moi": 6445,
      "▁cancer": 6446,
      "▁familiale": 6447,
      "▁répé": 6448,
      "▁relax": 6449,
      "▁nouveautés": 6450,
      "▁sensation": 6451,
      "▁actuel": 6452,
      "▁billets": 6453,
      "hab": 6454,
      "▁particulière": 6455,
      "▁portu": 6456,
      "▁mec": 6457,
      "animation": 6458,
      "▁brû": 6459,
      "▁faux": 6460,
      "▁soumis": 6461,
      "pare": 6462,
      "pre": 6463,
      "▁laissé": 6464,
      "▁villa": 6465,
      "▁estime": 6466,
      "cial": 6467,
      "▁motifs": 6468,
      "▁dirigeants": 6469,
      "aga": 6470,
      "▁mauvaise": 6471,
      "cevoir": 6472,
      "ops": 6473,
      "▁centaines": 6474,
      ".)": 6475,
      "ete": 6476,
      "▁appuy": 6477,
      "▁nor": 6478,
      "▁=": 6479,
      "oui": 6480,
      "▁baise": 6481,
      "▁thomas": 6482,
      "▁qualités": 6483,
      "alimentation": 6484,
      "▁spécialement": 6485,
      "▁distribu": 6486,
      "▁sugg": 6487,
      "▁solaire": 6488,
      "▁planification": 6489,
      "tivités": 6490,
      "▁accident": 6491,
      "ata": 6492,
      "▁3,": 6493,
      "▁enrich": 6494,
      "▁circons": 6495,
      "▁sir": 6496,
      "ouvoir": 6497,
      "▁satisfaction": 6498,
      "▁traiter": 6499,
      "électricité": 6500,
      "▁judici": 6501,
      "asy": 6502,
      "▁échange": 6503,
      "▁logements": 6504,
      "▁parad": 6505,
      "▁nettoyer": 6506,
      "▁aimez": 6507,
      "▁cn": 6508,
      "éral": 6509,
      "étranger": 6510,
      "▁aver": 6511,
      "▁suit": 6512,
      "▁décide": 6513,
      "▁inte": 6514,
      "▁vain": 6515,
      "▁kilomètres": 6516,
      "▁conduc": 6517,
      "▁préal": 6518,
      "enquête": 6519,
      "▁dun": 6520,
      "intervention": 6521,
      "▁prochaines": 6522,
      "▁occas": 6523,
      "▁souhaitent": 6524,
      "▁bibliothèque": 6525,
      "▁trafic": 6526,
      "▁remplir": 6527,
      "▁charles": 6528,
      "armée": 6529,
      "roits": 6530,
      "▁reprendre": 6531,
      "▁ah": 6532,
      "auc": 6533,
      "▁commerciale": 6534,
      "▁élab": 6535,
      "▁bureaux": 6536,
      "▁robert": 6537,
      "dou": 6538,
      "▁importantes": 6539,
      "▁197": 6540,
      "▁spéciales": 6541,
      "▁ride": 6542,
      "oeu": 6543,
      "bri": 6544,
      "▁flash": 6545,
      "▁baign": 6546,
      "▁estim": 6547,
      "autant": 6548,
      "▁discipl": 6549,
      "ias": 6550,
      "▁canal": 6551,
      ".|": 6552,
      "agriculture": 6553,
      "▁esthétique": 6554,
      "▁éti": 6555,
      "▁fins": 6556,
      "▁publiques": 6557,
      "azz": 6558,
      "lève": 6559,
      "▁compréhension": 6560,
      "▁cong": 6561,
      "lée": 6562,
      "▁régional": 6563,
      "▁fondament": 6564,
      "▁camer": 6565,
      "▁gourmand": 6566,
      "▁frère": 6567,
      "adapter": 6568,
      "▁spécialistes": 6569,
      "▁règle": 6570,
      "▁rédi": 6571,
      "▁250": 6572,
      "▁autonom": 6573,
      "▁band": 6574,
      "▁amus": 6575,
      "teau": 6576,
      "▁voulu": 6577,
      "enreg": 6578,
      "▁bét": 6579,
      "don": 6580,
      "▁los": 6581,
      "▁viande": 6582,
      "istence": 6583,
      "▁contribuer": 6584,
      "/2019": 6585,
      "aqu": 6586,
      "▁attendant": 6587,
      "▁express": 6588,
      "ato": 6589,
      "▁classiques": 6590,
      "équilib": 6591,
      "▁vivant": 6592,
      "tront": 6593,
      "inés": 6594,
      "▁héros": 6595,
      "cf": 6596,
      "▁ger": 6597,
      "▁recommandé": 6598,
      "▁officielle": 6599,
      "▁définition": 6600,
      "▁aperçu": 6601,
      "▁pleinement": 6602,
      "uk": 6603,
      "ativité": 6604,
      "xx": 6605,
      "impact": 6606,
      "charge": 6607,
      "▁créations": 6608,
      "▁humains": 6609,
      "unité": 6610,
      "▁digit": 6611,
      "▁courses": 6612,
      "eries": 6613,
      "▁placé": 6614,
      "▁exemp": 6615,
      "bn": 6616,
      "▁naturellement": 6617,
      "▁danger": 6618,
      "diques": 6619,
      "▁intervention": 6620,
      "acé": 6621,
      "▁parent": 6622,
      "▁partis": 6623,
      "▁05": 6624,
      "▁casinos": 6625,
      "identité": 6626,
      "▁dot": 6627,
      "▁marqué": 6628,
      "utation": 6629,
      "agerie": 6630,
      "tières": 6631,
      "chette": 6632,
      "▁forts": 6633,
      "aménagement": 6634,
      "▁déterminer": 6635,
      "▁vint": 6636,
      "▁als": 6637,
      "▁deb": 6638,
      "▁sèche": 6639,
      "▁read": 6640,
      "ols": 6641,
      "tul": 6642,
      "44": 6643,
      "▁critiques": 6644,
      "▁pluie": 6645,
      "▁down": 6646,
      "utés": 6647,
      "▁manip": 6648,
      "▁golf": 6649,
      "▁entrer": 6650,
      "▁mate": 6651,
      "▁discours": 6652,
      "▁38": 6653,
      "▁diversité": 6654,
      "▁angel": 6655,
      "▁abonnés": 6656,
      "▁retard": 6657,
      "▁lead": 6658,
      "ator": 6659,
      "▁montpel": 6660,
      "ym": 6661,
      "▁vues": 6662,
      "▁viens": 6663,
      "▁scientifiques": 6664,
      "▁soud": 6665,
      "▁cant": 6666,
      "ôts": 6667,
      "ling": 6668,
      "agi": 6669,
      "site": 6670,
      "▁polyval": 6671,
      "▁asp": 6672,
      "▁tomber": 6673,
      "▁frapp": 6674,
      "atch": 6675,
      "ated": 6676,
      "▁maintien": 6677,
      "▁province": 6678,
      "▁chefs": 6679,
      "▁ling": 6680,
      "▁automobile": 6681,
      "êcher": 6682,
      "▁hauts": 6683,
      "▁job": 6684,
      "▁communiquer": 6685,
      "▁gh": 6686,
      "▁made": 6687,
      "▁(3": 6688,
      "matiques": 6689,
      "▁poursuiv": 6690,
      "▁brut": 6691,
      "▁bay": 6692,
      "▁vigueur": 6693,
      "▁poursuit": 6694,
      "ties": 6695,
      "▁nov": 6696,
      "▁coordin": 6697,
      "gen": 6698,
      "▁fournisseurs": 6699,
      "oubli": 6700,
      "ael": 6701,
      "▁rapports": 6702,
      "▁tailles": 6703,
      "▁définir": 6704,
      "▁francoph": 6705,
      "▁tél": 6706,
      "▁devait": 6707,
      "▁mb": 6708,
      "cam": 6709,
      "▁civile": 6710,
      "▁organisations": 6711,
      "▁ence": 6712,
      "▁potenti": 6713,
      "▁visant": 6714,
      "▁las": 6715,
      "▁bap": 6716,
      "▁00": 6717,
      "▁internautes": 6718,
      "▁favoriser": 6719,
      "arrêt": 6720,
      "audi": 6721,
      "▁hal": 6722,
      "▁mouvements": 6723,
      "▁réservé": 6724,
      "/12": 6725,
      "▁trim": 6726,
      "érons": 6727,
      "▁boule": 6728,
      "▁œuvres": 6729,
      "▁surveillance": 6730,
      "issante": 6731,
      "▁humaines": 6732,
      "▁tablette": 6733,
      "▁prénom": 6734,
      "▁real": 6735,
      "▁toucher": 6736,
      "▁lesquelles": 6737,
      "▁vinc": 6738,
      "hier": 6739,
      "▁amateur": 6740,
      "▁aband": 6741,
      "▁compatible": 6742,
      "▁signature": 6743,
      "gal": 6744,
      "▁solidarité": 6745,
      "▁55": 6746,
      "▁salaire": 6747,
      "▁seine": 6748,
      "taille": 6749,
      "▁courte": 6750,
      "▁donnent": 6751,
      "▁tourner": 6752,
      "oli": 6753,
      "installer": 6754,
      "▁stéph": 6755,
      "▁souvenirs": 6756,
      "rs": 6757,
      "▁explorer": 6758,
      "▁revenu": 6759,
      "▁challen": 6760,
      "▁syl": 6761,
      "▁ib": 6762,
      "anes": 6763,
      "▁distin": 6764,
      "▁poche": 6765,
      "▁cell": 6766,
      "▁finance": 6767,
      "▁inscrit": 6768,
      "absence": 6769,
      "▁juge": 6770,
      "lix": 6771,
      "allem": 6772,
      "enregistre": 6773,
      "▁noms": 6774,
      "▁chou": 6775,
      "▁hiver": 6776,
      "▁venu": 6777,
      "itons": 6778,
      "▁poudre": 6779,
      "ware": 6780,
      "▁mener": 6781,
      "▁utilisateur": 6782,
      "▁former": 6783,
      "▁2020.": 6784,
      "▁bretagne": 6785,
      "▁guit": 6786,
      "▁tente": 6787,
      "▁sénégal": 6788,
      "▁lille": 6789,
      "▁esti": 6790,
      "▁fruit": 6791,
      "▁sab": 6792,
      "▁west": 6793,
      "▁gentil": 6794,
      "cité": 6795,
      "▁effectué": 6796,
      "▁entend": 6797,
      "▁bor": 6798,
      "▁bénéficie": 6799,
      "▁peint": 6800,
      "▁commander": 6801,
      "▁regret": 6802,
      "▁garçon": 6803,
      "▁louer": 6804,
      "▁lif": 6805,
      "▁britannique": 6806,
      "sec": 6807,
      "▁usb": 6808,
      "▁clairement": 6809,
      "▁actifs": 6810,
      "▁proje": 6811,
      "▁terminé": 6812,
      "▁retirer": 6813,
      "▁élégant": 6814,
      "▁monte": 6815,
      "▁pétr": 6816,
      "▁soign": 6817,
      "▁dri": 6818,
      "▁aspects": 6819,
      "▁composée": 6820,
      "▁juridique": 6821,
      "▁nations": 6822,
      "▁demeure": 6823,
      "▁bâtiments": 6824,
      "ouvre": 6825,
      "▁cache": 6826,
      "ajouter": 6827,
      "▁mettant": 6828,
      "▁compléter": 6829,
      "__": 6830,
      "▁paie": 6831,
      "étend": 6832,
      "irt": 6833,
      "▁active": 6834,
      "▁intégré": 6835,
      "▁normal": 6836,
      "▁matériau": 6837,
      "mant": 6838,
      "▁morceaux": 6839,
      "▁02": 6840,
      "▁randonnée": 6841,
      "▁recevez": 6842,
      "▁représentant": 6843,
      "▁liquide": 6844,
      "hône": 6845,
      "▁couper": 6846,
      "vd": 6847,
      "▁statistiques": 6848,
      "▁découvre": 6849,
      "▁196": 6850,
      "▁numériques": 6851,
      "▁éduc": 6852,
      "▁session": 6853,
      "▁sympa": 6854,
      "▁aliments": 6855,
      "ian": 6856,
      "▁utilisées": 6857,
      "▁portant": 6858,
      "▁connue": 6859,
      "▁asi": 6860,
      "viendra": 6861,
      "▁canapé": 6862,
      "êle": 6863,
      "▁nourriture": 6864,
      "▁sommeil": 6865,
      "cices": 6866,
      "▁champions": 6867,
      "▁postes": 6868,
      "▁dic": 6869,
      "effectuer": 6870,
      "▁oeuvre": 6871,
      "▁03": 6872,
      "▁120": 6873,
      "▁gout": 6874,
      "érez": 6875,
      "▁emplacement": 6876,
      "▁cub": 6877,
      "▁artiste": 6878,
      "sive": 6879,
      "▁envers": 6880,
      "▁ore": 6881,
      "oxyd": 6882,
      "▁lecteurs": 6883,
      "▁typ": 6884,
      "▁guil": 6885,
      "▁déroul": 6886,
      "▁augmentation": 6887,
      "▁plante": 6888,
      "▁médical": 6889,
      "▁vouloir": 6890,
      "èques": 6891,
      "▁2018,": 6892,
      "pierre": 6893,
      "▁puissiez": 6894,
      "▁yoga": 6895,
      "▁organisée": 6896,
      "▁quotidienne": 6897,
      "▁mention": 6898,
      "▁puissant": 6899,
      "▁07": 6900,
      "mise": 6901,
      "▁procure": 6902,
      "▁observ": 6903,
      "▁développe": 6904,
      "▁aspect": 6905,
      "▁déplacer": 6906,
      "▁collections": 6907,
      "▁sélectionner": 6908,
      "▁perfe": 6909,
      "▁wall": 6910,
      "▁financiers": 6911,
      "▁chercheurs": 6912,
      "écriture": 6913,
      "atte": 6914,
      "▁équipée": 6915,
      "▁gon": 6916,
      "inscrire": 6917,
      "chées": 6918,
      "▁participé": 6919,
      "▁erreur": 6920,
      "▁victor": 6921,
      "appareil": 6922,
      "▁élus": 6923,
      "accompagnement": 6924,
      "▁travailleurs": 6925,
      "cra": 6926,
      "serie": 6927,
      "▁pav": 6928,
      "??": 6929,
      "érapeu": 6930,
      "▁fri": 6931,
      "▁confirmé": 6932,
      "ao": 6933,
      "jon": 6934,
      "▁lutter": 6935,
      "aimer": 6936,
      "▁roule": 6937,
      "identif": 6938,
      "▁inscrire": 6939,
      "compl": 6940,
      "iler": 6941,
      "▁az": 6942,
      "din": 6943,
      "▁montpellier": 6944,
      "irm": 6945,
      "oubliez": 6946,
      "▁confinement": 6947,
      "▁exceptionnelle": 6948,
      "▁plafond": 6949,
      "▁situe": 6950,
      "▁chers": 6951,
      "▁chronique": 6952,
      "▁manager": 6953,
      "▁cv": 6954,
      "urant": 6955,
      "▁arriv": 6956,
      "▁destiné": 6957,
      "alli": 6958,
      "dies": 6959,
      "enfants": 6960,
      "dium": 6961,
      "▁arbres": 6962,
      "▁vitam": 6963,
      "tinéra": 6964,
      "▁différent": 6965,
      "▁violence": 6966,
      "atures": 6967,
      "▁traditionnelle": 6968,
      "▁renforce": 6969,
      "▁hel": 6970,
      "▁plaque": 6971,
      "erve": 6972,
      "▁résolution": 6973,
      "lite": 6974,
      "▁confidentialité": 6975,
      "oble": 6976,
      "▁françaises": 6977,
      "▁agricole": 6978,
      "▁press": 6979,
      "▁céléb": 6980,
      "▁panneaux": 6981,
      "▁accompagnement": 6982,
      "▁mandat": 6983,
      "▁rues": 6984,
      "▁remboursement": 6985,
      "▁mobiles": 6986,
      "▁dialogue": 6987,
      "▁paysage": 6988,
      "efficacité": 6989,
      "▁rouges": 6990,
      "▁promouvoir": 6991,
      "édez": 6992,
      "48": 6993,
      ".,": 6994,
      "▁contemporain": 6995,
      "▁gil": 6996,
      "chon": 6997,
      "▁tres": 6998,
      "-1": 6999,
      "▁civil": 7000,
      "utilisateur": 7001,
      "▁exactement": 7002,
      "▁connaît": 7003,
      "▁concurrence": 7004,
      "▁[...]": 7005,
      "tition": 7006,
      "▁référ": 7007,
      "oue": 7008,
      "▁manquer": 7009,
      "▁proposées": 7010,
      "▁uniques": 7011,
      "▁finition": 7012,
      "▁avions": 7013,
      "way": 7014,
      "▁tirer": 7015,
      "▁travaillé": 7016,
      "▁dress": 7017,
      "▁65": 7018,
      "▁stric": 7019,
      "▁merc": 7020,
      "▁2021,": 7021,
      "▁couche": 7022,
      "▁cord": 7023,
      "▁éditions": 7024,
      "▁météo": 7025,
      "▁fenêtres": 7026,
      "uff": 7027,
      "▁intérêt": 7028,
      "offrir": 7029,
      "▁wifi": 7030,
      "arme": 7031,
      "▁dimension": 7032,
      "▁lunettes": 7033,
      "lande": 7034,
      "ience": 7035,
      "▁japonais": 7036,
      "▁changé": 7037,
      "▁candidature": 7038,
      "▁pôle": 7039,
      "▁set": 7040,
      "▁vendu": 7041,
      "▁magie": 7042,
      "trations": 7043,
      "▁coopération": 7044,
      "▁personnelle": 7045,
      "▁incontournable": 7046,
      "▁écrire": 7047,
      "▁chances": 7048,
      "▁décisions": 7049,
      "ésie": 7050,
      "▁parall": 7051,
      "▁boite": 7052,
      "ignons": 7053,
      "▁doté": 7054,
      "▁carbone": 7055,
      "▁résoudre": 7056,
      "▁duo": 7057,
      "▁maqu": 7058,
      "adore": 7059,
      "▁prennent": 7060,
      "ôles": 7061,
      "▁fixe": 7062,
      "km": 7063,
      "▁dîner": 7064,
      "▁tag": 7065,
      "▁complémentaires": 7066,
      "▁américains": 7067,
      "▁galax": 7068,
      "▁équipé": 7069,
      "▁vintage": 7070,
      "▁basée": 7071,
      "▁médecins": 7072,
      "▁personnalité": 7073,
      "▁artif": 7074,
      "▁indépendant": 7075,
      "amer": 7076,
      "▁vig": 7077,
      "▁info": 7078,
      "▁mousse": 7079,
      "▁proposant": 7080,
      "▁appelle": 7081,
      "ji": 7082,
      "itations": 7083,
      "▁méditer": 7084,
      "▁sourire": 7085,
      "dite": 7086,
      "▁citron": 7087,
      "▁gend": 7088,
      "▁chute": 7089,
      "▁recours": 7090,
      "dro": 7091,
      "▁pommes": 7092,
      "▁construit": 7093,
      "▁rêves": 7094,
      "outs": 7095,
      "uf": 7096,
      "idél": 7097,
      "▁fiable": 7098,
      "▁pistes": 7099,
      "▁vendeur": 7100,
      "▁passionnés": 7101,
      "▁moindre": 7102,
      "▁cible": 7103,
      "▁hen": 7104,
      "▁cock": 7105,
      "▁visu": 7106,
      "▁préféré": 7107,
      "▁ip": 7108,
      "▁voud": 7109,
      "▁sacs": 7110,
      "▁rémun": 7111,
      "work": 7112,
      "▁rechercher": 7113,
      "▁vul": 7114,
      "étiques": 7115,
      "trait": 7116,
      "verse": 7117,
      "▁médecine": 7118,
      "itaine": 7119,
      "▁philosoph": 7120,
      "▁sun": 7121,
      "échange": 7122,
      "▁consultation": 7123,
      "▁patrick": 7124,
      "▁arrêté": 7125,
      "aujourd": 7126,
      "▁5.": 7127,
      "▁contrairement": 7128,
      "▁ronde": 7129,
      "oule": 7130,
      "onyme": 7131,
      "▁chansons": 7132,
      "▁ouvre": 7133,
      "▁endroits": 7134,
      "▁lâ": 7135,
      "▁oise": 7136,
      "▁pv": 7137,
      "▁sportifs": 7138,
      "onnant": 7139,
      "enci": 7140,
      "▁appris": 7141,
      "▁abonne": 7142,
      "▁livré": 7143,
      "impos": 7144,
      "▁structures": 7145,
      "▁devenue": 7146,
      "▁sable": 7147,
      "▁portail": 7148,
      "▁da": 7149,
      "▁bob": 7150,
      "activités": 7151,
      "▁seraient": 7152,
      "▁tempor": 7153,
      "▁conséquent": 7154,
      "▁mille": 7155,
      "idation": 7156,
      "▁abordable": 7157,
      "▁dessous": 7158,
      "▁problé": 7159,
      "alcool": 7160,
      "▁serrure": 7161,
      "▁human": 7162,
      "▁pierres": 7163,
      "orges": 7164,
      "▁2009": 7165,
      "of": 7166,
      "▁ath": 7167,
      "aments": 7168,
      "▁retrait": 7169,
      "▁retourner": 7170,
      "▁alimentaires": 7171,
      "amélioration": 7172,
      "▁sauce": 7173,
      "quin": 7174,
      "▁prochains": 7175,
      "▁quête": 7176,
      "▁rubrique": 7177,
      "▁doubl": 7178,
      "▁fabricant": 7179,
      "pal": 7180,
      "▁supprimer": 7181,
      "▁européens": 7182,
      "mais": 7183,
      "▁invité": 7184,
      "▁wal": 7185,
      "▁directrice": 7186,
      "▁conduit": 7187,
      "▁brig": 7188,
      "▁2017,": 7189,
      "engagement": 7190,
      "rob": 7191,
      "''": 7192,
      "orable": 7193,
      "hou": 7194,
      "▁quatri": 7195,
      "-3": 7196,
      "meuble": 7197,
      "▁indic": 7198,
      "éviter": 7199,
      "ju": 7200,
      "▁carré": 7201,
      "▁glace": 7202,
      "▁recycl": 7203,
      "▁manuel": 7204,
      "alisée": 7205,
      "▁batt": 7206,
      "▁score": 7207,
      "▁ouvrage": 7208,
      "mas": 7209,
      "aa": 7210,
      "▁progressi": 7211,
      "▁terra": 7212,
      "▁préven": 7213,
      "▁connecté": 7214,
      "▁exécu": 7215,
      "▁secours": 7216,
      "▁remarqu": 7217,
      "▁conduire": 7218,
      "▁simpli": 7219,
      "▁pul": 7220,
      "▁2018.": 7221,
      "▁acceptez": 7222,
      "tiste": 7223,
      "▁jardins": 7224,
      "▁révèle": 7225,
      "turb": 7226,
      "ulaires": 7227,
      "▁subst": 7228,
      "▁économies": 7229,
      "yle": 7230,
      "▁massif": 7231,
      "▁grave": 7232,
      "▁2019.": 7233,
      "▁avenir": 7234,
      "▁récompens": 7235,
      "▁signes": 7236,
      "jac": 7237,
      "▁bruit": 7238,
      "bel": 7239,
      "▁créativité": 7240,
      "▁christian": 7241,
      "key": 7242,
      "▁auxqu": 7243,
      "▁(2": 7244,
      "▁chapit": 7245,
      "▁ong": 7246,
      "▁placer": 7247,
      "▁logique": 7248,
      "▁incar": 7249,
      "▁bernard": 7250,
      "▁prince": 7251,
      "lige": 7252,
      "▁réalise": 7253,
      "▁programmation": 7254,
      "▁quatrième": 7255,
      "▁saisons": 7256,
      "▁ral": 7257,
      "èvres": 7258,
      "ambiance": 7259,
      "▁laboratoire": 7260,
      "▁modernes": 7261,
      "tal": 7262,
      "▁stratégies": 7263,
      "▁miss": 7264,
      "55": 7265,
      "▁majeur": 7266,
      "▁artisans": 7267,
      "▁promotions": 7268,
      "▁donnant": 7269,
      "▁dédiée": 7270,
      "▁titul": 7271,
      "▁références": 7272,
      "/11": 7273,
      "cession": 7274,
      "▁sanitaires": 7275,
      "▁discussions": 7276,
      "▁motif": 7277,
      "▁éclair": 7278,
      "▁agences": 7279,
      "▁scand": 7280,
      "▁soupe": 7281,
      "▁paire": 7282,
      "▁provence": 7283,
      "▁pire": 7284,
      "endroit": 7285,
      "▁love": 7286,
      "▁cuill": 7287,
      "▁vieille": 7288,
      "▁déposer": 7289,
      "/01": 7290,
      "▁39": 7291,
      "▁naturelles": 7292,
      "▁produc": 7293,
      "▁talents": 7294,
      "▁personnels": 7295,
      "automne": 7296,
      "▁réforme": 7297,
      "▁global": 7298,
      "▁bracelet": 7299,
      "▁photographie": 7300,
      "▁difficiles": 7301,
      "▁posté": 7302,
      "▁profession": 7303,
      "▁précieux": 7304,
      "▁vallée": 7305,
      "▁jav": 7306,
      "▁exploit": 7307,
      "fiez": 7308,
      "▁contacts": 7309,
      "▁emmanuel": 7310,
      "▁barcel": 7311,
      "ouer": 7312,
      "▁diplô": 7313,
      "▁muscul": 7314,
      "▁priorité": 7315,
      "▁versions": 7316,
      "▁plonge": 7317,
      "▁fromage": 7318,
      "▁secrets": 7319,
      "▁propositions": 7320,
      "▁espèces": 7321,
      "▁word": 7322,
      "▁dorm": 7323,
      "▁courrier": 7324,
      "▁coiffure": 7325,
      "▁exceptionnel": 7326,
      "▁pod": 7327,
      "▁envies": 7328,
      "▁assuré": 7329,
      "▁investissement": 7330,
      "▁contrats": 7331,
      "mosphère": 7332,
      "▁ech": 7333,
      "▁accessibles": 7334,
      "▁positif": 7335,
      "▁organise": 7336,
      "▁voyager": 7337,
      "▁motivation": 7338,
      "ural": 7339,
      "▁gardi": 7340,
      "ush": 7341,
      "sier": 7342,
      "▁écoute": 7343,
      "▁tombe": 7344,
      "▁producteurs": 7345,
      "▁émotions": 7346,
      "▁olivier": 7347,
      "▁psg": 7348,
      "endie": 7349,
      "format": 7350,
      "▁diplôme": 7351,
      "▁exige": 7352,
      "▁paysages": 7353,
      "▁collecte": 7354,
      "fice": 7355,
      "exercice": 7356,
      "49": 7357,
      "▁psychologique": 7358,
      "▁dépannage": 7359,
      "▁strasbourg": 7360,
      "▁commerciaux": 7361,
      "lon": 7362,
      "▁lan": 7363,
      "▁thérapie": 7364,
      "▁chal": 7365,
      "▁ide": 7366,
      "peau": 7367,
      "▁réellement": 7368,
      "▁rup": 7369,
      "▁million": 7370,
      "▁cess": 7371,
      "▁vérité": 7372,
      "▁madame": 7373,
      "▁grossesse": 7374,
      "▁aluminium": 7375,
      "bou": 7376,
      "▁bases": 7377,
      "▁coco": 7378,
      "ordinaire": 7379,
      "actif": 7380,
      "ineux": 7381,
      "▁scolaires": 7382,
      "▁hés": 7383,
      "▁seni": 7384,
      "▁bourse": 7385,
      "équi": 7386,
      "▁sold": 7387,
      "rices": 7388,
      "▁associés": 7389,
      "▁demandez": 7390,
      "▁acteur": 7391,
      "visor": 7392,
      "▁flam": 7393,
      "▁impression": 7394,
      "▁cult": 7395,
      "▁saveurs": 7396,
      "▁époque": 7397,
      "▁porn": 7398,
      "▁résol": 7399,
      "▁intitu": 7400,
      "||3": 7401,
      "▁extrait": 7402,
      "onnaie": 7403,
      "illa": 7404,
      "issue": 7405,
      "bus": 7406,
      "▁open": 7407,
      "▁certes": 7408,
      "▁reconnaissance": 7409,
      "/09": 7410,
      "idence": 7411,
      "▁recon": 7412,
      "▁hard": 7413,
      "▁hasard": 7414,
      "▁verte": 7415,
      "obe": 7416,
      "▁rug": 7417,
      "/2018": 7418,
      "▁600": 7419,
      "habitude": 7420,
      "▁dépenses": 7421,
      "▁tables": 7422,
      "▁apprécié": 7423,
      "any": 7424,
      "▁costu": 7425,
      "▁commenter": 7426,
      "▁éval": 7427,
      "▁traditionnel": 7428,
      "évaluation": 7429,
      "effet": 7430,
      "arrière": 7431,
      "▁souci": 7432,
      "architecture": 7433,
      "isser": 7434,
      "abli": 7435,
      "/03": 7436,
      "▁finances": 7437,
      "▁limites": 7438,
      "▁mentale": 7439,
      "▁musul": 7440,
      "▁amer": 7441,
      "▁enqu": 7442,
      "▁biais": 7443,
      "▁fine": 7444,
      "▁châ": 7445,
      "▁démont": 7446,
      "iteur": 7447,
      "▁mér": 7448,
      "▁tim": 7449,
      "▁buts": 7450,
      "exception": 7451,
      "▁mous": 7452,
      "▁jos": 7453,
      "▁mécanique": 7454,
      "édé": 7455,
      "▁répert": 7456,
      "amen": 7457,
      "▁pourriez": 7458,
      "▁signific": 7459,
      "▁pompe": 7460,
      "▁troubles": 7461,
      "▁continent": 7462,
      "▁rot": 7463,
      "▁sûre": 7464,
      "▁mex": 7465,
      "sol": 7466,
      "▁rempor": 7467,
      "▁fidél": 7468,
      "▁conseillé": 7469,
      "kin": 7470,
      "▁recommandations": 7471,
      "▁sant": 7472,
      "▁globale": 7473,
      "▁présidentielle": 7474,
      "▁pause": 7475,
      "▁téléchargez": 7476,
      "orti": 7477,
      "▁suscep": 7478,
      "▁kn": 7479,
      "▁allemagne": 7480,
      "élection": 7481,
      "▁\\": 7482,
      "▁industriel": 7483,
      "▁feuille": 7484,
      "arts": 7485,
      "▁ok": 7486,
      "ardez": 7487,
      "▁2021.": 7488,
      "▁libra": 7489,
      "▁promet": 7490,
      "▁territori": 7491,
      "▁sportive": 7492,
      "▁rappeler": 7493,
      "▁futurs": 7494,
      "▁ennuy": 7495,
      "▁fournisseur": 7496,
      "▁habituellement": 7497,
      "▁stars": 7498,
      "▁magique": 7499,
      "▁kh": 7500,
      "▁2008": 7501,
      "▁dégra": 7502,
      "ingén": 7503,
      "▁pira": 7504,
      "▁pes": 7505,
      "▁inconn": 7506,
      "▁bulle": 7507,
      "▁remis": 7508,
      "▁fire": 7509,
      ".»": 7510,
      "▁psychologie": 7511,
      "▁appliquer": 7512,
      "▁37": 7513,
      "▁horiz": 7514,
      "inture": 7515,
      "▁mira": 7516,
      "▁nommé": 7517,
      "▁cameroun": 7518,
      "▁fermé": 7519,
      "▁offerts": 7520,
      "appelle": 7521,
      "▁émer": 7522,
      "▁tournoi": 7523,
      "▁blancs": 7524,
      "▁recons": 7525,
      "▁high": 7526,
      "assade": 7527,
      "ffe": 7528,
      "▁jér": 7529,
      "èce": 7530,
      "▁affirme": 7531,
      "urée": 7532,
      "▁enseignants": 7533,
      "▁contrôler": 7534,
      "▁sauver": 7535,
      "endo": 7536,
      "▁nécessité": 7537,
      "▁attach": 7538,
      "▁office": 7539,
      "▁rencontré": 7540,
      "▁farine": 7541,
      "▁lave": 7542,
      "▁4,": 7543,
      "entreprises": 7544,
      "▁park": 7545,
      "▁bos": 7546,
      "▁2022,": 7547,
      "▁facture": 7548,
      "▁belge": 7549,
      "▁nez": 7550,
      "▁tension": 7551,
      "▁caisse": 7552,
      "▁poisson": 7553,
      "▁cuire": 7554,
      "▁croix": 7555,
      "▁profils": 7556,
      "▁méditerran": 7557,
      "▁câble": 7558,
      "flix": 7559,
      "▁1/": 7560,
      "▁tournée": 7561,
      "▁prête": 7562,
      "▁cé": 7563,
      "▁efficaces": 7564,
      "▁rejoint": 7565,
      "▁convention": 7566,
      "▁(0": 7567,
      "▁raisonn": 7568,
      "▁alain": 7569,
      "ello": 7570,
      "▁convers": 7571,
      "mêmes": 7572,
      "issage": 7573,
      "▁dents": 7574,
      "▁préoccup": 7575,
      "▁douleur": 7576,
      "tle": 7577,
      "fiée": 7578,
      "▁chré": 7579,
      "▁alimentation": 7580,
      "▁pute": 7581,
      "▁emprun": 7582,
      "▁bron": 7583,
      "▁subli": 7584,
      "▁mâ": 7585,
      "▁sollic": 7586,
      "▁cesse": 7587,
      "èvre": 7588,
      "▁plaît": 7589,
      "▁encad": 7590,
      "aite": 7591,
      "▁label": 7592,
      "▁gér": 7593,
      "▁couss": 7594,
      "/2017": 7595,
      "▁affiche": 7596,
      "▁christophe": 7597,
      "▁1000": 7598,
      "tibles": 7599,
      "▁hyper": 7600,
      "▁adaptées": 7601,
      "ero": 7602,
      "▁commerces": 7603,
      "▁pomp": 7604,
      "▁rejo": 7605,
      "▁souten": 7606,
      "▁acquis": 7607,
      "▁composants": 7608,
      "istan": 7609,
      "▁identifier": 7610,
      "engage": 7611,
      "érable": 7612,
      "▁préserv": 7613,
      "enda": 7614,
      "▁vape": 7615,
      "▁limiter": 7616,
      "▁vécu": 7617,
      "▁escal": 7618,
      "jug": 7619,
      "▁daniel": 7620,
      "▁plages": 7621,
      "ita": 7622,
      "déc": 7623,
      "▁inn": 7624,
      "▁décenn": 7625,
      "▁tennis": 7626,
      "65": 7627,
      "▁quart": 7628,
      "▁back": 7629,
      "/05": 7630,
      "bert": 7631,
      "▁ign": 7632,
      "▁austr": 7633,
      "▁combinaison": 7634,
      "icale": 7635,
      "internation": 7636,
      "▁souligne": 7637,
      "▁alent": 7638,
      "rac": 7639,
      "▁optimale": 7640,
      "giène": 7641,
      "▁coordonnées": 7642,
      "▁représentants": 7643,
      "▁rares": 7644,
      "▁extérieure": 7645,
      "oto": 7646,
      "▁musicale": 7647,
      "mique": 7648,
      "intégration": 7649,
      "ness": 7650,
      "▁environs": 7651,
      "ters": 7652,
      "▁préserver": 7653,
      "▁exemples": 7654,
      "▁réalisateur": 7655,
      "▁2017.": 7656,
      "▁laver": 7657,
      "▁disney": 7658,
      "▁autrement": 7659,
      "▁ras": 7660,
      "jus": 7661,
      "▁vincent": 7662,
      "ceau": 7663,
      "▁obtenez": 7664,
      "▁fréquent": 7665,
      "tiennent": 7666,
      "▁protoc": 7667,
      "iere": 7668,
      "▁pare": 7669,
      "▁profite": 7670,
      "▁émissions": 7671,
      "▁spectacles": 7672,
      "▁lié": 7673,
      "▁cellu": 7674,
      "hib": 7675,
      "▁turqu": 7676,
      "▁crist": 7677,
      "▁subs": 7678,
      "▁buff": 7679,
      "▁tube": 7680,
      "▁supports": 7681,
      "▁efficacement": 7682,
      "▁cliquer": 7683,
      "lera": 7684,
      "▁jon": 7685,
      "fich": 7686,
      "aro": 7687,
      "▁animations": 7688,
      "visions": 7689,
      "▁faciles": 7690,
      "▁explos": 7691,
      "▁bénéficiez": 7692,
      "▁suffisamment": 7693,
      "▁comédi": 7694,
      "▁répondu": 7695,
      "▁étage": 7696,
      "▁réductions": 7697,
      "▁territoires": 7698,
      "▁gastr": 7699,
      "ualité": 7700,
      "toires": 7701,
      "▁pun": 7702,
      "padvisor": 7703,
      "▁collectivités": 7704,
      "▁frères": 7705,
      "▁sachez": 7706,
      "▁sympt": 7707,
      "▁renv": 7708,
      "▁xbox": 7709,
      "▁issus": 7710,
      "▁fortes": 7711,
      "ombre": 7712,
      "▁madrid": 7713,
      "▁traduction": 7714,
      "ee": 7715,
      "▁data": 7716,
      "entement": 7717,
      "angle": 7718,
      "▁myth": 7719,
      "▁rennes": 7720,
      "▁exercices": 7721,
      "éan": 7722,
      "chou": 7723,
      "office": 7724,
      "▁prévenir": 7725,
      "▁relais": 7726,
      "gard": 7727,
      "▁queu": 7728,
      "▁écouter": 7729,
      "▁évolution": 7730,
      "lou": 7731,
      "tue": 7732,
      "▁réalisés": 7733,
      "▁principes": 7734,
      "▁refus": 7735,
      "43": 7736,
      "red": 7737,
      "▁médicaments": 7738,
      "affich": 7739,
      "▁bouteille": 7740,
      "▁war": 7741,
      "▁cosmé": 7742,
      "▁royal": 7743,
      "▁procès": 7744,
      "▁flu": 7745,
      "▁roulette": 7746,
      "tici": 7747,
      "▁considéré": 7748,
      "gin": 7749,
      "▁tâche": 7750,
      "▁have": 7751,
      "▁internationales": 7752,
      "▁tripadvisor": 7753,
      "▁verts": 7754,
      "▁rpg": 7755,
      "▁2016,": 7756,
      "ted": 7757,
      "▁adolesc": 7758,
      "▁remporté": 7759,
      "▁ventil": 7760,
      "▁infrastru": 7761,
      "▁équipement": 7762,
      "▁rejet": 7763,
      "▁covers": 7764,
      "ams": 7765,
      "▁future": 7766,
      "umeurs": 7767,
      "▁couvre": 7768,
      "▁king": 7769,
      "▁arc": 7770,
      "▁rejoignez": 7771,
      "diction": 7772,
      "-2": 7773,
      "▁street": 7774,
      "▁anc": 7775,
      "▁thermique": 7776,
      "▁journalistes": 7777,
      "▁cloud": 7778,
      "oint": 7779,
      "▁investir": 7780,
      "▁résist": 7781,
      "▁parquet": 7782,
      "▁trump": 7783,
      "▁guy": 7784,
      "▁hyp": 7785,
      "espoir": 7786,
      "▁ressenti": 7787,
      "▁reten": 7788,
      "/06": 7789,
      "!!!": 7790,
      "oriser": 7791,
      "▁judiciaire": 7792,
      "grès": 7793,
      "isées": 7794,
      "▁italie": 7795,
      "▁gi": 7796,
      "▁(...)": 7797,
      "▁manifestation": 7798,
      "orama": 7799,
      "olo": 7800,
      "▁mettent": 7801,
      "▁coffre": 7802,
      "▁use": 7803,
      "▁banques": 7804,
      "▁revoir": 7805,
      "▁volet": 7806,
      "▁alternative": 7807,
      "▁prenant": 7808,
      "ancienne": 7809,
      "▁chaleureuse": 7810,
      "….": 7811,
      "▁agent": 7812,
      "▁sélectionnez": 7813,
      ":0": 7814,
      "érateur": 7815,
      "dim": 7816,
      "▁permettront": 7817,
      "▁time": 7818,
      "▁concerts": 7819,
      "▁photographe": 7820,
      "opposition": 7821,
      "▁courage": 7822,
      "▁lune": 7823,
      "▁classes": 7824,
      "▁retours": 7825,
      "▁regroupe": 7826,
      "système": 7827,
      "veiller": 7828,
      "▁tissus": 7829,
      ",00": 7830,
      "▁manche": 7831,
      "▁prépare": 7832,
      "▁internationaux": 7833,
      "▁pilotes": 7834,
      "▁pensé": 7835,
      "▁mettez": 7836,
      "▁rire": 7837,
      "chi": 7838,
      "▁précisé": 7839,
      "faits": 7840,
      "▁reprises": 7841,
      "▁cbd": 7842,
      "▁réelle": 7843,
      "wn": 7844,
      "▁contenant": 7845,
      "▁avenue": 7846,
      "▁hav": 7847,
      "▁apparence": 7848,
      "▁plas": 7849,
      "▁récit": 7850,
      "▁guill": 7851,
      "▁municipal": 7852,
      "/04": 7853,
      "▁venus": 7854,
      "▁mill": 7855,
      "kea": 7856,
      "▁ballon": 7857,
      "▁diamètre": 7858,
      "▁lancée": 7859,
      "▁ordre": 7860,
      "ieures": 7861,
      "▁french": 7862,
      "▁regardez": 7863,
      "ating": 7864,
      "▁netflix": 7865,
      "▁abonnement": 7866,
      "issons": 7867,
      "▁rupture": 7868,
      "ella": 7869,
      "▁conçue": 7870,
      "▁entendre": 7871,
      "ody": 7872,
      "▁offerte": 7873,
      "▁démarches": 7874,
      "yr": 7875,
      "▁cum": 7876,
      "▁biologique": 7877,
      "▁lampe": 7878,
      "▁reine": 7879,
      "▁assis": 7880,
      "▁rivière": 7881,
      "▁portefeu": 7882,
      "▁concr": 7883,
      "▁repar": 7884,
      "▁autonome": 7885,
      "▁correspondant": 7886,
      "ués": 7887,
      "▁procéder": 7888,
      "▁heureusement": 7889,
      "▁concl": 7890,
      "▁coucher": 7891,
      "fichier": 7892,
      "bar": 7893,
      "expression": 7894,
      "▁terminer": 7895,
      "▁exceptionn": 7896,
      "▁béton": 7897,
      "▁2022.": 7898,
      "▁partagé": 7899,
      "▁faibles": 7900,
      "▁poll": 7901,
      "▁officiellement": 7902,
      "▁militaires": 7903,
      "▁riz": 7904,
      "▁plateformes": 7905,
      "▁configuration": 7906,
      "hésion": 7907,
      "▁largeur": 7908,
      "▁élector": 7909,
      "▁passée": 7910,
      "ifs": 7911,
      "amin": 7912,
      "umer": 7913,
      "▁lesb": 7914,
      "▁seins": 7915,
      "▁cockt": 7916,
      "▁fonctionner": 7917,
      "▁dame": 7918,
      "▁bassin": 7919,
      "▁satisfaire": 7920,
      "▁précisément": 7921,
      "▁..": 7922,
      "▁bénévoles": 7923,
      "▁visibilité": 7924,
      "▁incon": 7925,
      "crits": 7926,
      "▁leaders": 7927,
      "▁colle": 7928,
      "▁dommage": 7929,
      "commer": 7930,
      "paravant": 7931,
      "levé": 7932,
      "▁asc": 7933,
      "▁tunisie": 7934,
      "▁tourne": 7935,
      "▁clip": 7936,
      "▁déliv": 7937,
      "▁aventures": 7938,
      "▁power": 7939,
      "▁célibataires": 7940,
      "▁mature": 7941,
      "▁49": 7942,
      "▁work": 7943,
      "▁collective": 7944,
      "orp": 7945,
      "▁gâteau": 7946,
      "▁expliquer": 7947,
      "▁transmission": 7948,
      "▁parisien": 7949,
      "▁fauteuil": 7950,
      "day": 7951,
      "▁normand": 7952,
      "lerie": 7953,
      "▁phénomène": 7954,
      "▁coloris": 7955,
      "▁trom": 7956,
      "▁souris": 7957,
      "▁allait": 7958,
      "46": 7959,
      "▁(20": 7960,
      "▁camb": 7961,
      "▁chats": 7962,
      "▁intérêts": 7963,
      "▁intégrer": 7964,
      "▁libertin": 7965,
      "uée": 7966,
      "▁95": 7967,
      "▁adhér": 7968,
      "▁stratégique": 7969,
      "aisons": 7970,
      "cit": 7971,
      "▁venue": 7972,
      "écution": 7973,
      "read": 7974,
      "▁devons": 7975,
      "▁congrès": 7976,
      "▁mr": 7977,
      "assi": 7978,
      "▁embar": 7979,
      "ulations": 7980,
      "▁prévoit": 7981,
      "ueux": 7982,
      "▁tome": 7983,
      "▁documentaire": 7984,
      "▁chu": 7985,
      "opath": 7986,
      "▁normalement": 7987,
      "idées": 7988,
      "▁compli": 7989,
      "▁conformément": 7990,
      "▁fourni": 7991,
      "▁délicieux": 7992,
      "▁scénario": 7993,
      "▁accus": 7994,
      "▁gener": 7995,
      "▁limitée": 7996,
      "▁nig": 7997,
      "onomique": 7998,
      "ound": 7999,
      "anda": 8000,
      "▁armes": 8001,
      "▁julien": 8002,
      "▁climatique": 8003,
      "ado": 8004,
      "▁révélé": 8005,
      "▁garantit": 8006,
      "▁dvd": 8007,
      "▁conclusion": 8008,
      "archive": 8009,
      "veau": 8010,
      "▁déplacements": 8011,
      "▁régionale": 8012,
      "▁accepter": 8013,
      "▁manches": 8014,
      "▁essentielles": 8015,
      "▁fallait": 8016,
      "▁vieill": 8017,
      "atou": 8018,
      "▁goûts": 8019,
      "▁détendre": 8020,
      "▁cest": 8021,
      "leterre": 8022,
      "▁entière": 8023,
      "▁acte": 8024,
      "▁devront": 8025,
      "album": 8026,
      "dement": 8027,
      "▁physiques": 8028,
      "▁dizaines": 8029,
      "▁alentours": 8030,
      "▁similaire": 8031,
      "▁retrouvé": 8032,
      "▁détru": 8033,
      "▁comparer": 8034,
      "cidents": 8035,
      "▁opportunités": 8036,
      "rès": 8037,
      "▁tf": 8038,
      "▁présentés": 8039,
      "▁cultiv": 8040,
      "wa": 8041,
      "▁islam": 8042,
      "▁bataille": 8043,
      "▁quartiers": 8044,
      "▁ord": 8045,
      "rante": 8046,
      "▁inspiré": 8047,
      "▁culturelle": 8048,
      "▁ordonn": 8049,
      "zo": 8050,
      "human": 8051,
      "▁publier": 8052,
      "▁pensée": 8053,
      "▁proposée": 8054,
      "76": 8055,
      "▁boissons": 8056,
      "rom": 8057,
      "▁casque": 8058,
      "▁présidente": 8059,
      "▁intemp": 8060,
      "▁réservations": 8061,
      "immobil": 8062,
      "▁exclusivement": 8063,
      "▁île": 8064,
      "▁arabe": 8065,
      "▁ouest": 8066,
      "ally": 8067,
      "▁évoluer": 8068,
      "tueux": 8069,
      "▁mascul": 8070,
      "▁traces": 8071,
      "mages": 8072,
      "émique": 8073,
      "▁efficacité": 8074,
      "▁née": 8075,
      "érale": 8076,
      "hous": 8077,
      "inage": 8078,
      "▁collègues": 8079,
      "▁populations": 8080,
      "ulier": 8081,
      "▁circonst": 8082,
      "▁manifestations": 8083,
      "/02": 8084,
      "▁miel": 8085,
      "▁montée": 8086,
      "▁géant": 8087,
      "phones": 8088,
      "▁devriez": 8089,
      "optimis": 8090,
      "▁somm": 8091,
      "entraînement": 8092,
      "▁consacré": 8093,
      "▁42": 8094,
      "▁invitons": 8095,
      "▁44": 8096,
      "▁blu": 8097,
      "windows": 8098,
      "hu": 8099,
      "▁mutu": 8100,
      "▁coque": 8101,
      "▁rapides": 8102,
      "▁trimestre": 8103,
      "load": 8104,
      "▁symbol": 8105,
      "▁colon": 8106,
      "tan": 8107,
      "▁compét": 8108,
      "▁clar": 8109,
      "▁connaissez": 8110,
      "▁financières": 8111,
      ",99": 8112,
      "▁impli": 8113,
      "▁foi": 8114,
      "rants": 8115,
      "▁eh": 8116,
      "auf": 8117,
      "ington": 8118,
      "ocation": 8119,
      "ènements": 8120,
      "aisseur": 8121,
      "▁couvert": 8122,
      "▁coordination": 8123,
      "▁poit": 8124,
      "▁démon": 8125,
      "rières": 8126,
      "iliation": 8127,
      "▁fibre": 8128,
      "log": 8129,
      "▁essentielle": 8130,
      "▁mentionn": 8131,
      "▁boy": 8132,
      "▁portrait": 8133,
      "ily": 8134,
      "▁michael": 8135,
      "▁nue": 8136,
      "alg": 8137,
      "▁reçoit": 8138,
      "▁lion": 8139,
      "▁violences": 8140,
      "/07": 8141,
      "active": 8142,
      "▁gendar": 8143,
      "▁genève": 8144,
      "▁foyer": 8145,
      "intel": 8146,
      "▁annuel": 8147,
      "▁menace": 8148,
      "▁alpes": 8149,
      "▁fonctionnalité": 8150,
      "▁dep": 8151,
      "▁ressemble": 8152,
      "▁constructeur": 8153,
      "▁attendu": 8154,
      "anglais": 8155,
      "▁deg": 8156,
      "ison": 8157,
      "▁vpn": 8158,
      "▁green": 8159,
      "▁affront": 8160,
      "▁800": 8161,
      "▁bru": 8162,
      "▁casser": 8163,
      "initiative": 8164,
      "▁cous": 8165,
      "▁littérature": 8166,
      "▁dizaine": 8167,
      "▁about": 8168,
      "garde": 8169,
      "▁soirées": 8170,
      "heim": 8171,
      "▁commiss": 8172,
      "▁clic": 8173,
      "▁établi": 8174,
      "tex": 8175,
      "henti": 8176,
      "▁déroule": 8177,
      "ban": 8178,
      "ning": 8179,
      "▁déclen": 8180,
      "attaque": 8181,
      "▁intervient": 8182,
      "/24": 8183,
      "▁policiers": 8184,
      "▁2024": 8185,
      "▁miroir": 8186,
      "▁bé": 8187,
      "▁appels": 8188,
      "▁enregistrer": 8189,
      "▁euro": 8190,
      "▁énorm": 8191,
      "mc": 8192,
      "▁foc": 8193,
      "▁actes": 8194,
      "tré": 8195,
      "ache": 8196,
      "▁descri": 8197,
      "commun": 8198,
      "vice": 8199,
      "▁2015,": 8200,
      "fon": 8201,
      "isol": 8202,
      "▁ikea": 8203,
      "anou": 8204,
      "▁feront": 8205,
      "▁:)": 8206,
      "ôture": 8207,
      "▁félic": 8208,
      "isode": 8209,
      "veil": 8210,
      "▁james": 8211,
      "▁espagne": 8212,
      "▁privés": 8213,
      "▁chanteur": 8214,
      "▁façons": 8215,
      "▁graphiques": 8216,
      "▁die": 8217,
      "▁devrez": 8218,
      "international": 8219,
      "▁ponc": 8220,
      "▁moteurs": 8221,
      "▁transmettre": 8222,
      "▁cardi": 8223,
      "uaire": 8224,
      "▁43": 8225,
      "ruption": 8226,
      "▁wc": 8227,
      "▁adéqu": 8228,
      "envoi": 8229,
      "aco": 8230,
      "▁notif": 8231,
      "▁cool": 8232,
      "▁clinique": 8233,
      "▁toiture": 8234,
      "▁certificat": 8235,
      "▁jul": 8236,
      "▁cig": 8237,
      "▁180": 8238,
      "olive": 8239,
      "/2021": 8240,
      "95": 8241,
      "intégr": 8242,
      "▁arn": 8243,
      "articles": 8244,
      "▁étrangers": 8245,
      "▁enne": 8246,
      "▁influence": 8247,
      "▁nuances": 8248,
      "▁creer": 8249,
      "▁libres": 8250,
      "▁uns": 8251,
      "▁(@": 8252,
      "▁évalu": 8253,
      "▁saisir": 8254,
      "▁pouces": 8255,
      "▁débarras": 8256,
      "rop": 8257,
      "▁séqu": 8258,
      "▁désirez": 8259,
      "▁plais": 8260,
      "▁silence": 8261,
      "ueillir": 8262,
      "▁barcelone": 8263,
      "▁maillot": 8264,
      "phe": 8265,
      "table": 8266,
      "▁house": 8267,
      "▁dépass": 8268,
      "▁vesti": 8269,
      "▁basket": 8270,
      "▁conséquence": 8271,
      "agon": 8272,
      "olet": 8273,
      "▁jés": 8274,
      "▁archives": 8275,
      "internet": 8276,
      "▁clôture": 8277,
      "▁carrel": 8278,
      "écl": 8279,
      "▁remercie": 8280,
      "lish": 8281,
      "▁bot": 8282,
      "▁élevée": 8283,
      "ogène": 8284,
      "▁conférences": 8285,
      "observ": 8286,
      "▁illim": 8287,
      "équilibre": 8288,
      "▁advers": 8289,
      "oline": 8290,
      "▁nuclé": 8291,
      "▁conseille": 8292,
      "▁routes": 8293,
      "▁intense": 8294,
      "▁italien": 8295,
      "▁visible": 8296,
      "lip": 8297,
      "▁assistance": 8298,
      "▁pizz": 8299,
      "▁générales": 8300,
      "▁princes": 8301,
      "▁médicale": 8302,
      "▁amie": 8303,
      "tionnels": 8304,
      "▁compose": 8305,
      "▁importe": 8306,
      "abilités": 8307,
      "▁instantan": 8308,
      "▁déclin": 8309,
      "licence": 8310,
      "▁willi": 8311,
      "▁poissons": 8312,
      "▁auraient": 8313,
      "▁symbole": 8314,
      "▁commerciales": 8315,
      "▁créez": 8316,
      "▁fuite": 8317,
      "▁souffle": 8318,
      "▁arrond": 8319,
      "échelle": 8320,
      "mal": 8321,
      "▁régler": 8322,
      "▁perfection": 8323,
      "avoc": 8324,
      "eck": 8325,
      "▁artifici": 8326,
      "▁émission": 8327,
      "▁run": 8328,
      "cides": 8329,
      "▁cellules": 8330,
      "▁guilde": 8331,
      "▁etre": 8332,
      "▁souligné": 8333,
      "▁nuits": 8334,
      "œurs": 8335,
      "▁faisons": 8336,
      ".5": 8337,
      "▁holl": 8338,
      "▁texture": 8339,
      "▁module": 8340,
      "▁semi": 8341,
      "▁tan": 8342,
      "▁graines": 8343,
      "▁auparavant": 8344,
      "▁simplicité": 8345,
      "▁grav": 8346,
      "▁européennes": 8347,
      "▁déguster": 8348,
      "èlement": 8349,
      "▁démons": 8350,
      "▁ouvertes": 8351,
      "▁puissent": 8352,
      "▁maquillage": 8353,
      "▁gagné": 8354,
      "▁institutions": 8355,
      "▁dre": 8356,
      "%.": 8357,
      "▁compagnies": 8358,
      "▁utilisent": 8359,
      "bonne": 8360,
      "four": 8361,
      "▁balade": 8362,
      "aisselle": 8363,
      "▁lits": 8364,
      "▁préalable": 8365,
      "itivement": 8366,
      "▁génére": 8367,
      "opportun": 8368,
      "▁sky": 8369,
      "attente": 8370,
      "▁investisseurs": 8371,
      "agré": 8372,
      "▁comprennent": 8373,
      "prof": 8374,
      "▁confirme": 8375,
      "▁vague": 8376,
      "▁chevaux": 8377,
      "itude": 8378,
      "▁enregistré": 8379,
      "▁jazz": 8380,
      "▁assister": 8381,
      "lle": 8382,
      "▁vag": 8383,
      "▁dégust": 8384,
      "▁surpren": 8385,
      "▁spac": 8386,
      "▁lor": 8387,
      "▁guider": 8388,
      "auto": 8389,
      "▁guer": 8390,
      "▁sons": 8391,
      "▁magnifiques": 8392,
      "▁cercle": 8393,
      "▁filtre": 8394,
      "▁essentiellement": 8395,
      "▁mérite": 8396,
      "▁boutiques": 8397,
      "erse": 8398,
      "lantique": 8399,
      "▁prévoir": 8400,
      "▁challenge": 8401,
      "▁contribue": 8402,
      "expé": 8403,
      "▁fro": 8404,
      "orce": 8405,
      "▁différente": 8406,
      "▁carn": 8407,
      "▁partagez": 8408,
      "onnées": 8409,
      "ool": 8410,
      "jean": 8411,
      "▁nath": 8412,
      "▁diplom": 8413,
      "77": 8414,
      "▁maje": 8415,
      "▁saur": 8416,
      "▁contribution": 8417,
      "opping": 8418,
      "▁papa": 8419,
      "▁tranquille": 8420,
      "▁dévoile": 8421,
      "▁communaut": 8422,
      ")||": 8423,
      "36": 8424,
      "étaire": 8425,
      "▁approprié": 8426,
      "▁fermer": 8427,
      "▁semblent": 8428,
      "▁carton": 8429,
      "▁pâtis": 8430,
      "abri": 8431,
      "aig": 8432,
      "▁claude": 8433,
      "▁was": 8434,
      "▁auquel": 8435,
      "▁major": 8436,
      "▁progrès": 8437,
      "▁réfrig": 8438,
      "parole": 8439,
      "▁féminin": 8440,
      "existence": 8441,
      "wi": 8442,
      "▁reli": 8443,
      "▁queue": 8444,
      "▁effort": 8445,
      "vet": 8446,
      "▁poil": 8447,
      "▁roche": 8448,
      "trice": 8449,
      "▁réservez": 8450,
      "▁disposer": 8451,
      "▁localisation": 8452,
      "▁enfance": 8453,
      "▁décorer": 8454,
      "▁erreurs": 8455,
      "▁pharmacie": 8456,
      "▁chatte": 8457,
      "▁affirmé": 8458,
      "aure": 8459,
      "▁maîtres": 8460,
      "▁paroles": 8461,
      "▁blo": 8462,
      "▁rome": 8463,
      "années": 8464,
      "urerie": 8465,
      "endront": 8466,
      "▁cadres": 8467,
      "▁agir": 8468,
      "acquisition": 8469,
      "▁disposez": 8470,
      "▁fabriquer": 8471,
      "▁vivent": 8472,
      "▁balcon": 8473,
      "▁soucis": 8474,
      "▁î": 8475,
      "▁spécialisés": 8476,
      "guer": 8477,
      "▁irré": 8478,
      "38": 8479,
      "▁day": 8480,
      "▁jose": 8481,
      "wood": 8482,
      "affiche": 8483,
      "▁québéc": 8484,
      "▁sond": 8485,
      "▁pauvre": 8486,
      "▁assist": 8487,
      "▁achetez": 8488,
      "▁industrielle": 8489,
      "▁engagé": 8490,
      "▁heb": 8491,
      "▁épisodes": 8492,
      "▁terres": 8493,
      "inez": 8494,
      "▁over": 8495,
      "▁sinc": 8496,
      "▁apais": 8497,
      "▁spl": 8498,
      "▁jambes": 8499,
      "▁restric": 8500,
      "▁facilité": 8501,
      "▁modalités": 8502,
      "▁chaînes": 8503,
      "▁instructions": 8504,
      "inion": 8505,
      "▁doigts": 8506,
      "▁inoubli": 8507,
      "cd": 8508,
      "étaient": 8509,
      "▁morceau": 8510,
      "▁passionné": 8511,
      "▁if": 8512,
      "▁inu": 8513,
      "▁boos": 8514,
      "igneur": 8515,
      "appré": 8516,
      "▁privées": 8517,
      "assistance": 8518,
      "▁présentes": 8519,
      "▁optimiser": 8520,
      "infos": 8521,
      "▁refroid": 8522,
      "onnais": 8523,
      "apprendre": 8524,
      "▁panneau": 8525,
      "expertise": 8526,
      "▁historiques": 8527,
      "▁myst": 8528,
      "▁couples": 8529,
      "▁mélanger": 8530,
      "oué": 8531,
      "▁aiment": 8532,
      "press": 8533,
      "▁na": 8534,
      "▁repose": 8535,
      "lor": 8536,
      "back": 8537,
      "appartement": 8538,
      "▁grève": 8539,
      "▁émotionnel": 8540,
      "▁han": 8541,
      "▁ak": 8542,
      "cor": 8543,
      "employ": 8544,
      "▁fantastique": 8545,
      "▁conflit": 8546,
      "▁dangereux": 8547,
      "▁emblé": 8548,
      "hentique": 8549,
      "dl": 8550,
      "▁adm": 8551,
      "▁connectez": 8552,
      "▁terri": 8553,
      "▁dispositifs": 8554,
      "▁cac": 8555,
      "ivoire": 8556,
      "▁donnez": 8557,
      "▁galaxy": 8558,
      "▁aides": 8559,
      "agées": 8560,
      "▁équipés": 8561,
      "▁eric": 8562,
      "una": 8563,
      "▁élu": 8564,
      "▁donnée": 8565,
      "▁milit": 8566,
      "ismes": 8567,
      "uie": 8568,
      "▁console": 8569,
      "▁scènes": 8570,
      "▁expédi": 8571,
      "arre": 8572,
      "tens": 8573,
      "▁podcas": 8574,
      "sté": 8575,
      "▁bravo": 8576,
      "▁identité": 8577,
      "▁inéd": 8578,
      "▁zéro": 8579,
      "▁titulaire": 8580,
      "▁squ": 8581,
      "▁défendre": 8582,
      "▁écriv": 8583,
      "▁rassemb": 8584,
      "▁procédures": 8585,
      "▁clo": 8586,
      "▁couture": 8587,
      "▁individu": 8588,
      "ief": 8589,
      "▁sauvage": 8590,
      "gas": 8591,
      "▁actualité": 8592,
      "▁comédie": 8593,
      "ida": 8594,
      "▁cultures": 8595,
      "housias": 8596,
      "organisme": 8597,
      "▁5,": 8598,
      "▁serrurerie": 8599,
      "avion": 8600,
      "otage": 8601,
      "▁échapp": 8602,
      "rira": 8603,
      "▁imper": 8604,
      "êne": 8605,
      "▁témoignages": 8606,
      "▁(5": 8607,
      "▁liqu": 8608,
      "▁terroris": 8609,
      "▁interdit": 8610,
      "▁détec": 8611,
      "▁parl": 8612,
      "▁chaudi": 8613,
      "▁aw": 8614,
      "▁pédagogique": 8615,
      "▁initiative": 8616,
      "▁disent": 8617,
      "▁crimin": 8618,
      "ona": 8619,
      "▁familial": 8620,
      "▁maximale": 8621,
      "▁essayez": 8622,
      "▁jui": 8623,
      "▁sélectionné": 8624,
      "▁vaccin": 8625,
      "▁lumineux": 8626,
      "▁luxemb": 8627,
      "▁sombre": 8628,
      "▁chapitre": 8629,
      "▁temporaire": 8630,
      "▁len": 8631,
      "pub": 8632,
      "▁telecharger": 8633,
      "▁grille": 8634,
      "▁vétér": 8635,
      "▁pvc": 8636,
      "▁exempl": 8637,
      "||1": 8638,
      "▁richesse": 8639,
      "▁débit": 8640,
      "▁mental": 8641,
      "▁ajus": 8642,
      "▁termine": 8643,
      "▁expli": 8644,
      "▁essentiels": 8645,
      "président": 8646,
      "▁échanger": 8647,
      "annes": 8648,
      "▁jouets": 8649,
      "▁éclat": 8650,
      "cler": 8651,
      "▁surfaces": 8652,
      "▁85": 8653,
      "32": 8654,
      "▁envisage": 8655,
      "▁jésus": 8656,
      "médiaire": 8657,
      "▁interventions": 8658,
      "▁prochainement": 8659,
      "▁député": 8660,
      "intendo": 8661,
      "▁logistique": 8662,
      "▁gestes": 8663,
      "▁mark": 8664,
      "▁climatisation": 8665,
      "▁division": 8666,
      "landais": 8667,
      "igné": 8668,
      "▁veste": 8669,
      "▁organismes": 8670,
      "teries": 8671,
      "▁geste": 8672,
      "ories": 8673,
      "▁corri": 8674,
      "get": 8675,
      "▁liée": 8676,
      "▁fantas": 8677,
      "▁gain": 8678,
      "▁directe": 8679,
      "▁cond": 8680,
      "▁confection": 8681,
      "▁ménage": 8682,
      "immobilier": 8683,
      "▁décrit": 8684,
      "▁étudiant": 8685,
      "▁rénov": 8686,
      "tv": 8687,
      "▁rét": 8688,
      "▁autonomie": 8689,
      "▁mariée": 8690,
      "▁messagerie": 8691,
      "icier": 8692,
      "30.": 8693,
      "allemagne": 8694,
      "▁souhaité": 8695,
      "▁positive": 8696,
      "▁poker": 8697,
      "▁tok": 8698,
      "▁traitements": 8699,
      "▁concevoir": 8700,
      ".”": 8701,
      "▁sculp": 8702,
      "▁doub": 8703,
      "▁pix": 8704,
      "issait": 8705,
      "gre": 8706,
      "▁passez": 8707,
      "aya": 8708,
      "▁métro": 8709,
      "▁savons": 8710,
      "▁tradu": 8711,
      "▁francais": 8712,
      "▁78": 8713,
      "cop": 8714,
      "▁langage": 8715,
      "▁loup": 8716,
      "▁coquine": 8717,
      "▁absor": 8718,
      "▁parlé": 8719,
      "▁repris": 8720,
      "▁dommages": 8721,
      "ender": 8722,
      "cesseur": 8723,
      "▁complexes": 8724,
      "▁valable": 8725,
      "yo": 8726,
      "ressions": 8727,
      "47": 8728,
      "▁relativement": 8729,
      "▁tox": 8730,
      "ev": 8731,
      "42": 8732,
      "▁neur": 8733,
      "▁industriels": 8734,
      "ègre": 8735,
      "▁paradis": 8736,
      "ulteurs": 8737,
      "▁mit": 8738,
      "▁hug": 8739,
      "▁électroniques": 8740,
      "mann": 8741,
      "bé": 8742,
      "ago": 8743,
      "▁drog": 8744,
      "▁poulet": 8745,
      "jan": 8746,
      "▁emplois": 8747,
      "▁ard": 8748,
      "▁battre": 8749,
      "▁norme": 8750,
      "▁reconnaître": 8751,
      "▁menuis": 8752,
      "▁conducteur": 8753,
      "▁soft": 8754,
      "▁libert": 8755,
      "▁pensées": 8756,
      "tinéraire": 8757,
      "▁tin": 8758,
      "oms": 8759,
      "▁protège": 8760,
      "lesse": 8761,
      "▁étrangères": 8762,
      "▁pratiquer": 8763,
      "marie": 8764,
      "▁tog": 8765,
      "▁rog": 8766,
      "italie": 8767,
      "▁195": 8768,
      "▁league": 8769,
      "▁faça": 8770,
      "▁anth": 8771,
      "▁46": 8772,
      "▁élo": 8773,
      "▁sportives": 8774,
      "▁pomme": 8775,
      "▁mets": 8776,
      "▁primaire": 8777,
      "▁poster": 8778,
      "ligence": 8779,
      "▁invent": 8780,
      "▁portefeuille": 8781,
      "trices": 8782,
      "▁rempli": 8783,
      "fil": 8784,
      "hébergement": 8785,
      "uche": 8786,
      "▁particul": 8787,
      "▁sympathique": 8788,
      "▁pascal": 8789,
      "▁réchauff": 8790,
      "▁occident": 8791,
      "▁docteur": 8792,
      "▁certification": 8793,
      "▁games": 8794,
      "▁noix": 8795,
      "▁chrome": 8796,
      "▁perturb": 8797,
      "oter": 8798,
      "▁touristique": 8799,
      "▁températures": 8800,
      "▁contenir": 8801,
      "▁pantalon": 8802,
      "gs": 8803,
      "fie": 8804,
      "▁smartphones": 8805,
      "onnier": 8806,
      "lation": 8807,
      "▁animé": 8808,
      "▁présentent": 8809,
      "▁délicate": 8810,
      "▁coun": 8811,
      "▁robot": 8812,
      "▁cave": 8813,
      "▁arran": 8814,
      "▁espagnol": 8815,
      "▁parvenir": 8816,
      "▁bienfaits": 8817,
      "eront": 8818,
      "ressé": 8819,
      "▁boutons": 8820,
      "▁compliqué": 8821,
      "ople": 8822,
      "▁conçus": 8823,
      "ulée": 8824,
      "▁toilette": 8825,
      "▁imprimer": 8826,
      "▁colère": 8827,
      "▁restera": 8828,
      "▁faç": 8829,
      "▁rugby": 8830,
      "▁affecter": 8831,
      "▁importance": 8832,
      "▁eg": 8833,
      "▁travaillent": 8834,
      "▁lèvres": 8835,
      "tionnelles": 8836,
      "adémie": 8837,
      "▁communautés": 8838,
      "▁symptômes": 8839,
      "humour": 8840,
      "▁savent": 8841,
      "▁laissant": 8842,
      "▁intr": 8843,
      "▁aigu": 8844,
      "▁2016.": 8845,
      "▁âgées": 8846,
      "▁stabilité": 8847,
      "▁calif": 8848,
      "▁relatives": 8849,
      "uge": 8850,
      "▁harry": 8851,
      "▁sensibles": 8852,
      "▁intéressé": 8853,
      "/08": 8854,
      "lets": 8855,
      "▁légend": 8856,
      "owe": 8857,
      "▁start": 8858,
      "▁thier": 8859,
      "▁ceinture": 8860,
      "▁fréd": 8861,
      "▁voyez": 8862,
      "ilé": 8863,
      "▁domes": 8864,
      "▁authentique": 8865,
      "▁suspension": 8866,
      "▁anciennes": 8867,
      "▁allé": 8868,
      "▁syndicat": 8869,
      "▁résistant": 8870,
      "▁arômes": 8871,
      "inspiration": 8872,
      "▁cerveau": 8873,
      "▁résidents": 8874,
      "▁voile": 8875,
      "type": 8876,
      "▁prud": 8877,
      "coin": 8878,
      "▁nette": 8879,
      "utilise": 8880,
      "▁villages": 8881,
      "▁réjou": 8882,
      "▁cart": 8883,
      "▁laine": 8884,
      "franç": 8885,
      "▁hot": 8886,
      "▁matelas": 8887,
      "asa": 8888,
      "▁réalisées": 8889,
      "▁saura": 8890,
      "▁nintendo": 8891,
      "▁postu": 8892,
      "▁personnaliser": 8893,
      "▁sugges": 8894,
      "▁bière": 8895,
      "▁récente": 8896,
      "▁roch": 8897,
      "▁avocat": 8898,
      "▁64": 8899,
      "▁sensible": 8900,
      "▁chaises": 8901,
      "▁dispositions": 8902,
      "▁ens": 8903,
      "▁crédits": 8904,
      "▁desser": 8905,
      "harm": 8906,
      "▁unités": 8907,
      "▁immer": 8908,
      "39": 8909,
      "▁vapeur": 8910,
      "▁musical": 8911,
      "▁abou": 8912,
      "▁carrelage": 8913,
      "▁récupéra": 8914,
      "ingue": 8915,
      "▁soc": 8916,
      "▁représentation": 8917,
      "adel": 8918,
      "othérapie": 8919,
      "▁cp": 8920,
      "▁concernés": 8921,
      "▁angl": 8922,
      "essentiel": 8923,
      "bec": 8924,
      "▁poussière": 8925,
      "▁mê": 8926,
      "▁hospital": 8927,
      "▁chanteuse": 8928,
      "cap": 8929,
      "▁personnalisée": 8930,
      "▁tonnes": 8931,
      "▁stéphane": 8932,
      "▁huiles": 8933,
      "humidité": 8934,
      "antill": 8935,
      "▁dragon": 8936,
      "équipement": 8937,
      "▁franchise": 8938,
      "▁caus": 8939,
      "▁plomberie": 8940,
      "▁recommandons": 8941,
      "▁tuy": 8942,
      "▁longs": 8943,
      "▁voisins": 8944,
      "yon": 8945,
      "▁investissements": 8946,
      "▁envelopp": 8947,
      "▁collier": 8948,
      "bois": 8949,
      "▁contraintes": 8950,
      "▁analyses": 8951,
      "▁recharge": 8952,
      "▁connaitre": 8953,
      "bal": 8954,
      "▁solo": 8955,
      "▁commis": 8956,
      "▁ye": 8957,
      "▁path": 8958,
      "utée": 8959,
      "nam": 8960,
      "tech": 8961,
      "▁touristes": 8962,
      "uation": 8963,
      "▁accessoire": 8964,
      "▁bouill": 8965,
      "journ": 8966,
      "▁sony": 8967,
      "▁rach": 8968,
      "▁get": 8969,
      "cc": 8970,
      "▁donnera": 8971,
      "▁tournage": 8972,
      "▁issu": 8973,
      "▁varier": 8974,
      "▁fondateur": 8975,
      "▁voulait": 8976,
      "images": 8977,
      "▁animation": 8978,
[...]
