{
  "version": "1.0",
  "truncation": null,
  "padding": null,
  "added_tokens": [
    {
      "id": 0,
      "content": "<unk>",
      "single_word": false,
      "lstrip": false,
      "rstrip": false,
      "normalized": false,
      "special": true
    },
    {
      "id": 1,
      "content": "<s>",
      "single_word": false,
      "lstrip": false,
      "rstrip": false,
      "normalized": false,
      "special": true
    },
    {
      "id": 2,
      "content": "</s>",
      "single_word": false,
      "lstrip": false,
      "rstrip": false,
      "normalized": false,
      "special": true
    },
    {
      "id": 3,
      "content": "<pad>",
      "single_word": false,
      "lstrip": false,
      "rstrip": false,
      "normalized": false,
      "special": true
    }
  ],
  "normalizer": {
    "type": "Sequence",
    "normalizers": [
      {
        "type": "Replace",
        "pattern": {
          "String": " "
        },
        "content": "▁"
      }
    ]
  },
  "pre_tokenizer": null,
  "post_processor": {
    "type": "TemplateProcessing",
    "single": [
      {
        "SpecialToken": {
          "id": "<s>",
          "type_id": 0
        }
      },
      {
        "Sequence": {
          "id": "A",
          "type_id": 0
        }
      }
    ],
    "pair": [
      {
        "SpecialToken": {
          "id": "<s>",
          "type_id": 0
        }
      },
      {
        "Sequence": {
          "id": "A",
          "type_id": 0
        }
      },
      {
        "SpecialToken": {
          "id": "<s>",
          "type_id": 1
        }
      },
      {
        "Sequence": {
          "id": "B",
          "type_id": 1
        }
      }
    ],
    "special_tokens": {
      "<s>": {
        "id": "<s>",
        "ids": [
          1
        ],
        "tokens": [
          "<s>"
        ]
      }
    }
  },
  "decoder": {
    "type": "Sequence",
    "decoders": [
      {
        "type": "Replace",
        "pattern": {
          "String": "▁"
        },
        "content": " "
      },
      {
        "type": "ByteFallback"
      },
      {
        "type": "Fuse"
      }
    ]
  },
  "model": {
    "type": "BPE",
    "dropout": null,
    "unk_token": "<unk>",
    "continuing_subword_prefix": null,
    "end_of_word_suffix": null,
    "fuse_unk": true,
    "byte_fallback": true,
    "ignore_merges": false,
    "vocab": {
      "<unk>": 0,
      "<s>": 1,
      "</s>": 2,
      "<pad>": 3,
      "<0x00>": 4,
      "<0x01>": 5,
      "<0x02>": 6,
      "<0x03>": 7,
      "<0x04>": 8,
      "<0x05>": 9,
      "<0x06>": 10,
      "<0x07>": 11,
      "<0x08>": 12,
      "<0x09>": 13,
      "<0x0A>": 14,
      "<0x0B>": 15,
      "<0x0C>": 16,
      "<0x0D>": 17,
      "<0x0E>": 18,
      "<0x0F>": 19,
      "<0x10>": 20,
      "<0x11>": 21,
      "<0x12>": 22,
      "<0x13>": 23,
      "<0x14>": 24,
      "<0x15>": 25,
      "<0x16>": 26,
      "<0x17>": 27,
      "<0x18>": 28,
      "<0x19>": 29,
      "<0x1A>": 30,
      "<0x1B>": 31,
      "<0x1C>": 32,
      "<0x1D>": 33,
      "<0x1E>": 34,
      "<0x1F>": 35,
      "<0x20>": 36,
      "<0x21>": 37,
      "<0x22>": 38,
      "<0x23>": 39,
      "<0x24>": 40,
      "<0x25>": 41,
      "<0x26>": 42,
      "<0x27>": 43,
      "<0x28>": 44,
      "<0x29>": 45,
      "<0x2A>": 46,
      "<0x2B>": 47,
      "<0x2C>": 48,
      "<0x2D>": 49,
      "<0x2E>": 50,
      "<0x2F>": 51,
      "<0x30>": 52,
      "<0x31>": 53,
      "<0x32>": 54,
      "<0x33>": 55,
      "<0x34>": 56,
      "<0x35>": 57,
      "<0x36>": 58,
      "<0x37>": 59,
      "<0x38>": 60,
      "<0x39>": 61,
      "<0x3A>": 62,
      "<0x3B>": 63,
      "<0x3C>": 64,
      "<0x3D>": 65,
      "<0x3E>": 66,
      "<0x3F>": 67,
      "<0x40>": 68,
      "<0x41>": 69,
      "<0x42>": 70,
      "<0x43>": 71,
      "<0x44>": 72,
      "<0x45>": 73,
      "<0x46>": 74,
      "<0x47>": 75,
      "<0x48>": 76,
      "<0x49>": 77,
      "<0x4A>": 78,
      "<0x4B>": 79,
      "<0x4C>": 80,
      "<0x4D>": 81,
      "<0x4E>": 82,
      "<0x4F>": 83,
      "<0x50>": 84,
      "<0x51>": 85,
      "<0x52>": 86,
      "<0x53>": 87,
      "<0x54>": 88,
      "<0x55>": 89,
      "<0x56>": 90,
      "<0x57>": 91,
      "<0x58>": 92,
      "<0x59>": 93,
      "<0x5A>": 94,
      "<0x5B>": 95,
      "<0x5C>": 96,
      "<0x5D>": 97,
      "<0x5E>": 98,
      "<0x5F>": 99,
      "<0x60>": 100,
      "<0x61>": 101,
      "<0x62>": 102,
      "<0x63>": 103,
      "<0x64>": 104,
      "<0x65>": 105,
      "<0x66>": 106,
      "<0x67>": 107,
      "<0x68>": 108,
      "<0x69>": 109,
      "<0x6A>": 110,
      "<0x6B>": 111,
      "<0x6C>": 112,
      "<0x6D>": 113,
      "<0x6E>": 114,
      "<0x6F>": 115,
      "<0x70>": 116,
      "<0x71>": 117,
      "<0x72>": 118,
      "<0x73>": 119,
      "<0x74>": 120,
      "<0x75>": 121,
      "<0x76>": 122,
      "<0x77>": 123,
      "<0x78>": 124,
      "<0x79>": 125,
      "<0x7A>": 126,
      "<0x7B>": 127,
      "<0x7C>": 128,
      "<0x7D>": 129,
      "<0x7E>": 130,
      "<0x7F>": 131,
      "<0x80>": 132,
      "<0x81>": 133,
      "<0x82>": 134,
      "<0x83>": 135,
      "<0x84>": 136,
      "<0x85>": 137,
      "<0x86>": 138,
      "<0x87>": 139,
      "<0x88>": 140,
      "<0x89>": 141,
      "<0x8A>": 142,
      "<0x8B>": 143,
      "<0x8C>": 144,
      "<0x8D>": 145,
      "<0x8E>": 146,
      "<0x8F>": 147,
      "<0x90>": 148,
      "<0x91>": 149,
      "<0x92>": 150,
      "<0x93>": 151,
      "<0x94>": 152,
      "<0x95>": 153,
      "<0x96>": 154,
      "<0x97>": 155,
      "<0x98>": 156,
      "<0x99>": 157,
      "<0x9A>": 158,
      "<0x9B>": 159,
      "<0x9C>": 160,
      "<0x9D>": 161,
      "<0x9E>": 162,
      "<0x9F>": 163,
      "<0xA0>": 164,
      "<0xA1>": 165,
      "<0xA2>": 166,
      "<0xA3>": 167,
      "<0xA4>": 168,
      "<0xA5>": 169,
      "<0xA6>": 170,
      "<0xA7>": 171,
      "<0xA8>": 172,
      "<0xA9>": 173,
      "<0xAA>": 174,
      "<0xAB>": 175,
      "<0xAC>": 176,
      "<0xAD>": 177,
      "<0xAE>": 178,
      "<0xAF>": 179,
      "<0xB0>": 180,
      "<0xB1>": 181,
      "<0xB2>": 182,
      "<0xB3>": 183,
      "<0xB4>": 184,
      "<0xB5>": 185,
      "<0xB6>": 186,
      "<0xB7>": 187,
      "<0xB8>": 188,
      "<0xB9>": 189,
      "<0xBA>": 190,
      "<0xBB>": 191,
      "<0xBC>": 192,
      "<0xBD>": 193,
      "<0xBE>": 194,
      "<0xBF>": 195,
      "<0xC0>": 196,
      "<0xC1>": 197,
      "<0xC2>": 198,
      "<0xC3>": 199,
      "<0xC4>": 200,
      "<0xC5>": 201,
      "<0xC6>": 202,
      "<0xC7>": 203,
      "<0xC8>": 204,
      "<0xC9>": 205,
      "<0xCA>": 206,
      "<0xCB>": 207,
      "<0xCC>": 208,
      "<0xCD>": 209,
      "<0xCE>": 210,
      "<0xCF>": 211,
      "<0xD0>": 212,
      "<0xD1>": 213,
      "<0xD2>": 214,
      "<0xD3>": 215,
      "<0xD4>": 216,
      "<0xD5>": 217,
      "<0xD6>": 218,
      "<0xD7>": 219,
      "<0xD8>": 220,
      "<0xD9>": 221,
      "<0xDA>": 222,
      "<0xDB>": 223,
      "<0xDC>": 224,
      "<0xDD>": 225,
      "<0xDE>": 226,
      "<0xDF>": 227,
      "<0xE0>": 228,
      "<0xE1>": 229,
      "<0xE2>": 230,
      "<0xE3>": 231,
      "<0xE4>": 232,
      "<0xE5>": 233,
      "<0xE6>": 234,
      "<0xE7>": 235,
      "<0xE8>": 236,
      "<0xE9>": 237,
      "<0xEA>": 238,
      "<0xEB>": 239,
      "<0xEC>": 240,
      "<0xED>": 241,
      "<0xEE>": 242,
      "<0xEF>": 243,
      "<0xF0>": 244,
      "<0xF1>": 245,
      "<0xF2>": 246,
      "<0xF3>": 247,
      "<0xF4>": 248,
      "<0xF5>": 249,
      "<0xF6>": 250,
      "<0xF7>": 251,
      "<0xF8>": 252,
      "<0xF9>": 253,
      "<0xFA>": 254,
      "<0xFB>": 255,
      "<0xFC>": 256,
      "<0xFD>": 257,
      "<0xFE>": 258,
      "<0xFF>": 259,
      "▁t": 260,
      "▁a": 261,
      "he": 262,
      "in": 263,
      "re": 264,
      "▁the": 265,
      "▁s": 266,
      "▁o": 267,
      "er": 268,
      "▁c": 269,
      "at": 270,
      "on": 271,
      "▁w": 272,
      "en": 273,
      "▁p": 274,
      "es": 275,
      "▁b": 276,
      "is": 277,
      "it": 278,
      "▁f": 279,
      "nd": 280,
      "or": 281,
      "▁m": 282,
      "al": 283,
      "▁in": 284,
      "an": 285,
      "ed": 286,
      "ing": 287,
      "▁of": 288,
      "▁d": 289,
      "ou": 290,
      "ar": 291,
      "▁to": 292,
      "▁and": 293,
      "ic": 294,
      "ion": 295,
      "le": 296,
      "ro": 297,
      "▁h": 298,
      "▁th": 299,
      "as": 300,
      "▁e": 301,
      "ent": 302,
      "▁l": 303,
      "▁n": 304,
      "▁re": 305,
      "ct": 306,
      "il": 307,
      "▁g": 308,
      "ve": 309,
      "om": 310,
      "us": 311,
      "▁is": 312,
      "▁be": 313,
      "ly": 314,
      "ol": 315,
      "▁st": 316,
      "st": 317,
      "▁y": 318,
      "id": 319,
      "im": 320,
      "et": 321,
      "ation": 322,
      "ra": 323,
      "▁for": 324,
      "ow": 325,
      "ut": 326,
      "ch": 327,
      "ur": 328,
      "▁on": 329,
      "ce": 330,
      "ot": 331,
      "ig": 332,
      "▁that": 333,
      "ver": 334,
      "se": 335,
      "ir": 336,
      "▁you": 337,
      "▁it": 338,
      "ay": 339,
      "▁as": 340,
      "▁pro": 341,
      "ul": 342,
      "▁an": 343,
      "▁he": 344,
      "▁are": 345,
      "am": 346,
      "▁wh": 347,
      "▁con": 348,
      "if": 349,
      "un": 350,
      "ith": 351,
      "▁al": 352,
      "el": 353,
      "ad": 354,
      "▁with": 355,
      "▁or": 356,
      "her": 357,
      "▁mo": 358,
      "ter": 359,
      "▁de": 360,
      "th": 361,
      "ge": 362,
      "▁v": 363,
      "▁we": 364,
      "▁ch": 365,
      "ill": 366,
      "op": 367,
      "ment": 368,
      "▁com": 369,
      "▁ex": 370,
      "ts": 371,
      "ers": 372,
      "ate": 373,
      "▁ha": 374,
      "▁1": 375,
      "ess": 376,
      "ies": 377,
      "od": 378,
      "▁r": 379,
      "▁(": 380,
      "ect": 381,
      "ke": 382,
      "▁this": 383,
      "um": 384,
      "▁can": 385,
      "▁ne": 386,
      "ab": 387,
      "res": 388,
      "▁us": 389,
      "rom": 390,
      "▁at": 391,
      "ive": 392,
      "ac": 393,
      "ity": 394,
      "▁by": 395,
      "▁su": 396,
      "qu": 397,
      "▁se": 398,
      "est": 399,
      "ud": 400,
      "ist": 401,
      "ld": 402,
      "▁-": 403,
      "os": 404,
      "▁le": 405,
      "▁from": 406,
      "igh": 407,
      "iv": 408,
      "▁en": 409,
      "ain": 410,
      "pp": 411,
      "▁sp": 412,
      "em": 413,
      "▁j": 414,
      "ci": 415,
      "▁k": 416,
      "and": 417,
      "ren": 418,
      "▁sh": 419,
      "▁was": 420,
      "▁u": 421,
      "▁wor": 422,
      "▁2": 423,
      "ure": 424,
      "ant": 425,
      "▁have": 426,
      "ort": 427,
      "▁ab": 428,
      "ical": 429,
      "▁pl": 430,
      "▁not": 431,
      "og": 432,
      "ri": 433,
      "art": 434,
      "▁im": 435,
      "▁your": 436,
      "rou": 437,
      "red": 438,
      "▁un": 439,
      "all": 440,
      "▁whe": 441,
      "▁they": 442,
      "out": 443,
      "ap": 444,
      "▁so": 445,
      "ions": 446,
      "ine": 447,
      "our": 448,
      "ome": 449,
      "gh": 450,
      "ide": 451,
      "▁ad": 452,
      "ag": 453,
      "ich": 454,
      "ight": 455,
      "ated": 456,
      "ust": 457,
      "▁their": 458,
      "ould": 459,
      "ard": 460,
      "00": 461,
      "▁will": 462,
      "ell": 463,
      "act": 464,
      "▁int": 465,
      "▁te": 466,
      "ther": 467,
      "oc": 468,
      "age": 469,
      "▁comp": 470,
      "▁more": 471,
      "▁dis": 472,
      "so": 473,
      "▁all": 474,
      "du": 475,
      "ast": 476,
      "▁cl": 477,
      "▁ac": 478,
      "ood": 479,
      "ak": 480,
      "▁cont": 481,
      "ff": 482,
      "▁inc": 483,
      "ans": 484,
      "per": 485,
      "pl": 486,
      "ally": 487,
      "▁but": 488,
      "▁res": 489,
      "ild": 490,
      "pt": 491,
      "▁do": 492,
      "▁which": 493,
      "▁man": 494,
      "ater": 495,
      "vel": 496,
      "▁stud": 497,
      "▁has": 498,
      "ib": 499,
      "iz": 500,
      "ous": 501,
      "ear": 502,
      "ru": 503,
      "▁ar": 504,
      "ks": 505,
      "end": 506,
      "▁how": 507,
      "orm": 508,
      "ia": 509,
      "ie": 510,
      "ents": 511,
      "▁one": 512,
      "▁me": 513,
      "ations": 514,
      "▁other": 515,
      "ip": 516,
      "ong": 517,
      "ary": 518,
      "▁per": 519,
      "ind": 520,
      "oun": 521,
      "ore": 522,
      "▁imp": 523,
      "oo": 524,
      "▁also": 525,
      "able": 526,
      "ult": 527,
      "▁about": 528,
      "ake": 529,
      "▁if": 530,
      "ach": 531,
      "ry": 532,
      "ial": 533,
      "▁am": 534,
      "ase": 535,
      "▁pe": 536,
      "ence": 537,
      "▁when": 538,
      "reat": 539,
      "▁inf": 540,
      "▁out": 541,
      "▁new": 542,
      "ass": 543,
      "▁comm": 544,
      "▁ro": 545,
      "▁i": 546,
      "▁sy": 547,
      "▁tim": 548,
      "ign": 549,
      "▁sa": 550,
      "▁col": 551,
      "▁its": 552,
      "▁app": 553,
      "▁ev": 554,
      "▁co": 555,
      "aus": 556,
      "▁di": 557,
      "▁there": 558,
      "ace": 559,
      "ice": 560,
      "▁\"": 561,
      "▁these": 562,
      "ance": 563,
      "very": 564,
      "▁qu": 565,
      "▁pre": 566,
      "cess": 567,
      "ction": 568,
      "one": 569,
      "fe": 570,
      "▁some": 571,
      "ress": 572,
      "▁what": 573,
      "ition": 574,
      "▁fe": 575,
      "▁were": 576,
      "ber": 577,
      "▁who": 578,
      "ory": 579,
      "ite": 580,
      "▁may": 581,
      "ens": 582,
      "▁ind": 583,
      "ces": 584,
      "ound": 585,
      "▁year": 586,
      "▁bl": 587,
      "ors": 588,
      "ack": 589,
      "are": 590,
      "ord": 591,
      "▁part": 592,
      "ike": 593,
      "▁spe": 594,
      "▁up": 595,
      "now": 596,
      "▁ra": 597,
      "▁fl": 598,
      "ish": 599,
      "av": 600,
      "▁than": 601,
      "ays": 602,
      "olog": 603,
      "ang": 604,
      "ree": 605,
      "▁ph": 606,
      "▁po": 607,
      "ame": 608,
      "ep": 609,
      "▁bec": 610,
      "▁rec": 611,
      "▁them": 612,
      "ub": 613,
      "ric": 614,
      "▁child": 615,
      "▁our": 616,
      "▁use": 617,
      "ount": 618,
      "▁peop": 619,
      "▁go": 620,
      "ue": 621,
      "▁tra": 622,
      "ose": 623,
      "▁hel": 624,
      "ile": 625,
      "▁people": 626,
      "vers": 627,
      "▁work": 628,
      "▁ag": 629,
      "rent": 630,
      "▁over": 631,
      "alth": 632,
      "▁most": 633,
      "▁act": 634,
      "ings": 635,
      "ph": 636,
      "arn": 637,
      "▁19": 638,
      "te": 639,
      "ail": 640,
      "ys": 641,
      "▁time": 642,
      "ates": 643,
      "lud": 644,
      "rit": 645,
      "▁help": 646,
      "▁und": 647,
      "▁20": 648,
      "pe": 649,
      "ook": 650,
      "▁into": 651,
      "▁like": 652,
      "▁des": 653,
      "▁rese": 654,
      "▁know": 655,
      "ms": 656,
      "▁3": 657,
      "▁dif": 658,
      "▁sc": 659,
      "▁his": 660,
      "▁cons": 661,
      "rough": 662,
      "▁tw": 663,
      "▁been": 664,
      "▁em": 665,
      "▁no": 666,
      "▁resear": 667,
      "erv": 668,
      "▁inter": 669,
      "▁health": 670,
      "les": 671,
      "row": 672,
      "▁fir": 673,
      "ough": 674,
      "▁gen": 675,
      "▁tr": 676,
      "▁af": 677,
      "ject": 678,
      "▁under": 679,
      "▁bet": 680,
      "als": 681,
      "ause": 682,
      "we": 683,
      "▁many": 684,
      "velop": 685,
      "uc": 686,
      "▁need": 687,
      "▁includ": 688,
      "lect": 689,
      "▁pr": 690,
      "▁develop": 691,
      "low": 692,
      "ian": 693,
      "▁rep": 694,
      "▁first": 695,
      "ond": 696,
      "ific": 697,
      "ities": 698,
      "▁water": 699,
      "ons": 700,
      "▁used": 701,
      "▁mar": 702,
      "lic": 703,
      "ments": 704,
      "stem": 705,
      "▁eff": 706,
      "▁through": 707,
      "▁produ": 708,
      "▁such": 709,
      "▁any": 710,
      ").": 711,
      "▁prov": 712,
      "ational": 713,
      "▁ed": 714,
      "round": 715,
      "ple": 716,
      "ating": 717,
      "▁sur": 718,
      "▁add": 719,
      "▁rel": 720,
      "▁acc": 721,
      "▁sm": 722,
      "hed": 723,
      "▁ear": 724,
      "▁learn": 725,
      "ics": 726,
      "▁cent": 727,
      "▁sci": 728,
      "ink": 729,
      "▁off": 730,
      "ular": 731,
      "▁system": 732,
      "▁two": 733,
      "▁reg": 734,
      "▁ob": 735,
      "ire": 736,
      "ative": 737,
      "▁med": 738,
      "▁sch": 739,
      "cial": 740,
      "▁only": 741,
      "▁inst": 742,
      "▁diffe": 743,
      "▁would": 744,
      "ool": 745,
      "ced": 746,
      "eth": 747,
      "▁car": 748,
      "ble": 749,
      "▁world": 750,
      "▁get": 751,
      "ath": 752,
      "ious": 753,
      "uring": 754,
      "▁exp": 755,
      "erg": 756,
      "int": 757,
      "▁high": 758,
      "ick": 759,
      "▁well": 760,
      "▁make": 761,
      "ual": 762,
      "▁pres": 763,
      "▁dec": 764,
      "iss": 765,
      "ram": 766,
      "▁bu": 767,
      "ange": 768,
      "ful": 769,
      "▁years": 770,
      "oss": 771,
      "ures": 772,
      "▁rem": 773,
      "▁plan": 774,
      "▁after": 775,
      "▁had": 776,
      "ower": 777,
      "oth": 778,
      "▁found": 779,
      "▁ke": 780,
      "ten": 781,
      "▁children": 782,
      "ise": 783,
      "ased": 784,
      "▁students": 785,
      "ife": 786,
      "ds": 787,
      "▁form": 788,
      "▁201": 789,
      "own": 790,
      "ck": 791,
      "rib": 792,
      "ting": 793,
      "▁said": 794,
      "▁gra": 795,
      "▁ty": 796,
      "▁4": 797,
      "▁inform": 798,
      "ible": 799,
      "▁supp": 800,
      "▁should": 801,
      "▁att": 802,
      "▁inv": 803,
      "▁read": 804,
      "▁sub": 805,
      "hes": 806,
      "chn": 807,
      "▁par": 808,
      "ract": 809,
      "▁prog": 810,
      "erm": 811,
      "▁school": 812,
      "▁eng": 813,
      "ility": 814,
      "ology": 815,
      "▁where": 816,
      "▁pub": 817,
      "▁num": 818,
      "▁spec": 819,
      "ll": 820,
      "its": 821,
      "▁could": 822,
      "wn": 823,
      "▁mon": 824,
      "eric": 825,
      "▁sim": 826,
      "ob": 827,
      "▁research": 828,
      "▁5": 829,
      "▁import": 830,
      "▁trans": 831,
      "▁count": 832,
      "cy": 833,
      "▁uni": 834,
      "▁she": 835,
      "▁just": 836,
      "▁exam": 837,
      "▁techn": 838,
      "▁study": 839,
      "ween": 840,
      "▁che": 841,
      "ne": 842,
      "ps": 843,
      "▁mod": 844,
      "▁see": 845,
      "▁food": 846,
      "▁between": 847,
      "▁each": 848,
      "ists": 849,
      "▁sol": 850,
      "▁dr": 851,
      "urn": 852,
      "▁pol": 853,
      "ert": 854,
      "fore": 855,
      "▁art": 856,
      "ade": 857,
      "▁because": 858,
      "ins": 859,
      "▁exper": 860,
      "),": 861,
      "▁sk": 862,
      "▁dep": 863,
      "▁then": 864,
      "▁pers": 865,
      "▁disc": 866,
      "▁even": 867,
      "▁hum": 868,
      "gan": 869,
      "▁long": 870,
      "ily": 871,
      "▁gl": 872,
      "xt": 873,
      "ural": 874,
      "▁every": 875,
      "▁lar": 876,
      "▁hist": 877,
      "ines": 878,
      "▁information": 879,
      "▁fol": 880,
      "▁dat": 881,
      "▁different": 882,
      "ident": 883,
      "▁her": 884,
      "▁det": 885,
      "ied": 886,
      "ost": 887,
      "▁while": 888,
      "hers": 889,
      "▁find": 890,
      "▁pat": 891,
      "ont": 892,
      "▁during": 893,
      "get": 894,
      "▁way": 895,
      "▁effect": 896,
      "ution": 897,
      "ved": 898,
      "ict": 899,
      "ually": 900,
      "▁americ": 901,
      "▁gener": 902,
      "▁cre": 903,
      "iron": 904,
      "▁incre": 905,
      "ft": 906,
      "▁loc": 907,
      "cer": 908,
      "land": 909,
      "▁day": 910,
      "▁using": 911,
      "▁call": 912,
      "▁cur": 913,
      "▁sec": 914,
      "▁var": 915,
      "aking": 916,
      "ited": 917,
      "▁sign": 918,
      "▁br": 919,
      "▁ass": 920,
      "▁commun": 921,
      "▁dise": 922,
      "▁very": 923,
      "▁min": 924,
      "vent": 925,
      "arm": 926,
      "▁ext": 927,
      "sel": 928,
      "uch": 929,
      "▁av": 930,
      "ature": 931,
      "▁those": 932,
      "▁fam": 933,
      "ety": 934,
      "▁life": 935,
      "ove": 936,
      "ages": 937,
      "..": 938,
      "▁expl": 939,
      "tern": 940,
      "iew": 941,
      "▁important": 942,
      "cent": 943,
      "ives": 944,
      "▁grow": 945,
      "▁aut": 946,
      "ases": 947,
      "ving": 948,
      "▁cor": 949,
      "▁la": 950,
      "▁process": 951,
      "▁resp": 952,
      "▁now": 953,
      "▁data": 954,
      "▁set": 955,
      "▁fact": 956,
      "ues": 957,
      "▁200": 958,
      "the": 959,
      "▁partic": 960,
      "ically": 961,
      "▁my": 962,
      "versity": 963,
      "▁proble": 964,
      "▁bod": 965,
      "▁mus": 966,
      "ros": 967,
      "day": 968,
      "▁state": 969,
      "▁dist": 970,
      "▁show": 971,
      "▁level": 972,
      "form": 973,
      "▁env": 974,
      "▁ma": 975,
      "▁vis": 976,
      "rect": 977,
      "▁prot": 978,
      "cc": 979,
      "▁lead": 980,
      "▁educ": 981,
      "▁follow": 982,
      "▁much": 983,
      "▁back": 984,
      "▁18": 985,
      "▁being": 986,
      "▁ins": 987,
      "▁less": 988,
      "▁good": 989,
      "▁treat": 990,
      "ruct": 991,
      "▁does": 992,
      "▁|": 993,
      "▁environ": 994,
      "gg": 995,
      "ever": 996,
      "tle": 997,
      "▁pop": 998,
      "▁6": 999,
      "▁small": 1000,
      "▁str": 1001,
      "▁ris": 1002,
      "▁class": 1003,
      "▁ent": 1004,
      "led": 1005,
      "▁take": 1006,
      "▁requ": 1007,
      "▁def": 1008,
      "io": 1009,
      "ergy": 1010,
      "▁design": 1011,
      "▁gu": 1012,
      "▁gre": 1013,
      "▁lit": 1014,
      "ize": 1015,
      "ness": 1016,
      "▁before": 1017,
      "▁ec": 1018,
      "old": 1019,
      "ices": 1020,
      "▁fun": 1021,
      "▁both": 1022,
      "▁grou": 1023,
      "▁end": 1024,
      "▁val": 1025,
      "▁char": 1026,
      "▁cal": 1027,
      "ning": 1028,
      "other": 1029,
      "▁down": 1030,
      "▁activ": 1031,
      "read": 1032,
      "▁look": 1033,
      "▁pa": 1034,
      "▁common": 1035,
      "▁comple": 1036,
      "▁serv": 1037,
      "▁around": 1038,
      "ection": 1039,
      "ene": 1040,
      "ted": 1041,
      "ward": 1042,
      "stand": 1043,
      "▁elect": 1044,
      "▁made": 1045,
      "▁own": 1046,
      "▁environment": 1047,
      "▁however": 1048,
      "▁often": 1049,
      "▁main": 1050,
      "ids": 1051,
      "ism": 1052,
      "▁cell": 1053,
      "oy": 1054,
      "▁bra": 1055,
      "ale": 1056,
      "akes": 1057,
      "▁cap": 1058,
      "▁organ": 1059,
      "▁ref": 1060,
      "▁project": 1061,
      "▁number": 1062,
      "▁provid": 1063,
      "ves": 1064,
      "▁person": 1065,
      "▁test": 1066,
      "imate": 1067,
      "▁cle": 1068,
      "▁here": 1069,
      "▁great": 1070,
      "▁energy": 1071,
      "ger": 1072,
      "▁inte": 1073,
      "ected": 1074,
      "000": 1075,
      "und": 1076,
      "▁wom": 1077,
      "▁redu": 1078,
      "▁same": 1079,
      "▁mem": 1080,
      "ather": 1081,
      "iel": 1082,
      "▁university": 1083,
      "▁hand": 1084,
      "▁body": 1085,
      "▁disease": 1086,
      "▁three": 1087,
      "▁appro": 1088,
      "ized": 1089,
      "▁human": 1090,
      "ty": 1091,
      "▁writ": 1092,
      "▁contro": 1093,
      "▁national": 1094,
      "▁eas": 1095,
      "ality": 1096,
      "▁care": 1097,
      "cept": 1098,
      "ork": 1099,
      "▁prof": 1100,
      "▁power": 1101,
      "▁build": 1102,
      "▁cour": 1103,
      "▁ser": 1104,
      "ute": 1105,
      "▁land": 1106,
      "ets": 1107,
      "ished": 1108,
      "com": 1109,
      "▁som": 1110,
      "▁z": 1111,
      "▁public": 1112,
      "▁program": 1113,
      "▁met": 1114,
      "▁bo": 1115,
      "▁cond": 1116,
      "▁occ": 1117,
      "ix": 1118,
      "ters": 1119,
      "▁mat": 1120,
      "▁jo": 1121,
      "▁understand": 1122,
      "▁10": 1123,
      "ants": 1124,
      "▁start": 1125,
      "ient": 1126,
      "▁too": 1127,
      "onom": 1128,
      "▁ve": 1129,
      "▁history": 1130,
      "▁scient": 1131,
      "ince": 1132,
      "▁quest": 1133,
      "▁bel": 1134,
      "der": 1135,
      "▁air": 1136,
      "▁op": 1137,
      "▁mater": 1138,
      "▁fin": 1139,
      "▁phys": 1140,
      "▁poss": 1141,
      "iving": 1142,
      "▁intern": 1143,
      "de": 1144,
      "ains": 1145,
      "ined": 1146,
      "hip": 1147,
      "▁aff": 1148,
      "▁adv": 1149,
      "▁bi": 1150,
      "▁including": 1151,
      "ivid": 1152,
      "▁7": 1153,
      "ury": 1154,
      "▁mill": 1155,
      "▁states": 1156,
      "ral": 1157,
      "ier": 1158,
      "vern": 1159,
      "▁fr": 1160,
      "▁tem": 1161,
      "rest": 1162,
      "ull": 1163,
      "▁equ": 1164,
      "▁bre": 1165,
      "▁material": 1166,
      "▁typ": 1167,
      "▁think": 1168,
      "▁known": 1169,
      "▁pract": 1170,
      "▁home": 1171,
      "▁est": 1172,
      "cl": 1173,
      "up": 1174,
      "▁sym": 1175,
      "▁nat": 1176,
      "▁aw": 1177,
      "king": 1178,
      "▁large": 1179,
      "▁development": 1180,
      "▁caus": 1181,
      "acter": 1182,
      "▁const": 1183,
      "ults": 1184,
      "ross": 1185,
      "▁play": 1186,
      "▁change": 1187,
      "▁stand": 1188,
      "oms": 1189,
      "ources": 1190,
      "nt": 1191,
      "▁learning": 1192,
      "ital": 1193,
      "▁8": 1194,
      "▁contin": 1195,
      "ency": 1196,
      "▁called": 1197,
      "▁allow": 1198,
      "▁science": 1199,
      "▁bas": 1200,
      "ulation": 1201,
      "▁ant": 1202,
      "ars": 1203,
      "▁anim": 1204,
      "▁researc": 1205,
      "▁again": 1206,
      "ording": 1207,
      "orn": 1208,
      "▁report": 1209,
      "▁beh": 1210,
      "▁though": 1211,
      "▁keep": 1212,
      "outh": 1213,
      "▁blood": 1214,
      "▁impro": 1215,
      "line": 1216,
      "▁support": 1217,
      "▁top": 1218,
      "▁sl": 1219,
      "▁risk": 1220,
      "▁hy": 1221,
      "ouse": 1222,
      ",000": 1223,
      "▁example": 1224,
      "▁old": 1225,
      "▁light": 1226,
      "▁place": 1227,
      "▁pain": 1228,
      "▁direct": 1229,
      "▁chang": 1230,
      "uss": 1231,
      "▁pot": 1232,
      "▁govern": 1233,
      "▁area": 1234,
      "raph": 1235,
      "itions": 1236,
      ".\"": 1237,
      "▁ret": 1238,
      "els": 1239,
      "▁another": 1240,
      "▁still": 1241,
      "▁rev": 1242,
      "▁conf": 1243,
      "▁few": 1244,
      "bs": 1245,
      "▁ge": 1246,
      "ional": 1247,
      "▁tre": 1248,
      "▁plant": 1249,
      "▁did": 1250,
      "▁since": 1251,
      "▁el": 1252,
      "me": 1253,
      "▁experi": 1254,
      "▁meth": 1255,
      "▁ide": 1256,
      "▁product": 1257,
      "ock": 1258,
      "ared": 1259,
      "eng": 1260,
      "agn": 1261,
      "▁sw": 1262,
      "▁right": 1263,
      "angu": 1264,
      "▁ident": 1265,
      "ium": 1266,
      "▁last": 1267,
      "▁ess": 1268,
      "▁according": 1269,
      "▁want": 1270,
      "▁nor": 1271,
      "ering": 1272,
      "lish": 1273,
      ",\"": 1274,
      "▁species": 1275,
      "▁iss": 1276,
      "▁early": 1277,
      "▁present": 1278,
      "▁prevent": 1279,
      "▁must": 1280,
      "▁war": 1281,
      "▁include": 1282,
      "▁anal": 1283,
      "▁9": 1284,
      "▁pur": 1285,
      "orts": 1286,
      "▁meas": 1287,
      "ron": 1288,
      "ource": 1289,
      "▁women": 1290,
      "▁earth": 1291,
      "▁wee": 1292,
      "▁langu": 1293,
      "▁why": 1294,
      "▁education": 1295,
      "soci": 1296,
      "▁american": 1297,
      "▁bir": 1298,
      "ential": 1299,
      "▁percent": 1300,
      "▁best": 1301,
      "20": 1302,
      "▁mil": 1303,
      "▁book": 1304,
      "▁lab": 1305,
      "▁space": 1306,
      "▁dem": 1307,
      "ights": 1308,
      "ills": 1309,
      "▁control": 1310,
      "itive": 1311,
      "▁sit": 1312,
      "ired": 1313,
      "▁es": 1314,
      "gin": 1315,
      "ries": 1316,
      "▁low": 1317,
      "▁might": 1318,
      "▁researchers": 1319,
      "rop": 1320,
      "▁second": 1321,
      "rence": 1322,
      "▁imm": 1323,
      "▁social": 1324,
      "air": 1325,
      "▁within": 1326,
      "-1": 1327,
      "▁without": 1328,
      "▁vir": 1329,
      "▁vari": 1330,
      "ark": 1331,
      "▁associ": 1332,
      "||": 1333,
      "▁fore": 1334,
      "▁colle": 1335,
      "▁pap": 1336,
      "▁cancer": 1337,
      "▁pass": 1338,
      "pr": 1339,
      "osed": 1340,
      "▁current": 1341,
      "co": 1342,
      "▁better": 1343,
      "▁ele": 1344,
      "▁cause": 1345,
      "▁post": 1346,
      "bers": 1347,
      "▁individ": 1348,
      "rodu": 1349,
      "▁mark": 1350,
      "▁near": 1351,
      "▁family": 1352,
      "▁sever": 1353,
      "▁free": 1354,
      "▁group": 1355,
      "ats": 1356,
      "▁cr": 1357,
      "▁avail": 1358,
      "ption": 1359,
      "▁comput": 1360,
      "▁dra": 1361,
      "▁press": 1362,
      "▁method": 1363,
      "▁desc": 1364,
      "▁profess": 1365,
      "▁addition": 1366,
      "br": 1367,
      "iven": 1368,
      "ining": 1369,
      "▁result": 1370,
      "ination": 1371,
      "cing": 1372,
      "▁interest": 1373,
      "▁technology": 1374,
      "ave": 1375,
      "ner": 1376,
      "▁provide": 1377,
      "▁dev": 1378,
      "▁gr": 1379,
      "lished": 1380,
      "▁bene": 1381,
      "iqu": 1382,
      "▁cult": 1383,
      "ns": 1384,
      "▁proper": 1385,
      "▁list": 1386,
      "ason": 1387,
      "ental": 1388,
      "inal": 1389,
      "▁says": 1390,
      "ton": 1391,
      "be": 1392,
      "iver": 1393,
      "ield": 1394,
      "▁creat": 1395,
      "ify": 1396,
      "ax": 1397,
      "▁auth": 1398,
      "ograph": 1399,
      "▁natural": 1400,
      "uro": 1401,
      "▁orig": 1402,
      "▁cam": 1403,
      "▁type": 1404,
      "▁let": 1405,
      "self": 1406,
      "▁pos": 1407,
      "ior": 1408,
      "▁age": 1409,
      "▁leg": 1410,
      "▁maj": 1411,
      "▁access": 1412,
      "▁rest": 1413,
      "▁become": 1414,
      "▁today": 1415,
      "▁mean": 1416,
      "▁open": 1417,
      "▁move": 1418,
      "au": 1419,
      "▁times": 1420,
      "hing": 1421,
      "▁month": 1422,
      "▁youn": 1423,
      "▁vol": 1424,
      "ov": 1425,
      "▁several": 1426,
      "▁teac": 1427,
      "ense": 1428,
      "▁&": 1429,
      "▁treatment": 1430,
      "▁artic": 1431,
      "▁areas": 1432,
      "▁cert": 1433,
      "ah": 1434,
      "▁(1": 1435,
      "ients": 1436,
      "▁bus": 1437,
      "▁head": 1438,
      "▁available": 1439,
      "▁occur": 1440,
      "ator": 1441,
      "ards": 1442,
      "▁four": 1443,
      "▁able": 1444,
      "ological": 1445,
      "▁sun": 1446,
      "work": 1447,
      "ots": 1448,
      "▁del": 1449,
      "ways": 1450,
      "▁medic": 1451,
      "man": 1452,
      "▁econom": 1453,
      "▁united": 1454,
      "ently": 1455,
      "▁major": 1456,
      "▁him": 1457,
      "▁benef": 1458,
      "ization": 1459,
      "▁name": 1460,
      "iod": 1461,
      "▁happ": 1462,
      "▁say": 1463,
      "ified": 1464,
      "▁hig": 1465,
      "▁ill": 1466,
      "▁heart": 1467,
      "▁works": 1468,
      "ences": 1469,
      "▁law": 1470,
      "ration": 1471,
      "▁point": 1472,
      "▁opp": 1473,
      "▁ter": 1474,
      "▁oper": 1475,
      "oid": 1476,
      "iness": 1477,
      "▁real": 1478,
      "▁belie": 1479,
      "▁perform": 1480,
      "▁turn": 1481,
      "▁rad": 1482,
      "▁conn": 1483,
      "▁means": 1484,
      "osp": 1485,
      "▁object": 1486,
      "ived": 1487,
      "▁phot": 1488,
      "ones": 1489,
      "▁following": 1490,
      "▁problems": 1491,
      "less": 1492,
      "gen": 1493,
      "▁based": 1494,
      "▁impact": 1495,
      "ories": 1496,
      "▁unt": 1497,
      "▁period": 1498,
      "▁create": 1499,
      "▁language": 1500,
      "▁possible": 1501,
      "▁compan": 1502,
      "ability": 1503,
      "▁things": 1504,
      "▁run": 1505,
      "▁order": 1506,
      "▁non": 1507,
      "cle": 1508,
      "▁lim": 1509,
      "ples": 1510,
      "▁cost": 1511,
      "▁view": 1512,
      "ission": 1513,
      "▁fre": 1514,
      "▁plants": 1515,
      "▁hard": 1516,
      "▁infl": 1517,
      "ex": 1518,
      "▁bro": 1519,
      "▁suc": 1520,
      "▁among": 1521,
      "ug": 1522,
      "▁15": 1523,
      "▁chem": 1524,
      "sc": 1525,
      "▁foc": 1526,
      "▁feel": 1527,
      "▁invol": 1528,
      "▁problem": 1529,
      "ern": 1530,
      "▁cells": 1531,
      "0.": 1532,
      "▁ey": 1533,
      "▁fac": 1534,
      "▁step": 1535,
      "▁dam": 1536,
      "▁making": 1537,
      "atic": 1538,
      "▁north": 1539,
      "▁prom": 1540,
      "ides": 1541,
      "▁put": 1542,
      "▁mult": 1543,
      "▁team": 1544,
      "▁little": 1545,
      "▁diff": 1546,
      "▁levels": 1547,
      "▁brain": 1548,
      "▁mic": 1549,
      "par": 1550,
      "▁sum": 1551,
      "▁government": 1552,
      "ames": 1553,
      "▁struct": 1554,
      "▁soci": 1555,
      "na": 1556,
      "▁green": 1557,
      "▁glob": 1558,
      "▁others": 1559,
      "to": 1560,
      "ained": 1561,
      "ooks": 1562,
      "▁wind": 1563,
      "▁x": 1564,
      "▁city": 1565,
      "▁next": 1566,
      "ik": 1567,
      "▁words": 1568,
      "▁particular": 1569,
      "ank": 1570,
      "▁local": 1571,
      "▁sal": 1572,
      "▁south": 1573,
      "__": 1574,
      "▁focus": 1575,
      "▁men": 1576,
      "ians": 1577,
      "▁mot": 1578,
      "ends": 1579,
      "▁ste": 1580,
      "▁short": 1581,
      "ered": 1582,
      "▁special": 1583,
      "▁million": 1584,
      "▁young": 1585,
      "▁key": 1586,
      "▁course": 1587,
      "▁community": 1588,
      "▁wr": 1589,
      "▁signific": 1590,
      "▁sympt": 1591,
      "▁er": 1592,
      "▁country": 1593,
      "ash": 1594,
      "ider": 1595,
      "ling": 1596,
      ".,": 1597,
      "▁temper": 1598,
      "▁net": 1599,
      "▁red": 1600,
      "▁lo": 1601,
      "ime": 1602,
      "ests": 1603,
      "▁cir": 1604,
      "▁medical": 1605,
      "▁tool": 1606,
      "▁fil": 1607,
      "▁rele": 1608,
      "▁cy": 1609,
      "face": 1610,
      "ane": 1611,
      "▁try": 1612,
      "▁once": 1613,
      "▁come": 1614,
      "ision": 1615,
      "▁indust": 1616,
      "▁results": 1617,
      "▁systems": 1618,
      "▁ce": 1619,
      "bit": 1620,
      "ogn": 1621,
      "erc": 1622,
      "▁tri": 1623,
      "une": 1624,
      "▁manage": 1625,
      "▁usually": 1626,
      "▁paper": 1627,
      "▁sugg": 1628,
      "▁fut": 1629,
      "▁consum": 1630,
      "▁along": 1631,
      "ina": 1632,
      "ateg": 1633,
      "here": 1634,
      "▁black": 1635,
      "▁cat": 1636,
      "rap": 1637,
      "ope": 1638,
      "▁past": 1639,
      "▁mid": 1640,
      "az": 1641,
      "▁fur": 1642,
      "ething": 1643,
      "▁big": 1644,
      "▁due": 1645,
      "▁house": 1646,
      "▁record": 1647,
      "▁climate": 1648,
      "sw": 1649,
      "ww": 1650,
      "▁days": 1651,
      "▁resources": 1652,
      "▁12": 1653,
      "cially": 1654,
      "▁word": 1655,
      "ised": 1656,
      "▁sing": 1657,
      "▁enc": 1658,
      "▁center": 1659,
      "▁nut": 1660,
      "ilar": 1661,
      "alk": 1662,
      "▁studies": 1663,
      "▁trad": 1664,
      "▁behav": 1665,
      "ention": 1666,
      "tt": 1667,
      "▁instit": 1668,
      "▁until": 1669,
      "▁dig": 1670,
      "ended": 1671,
      "▁against": 1672,
      "▁something": 1673,
      "▁likely": 1674,
      "atory": 1675,
      "▁function": 1676,
      "▁obs": 1677,
      "▁comb": 1678,
      "▁working": 1679,
      "▁certain": 1680,
      "▁determ": 1681,
      "▁future": 1682,
      "▁symptoms": 1683,
      "pect": 1684,
      "▁success": 1685,
      "▁full": 1686,
      "▁engine": 1687,
      "▁give": 1688,
      "▁rece": 1689,
      "▁across": 1690,
      "▁arch": 1691,
      "▁news": 1692,
      "idence": 1693,
      "▁death": 1694,
      "▁flow": 1695,
      "▁ann": 1696,
      "▁far": 1697,
      "▁teach": 1698,
      "▁protect": 1699,
      "etic": 1700,
      "▁white": 1701,
      "▁toget": 1702,
      "▁similar": 1703,
      "▁together": 1704,
      "▁increase": 1705,
      "ances": 1706,
      "▁week": 1707,
      "▁scientists": 1708,
      "▁patients": 1709,
      "▁prev": 1710,
      "▁improve": 1711,
      "▁begin": 1712,
      "▁prop": 1713,
      "▁author": 1714,
      "icult": 1715,
      "▁general": 1716,
      "▁ur": 1717,
      "▁stre": 1718,
      "though": 1719,
      "▁discuss": 1720,
      "ape": 1721,
      "▁jour": 1722,
      "▁$": 1723,
      "▁skills": 1724,
      "▁given": 1725,
      "▁invest": 1726,
      "▁color": 1727,
      "▁case": 1728,
      "▁summ": 1729,
      "▁cop": 1730,
      "▁text": 1731,
      "ote": 1732,
      "▁'": 1733,
      "urope": 1734,
      "▁significant": 1735,
      "▁english": 1736,
      "ven": 1737,
      "▁don": 1738,
      "▁line": 1739,
      "▁story": 1740,
      "▁17": 1741,
      "▁below": 1742,
      "▁source": 1743,
      "▁always": 1744,
      "▁ways": 1745,
      "▁wild": 1746,
      "▁conditions": 1747,
      "▁effective": 1748,
      "▁later": 1749,
      "...": 1750,
      "ortun": 1751,
      "▁types": 1752,
      "▁dont": 1753,
      "ators": 1754,
      "arch": 1755,
      "▁199": 1756,
      "rents": 1757,
      "ured": 1758,
      "▁repres": 1759,
      "▁appear": 1760,
      "▁changes": 1761,
      "▁applic": 1762,
      "cul": 1763,
      "▁norm": 1764,
      "▁healthy": 1765,
      "▁century": 1766,
      "▁although": 1767,
      "str": 1768,
      "aring": 1769,
      "omm": 1770,
      "▁questions": 1771,
      "ably": 1772,
      "ours": 1773,
      "▁ple": 1774,
      "aves": 1775,
      "ems": 1776,
      "▁activities": 1777,
      "▁wat": 1778,
      "▁bat": 1779,
      "▁specific": 1780,
      "ode": 1781,
      "hy": 1782,
      "▁lib": 1783,
      "▁sens": 1784,
      "▁complete": 1785,
      "▁flu": 1786,
      "aps": 1787,
      "eral": 1788,
      "ately": 1789,
      "▁europe": 1790,
      "▁physical": 1791,
      "▁further": 1792,
      "▁soil": 1793,
      "▁activity": 1794,
      "ression": 1795,
      "▁site": 1796,
      "▁mass": 1797,
      "▁needs": 1798,
      "▁population": 1799,
      "ox": 1800,
      "gs": 1801,
      "ledge": 1802,
      "imes": 1803,
      "aw": 1804,
      "▁introdu": 1805,
      "aut": 1806,
      "▁reading": 1807,
      "▁sure": 1808,
      "▁higher": 1809,
      "▁kind": 1810,
      "▁[": 1811,
      "▁opt": 1812,
      "▁bar": 1813,
      "▁afric": 1814,
      "▁published": 1815,
      "▁environmental": 1816,
      "lo": 1817,
      "▁sam": 1818,
      "aken": 1819,
      "▁ver": 1820,
      "pecially": 1821,
      "▁global": 1822,
      "▁difficult": 1823,
      "▁histor": 1824,
      "que": 1825,
      "▁visit": 1826,
      "▁live": 1827,
      "elf": 1828,
      "ring": 1829,
      "▁experience": 1830,
      "▁crit": 1831,
      "▁side": 1832,
      "▁article": 1833,
      "▁lower": 1834,
      "▁answ": 1835,
      "ending": 1836,
      "ember": 1837,
      "▁having": 1838,
      "▁et": 1839,
      "▁away": 1840,
      "▁fall": 1841,
      "▁carb": 1842,
      "▁check": 1843,
      "▁online": 1844,
      "▁whether": 1845,
      "aces": 1846,
      "▁various": 1847,
      "▁har": 1848,
      "▁prim": 1849,
      "▁strong": 1850,
      "▁1.": 1851,
      "▁god": 1852,
      "▁hal": 1853,
      "▁effects": 1854,
      "▁kids": 1855,
      "▁character": 1856,
      "▁.": 1857,
      "▁enough": 1858,
      "▁materials": 1859,
      "▁chall": 1860,
      "▁describ": 1861,
      "▁ground": 1862,
      "pa": 1863,
      "▁fish": 1864,
      "atures": 1865,
      "ips": 1866,
      "asing": 1867,
      "▁saf": 1868,
      "▁writing": 1869,
      "ables": 1870,
      "aining": 1871,
      "▁range": 1872,
      "▁cut": 1873,
      "▁dru": 1874,
      "▁least": 1875,
      "ae": 1876,
      "▁vide": 1877,
      "olution": 1878,
      "rist": 1879,
      "▁ask": 1880,
      "▁animals": 1881,
      "▁computer": 1882,
      "▁affect": 1883,
      "▁building": 1884,
      "▁above": 1885,
      "▁win": 1886,
      "▁stat": 1887,
      "▁five": 1888,
      "aster": 1889,
      "▁quality": 1890,
      "▁port": 1891,
      "▁field": 1892,
      "por": 1893,
      "hern": 1894,
      "ruction": 1895,
      "▁16": 1896,
      "eds": 1897,
      "▁business": 1898,
      "▁lot": 1899,
      "▁reduce": 1900,
      "ploy": 1901,
      "min": 1902,
      "▁skin": 1903,
      "▁international": 1904,
      "▁fat": 1905,
      "▁communic": 1906,
      "▁never": 1907,
      "amm": 1908,
      "ither": 1909,
      "▁particip": 1910,
      "▁surface": 1911,
      "▁hol": 1912,
      "▁especially": 1913,
      "let": 1914,
      "▁term": 1915,
      "▁countries": 1916,
      "▁vi": 1917,
      "▁left": 1918,
      "ribut": 1919,
      "ening": 1920,
      "nal": 1921,
      "▁sat": 1922,
      "▁fund": 1923,
      "omes": 1924,
      "▁lat": 1925,
      "sh": 1926,
      "▁makes": 1927,
      "sy": 1928,
      "▁doct": 1929,
      "ires": 1930,
      "ches": 1931,
      "▁fri": 1932,
      "▁respons": 1933,
      "▁sound": 1934,
      "▁knowledge": 1935,
      "▁loss": 1936,
      "▁diet": 1937,
      "▁analys": 1938,
      "▁clear": 1939,
      "ument": 1940,
      "▁parents": 1941,
      "▁understanding": 1942,
      "hen": 1943,
      "most": 1944,
      "▁products": 1945,
      "▁student": 1946,
      "▁amount": 1947,
      "ilt": 1948,
      "▁require": 1949,
      "▁going": 1950,
      "▁pred": 1951,
      "▁simple": 1952,
      "▁collect": 1953,
      "verage": 1954,
      "▁developed": 1955,
      "of": 1956,
      "oot": 1957,
      "▁11": 1958,
      "▁event": 1959,
      "▁sle": 1960,
      "▁tru": 1961,
      "▁page": 1962,
      "▁ir": 1963,
      "▁exerc": 1964,
      "ints": 1965,
      "▁sea": 1966,
      "ray": 1967,
      "▁je": 1968,
      "▁question": 1969,
      "ilities": 1970,
      "▁depart": 1971,
      "hem": 1972,
      "▁model": 1973,
      "ler": 1974,
      "▁brit": 1975,
      "▁coll": 1976,
      "▁gas": 1977,
      "▁suff": 1978,
      "▁management": 1979,
      "▁clean": 1980,
      "▁subject": 1981,
      "▁tell": 1982,
      "▁doc": 1983,
      "oney": 1984,
      "rams": 1985,
      "ored": 1986,
      "▁link": 1987,
      "▁role": 1988,
      "▁recomm": 1989,
      "oura": 1990,
      "▁size": 1991,
      "ipp": 1992,
      "▁chemical": 1993,
      "▁really": 1994,
      "▁nature": 1995,
      "ott": 1996,
      "▁cases": 1997,
      "▁detail": 1998,
      "▁farm": 1999,
      "ites": 2000,
      "▁oil": 2001,
      "▁ens": 2002,
      "▁indic": 2003,
      "edi": 2004,
      "▁society": 2005,
      "▁web": 2006,
      "▁related": 2007,
      "▁avoid": 2008,
      "▁growth": 2009,
      "▁created": 2010,
      "▁consider": 2011,
      "▁production": 2012,
      "gest": 2013,
      "▁safe": 2014,
      "▁mor": 2015,
      "▁joh": 2016,
      "▁pressure": 2017,
      "not": 2018,
      "mit": 2019,
      "▁mind": 2020,
      "▁close": 2021,
      "over": 2022,
      "▁30": 2023,
      "▁ach": 2024,
      "duct": 2025,
      "itor": 2026,
      "▁circ": 2027,
      "▁observ": 2028,
      "▁contact": 2029,
      "▁dog": 2030,
      "ially": 2031,
      "▁exist": 2032,
      "by": 2033,
      "▁assess": 2034,
      "▁provides": 2035,
      "thing": 2036,
      "▁christ": 2037,
      "▁gard": 2038,
      "▁deg": 2039,
      "ands": 2040,
      "▁liter": 2041,
      "▁image": 2042,
      "▁practice": 2043,
      "▁potential": 2044,
      "▁vac": 2045,
      "ison": 2046,
      "▁living": 2047,
      "▁germ": 2048,
      "▁service": 2049,
      "▁weight": 2050,
      "▁wide": 2051,
      "▁init": 2052,
      "wh": 2053,
      "▁fire": 2054,
      "▁coun": 2055,
      "▁=": 2056,
      "▁review": 2057,
      "amin": 2058,
      "▁self": 2059,
      "▁rights": 2060,
      "ready": 2061,
      "▁poll": 2062,
      "▁ut": 2063,
      "▁forest": 2064,
      "▁tradition": 2065,
      "side": 2066,
      "▁polic": 2067,
      "▁prin": 2068,
      "▁represent": 2069,
      "▁value": 2070,
      "▁concer": 2071,
      "▁offic": 2072,
      "▁necess": 2073,
      "▁ap": 2074,
      "etimes": 2075,
      "▁seen": 2076,
      "▁mal": 2077,
      "ged": 2078,
      "▁influ": 2079,
      "▁stress": 2080,
      "ley": 2081,
      "▁famil": 2082,
      "▁polit": 2083,
      "ned": 2084,
      "▁done": 2085,
      "▁bill": 2086,
      "osis": 2087,
      "▁sleep": 2088,
      "ware": 2089,
      "ising": 2090,
      "▁lay": 2091,
      "▁already": 2092,
      "▁island": 2093,
      "▁estab": 2094,
      "▁stra": 2095,
      "//": 2096,
      "▁techniqu": 2097,
      "▁issues": 2098,
      "▁prob": 2099,
      "▁suggest": 2100,
      "▁groups": 2101,
      "▁quick": 2102,
      "▁river": 2103,
      "50": 2104,
      "▁super": 2105,
      "▁individual": 2106,
      "▁cho": 2107,
      "▁address": 2108,
      "▁micro": 2109,
      "▁fru": 2110,
      "▁--": 2111,
      "▁opportun": 2112,
      "▁recogn": 2113,
      "▁solar": 2114,
      "▁safety": 2115,
      "eter": 2116,
      "iting": 2117,
      "▁bab": 2118,
      "▁return": 2119,
      "▁schools": 2120,
      "verse": 2121,
      "▁relations": 2122,
      "for": 2123,
      "lement": 2124,
      "▁aust": 2125,
      "▁single": 2126,
      "▁modern": 2127,
      "▁rate": 2128,
      "▁wood": 2129,
      "▁condition": 2130,
      "ma": 2131,
      "▁tot": 2132,
      "▁heat": 2133,
      "▁achie": 2134,
      "▁soft": 2135,
      "▁2.": 2136,
      "▁actually": 2137,
      "▁parts": 2138,
      "rel": 2139,
      "▁services": 2140,
      "▁carbon": 2141,
      "2.": 2142,
      "selves": 2143,
      "▁sometimes": 2144,
      "uals": 2145,
      "ster": 2146,
      "▁sent": 2147,
      "▁bal": 2148,
      "▁associated": 2149,
      "org": 2150,
      "▁meet": 2151,
      "port": 2152,
      "▁recent": 2153,
      "▁measure": 2154,
      "▁analysis": 2155,
      "▁inj": 2156,
      "▁feed": 2157,
      "▁throughout": 2158,
      "▁yet": 2159,
      "▁eat": 2160,
      "▁shows": 2161,
      "▁diagn": 2162,
      "▁pict": 2163,
      "▁14": 2164,
      "ret": 2165,
      "▁star": 2166,
      "▁arm": 2167,
      "▁neg": 2168,
      "▁teachers": 2169,
      "▁webs": 2170,
      "▁smo": 2171,
      "dle": 2172,
      "▁either": 2173,
      "aging": 2174,
      "▁frequ": 2175,
      "▁increased": 2176,
      "af": 2177,
      "▁ju": 2178,
      "▁comes": 2179,
      "▁king": 2180,
      "put": 2181,
      "xic": 2182,
      "▁fig": 2183,
      "ead": 2184,
      "fact": 2185,
      "▁bacter": 2186,
      "▁face": 2187,
      "▁fed": 2188,
      "ask": 2189,
      "go": 2190,
      "▁half": 2191,
      "▁journal": 2192,
      "▁toward": 2193,
      "▁causes": 2194,
      "▁department": 2195,
      "▁reason": 2196,
      "://": 2197,
      "ival": 2198,
      "▁repl": 2199,
      "icient": 2200,
      "▁content": 2201,
      "▁print": 2202,
      "▁rather": 2203,
      "▁taken": 2204,
      "▁ox": 2205,
      "▁abs": 2206,
      "▁vers": 2207,
      "▁dom": 2208,
      "abet": 2209,
      "▁warm": 2210,
      "istic": 2211,
      "ze": 2212,
      "▁months": 2213,
      "▁america": 2214,
      "ference": 2215,
      "▁produce": 2216,
      "▁became": 2217,
      "▁100": 2218,
      "▁needed": 2219,
      "▁pie": 2220,
      "▁stop": 2221,
      "▁foods": 2222,
      "▁electric": 2223,
      "▁designed": 2224,
      "▁ability": 2225,
      "▁whole": 2226,
      "▁disord": 2227,
      "▁taking": 2228,
      "ges": 2229,
      "▁easy": 2230,
      "▁fu": 2231,
      "▁almost": 2232,
      "▁please": 2233,
      "▁six": 2234,
      "ching": 2235,
      "▁ang": 2236,
      "▁includes": 2237,
      "ump": 2238,
      "▁spread": 2239,
      "▁ep": 2240,
      "▁prote": 2241,
      "▁strateg": 2242,
      "way": 2243,
      "1.": 2244,
      "▁miss": 2245,
      "ification": 2246,
      "▁video": 2247,
      "▁ever": 2248,
      "mber": 2249,
      "▁situ": 2250,
      "gar": 2251,
      "▁oce": 2252,
      "ird": 2253,
      "▁13": 2254,
      "like": 2255,
      "▁evidence": 2256,
      "▁mount": 2257,
      "utes": 2258,
      "acy": 2259,
      "▁interact": 2260,
      "▁experim": 2261,
      "yl": 2262,
      "urs": 2263,
      "▁path": 2264,
      "▁travel": 2265,
      "▁music": 2266,
      "gr": 2267,
      "▁psy": 2268,
      "lying": 2269,
      "erve": 2270,
      "▁employ": 2271,
      "▁identify": 2272,
      "▁pay": 2273,
      "▁origin": 2274,
      "▁pattern": 2275,
      "▁previous": 2276,
      "▁react": 2277,
      "▁tree": 2278,
      "▁mach": 2279,
      "▁temperature": 2280,
      "ibility": 2281,
      "▁draw": 2282,
      "▁subst": 2283,
      "▁contain": 2284,
      "▁books": 2285,
      "▁pen": 2286,
      "▁cra": 2287,
      "▁tar": 2288,
      "▁factors": 2289,
      "reme": 2290,
      "▁break": 2291,
      "▁lives": 2292,
      "▁instead": 2293,
      "▁helps": 2294,
      "▁vit": 2295,
      "▁civ": 2296,
      "astic": 2297,
      "▁conduct": 2298,
      "▁job": 2299,
      "▁click": 2300,
      "▁complex": 2301,
      "mon": 2302,
      "▁regular": 2303,
      "▁idea": 2304,
      "▁write": 2305,
      "iction": 2306,
      "▁region": 2307,
      "based": 2308,
      "▁virus": 2309,
      "▁training": 2310,
      "▁popular": 2311,
      "▁encoura": 2312,
      "▁maint": 2313,
      "▁pan": 2314,
      "idered": 2315,
      "▁approach": 2316,
      "▁hours": 2317,
      "▁caused": 2318,
      "▁thought": 2319,
      "▁basic": 2320,
      "▁lif": 2321,
      "yle": 2322,
      "▁htt": 2323,
      "▁eye": 2324,
      "▁libr": 2325,
      "ections": 2326,
      "hib": 2327,
      "ming": 2328,
      "rict": 2329,
      "▁benefits": 2330,
      "▁company": 2331,
      "▁uses": 2332,
      "▁park": 2333,
      "▁trees": 2334,
      "▁sust": 2335,
      "▁considered": 2336,
      "ched": 2337,
      "▁required": 2338,
      "ened": 2339,
      "▁surv": 2340,
      "app": 2341,
      "▁psych": 2342,
      "▁programs": 2343,
      "ronic": 2344,
      "hol": 2345,
      "use": 2346,
      "ensive": 2347,
      "▁personal": 2348,
      "▁action": 2349,
      "▁animal": 2350,
      "▁german": 2351,
      "1,": 2352,
      "▁veget": 2353,
      "▁pri": 2354,
      "aily": 2355,
      "▁surve": 2356,
      "▁brow": 2357,
      "▁average": 2358,
      "2,": 2359,
      "ued": 2360,
      "▁variety": 2361,
      "▁canad": 2362,
      "▁damage": 2363,
      "fer": 2364,
      "illed": 2365,
      "▁vacc": 2366,
      "▁entire": 2367,
      "▁defin": 2368,
      "ec": 2369,
      "ney": 2370,
      "ann": 2371,
      "ils": 2372,
      "▁purp": 2373,
      "acks": 2374,
      "▁emerg": 2375,
      "▁west": 2376,
      "▁fail": 2377,
      "ese": 2378,
      "▁members": 2379,
      "▁built": 2380,
      "ows": 2381,
      "▁conserv": 2382,
      "▁essay": 2383,
      "▁select": 2384,
      "aff": 2385,
      "▁structure": 2386,
      "▁network": 2387,
      "▁standard": 2388,
      "augh": 2389,
      "▁hyd": 2390,
      "▁magn": 2391,
      "▁sil": 2392,
      "▁account": 2393,
      "ls": 2394,
      "▁behavior": 2395,
      "▁dest": 2396,
      "▁diseases": 2397,
      "aged": 2398,
      "▁getting": 2399,
      "▁economic": 2400,
      "▁market": 2401,
      "▁professor": 2402,
      "ivity": 2403,
      "▁developing": 2404,
      "aced": 2405,
      "room": 2406,
      "uck": 2407,
      "▁answer": 2408,
      "▁total": 2409,
      "ises": 2410,
      "▁share": 2411,
      "▁money": 2412,
      "▁led": 2413,
      "▁images": 2414,
      "oose": 2415,
      "▁deep": 2416,
      "▁individuals": 2417,
      "ym": 2418,
      "▁rom": 2419,
      "▁50": 2420,
      "▁lin": 2421,
      "▁sources": 2422,
      "ores": 2423,
      "▁meaning": 2424,
      "▁daily": 2425,
      "▁central": 2426,
      "▁increasing": 2427,
      "▁labor": 2428,
      "itud": 2429,
      "▁conc": 2430,
      "▁college": 2431,
      "▁industry": 2432,
      "ricult": 2433,
      "▁relationship": 2434,
      "aim": 2435,
      "▁numbers": 2436,
      "urity": 2437,
      "ush": 2438,
      "▁muse": 2439,
      "▁fem": 2440,
      "erous": 2441,
      "▁bur": 2442,
      "iation": 2443,
      "pts": 2444,
      "▁growing": 2445,
      "▁agricult": 2446,
      "▁methods": 2447,
      "nam": 2448,
      "▁civil": 2449,
      "▁hun": 2450,
      "chan": 2451,
      "▁series": 2452,
      "cient": 2453,
      "▁looking": 2454,
      "▁feet": 2455,
      "vere": 2456,
      "alu": 2457,
      "▁displ": 2458,
      "▁sn": 2459,
      "ef": 2460,
      "▁bring": 2461,
      "▁card": 2462,
      "10": 2463,
      "▁arg": 2464,
      "▁austral": 2465,
      "▁0": 2466,
      "anced": 2467,
      "▁squ": 2468,
      "▁written": 2469,
      "▁normal": 2470,
      "5.": 2471,
      "oph": 2472,
      "▁waste": 2473,
      "▁drink": 2474,
      "▁slow": 2475,
      "▁search": 2476,
      "▁rob": 2477,
      "new": 2478,
      "▁middle": 2479,
      "▁scre": 2480,
      "▁museum": 2481,
      "▁note": 2482,
      "ried": 2483,
      "adem": 2484,
      "▁scientific": 2485,
      "▁habit": 2486,
      "▁active": 2487,
      "▁themselves": 2488,
      "▁multip": 2489,
      "▁wall": 2490,
      "iam": 2491,
      "rences": 2492,
      "▁john": 2493,
      "▁positive": 2494,
      "▁teaching": 2495,
      "▁president": 2496,
      "▁medicine": 2497,
      "▁log": 2498,
      "▁longer": 2499,
      "▁tur": 2500,
      "▁therefore": 2501,
      "▁cit": 2502,
      "3.": 2503,
      "▁calif": 2504,
      "overed": 2505,
      "▁institute": 2506,
      "▁road": 2507,
      "▁princi": 2508,
      "ply": 2509,
      "▁inside": 2510,
      "▁chur": 2511,
      "▁exc": 2512,
      "▁dry": 2513,
      "▁came": 2514,
      "▁threat": 2515,
      "▁pet": 2516,
      "▁love": 2517,
      "light": 2518,
      "▁rock": 2519,
      "▁lun": 2520,
      "▁rich": 2521,
      "umb": 2522,
      ".)": 2523,
      "▁tools": 2524,
      "▁diabet": 2525,
      "▁exercise": 2526,
      "utions": 2527,
      "ners": 2528,
      "epend": 2529,
      "▁therap": 2530,
      "▁sout": 2531,
      "▁events": 2532,
      "▁nas": 2533,
      "▁3.": 2534,
      "▁arr": 2535,
      "▁cannot": 2536,
      "ength": 2537,
      "▁phil": 2538,
      "▁academ": 2539,
      "▁clin": 2540,
      "▁issue": 2541,
      "▁ago": 2542,
      "▁summer": 2543,
      "▁heav": 2544,
      "▁ice": 2545,
      "▁sex": 2546,
      "istics": 2547,
      "▁continue": 2548,
      "hood": 2549,
      "▁teeth": 2550,
      "ume": 2551,
      "ery": 2552,
      "▁prep": 2553,
      "▁york": 2554,
      "▁provided": 2555,
      "▁county": 2556,
      "estern": 2557,
      "▁separ": 2558,
      "▁media": 2559,
      "ok": 2560,
      "▁dou": 2561,
      "▁humans": 2562,
      "30": 2563,
      "▁hold": 2564,
      "den": 2565,
      "fully": 2566,
      "▁necessary": 2567,
      "ulations": 2568,
      "ales": 2569,
      "▁assist": 2570,
      "▁thus": 2571,
      "▁relig": 2572,
      "▁doing": 2573,
      "izing": 2574,
      "▁cover": 2575,
      "reng": 2576,
      "▁capt": 2577,
      "▁matter": 2578,
      "▁californ": 2579,
      "▁dy": 2580,
      "ai": 2581,
      "▁late": 2582,
      "▁mess": 2583,
      "▁cross": 2584,
      "inary": 2585,
      "▁website": 2586,
      "▁diabetes": 2587,
      "▁thing": 2588,
      "▁,": 2589,
      "▁mechan": 2590,
      "▁ensure": 2591,
      "▁demon": 2592,
      "▁manu": 2593,
      "▁culture": 2594,
      "▁correct": 2595,
      "▁math": 2596,
      "▁etc": 2597,
      "▁admin": 2598,
      "▁ideas": 2599,
      "▁reach": 2600,
      "▁rul": 2601,
      "▁added": 2602,
      "▁extreme": 2603,
      "▁guide": 2604,
      "▁simply": 2605,
      "▁determine": 2606,
      "▁took": 2607,
      "▁began": 2608,
      "▁challeng": 2609,
      "▁investig": 2610,
      "▁outside": 2611,
      "▁198": 2612,
      "▁weather": 2613,
      "▁night": 2614,
      "▁priv": 2615,
      "▁ocean": 2616,
      "rs": 2617,
      "oration": 2618,
      "4.": 2619,
      "▁serious": 2620,
      "▁sustain": 2621,
      "▁harm": 2622,
      "▁adults": 2623,
      "▁appl": 2624,
      "▁shown": 2625,
      "▁target": 2626,
      "▁nort": 2627,
      "▁fa": 2628,
      "ici": 2629,
      "▁coast": 2630,
      "▁hot": 2631,
      "onse": 2632,
      "5,": 2633,
      "▁/": 2634,
      "load": 2635,
      "aches": 2636,
      "▁produced": 2637,
      "▁internet": 2638,
      "ography": 2639,
      "▁streng": 2640,
      "▁essential": 2641,
      "▁primary": 2642,
      "▁jap": 2643,
      "▁sense": 2644,
      "▁document": 2645,
      "▁regard": 2646,
      "▁dang": 2647,
      "▁chap": 2648,
      "▁eating": 2649,
      "pro": 2650,
      "asc": 2651,
      "imately": 2652,
      "▁terms": 2653,
      "ule": 2654,
      "▁itself": 2655,
      "▁colon": 2656,
      "▁native": 2657,
      "▁expos": 2658,
      "▁copy": 2659,
      "▁manufact": 2660,
      "▁doctor": 2661,
      "▁greater": 2662,
      "▁div": 2663,
      "▁takes": 2664,
      "▁protection": 2665,
      "che": 2666,
      "▁movement": 2667,
      "ellow": 2668,
      "▁believe": 2669,
      "▁burn": 2670,
      "▁date": 2671,
      "▁poor": 2672,
      "bo": 2673,
      "sequ": 2674,
      "wor": 2675,
      "▁san": 2676,
      "▁bad": 2677,
      "ades": 2678,
      "▁bul": 2679,
      "▁guid": 2680,
      "▁involved": 2681,
      "▁compon": 2682,
      "rought": 2683,
      "▁forms": 2684,
      "▁true": 2685,
      "▁egg": 2686,
      "▁reported": 2687,
      "elling": 2688,
      "▁mental": 2689,
      "▁foot": 2690,
      "lex": 2691,
      "▁stay": 2692,
      "▁upon": 2693,
      "usion": 2694,
      "▁analy": 2695,
      "hic": 2696,
      "▁original": 2697,
      "▁someone": 2698,
      "▁ancient": 2699,
      "▁eth": 2700,
      "▁game": 2701,
      "cies": 2702,
      "reg": 2703,
      "▁town": 2704,
      "▁altern": 2705,
      "▁british": 2706,
      "▁evalu": 2707,
      "▁birth": 2708,
      "▁infection": 2709,
      "life": 2710,
      "▁ones": 2711,
      "▁generally": 2712,
      "▁bacteria": 2713,
      "apt": 2714,
      "▁garden": 2715,
      "▁aud": 2716,
      "ground": 2717,
      "bol": 2718,
      "▁digital": 2719,
      "▁tiss": 2720,
      "▁attention": 2721,
      "▁response": 2722,
      "▁bit": 2723,
      "3,": 2724,
      "▁unique": 2725,
      "▁resist": 2726,
      "▁estim": 2727,
      "▁leaves": 2728,
      "▁federal": 2729,
      "▁independ": 2730,
      "▁table": 2731,
      "▁commit": 2732,
      "▁california": 2733,
      "▁ten": 2734,
      "▁additional": 2735,
      "▁code": 2736,
      "▁planet": 2737,
      "▁winter": 2738,
      "▁inn": 2739,
      "overy": 2740,
      "▁cold": 2741,
      "▁communities": 2742,
      "▁cele": 2743,
      "▁emot": 2744,
      "▁examples": 2745,
      "▁earl": 2746,
      "▁cool": 2747,
      "▁position": 2748,
      "amed": 2749,
      "▁japan": 2750,
      "▁ast": 2751,
      "▁tit": 2752,
      "▁easily": 2753,
      "▁implement": 2754,
      "water": 2755,
      "▁map": 2756,
      "▁enj": 2757,
      "▁exce": 2758,
      "ban": 2759,
      "▁jew": 2760,
      "▁hor": 2761,
      "▁included": 2762,
      "sect": 2763,
      "▁deb": 2764,
      "▁talk": 2765,
      "oles": 2766,
      "▁east": 2767,
      "oses": 2768,
      "▁political": 2769,
      "▁dark": 2770,
      "▁birds": 2771,
      "ging": 2772,
      "▁nearly": 2773,
      "▁critical": 2774,
      "▁jan": 2775,
      "▁church": 2776,
      "▁difference": 2777,
      "uge": 2778,
      "▁pack": 2779,
      "▁rain": 2780,
      "▁ho": 2781,
      "▁allows": 2782,
      "▁hosp": 2783,
      "oring": 2784,
      "▁probably": 2785,
      "▁force": 2786,
      "▁thous": 2787,
      "▁contains": 2788,
      "▁season": 2789,
      "aries": 2790,
      "book": 2791,
      "mb": 2792,
      "▁traditional": 2793,
      "▁vehic": 2794,
      "▁pal": 2795,
      "▁aug": 2796,
      "ee": 2797,
      "▁compared": 2798,
      "▁teacher": 2799,
      "▁tend": 2800,
      "▁(2": 2801,
      "▁third": 2802,
      "▁celebr": 2803,
      "▁library": 2804,
      "▁collection": 2805,
      "▁relative": 2806,
      "▁front": 2807,
      "know": 2808,
      "6.": 2809,
      "▁:": 2810,
      "▁oct": 2811,
      "dom": 2812,
      "▁particularly": 2813,
      "▁minutes": 2814,
      "view": 2815,
      "▁compet": 2816,
      "▁sus": 2817,
      "▁administ": 2818,
      "▁blue": 2819,
      "▁currently": 2820,
      "▁viol": 2821,
      "▁multiple": 2822,
      "▁severe": 2823,
      "▁families": 2824,
      "▁197": 2825,
      "▁remember": 2826,
      "▁aim": 2827,
      "ino": 2828,
      "▁tax": 2829,
      "▁vict": 2830,
      "▁explore": 2831,
      "9.": 2832,
      "▁section": 2833,
      "▁lack": 2834,
      "4,": 2835,
      "▁started": 2836,
      "aling": 2837,
      "▁sugar": 2838,
      "▁behind": 2839,
      "cks": 2840,
      "▁rout": 2841,
      "▁tex": 2842,
      "▁refer": 2843,
      "-2": 2844,
      "▁ban": 2845,
      "itary": 2846,
      "▁transport": 2847,
      "▁reve": 2848,
      "▁connect": 2849,
      "rench": 2850,
      "▁196": 2851,
      "ancy": 2852,
      "eding": 2853,
      "▁progress": 2854,
      "▁fast": 2855,
      "▁enjoy": 2856,
      "8.": 2857,
      "ister": 2858,
      "▁cust": 2859,
      "▁march": 2860,
      "▁spring": 2861,
      "▁emb": 2862,
      "issions": 2863,
      "▁extra": 2864,
      "▁projects": 2865,
      "omet": 2866,
      "idge": 2867,
      "▁policy": 2868,
      "▁gold": 2869,
      "▁hands": 2870,
      "▁monitor": 2871,
      "pri": 2872,
      "▁larger": 2873,
      "▁creating": 2874,
      "▁security": 2875,
      "oor": 2876,
      "con": 2877,
      "▁software": 2878,
      "▁washing": 2879,
      "▁hope": 2880,
      "▁http": 2881,
      "▁fib": 2882,
      "▁acid": 2883,
      "▁quickly": 2884,
      "▁mole": 2885,
      "▁sites": 2886,
      "▁features": 2887,
      "ctions": 2888,
      "bre": 2889,
      "▁recently": 2890,
      "▁seem": 2891,
      "ucle": 2892,
      "▁official": 2893,
      "▁conservation": 2894,
      "▁file": 2895,
      "7.": 2896,
      "▁ult": 2897,
      "▁25": 2898,
      "▁points": 2899,
      "▁tests": 2900,
      "▁performance": 2901,
      "gn": 2902,
      "▁ii": 2903,
      "resh": 2904,
      "▁40": 2905,
      "▁largest": 2906,
      "▁offer": 2907,
      "rition": 2908,
      "▁minim": 2909,
      "▁mel": 2910,
      "▁breat": 2911,
      "▁survey": 2912,
      "ties": 2913,
      "▁broad": 2914,
      "▁base": 2915,
      "▁cred": 2916,
      "▁achieve": 2917,
      "ops": 2918,
      "▁decre": 2919,
      "▁weeks": 2920,
      "8,": 2921,
      "oes": 2922,
      "▁reflect": 2923,
      "itis": 2924,
      "▁cook": 2925,
      "▁thinking": 2926,
      "____": 2927,
      "▁miles": 2928,
      "▁concent": 2929,
      "▁choose": 2930,
      "uries": 2931,
      "6,": 2932,
      "▁wa": 2933,
      "▁devices": 2934,
      "ounds": 2935,
      "iot": 2936,
      "9,": 2937,
      "▁memory": 2938,
      "▁length": 2939,
      "▁drug": 2940,
      "▁concept": 2941,
      "▁rare": 2942,
      "▁theory": 2943,
      "▁apr": 2944,
      "rial": 2945,
      "▁sept": 2946,
      "▁speak": 2947,
      "▁leading": 2948,
      "▁office": 2949,
      "▁demonstr": 2950,
      "▁nation": 2951,
      "▁wal": 2952,
      "▁fram": 2953,
      "▁located": 2954,
      "arily": 2955,
      "▁fit": 2956,
      "▁soon": 2957,
      "▁western": 2958,
      "201": 2959,
      "▁standards": 2960,
      "▁useful": 2961,
      "▁born": 2962,
      "ension": 2963,
      "▁appropri": 2964,
      "▁proced": 2965,
      "▁finan": 2966,
      "▁india": 2967,
      "inc": 2968,
      "▁nar": 2969,
      "▁*": 2970,
      "▁fuel": 2971,
      "ached": 2972,
      "year": 2973,
      "itation": 2974,
      "▁install": 2975,
      "oint": 2976,
      "▁european": 2977,
      "▁bott": 2978,
      "▁express": 2979,
      "▁testing": 2980,
      "▁classroom": 2981,
      "▁prior": 2982,
      "▁imag": 2983,
      "▁eyes": 2984,
      "▁claim": 2985,
      "▁speed": 2986,
      "oll": 2987,
      "▁typically": 2988,
      "▁techniques": 2989,
      "ounts": 2990,
      "▁ball": 2991,
      "where": 2992,
      "▁engineering": 2993,
      "▁atm": 2994,
      "pan": 2995,
      "▁contribut": 2996,
      "7,": 2997,
      "▁objects": 2998,
      "▁quite": 2999,
      "fect": 3000,
      "▁association": 3001,
      "enced": 3002,
      "▁older": 3003,
      "▁interesting": 3004,
      "ript": 3005,
      "▁quant": 3006,
      "▁rap": 3007,
      "▁beaut": 3008,
      "rast": 3009,
      "▁protein": 3010,
      "▁attack": 3011,
      "uary": 3012,
      "▁calcul": 3013,
      "asons": 3014,
      "iciency": 3015,
      "▁visual": 3016,
      "▁communication": 3017,
      "▁tal": 3018,
      "atives": 3019,
      "osing": 3020,
      "▁friends": 3021,
      "▁highly": 3022,
      "▁beginning": 3023,
      "▁goal": 3024,
      "▁consist": 3025,
      "rad": 3026,
      "▁applications": 3027,
      "bor": 3028,
      "right": 3029,
      "ribution": 3030,
      "istry": 3031,
      "▁lesson": 3032,
      "nes": 3033,
      "▁historical": 3034,
      "▁supply": 3035,
      "imin": 3036,
      "▁places": 3037,
      "ana": 3038,
      "▁discovered": 3039,
      "idents": 3040,
      "▁bud": 3041,
      "▁moon": 3042,
      "▁african": 3043,
      "▁negative": 3044,
      "▁electr": 3045,
      "tic": 3046,
      "▁fav": 3047,
      "ses": 3048,
      "can": 3049,
      "▁nucle": 3050,
      "▁fruit": 3051,
      "▁hydro": 3052,
      "▁findings": 3053,
      "▁atmosp": 3054,
      "▁africa": 3055,
      "▁board": 3056,
      "▁court": 3057,
      "ura": 3058,
      "▁patient": 3059,
      "▁fair": 3060,
      "▁immedi": 3061,
      "ender": 3062,
      "▁importance": 3063,
      "▁host": 3064,
      "▁194": 3065,
      "▁pregn": 3066,
      "ief": 3067,
      "▁respect": 3068,
      "▁grade": 3069,
      "▁elements": 3070,
      "▁swe": 3071,
      "eration": 3072,
      "itude": 3073,
      "▁device": 3074,
      "▁china": 3075,
      "▁cro": 3076,
      "ields": 3077,
      "▁americans": 3078,
      "▁leaders": 3079,
      "▁sand": 3080,
      "▁youre": 3081,
      "▁educational": 3082,
      "▁southern": 3083,
      "▁gir": 3084,
      "▁expect": 3085,
      "▁box": 3086,
      "▁dead": 3087,
      "▁june": 3088,
      "▁mathem": 3089,
      "▁thats": 3090,
      "▁insp": 3091,
      "▁1,": 3092,
      "undred": 3093,
      "▁got": 3094,
      "▁french": 3095,
      "gress": 3096,
      "fl": 3097,
      "isions": 3098,
      "▁unit": 3099,
      "▁fra": 3100,
      "▁companies": 3101,
      "▁exact": 3102,
      "▁mix": 3103,
      "▁ful": 3104,
      "▁shape": 3105,
      "▁4.": 3106,
      "▁directly": 3107,
      "ription": 3108,
      "▁application": 3109,
      "▁mag": 3110,
      "cohol": 3111,
      "▁jud": 3112,
      "▁stri": 3113,
      "▁resource": 3114,
      "ustr": 3115,
      "ille": 3116,
      "▁everyone": 3117,
      "ulate": 3118,
      "▁surround": 3119,
      "▁accept": 3120,
      "term": 3121,
      "▁decl": 3122,
      "▁remo": 3123,
      "▁professional": 3124,
      "ivers": 3125,
      "▁insect": 3126,
      "cra": 3127,
      "▁vitamin": 3128,
      "▁april": 3129,
      "▁lines": 3130,
      "▁nutrition": 3131,
      "pper": 3132,
      "--": 3133,
      "oming": 3134,
      "▁organization": 3135,
      "▁spir": 3136,
      "▁impl": 3137,
      "▁nasa": 3138,
      "▁poly": 3139,
      "▁hundred": 3140,
      "▁location": 3141,
      "▁construction": 3142,
      "▁exposure": 3143,
      "▁equip": 3144,
      "edia": 3145,
      "▁lost": 3146,
      "www": 3147,
      "ias": 3148,
      "▁transl": 3149,
      "▁fight": 3150,
      "ologies": 3151,
      "▁rates": 3152,
      "▁carry": 3153,
      "▁milk": 3154,
      "head": 3155,
      "▁display": 3156,
      "val": 3157,
      "▁northern": 3158,
      "▁graph": 3159,
      "▁symbol": 3160,
      "▁overall": 3161,
      "▁therapy": 3162,
      "cil": 3163,
      "▁indian": 3164,
      "▁alcohol": 3165,
      "▁solution": 3166,
      "▁upd": 3167,
      "▁plastic": 3168,
      "▁foundation": 3169,
      "▁values": 3170,
      "▁signs": 3171,
      "▁span": 3172,
      "▁mouth": 3173,
      "▁max": 3174,
      "ift": 3175,
      "▁room": 3176,
      "▁commer": 3177,
      "cles": 3178,
      "▁purpose": 3179,
      "ha": 3180,
      "▁laun": 3181,
      "▁wildlife": 3182,
      "▁mom": 3183,
      "▁cultural": 3184,
      "▁attem": 3185,
      "▁track": 3186,
      "▁mission": 3187,
      "▁emp": 3188,
      "▁element": 3189,
      "hens": 3190,
      "▁custom": 3191,
      "hel": 3192,
      "▁gradu": 3193,
      "bert": 3194,
      "▁sold": 3195,
      "▁stories": 3196,
      "▁baby": 3197,
      "▁nations": 3198,
      "▁gives": 3199,
      "ams": 3200,
      "isms": 3201,
      "▁instru": 3202,
      "oud": 3203,
      "▁director": 3204,
      "ively": 3205,
      "fort": 3206,
      "osition": 3207,
      "▁steps": 3208,
      "▁genetic": 3209,
      "▁fort": 3210,
      "▁nav": 3211,
      "▁wond": 3212,
      "▁mac": 3213,
      "▁aspect": 3214,
      "▁hen": 3215,
      "▁july": 3216,
      "▁uk": 3217,
      "▁users": 3218,
      "▁picture": 3219,
      "▁desp": 3220,
      "wide": 3221,
      "estic": 3222,
      "iers": 3223,
      "▁dav": 3224,
      "▁providing": 3225,
      "▁opportunity": 3226,
      "▁drugs": 3227,
      "▁autom": 3228,
      "▁rapid": 3229,
      "▁sen": 3230,
      "▁requires": 3231,
      "▁save": 3232,
      "uff": 3233,
      "▁approx": 3234,
      "▁yourself": 3235,
      "▁gal": 3236,
      "▁told": 3237,
      "itect": 3238,
      "▁emissions": 3239,
      "amp": 3240,
      "▁billion": 3241,
      "▁recommend": 3242,
      "▁financial": 3243,
      "▁+": 3244,
      "▁reports": 3245,
      "▁efforts": 3246,
      "▁processes": 3247,
      "▁download": 3248,
      "▁equipment": 3249,
      "▁illness": 3250,
      "▁affected": 3251,
      "ius": 3252,
      "▁tou": 3253,
      "▁exhib": 3254,
      "▁games": 3255,
      "▁tooth": 3256,
      "▁mis": 3257,
      "▁block": 3258,
      "▁den": 3259,
      "▁behavi": 3260,
      "▁topic": 3261,
      "▁cou": 3262,
      "time": 3263,
      "ula": 3264,
      "▁receive": 3265,
      "▁mig": 3266,
      "▁smaller": 3267,
      "▁held": 3268,
      "▁prec": 3269,
      "▁email": 3270,
      "▁established": 3271,
      "ror": 3272,
      "▁canada": 3273,
      "▁commonly": 3274,
      "▁breast": 3275,
      "▁architect": 3276,
      "aren": 3277,
      "▁innov": 3278,
      "tery": 3279,
      "▁stage": 3280,
      "▁buy": 3281,
      "med": 3282,
      "▁appropriate": 3283,
      "▁conce": 3284,
      "▁respond": 3285,
      "▁24": 3286,
      "▁explain": 3287,
      "▁glass": 3288,
      "▁prevention": 3289,
      "col": 3290,
      "▁fresh": 3291,
      "▁else": 3292,
      "▁responsible": 3293,
      "▁everything": 3294,
      "▁adj": 3295,
      "▁remains": 3296,
      "entially": 3297,
      "▁nutri": 3298,
      "reek": 3299,
      "▁mob": 3300,
      "haps": 3301,
      "▁collab": 3302,
      "▁hon": 3303,
      "▁limited": 3304,
      "izes": 3305,
      "encies": 3306,
      "▁workers": 3307,
      "▁version": 3308,
      "▁enh": 3309,
      "▁august": 3310,
      "▁(19": 3311,
      "▁costs": 3312,
      "▁named": 3313,
      "11": 3314,
      "inct": 3315,
      "▁yellow": 3316,
      "▁towards": 3317,
      "▁experts": 3318,
      "▁occurs": 3319,
      "▁practices": 3320,
      "osy": 3321,
      "▁expected": 3322,
      "▁unf": 3323,
      "▁0.": 3324,
      "▁kid": 3325,
      "izations": 3326,
      "▁tips": 3327,
      "▁washington": 3328,
      "▁died": 3329,
      "▁via": 3330,
      "▁feb": 3331,
      "ody": 3332,
      "see": 3333,
      "▁bey": 3334,
      "▁enter": 3335,
      "ech": 3336,
      "▁mathemat": 3337,
      "dr": 3338,
      "▁lake": 3339,
      "▁cru": 3340,
      "▁hair": 3341,
      "set": 3342,
      "▁purch": 3343,
      "ober": 3344,
      "▁brown": 3345,
      "▁england": 3346,
      "▁scale": 3347,
      "wise": 3348,
      "ribute": 3349,
      "▁benefit": 3350,
      "▁eight": 3351,
      "▁antib": 3352,
      "▁mother": 3353,
      "mar": 3354,
      "aught": 3355,
      "craft": 3356,
      "▁integr": 3357,
      "▁leave": 3358,
      "▁constit": 3359,
      "▁detect": 3360,
      "▁interp": 3361,
      "▁syn": 3362,
      "▁obt": 3363,
      "anc": 3364,
      "back": 3365,
      "0,": 3366,
      "enge": 3367,
      "▁beyond": 3368,
      "▁camp": 3369,
      "▁assessment": 3370,
      "▁figure": 3371,
      "▁dece": 3372,
      "▁whose": 3373,
      "▁bird": 3374,
      "▁perhaps": 3375,
      "▁cry": 3376,
      "▁bone": 3377,
      "▁goes": 3378,
      "▁hous": 3379,
      "▁vo": 3380,
      "▁seems": 3381,
      "▁anything": 3382,
      "▁der": 3383,
      "▁properties": 3384,
      "▁hospital": 3385,
      "▁capac": 3386,
      "▁disp": 3387,
      "▁planning": 3388,
      "▁models": 3389,
      "▁assign": 3390,
      "▁gene": 3391,
      "▁kill": 3392,
      "uments": 3393,
      "▁military": 3394,
      "▁immune": 3395,
      "▁dogs": 3396,
      "▁son": 3397,
      "▁electricity": 3398,
      "▁walk": 3399,
      "rection": 3400,
      "▁release": 3401,
      "▁user": 3402,
      "▁reserv": 3403,
      "▁tissue": 3404,
      "▁final": 3405,
      "▁depression": 3406,
      "▁member": 3407,
      "mission": 3408,
      "▁continu": 3409,
      "come": 3410,
      "▁categ": 3411,
      "▁trying": 3412,
      "▁initi": 3413,
      "▁chronic": 3414,
      "▁frame": 3415,
      "▁machine": 3416,
      "▁moving": 3417,
      "▁offers": 3418,
      "▁root": 3419,
      "rees": 3420,
      "oon": 3421,
      "▁william": 3422,
      "▁names": 3423,
      "▁rise": 3424,
      "▁becomes": 3425,
      "iar": 3426,
      "▁predict": 3427,
      "▁iron": 3428,
      "▁accom": 3429,
      "hold": 3430,
      "▁deal": 3431,
      "▁vision": 3432,
      "▁despite": 3433,
      "▁stru": 3434,
      "bl": 3435,
      "ulum": 3436,
      "▁applied": 3437,
      "▁pages": 3438,
      "▁september": 3439,
      "▁thousands": 3440,
      "▁citiz": 3441,
      "▁pick": 3442,
      "▁surger": 3443,
      "▁patterns": 3444,
      "cop": 3445,
      "aly": 3446,
      "iles": 3447,
      "▁mexic": 3448,
      "▁perfect": 3449,
      "▁controll": 3450,
      "▁chapter": 3451,
      "▁plans": 3452,
      "▁remain": 3453,
      "▁staff": 3454,
      "▁anti": 3455,
      "▁style": 3456,
      "▁pow": 3457,
      "▁curric": 3458,
      "▁dna": 3459,
      "▁temperatures": 3460,
      "▁earlier": 3461,
      "▁piece": 3462,
      "▁items": 3463,
      "▁situation": 3464,
      "▁details": 3465,
      "):": 3466,
      "▁exec": 3467,
      "▁illustr": 3468,
      "▁virt": 3469,
      "▁beg": 3470,
      "▁except": 3471,
      "vant": 3472,
      "▁stem": 3473,
      "▁harv": 3474,
      "▁received": 3475,
      "▁oxy": 3476,
      "▁sequ": 3477,
      "ext": 3478,
      "▁constant": 3479,
      "▁q": 3480,
      "▁rot": 3481,
      "▁reasons": 3482,
      "▁conver": 3483,
      "▁21": 3484,
      "▁rules": 3485,
      "iny": 3486,
      "▁asked": 3487,
      "gy": 3488,
      "▁compre": 3489,
      "▁property": 3490,
      "▁urban": 3491,
      "▁decision": 3492,
      "▁notes": 3493,
      "▁advant": 3494,
      "▁organic": 3495,
      "▁pu": 3496,
      "▁successful": 3497,
      "▁tele": 3498,
      "▁hear": 3499,
      "▁october": 3500,
      "▁january": 3501,
      "▁private": 3502,
      "▁female": 3503,
      "ama": 3504,
      "▁trade": 3505,
      "ously": 3506,
      "ios": 3507,
      "▁agree": 3508,
      "▁partners": 3509,
      "ided": 3510,
      "▁disorder": 3511,
      "hest": 3512,
      "▁sett": 3513,
      "▁adop": 3514,
      "▁60": 3515,
      "▁remove": 3516,
      "▁die": 3517,
      "▁went": 3518,
      "▁core": 3519,
      "df": 3520,
      "▁maintain": 3521,
      "▁flood": 3522,
      "▁>": 3523,
      "▁clinical": 3524,
      "▁watch": 3525,
      "▁finally": 3526,
      "▁fert": 3527,
      "▁...": 3528,
      "▁instruct": 3529,
      "▁spect": 3530,
      "rick": 3531,
      "vi": 3532,
      "▁pollution": 3533,
      "inese": 3534,
      "▁efficient": 3535,
      "areness": 3536,
      "▁showed": 3537,
      "▁liqu": 3538,
      "ologist": 3539,
      "▁recy": 3540,
      "▁demand": 3541,
      "ica": 3542,
      "▁chance": 3543,
      "▁influence": 3544,
      "▁rat": 3545,
      "▁facts": 3546,
      "▁challenges": 3547,
      "word": 3548,
      "▁strength": 3549,
      "▁incor": 3550,
      "▁parent": 3551,
      "▁bed": 3552,
      "▁measures": 3553,
      "▁letter": 3554,
      "era": 3555,
      "▁strategies": 3556,
      "▁flor": 3557,
      "▁consequ": 3558,
      "▁russ": 3559,
      "related": 3560,
      "-19": 3561,
      "\".": 3562,
      "▁homes": 3563,
      "bur": 3564,
      "▁warn": 3565,
      "rote": 3566,
      "▁feature": 3567,
      "▁evolution": 3568,
      "▁store": 3569,
      "▁technologies": 3570,
      "▁doesnt": 3571,
      "▁hyp": 3572,
      "▁participants": 3573,
      "▁cities": 3574,
      "itch": 3575,
      "ocks": 3576,
      "▁effort": 3577,
      "▁task": 3578,
      "▁australia": 3579,
      "▁flowers": 3580,
      "▁functions": 3581,
      "▁encourage": 3582,
      "house": 3583,
      "▁mos": 3584,
      "ensity": 3585,
      "12": 3586,
      "aled": 3587,
      "pped": 3588,
      "iest": 3589,
      "▁coming": 3590,
      "▁consumption": 3591,
      "▁ca": 3592,
      "▁laws": 3593,
      "▁surgery": 3594,
      "mat": 3595,
      "▁completely": 3596,
      "▁establish": 3597,
      "▁convent": 3598,
      "▁identified": 3599,
      "▁topics": 3600,
      "▁differences": 3601,
      "orial": 3602,
      "▁storm": 3603,
      "▁shap": 3604,
      "▁brought": 3605,
      "▁seven": 3606,
      "sp": 3607,
      "▁radio": 3608,
      "▁#": 3609,
      "▁definition": 3610,
      "▁dri": 3611,
      "▁discover": 3612,
      "▁distance": 3613,
      "▁command": 3614,
      "ste": 3615,
      "▁neigh": 3616,
      "▁options": 3617,
      "▁adult": 3618,
      "▁sustainable": 3619,
      "▁landsc": 3620,
      "▁released": 3621,
      "▁basis": 3622,
      "▁reduced": 3623,
      "uth": 3624,
      "▁hur": 3625,
      "▁apply": 3626,
      "▁finding": 3627,
      "▁reference": 3628,
      "▁muscle": 3629,
      "▁grass": 3630,
      "cont": 3631,
      "itable": 3632,
      "zz": 3633,
      "ford": 3634,
      "▁advanced": 3635,
      "▁metal": 3636,
      "▁running": 3637,
      "▁challenge": 3638,
      "▁chinese": 3639,
      "▁nan": 3640,
      "▁cast": 3641,
      "▁approximately": 3642,
      "lands": 3643,
      "▁capital": 3644,
      "▁mich": 3645,
      "▁increases": 3646,
      "▁opportunities": 3647,
      "▁introduction": 3648,
      "ida": 3649,
      "▁seeds": 3650,
      "▁saw": 3651,
      "▁formed": 3652,
      "▁experiment": 3653,
      "iful": 3654,
      "▁pul": 3655,
      "▁eventually": 3656,
      "▁disorders": 3657,
      "▁awareness": 3658,
      "▁limit": 3659,
      "▁oxygen": 3660,
      "gra": 3661,
      "-3": 3662,
      "▁tour": 3663,
      "▁station": 3664,
      "▁repe": 3665,
      "▁suggests": 3666,
      "▁articles": 3667,
      "ulated": 3668,
      "▁union": 3669,
      "▁authors": 3670,
      "oma": 3671,
      "▁wet": 3672,
      "▁powerful": 3673,
      "▁convers": 3674,
      "equ": 3675,
      "▁huge": 3676,
      "▁spot": 3677,
      "▁economy": 3678,
      "▁degree": 3679,
      "▁eggs": 3680,
      "▁expand": 3681,
      "▁alternative": 3682,
      "▁dro": 3683,
      "used": 3684,
      "ream": 3685,
      "▁placed": 3686,
      "▁bran": 3687,
      "roy": 3688,
      "▁radiation": 3689,
      "▁vill": 3690,
      "▁agency": 3691,
      "ml": 3692,
      "▁dental": 3693,
      "ience": 3694,
      "▁seed": 3695,
      "▁surpr": 3696,
      "▁starting": 3697,
      "rome": 3698,
      "▁hom": 3699,
      "▁annual": 3700,
      "▁regions": 3701,
      "▁snow": 3702,
      "▁marine": 3703,
      "▁curriculum": 3704,
      "mitted": 3705,
      "son": 3706,
      "▁injury": 3707,
      "▁cand": 3708,
      "▁gall": 3709,
      "pping": 3710,
      "▁giving": 3711,
      "known": 3712,
      "▁depend": 3713,
      "▁followed": 3714,
      "▁sample": 3715,
      "▁helping": 3716,
      "▁industrial": 3717,
      "▁compar": 3718,
      "▁generation": 3719,
      "uk": 3720,
      "▁5.": 3721,
      "▁thin": 3722,
      "▁transform": 3723,
      "▁construct": 3724,
      "▁excess": 3725,
      "▁laboratory": 3726,
      "▁upper": 3727,
      "▁goals": 3728,
      "▁components": 3729,
      "▁absor": 3730,
      "▁hit": 3731,
      "▁comprehens": 3732,
      "▁fear": 3733,
      "▁vegetables": 3734,
      "ographic": 3735,
      "▁statement": 3736,
      "▁alone": 3737,
      "▁nove": 3738,
      "▁alg": 3739,
      "▁emergency": 3740,
      "▁physic": 3741,
      "▁agriculture": 3742,
      "▁depending": 3743,
      "▁volume": 3744,
      "▁legal": 3745,
      "▁bottom": 3746,
      "▁load": 3747,
      "▁jes": 3748,
      "▁choice": 3749,
      "▁records": 3750,
      "▁ic": 3751,
      "pes": 3752,
      "▁datab": 3753,
      "iant": 3754,
      "▁hop": 3755,
      "▁november": 3756,
      "▁infections": 3757,
      "▁accur": 3758,
      "▁nothing": 3759,
      "aving": 3760,
      "ube": 3761,
      "▁corn": 3762,
      "▁anx": 3763,
      "▁conflic": 3764,
      "▁changed": 3765,
      "▁maxim": 3766,
      "▁habitat": 3767,
      "▁plat": 3768,
      "▁buildings": 3769,
      "▁structures": 3770,
      "▁balance": 3771,
      "▁grand": 3772,
      "▁december": 3773,
      "▁battle": 3774,
      "▁fill": 3775,
      "olic": 3776,
      "roll": 3777,
      "▁occup": 3778,
      "▁drive": 3779,
      "▁described": 3780,
      "▁speech": 3781,
      "do": 3782,
      "lim": 3783,
      "▁price": 3784,
      "▁easier": 3785,
      "▁drinking": 3786,
      "▁degrees": 3787,
      "▁heavy": 3788,
      "ologists": 3789,
      "ocol": 3790,
      "hab": 3791,
      "▁recommended": 3792,
      "▁friend": 3793,
      "▁famous": 3794,
      "uit": 3795,
      "ondon": 3796,
      "ruary": 3797,
      "▁changing": 3798,
      "▁rule": 3799,
      "▁treated": 3800,
      "▁promot": 3801,
      "works": 3802,
      "enty": 3803,
      "▁smart": 3804,
      "▁literature": 3805,
      "▁square": 3806,
      "▁solutions": 3807,
      "▁forward": 3808,
      "▁reducing": 3809,
      "▁bri": 3810,
      "▁appe": 3811,
      "▁du": 3812,
      "▁waters": 3813,
      "▁male": 3814,
      "arian": 3815,
      "▁appears": 3816,
      "▁gain": 3817,
      "ony": 3818,
      "▁worked": 3819,
      "▁photo": 3820,
      "iday": 3821,
      "▁ages": 3822,
      "▁anyone": 3823,
      "▁kn": 3824,
      "▁context": 3825,
      "▁equal": 3826,
      "▁mer": 3827,
      "▁causing": 3828,
      "▁peace": 3829,
      "▁commercial": 3830,
      "▁mit": 3831,
      "▁fields": 3832,
      "rig": 3833,
      "ham": 3834,
      "▁blog": 3835,
      "▁shar": 3836,
      "da": 3837,
      "▁youth": 3838,
      "▁cove": 3839,
      "fs": 3840,
      "enn": 3841,
      "▁happen": 3842,
      "care": 3843,
      "▁conducted": 3844,
      "▁wrote": 3845,
      "isc": 3846,
      "▁cycle": 3847,
      "▁crow": 3848,
      "▁extremely": 3849,
      "erate": 3850,
      "▁woman": 3851,
      "odes": 3852,
      "▁factor": 3853,
      "des": 3854,
      "▁learned": 3855,
      "▁credit": 3856,
      "ta": 3857,
      "lin": 3858,
      "▁spirit": 3859,
      "▁tum": 3860,
      "▁stim": 3861,
      "▁status": 3862,
      "▁nuclear": 3863,
      "▁voc": 3864,
      "▁cant": 3865,
      "▁song": 3866,
      "erson": 3867,
      "▁father": 3868,
      "▁novel": 3869,
      "▁fro": 3870,
      "lection": 3871,
      "▁2012": 3872,
      "▁vaccine": 3873,
      "▁existing": 3874,
      "ibly": 3875,
      "▁fully": 3876,
      "▁mi": 3877,
      "▁coal": 3878,
      "ero": 3879,
      "▁hearing": 3880,
      "60": 3881,
      "▁gar": 3882,
      "▁bank": 3883,
      "▁py": 3884,
      "▁salt": 3885,
      "▁191": 3886,
      "▁concepts": 3887,
      "▁ready": 3888,
      "▁que": 3889,
      "▁links": 3890,
      "▁texas": 3891,
      "▁complic": 3892,
      "cs": 3893,
      "▁revolution": 3894,
      "more": 3895,
      "▁attract": 3896,
      "▁layer": 3897,
      "▁motor": 3898,
      "▁haz": 3899,
      "▁attempt": 3900,
      "▁risks": 3901,
      "▁electrical": 3902,
      "▁gets": 3903,
      "tical": 3904,
      "▁linked": 3905,
      "▁technique": 3906,
      "bits": 3907,
      "▁ves": 3908,
      "▁amaz": 3909,
      "▁bright": 3910,
      "▁letters": 3911,
      "▁populations": 3912,
      "80": 3913,
      "▁satell": 3914,
      "▁util": 3915,
      "▁academic": 3916,
      "ding": 3917,
      "▁dangerous": 3918,
      "cers": 3919,
      "▁mart": 3920,
      "▁estimated": 3921,
      "▁chemicals": 3922,
      "▁london": 3923,
      "▁freed": 3924,
      "▁religious": 3925,
      "▁prepar": 3926,
      "▁describe": 3927,
      "osystem": 3928,
      "▁latest": 3929,
      "▁trig": 3930,
      "this": 3931,
      "▁highest": 3932,
      "orage": 3933,
      "▁decades": 3934,
      "▁rub": 3935,
      "▁joint": 3936,
      "▁copyright": 3937,
      "▁film": 3938,
      "▁trust": 3939,
      "ogle": 3940,
      "▁secret": 3941,
      "▁acqu": 3942,
      "▁adapt": 3943,
      "▁presented": 3944,
      "▁suppl": 3945,
      "sec": 3946,
      "▁clos": 3947,
      "▁resistance": 3948,
      "wards": 3949,
      "▁volun": 3950,
      "▁february": 3951,
      "name": 3952,
      "abilities": 3953,
      "▁background": 3954,
      "▁cogn": 3955,
      "▁foss": 3956,
      "▁worth": 3957,
      "▁expert": 3958,
      "▁format": 3959,
      "▁atmosphere": 3960,
      "▁ly": 3961,
      "▁mary": 3962,
      "mer": 3963,
      "bed": 3964,
      "▁vul": 3965,
      "eles": 3966,
      "ellig": 3967,
      "▁thanks": 3968,
      "▁favor": 3969,
      "▁discovery": 3970,
      "▁reprodu": 3971,
      "▁setting": 3972,
      "▁las": 3973,
      "▁weak": 3974,
      "▁lessons": 3975,
      "▁genes": 3976,
      "▁invent": 3977,
      "inated": 3978,
      "▁commission": 3979,
      "▁multi": 3980,
      "▁round": 3981,
      "▁district": 3982,
      "elines": 3983,
      "▁capacity": 3984,
      "ingu": 3985,
      "▁stars": 3986,
      "▁univers": 3987,
      "▁synd": 3988,
      "▁ber": 3989,
      "▁aqu": 3990,
      "edic": 3991,
      "▁becoming": 3992,
      "ws": 3993,
      "▁allowed": 3994,
      "iety": 3995,
      "▁oral": 3996,
      ");": 3997,
      "lor": 3998,
      "▁mut": 3999,
      "▁creative": 4000,
      "▁relatively": 4001,
      "▁bay": 4002,
      "▁actions": 4003,
      "ublic": 4004,
      "log": 4005,
      "▁transfer": 4006,
      "▁sac": 4007,
      "▁eastern": 4008,
      "▁experiences": 4009,
      "ping": 4010,
      "dule": 4011,
      "ogen": 4012,
      "▁qual": 4013,
      "ux": 4014,
      "▁congress": 4015,
      "▁organizations": 4016,
      "▁mars": 4017,
      "▁significantly": 4018,
      "▁od": 4019,
      "▁beautiful": 4020,
      "▁ecosystem": 4021,
      "▁direction": 4022,
      "▁neuro": 4023,
      "▁optim": 4024,
      "▁kil": 4025,
      "▁roman": 4026,
      "imens": 4027,
      "▁strugg": 4028,
      "▁covered": 4029,
      "▁inflamm": 4030,
      "▁mention": 4031,
      "▁perspect": 4032,
      "▁replace": 4033,
      "▁sciences": 4034,
      "▁stro": 4035,
      "ara": 4036,
      "ifically": 4037,
      "▁forces": 4038,
      "▁army": 4039,
      "▁confir": 4040,
      "▁id": 4041,
      "off": 4042,
      "▁fine": 4043,
      "▁farmers": 4044,
      "▁centre": 4045,
      "▁former": 4046,
      "oe": 4047,
      "▁pun": 4048,
      "▁stone": 4049,
      "▁happens": 4050,
      "key": 4051,
      "paign": 4052,
      "40": 4053,
      "gi": 4054,
      "▁moment": 4055,
      "bi": 4056,
      "▁hall": 4057,
      "met": 4058,
      "▁thick": 4059,
      "▁looks": 4060,
      "▁lic": 4061,
      "▁renew": 4062,
      "▁spanish": 4063,
      "▁trou": 4064,
      "▁divid": 4065,
      "▁thr": 4066,
      "▁classes": 4067,
      "▁slight": 4068,
      "▁wrong": 4069,
      "orge": 4070,
      "isl": 4071,
      "▁sem": 4072,
      "▁council": 4073,
      "▁horm": 4074,
      "▁pip": 4075,
      "ares": 4076,
      "▁languages": 4077,
      "▁intellig": 4078,
      "ris": 4079,
      "▁interested": 4080,
      "▁windows": 4081,
      "▁presence": 4082,
      "aur": 4083,
      "gl": 4084,
      "▁rang": 4085,
      "antic": 4086,
      "▁introduced": 4087,
      "▁immediately": 4088,
      "▁gender": 4089,
      "▁excell": 4090,
      "mal": 4091,
      "▁mountain": 4092,
      "▁schol": 4093,
      "▁hiv": 4094,
      "asks": 4095,
      "▁discussion": 4096,
      "▁storage": 4097,
      "ken": 4098,
      "▁pac": 4099,
      "▁fruits": 4100,
      "▁wel": 4101,
      "▁index": 4102,
      "phas": 4103,
      "▁majority": 4104,
      "▁meat": 4105,
      "▁bodies": 4106,
      "▁astr": 4107,
      "char": 4108,
      "board": 4109,
      "▁80": 4110,
      "▁coord": 4111,
      "▁workshe": 4112,
      "▁agricultural": 4113,
      "▁trend": 4114,
      "▁unlike": 4115,
      "▁dram": 4116,
      "▁diction": 4117,
      "▁properly": 4118,
      "▁vary": 4119,
      "▁ther": 4120,
      "▁hour": 4121,
      "▁philos": 4122,
      "▁destroy": 4123,
      "▁believed": 4124,
      "▁engage": 4125,
      "▁solid": 4126,
      "▁preserv": 4127,
      "bal": 4128,
      "▁exactly": 4129,
      "cious": 4130,
      "▁numerous": 4131,
      "▁worlds": 4132,
      "▁pair": 4133,
      "▁keeping": 4134,
      "▁citizens": 4135,
      "▁girls": 4136,
      "▁david": 4137,
      "▁defined": 4138,
      "▁193": 4139,
      "▁income": 4140,
      "ii": 4141,
      "▁frequently": 4142,
      "▁characteristics": 4143,
      "▁distribution": 4144,
      "▁jesus": 4145,
      "▁ben": 4146,
      "▁fix": 4147,
      "▁consult": 4148,
      "▁incorpor": 4149,
      "▁separate": 4150,
      "▁allerg": 4151,
      "▁campaign": 4152,
      "▁paint": 4153,
      "▁diam": 4154,
      "▁profession": 4155,
      "▁diagnosis": 4156,
      "▁google": 4157,
      "▁exposed": 4158,
      "▁pieces": 4159,
      "▁roll": 4160,
      "25": 4161,
      "▁toxic": 4162,
      "▁bound": 4163,
      "▁doctors": 4164,
      "▁2013": 4165,
      "▁combination": 4166,
      "▁arts": 4167,
      "▁treatments": 4168,
      "▁aid": 4169,
      "▁concentr": 4170,
      "▁flower": 4171,
      "19": 4172,
      "urally": 4173,
      "▁pret": 4174,
      "ager": 4175,
      "▁master": 4176,
      "cular": 4177,
      "▁technical": 4178,
      "▁widely": 4179,
      "▁astronom": 4180,
      "▁virgin": 4181,
      "▁theres": 4182,
      "▁passed": 4183,
      "▁vessel": 4184,
      "▁requirements": 4185,
      "▁sounds": 4186,
      "▁phone": 4187,
      "ags": 4188,
      "▁promote": 4189,
      "▁christian": 4190,
      "▁sect": 4191,
      "▁sexual": 4192,
      "ulf": 4193,
      "▁monitoring": 4194,
      "▁aware": 4195,
      "▁asse": 4196,
      "▁wonder": 4197,
      "▁bow": 4198,
      "force": 4199,
      "oxide": 4200,
      "▁ip": 4201,
      "▁message": 4202,
      "▁grant": 4203,
      "▁contract": 4204,
      "▁biological": 4205,
      "ought": 4206,
      "▁kit": 4207,
      "▁street": 4208,
      "▁connected": 4209,
      "▁serve": 4210,
      "iter": 4211,
      "▁meeting": 4212,
      "▁anxiety": 4213,
      "▁mostly": 4214,
      "▁sess": 4215,
      "▁bot": 4216,
      "▁moist": 4217,
      "▁sky": 4218,
      "ung": 4219,
      "▁vehicle": 4220,
      "▁liquid": 4221,
      "▁dan": 4222,
      "▁screen": 4223,
      "▁observed": 4224,
      "▁removed": 4225,
      "▁atl": 4226,
      "▁operations": 4227,
      "▁yes": 4228,
      "spe": 4229,
      "▁boo": 4230,
      "▁syndrome": 4231,
      "umn": 4232,
      "▁muscles": 4233,
      "▁previously": 4234,
      "▁liver": 4235,
      "rim": 4236,
      "▁phen": 4237,
      "▁notice": 4238,
      "▁carried": 4239,
      "▁scen": 4240,
      "▁aspects": 4241,
      "▁germany": 4242,
      "▁independent": 4243,
      "▁nit": 4244,
      "zing": 4245,
      "▁helped": 4246,
      "▁impacts": 4247,
      "▁title": 4248,
      "▁principles": 4249,
      "▁height": 4250,
      "▁dent": 4251,
      "west": 4252,
      "▁sports": 4253,
      "iring": 4254,
      "▁hyper": 4255,
      "▁pictures": 4256,
      "▁fing": 4257,
      "▁continued": 4258,
      "▁send": 4259,
      "▁feeling": 4260,
      "onds": 4261,
      "▁violence": 4262,
      "▁output": 4263,
      "▁intervent": 4264,
      "▁practical": 4265,
      "ole": 4266,
      "▁sche": 4267,
      "▁decisions": 4268,
      "▁failure": 4269,
      "ball": 4270,
      "▁samples": 4271,
      "▁administration": 4272,
      "▁esc": 4273,
      "▁physics": 4274,
      "▁affects": 4275,
      "isher": 4276,
      "▁comment": 4277,
      "li": 4278,
      "▁nutrients": 4279,
      "▁involves": 4280,
      "▁connection": 4281,
      "▁emphas": 4282,
      "▁ship": 4283,
      "▁traff": 4284,
      "▁unc": 4285,
      "▁france": 4286,
      "▁explains": 4287,
      "iling": 4288,
      "▁internal": 4289,
      "▁shel": 4290,
      "▁processing": 4291,
      "▁initial": 4292,
      "▁ing": 4293,
      "cipl": 4294,
      "▁tast": 4295,
      "▁trib": 4296,
      "▁rand": 4297,
      "▁japanese": 4298,
      "▁efficiency": 4299,
      "▁centers": 4300,
      "15": 4301,
      "▁2010": 4302,
      "▁james": 4303,
      "▁tod": 4304,
      "▁inches": 4305,
      "▁showing": 4306,
      "▁elimin": 4307,
      "▁mexico": 4308,
      "▁deaths": 4309,
      "chool": 4310,
      "icial": 4311,
      "omas": 4312,
      "▁input": 4313,
      "▁emotional": 4314,
      "ky": 4315,
      "▁instruction": 4316,
      "▁roy": 4317,
      "resp": 4318,
      "▁bord": 4319,
      "▁actual": 4320,
      "▁vulner": 4321,
      "▁amounts": 4322,
      "cast": 4323,
      "▁biology": 4324,
      "▁improved": 4325,
      "▁prepared": 4326,
      "ca": 4327,
      "▁persons": 4328,
      "▁gave": 4329,
      "▁fundam": 4330,
      "▁race": 4331,
      "▁earn": 4332,
      "▁legisl": 4333,
      "▁resulting": 4334,
      "▁adding": 4335,
      "▁wear": 4336,
      "▁herit": 4337,
      "▁foreign": 4338,
      "▁shall": 4339,
      "▁rid": 4340,
      "amb": 4341,
      "▁performed": 4342,
      "▁gum": 4343,
      "▁advice": 4344,
      "▁195": 4345,
      "▁units": 4346,
      "▁rail": 4347,
      "▁2011": 4348,
      "▁sud": 4349,
      "oty": 4350,
      "▁originally": 4351,
      "▁instance": 4352,
      "▁pig": 4353,
      "mark": 4354,
      "▁aer": 4355,
      "▁mobile": 4356,
      "▁presc": 4357,
      "▁answers": 4358,
      "▁bio": 4359,
      "▁manufacture": 4360,
      "▁lived": 4361,
      "acters": 4362,
      "▁isnt": 4363,
      "▁phase": 4364,
      "▁particles": 4365,
      "▁join": 4366,
      "att": 4367,
      "▁ord": 4368,
      "▁mamm": 4369,
      "mp": 4370,
      "igen": 4371,
      "▁greek": 4372,
      "▁option": 4373,
      "▁cere": 4374,
      "▁90": 4375,
      "▁computers": 4376,
      "▁minor": 4377,
      "▁clim": 4378,
      "▁sed": 4379,
      "▁tor": 4380,
      "cope": 4381,
      "▁robot": 4382,
      "vious": 4383,
      "ees": 4384,
      "▁files": 4385,
      "\",": 4386,
      "esity": 4387,
      "▁characters": 4388,
      "gypt": 4389,
      "ga": 4390,
      "▁democ": 4391,
      "atric": 4392,
      "omen": 4393,
      "▁coop": 4394,
      "▁jewish": 4395,
      "▁faster": 4396,
      "▁detailed": 4397,
      "▁dut": 4398,
      "▁2,": 4399,
      "▁flat": 4400,
      "▁relationships": 4401,
      "▁flex": 4402,
      "▁party": 4403,
      "▁pregnancy": 4404,
      "eties": 4405,
      "▁colors": 4406,
      "▁brief": 4407,
      "▁ham": 4408,
      "▁contribute": 4409,
      "▁tow": 4410,
      "▁electronic": 4411,
      "▁fel": 4412,
      "▁pil": 4413,
      "▁dynam": 4414,
      "▁dictionary": 4415,
      "▁career": 4416,
      "▁morning": 4417,
      "▁begins": 4418,
      "▁22": 4419,
      "▁islands": 4420,
      "▁apart": 4421,
      "▁double": 4422,
      "▁roots": 4423,
      "ss": 4424,
      "emic": 4425,
      "▁database": 4426,
      "▁lou": 4427,
      "▁completed": 4428,
      "▁ign": 4429,
      "ata": 4430,
      "▁digest": 4431,
      "▁driving": 4432,
      "▁announ": 4433,
      "▁reaction": 4434,
      "▁guidelines": 4435,
      "▁tested": 4436,
      "▁quar": 4437,
      "▁wire": 4438,
      "▁vital": 4439,
      "▁playing": 4440,
      "▁reality": 4441,
      "▁creation": 4442,
      "▁heritage": 4443,
      "atically": 4444,
      "▁experienced": 4445,
      "▁procedure": 4446,
      "▁moved": 4447,
      "▁obesity": 4448,
      "▁freedom": 4449,
      "▁leaf": 4450,
      "othes": 4451,
      "▁execut": 4452,
      "▁crops": 4453,
      "▁collected": 4454,
      "▁prefer": 4455,
      "▁cognitive": 4456,
      "▁infected": 4457,
      "▁specifically": 4458,
      "▁oh": 4459,
      "rael": 4460,
      "▁mist": 4461,
      "▁heard": 4462,
      "▁injuries": 4463,
      "▁ze": 4464,
      "bra": 4465,
      "rupt": 4466,
      "▁concl": 4467,
      "▁adjust": 4468,
      "▁sort": 4469,
      "▁lord": 4470,
      "▁opin": 4471,
      "ads": 4472,
      "▁effectively": 4473,
      "eff": 4474,
      "▁george": 4475,
      "▁spend": 4476,
      "▁latin": 4477,
      "▁recorded": 4478,
      "▁distinct": 4479,
      "▁ara": 4480,
      "▁tun": 4481,
      "▁70": 4482,
      "▁straight": 4483,
      "▁clearly": 4484,
      "▁harvest": 4485,
      "ternal": 4486,
      "▁tiny": 4487,
      "▁continues": 4488,
      "▁jobs": 4489,
      "▁cloud": 4490,
      "▁assemb": 4491,
      "▁programming": 4492,
      "iff": 4493,
      "▁historic": 4494,
      "▁din": 4495,
      "▁prepare": 4496,
      "▁allowing": 4497,
      "▁republic": 4498,
      "▁186": 4499,
      "▁tail": 4500,
      "▁assum": 4501,
      "cling": 4502,
      "▁asia": 4503,
      "eed": 4504,
      "▁territ": 4505,
      "▁photos": 4506,
      "▁pacific": 4507,
      "▁pump": 4508,
      "▁carol": 4509,
      "▁leads": 4510,
      "▁flight": 4511,
      "▁hundreds": 4512,
      "▁lets": 4513,
      "▁egypt": 4514,
      "▁comfort": 4515,
      "porary": 4516,
      "▁victim": 4517,
      "▁insects": 4518,
      "ago": 4519,
      "asion": 4520,
      "▁cm": 4521,
      "rogen": 4522,
      "verty": 4523,
      "▁pric": 4524,
      "▁surrounding": 4525,
      "change": 4526,
      "▁counter": 4527,
      "▁nurs": 4528,
      "▁poverty": 4529,
      "za": 4530,
      "▁childhood": 4531,
      "▁6.": 4532,
      "▁killed": 4533,
      "▁grown": 4534,
      "▁190": 4535,
      "▁chief": 4536,
      "▁landscape": 4537,
      "▁concerns": 4538,
      "▁fif": 4539,
      "▁stick": 4540,
      "tes": 4541,
      "▁readers": 4542,
      "ado": 4543,
      "gal": 4544,
      "▁nerv": 4545,
      "▁sod": 4546,
      "▁mort": 4547,
      "tered": 4548,
      "▁cris": 4549,
      "▁2014": 4550,
      "▁antibiot": 4551,
      "▁formation": 4552,
      "mas": 4553,
      "▁coff": 4554,
      "▁spent": 4555,
      "▁mr": 4556,
      "▁warming": 4557,
      "▁mc": 4558,
      "▁veter": 4559,
      "what": 4560,
      "▁fluid": 4561,
      "▁millions": 4562,
      "▁visible": 4563,
      "▁flo": 4564,
      "70": 4565,
      "▁wed": 4566,
      "▁isol": 4567,
      "▁dust": 4568,
      "wood": 4569,
      "ceed": 4570,
      "▁archae": 4571,
      "ded": 4572,
      "▁publication": 4573,
      "▁comments": 4574,
      "▁regarding": 4575,
      "▁reduction": 4576,
      "▁description": 4577,
      "▁onto": 4578,
      "▁maps": 4579,
      "isation": 4580,
      "▁strategy": 4581,
      "▁motion": 4582,
      "▁orbit": 4583,
      "▁concern": 4584,
      "▁voice": 4585,
      "▁wanted": 4586,
      "pal": 4587,
      "iable": 4588,
      "▁residents": 4589,
      "▁potentially": 4590,
      "▁operation": 4591,
      "ishing": 4592,
      "▁km": 4593,
      "▁policies": 4594,
      "▁trop": 4595,
      "▁pin": 4596,
      "▁smoking": 4597,
      "▁subjects": 4598,
      "▁medications": 4599,
      "▁truth": 4600,
      "roph": 4601,
      "sa": 4602,
      "▁worldwide": 4603,
      "▁drop": 4604,
      "▁edition": 4605,
      "▁theyre": 4606,
      "▁volunte": 4607,
      "ctic": 4608,
      "▁owners": 4609,
      "▁officials": 4610,
      "akers": 4611,
      "▁photograph": 4612,
      "pap": 4613,
      "▁signal": 4614,
      "encing": 4615,
      "▁referred": 4616,
      "▁operating": 4617,
      "▁himself": 4618,
      "▁israel": 4619,
      "aint": 4620,
      "onic": 4621,
      "▁cars": 4622,
      "▁rough": 4623,
      "omb": 4624,
      "pat": 4625,
      "▁valu": 4626,
      "▁vehicles": 4627,
      "▁fertil": 4628,
      "▁protected": 4629,
      "▁taught": 4630,
      "▁focused": 4631,
      "▁justice": 4632,
      "▁contrast": 4633,
      "▁shared": 4634,
      "▁studied": 4635,
      "▁florida": 4636,
      "▁bones": 4637,
      "▁relevant": 4638,
      "▁forests": 4639,
      "teries": 4640,
      "▁turned": 4641,
      "▁constitution": 4642,
      "▁involve": 4643,
      "men": 4644,
      "▁immun": 4645,
      "▁division": 4646,
      "▁noted": 4647,
      "▁excellent": 4648,
      "▁combined": 4649,
      "▁extensive": 4650,
      "▁perman": 4651,
      "olved": 4652,
      "▁chann": 4653,
      "▁dedic": 4654,
      "▁diversity": 4655,
      "▁doll": 4656,
      "ilit": 4657,
      "▁23": 4658,
      "▁helpful": 4659,
      "▁served": 4660,
      "▁sin": 4661,
      "▁seek": 4662,
      "▁fle": 4663,
      "▁kinds": 4664,
      "16": 4665,
      "asts": 4666,
      "▁statistics": 4667,
      "▁ble": 4668,
      "▁colleag": 4669,
      "▁typical": 4670,
      "bt": 4671,
      "▁instrument": 4672,
      "▁189": 4673,
      "▁saying": 4674,
      "▁ven": 4675,
      "▁cd": 4676,
      "umin": 4677,
      "enth": 4678,
      "▁indicate": 4679,
      "▁sweet": 4680,
      "▁valley": 4681,
      "▁platform": 4682,
      "▁obvious": 4683,
      "▁comprehensive": 4684,
      "▁phr": 4685,
      "▁belong": 4686,
      "▁wik": 4687,
      "▁stret": 4688,
      "▁royal": 4689,
      "▁band": 4690,
      "▁vent": 4691,
      "▁advance": 4692,
      "▁familiar": 4693,
      "▁normally": 4694,
      "▁accurate": 4695,
      "cip": 4696,
      "▁collabor": 4697,
      "▁cloth": 4698,
      "▁sick": 4699,
      "▁fab": 4700,
      "▁mainly": 4701,
      "▁train": 4702,
      "▁ok": 4703,
      "icks": 4704,
      "▁plate": 4705,
      "▁rh": 4706,
      "▁lifest": 4707,
      "su": 4708,
      "rie": 4709,
      "▁spl": 4710,
      "oul": 4711,
      "▁intended": 4712,
      "▁tasks": 4713,
      "▁courses": 4714,
      "free": 4715,
      "asive": 4716,
      "▁cart": 4717,
      "▁conflict": 4718,
      "▁explained": 4719,
      "rete": 4720,
      "▁documents": 4721,
      "▁touch": 4722,
      "▁stream": 4723,
      "▁youll": 4724,
      "▁conclud": 4725,
      "▁otherwise": 4726,
      "5%": 4727,
      "ped": 4728,
      "▁fly": 4729,
      "▁crop": 4730,
      "osite": 4731,
      "▁metab": 4732,
      "urance": 4733,
      "▁frequency": 4734,
      "▁<": 4735,
      "▁pra": 4736,
      "21": 4737,
      "▁studying": 4738,
      "▁shell": 4739,
      "▁solve": 4740,
      "iveness": 4741,
      "unk": 4742,
      "▁columb": 4743,
      "▁universe": 4744,
      "▁advantage": 4745,
      "▁ideal": 4746,
      "▁lose": 4747,
      "▁tut": 4748,
      "▁volcan": 4749,
      "rum": 4750,
      "▁recovery": 4751,
      "▁stroke": 4752,
      "▁governments": 4753,
      "net": 4754,
      "▁situations": 4755,
      "-4": 4756,
      "car": 4757,
      "▁motiv": 4758,
      "uration": 4759,
      "▁interpret": 4760,
      "▁drawing": 4761,
      "▁cath": 4762,
      "▁expression": 4763,
      "▁mathematics": 4764,
      "gu": 4765,
      "▁regional": 4766,
      "acing": 4767,
      "▁explan": 4768,
      "▁reb": 4769,
      "▁rural": 4770,
      "▁myth": 4771,
      "▁regularly": 4772,
      "going": 4773,
      "▁blo": 4774,
      "ressed": 4775,
      "down": 4776,
      "▁walking": 4777,
      "▁faith": 4778,
      "ributed": 4779,
      "▁periods": 4780,
      "ophy": 4781,
      "▁butter": 4782,
      "gment": 4783,
      "▁cats": 4784,
      "▁stock": 4785,
      "▁leader": 4786,
      "▁looked": 4787,
      "▁determined": 4788,
      "▁diss": 4789,
      "norm": 4790,
      "▁abuse": 4791,
      "▁lots": 4792,
      "place": 4793,
      "▁improving": 4794,
      "▁naturally": 4795,
      "▁bridge": 4796,
      "▁award": 4797,
      "▁ol": 4798,
      "ht": 4799,
      "▁haw": 4800,
      "ferences": 4801,
      "▁measured": 4802,
      "▁depth": 4803,
      "▁label": 4804,
      "▁inflammation": 4805,
      "olester": 4806,
      "zy": 4807,
      "ava": 4808,
      "▁colour": 4809,
      "▁ran": 4810,
      "▁artific": 4811,
      "▁slightly": 4812,
      "▁unfortun": 4813,
      "▁dial": 4814,
      "▁attacks": 4815,
      "aks": 4816,
      "▁kept": 4817,
      "▁meant": 4818,
      "▁talking": 4819,
      "▁alt": 4820,
      "comes": 4821,
      "vert": 4822,
      "▁jer": 4823,
      "▁charge": 4824,
      "lers": 4825,
      "▁teen": 4826,
      "▁doesn": 4827,
      "▁grav": 4828,
      "▁vot": 4829,
      "▁purposes": 4830,
      "▁ingred": 4831,
      "▁papers": 4832,
      "▁mur": 4833,
      "▁harmful": 4834,
      "▁domestic": 4835,
      "▁paul": 4836,
      "▁fossil": 4837,
      "▁traffic": 4838,
      "▁sheet": 4839,
      "▁proteins": 4840,
      "▁primarily": 4841,
      "▁tall": 4842,
      "▁consists": 4843,
      "▁pull": 4844,
      "▁(3": 4845,
      "iled": 4846,
      "ota": 4847,
      "olesterol": 4848,
      "cium": 4849,
      "ipped": 4850,
      "▁sav": 4851,
      "▁fer": 4852,
      "▁random": 4853,
      "▁neut": 4854,
      "▁elev": 4855,
      "▁cos": 4856,
      "▁floor": 4857,
      "ascular": 4858,
      "▁centuries": 4859,
      "▁electron": 4860,
      "la": 4861,
      "▁pretty": 4862,
      "▁presentation": 4863,
      "▁containing": 4864,
      "▁consequences": 4865,
      "▁galax": 4866,
      "▁childs": 4867,
      "▁eu": 4868,
      "▁steel": 4869,
      "▁camera": 4870,
      "▁experiments": 4871,
      "▁raise": 4872,
      "▁maximum": 4873,
      "ny": 4874,
      "▁poet": 4875,
      "kes": 4876,
      "▁babies": 4877,
      "▁valuable": 4878,
      "▁literacy": 4879,
      "exam": 4880,
      "cules": 4881,
      "▁cards": 4882,
      "/2": 4883,
      "iment": 4884,
      "fall": 4885,
      "ael": 4886,
      "▁acce": 4887,
      "▁magnetic": 4888,
      "▁happy": 4889,
      "▁supported": 4890,
      "▁survival": 4891,
      "▁www": 4892,
      "▁phenomen": 4893,
      "▁greenhouse": 4894,
      "ception": 4895,
      "▁cholesterol": 4896,
      "▁won": 4897,
      "▁battery": 4898,
      "▁decided": 4899,
      "▁listen": 4900,
      "▁enhance": 4901,
      "13": 4902,
      "18": 4903,
      "bing": 4904,
      "▁component": 4905,
      "▁selected": 4906,
      "reci": 4907,
      "▁waves": 4908,
      "▁window": 4909,
      "▁satellite": 4910,
      "▁arth": 4911,
      "itors": 4912,
      "▁sentence": 4913,
      "ication": 4914,
      "▁scientist": 4915,
      "▁chemistry": 4916,
      "hma": 4917,
      "flow": 4918,
      "▁swim": 4919,
      "▁thomas": 4920,
      "tion": 4921,
      "▁religion": 4922,
      "▁walls": 4923,
      "anes": 4924,
      "ishes": 4925,
      "▁rivers": 4926,
      "▁sets": 4927,
      "▁remind": 4928,
      "▁conference": 4929,
      "▁tom": 4930,
      "vid": 4931,
      "ira": 4932,
      "▁decrease": 4933,
      "eria": 4934,
      "▁surf": 4935,
      "pre": 4936,
      "▁coffee": 4937,
      "▁childrens": 4938,
      "▁gram": 4939,
      "14": 4940,
      "▁worksh": 4941,
      "▁starts": 4942,
      "▁stom": 4943,
      "▁suggested": 4944,
      "long": 4945,
      "▁manufacturing": 4946,
      "▁fract": 4947,
      "▁healthcare": 4948,
      "▁2009": 4949,
      "▁crucial": 4950,
      "rich": 4951,
      "▁refers": 4952,
      "▁wealth": 4953,
      "▁perspective": 4954,
      "▁nest": 4955,
      "rant": 4956,
      "well": 4957,
      "▁played": 4958,
      "▁boost": 4959,
      "win": 4960,
      "▁rein": 4961,
      "▁medication": 4962,
      "fered": 4963,
      "ertain": 4964,
      "▁deliver": 4965,
      "icip": 4966,
      "ructure": 4967,
      "▁fiber": 4968,
      "ville": 4969,
      "▁intake": 4970,
      "ij": 4971,
      "▁pup": 4972,
      "▁suffer": 4973,
      "▁mad": 4974,
      "▁calcium": 4975,
      "▁reached": 4976,
      "lam": 4977,
      "body": 4978,
      "▁lect": 4979,
      "▁ath": 4980,
      "▁vast": 4981,
      "▁remote": 4982,
      "▁professionals": 4983,
      "eline": 4984,
      "▁fever": 4985,
      "▁committe": 4986,
      "▁speaking": 4987,
      "▁twice": 4988,
      "▁fal": 4989,
      "▁secondary": 4990,
      "▁susp": 4991,
      "▁hem": 4992,
      "▁habits": 4993,
      "▁facilities": 4994,
      "▁virginia": 4995,
      "▁earthqu": 4996,
      "▁peoples": 4997,
      "500": 4998,
      "22": 4999,
      "▁recognize": 5000,
      "▁closely": 5001,
      "▁corpor": 5002,
      "▁shut": 5003,
      "heim": 5004,
      "▁funding": 5005,
      "▁mand": 5006,
      "▁smoke": 5007,
      "ya": 5008,
      "▁wit": 5009,
      "▁cub": 5010,
      "airs": 5011,
      "▁interview": 5012,
      "point": 5013,
      "▁corresp": 5014,
      "▁hole": 5015,
      "▁prem": 5016,
      "▁occurred": 5017,
      "▁barri": 5018,
      "ortion": 5019,
      "▁throw": 5020,
      "-0": 5021,
      "arr": 5022,
      "▁thor": 5023,
      "▁tro": 5024,
      "▁cutting": 5025,
      "▁certainly": 5026,
      "▁edge": 5027,
      "▁massive": 5028,
      "▁medium": 5029,
      "▁transportation": 5030,
      "▁renewable": 5031,
      "▁domin": 5032,
      "▁behaviour": 5033,
      "▁breathing": 5034,
      "▁outcomes": 5035,
      "▁routine": 5036,
      "nic": 5037,
      "▁hydrogen": 5038,
      "iced": 5039,
      "▁figures": 5040,
      "▁generate": 5041,
      "▁thoughts": 5042,
      "▁mov": 5043,
      "▁raised": 5044,
      "▁robert": 5045,
      "▁colleagues": 5046,
      "▁responsibility": 5047,
      "▁nine": 5048,
      "▁teles": 5049,
      "▁britain": 5050,
      "▁string": 5051,
      "▁proposed": 5052,
      "▁procedures": 5053,
      "▁greatest": 5054,
      "▁tea": 5055,
      "▁sensitive": 5056,
      "erals": 5057,
      "rew": 5058,
      "▁rapidly": 5059,
      "▁external": 5060,
      "▁virtual": 5061,
      "▁describes": 5062,
      "enses": 5063,
      "▁brother": 5064,
      "▁rhy": 5065,
      "▁minimum": 5066,
      "mic": 5067,
      "atch": 5068,
      "▁dioxide": 5069,
      "▁reader": 5070,
      "▁represents": 5071,
      "aker": 5072,
      "▁lung": 5073,
      "▁artificial": 5074,
      "nel": 5075,
      "va": 5076,
      "▁pros": 5077,
      "▁environments": 5078,
      "▁abst": 5079,
      "▁leaving": 5080,
      "▁offered": 5081,
      "▁immig": 5082,
      "▁sides": 5083,
      "ady": 5084,
      "▁horse": 5085,
      "▁diverse": 5086,
      "▁lifestyle": 5087,
      "▁appearance": 5088,
      "▁circum": 5089,
      "▁lik": 5090,
      "▁pron": 5091,
      "▁listed": 5092,
      "▁substance": 5093,
      "berg": 5094,
      "▁survive": 5095,
      "▁approaches": 5096,
      "▁crisis": 5097,
      "unction": 5098,
      "▁poison": 5099,
      "▁respir": 5100,
      "▁couple": 5101,
      "ules": 5102,
      "▁consumers": 5103,
      "▁compare": 5104,
      "agers": 5105,
      "▁strengthe": 5106,
      "▁highlight": 5107,
      "alled": 5108,
      "omy": 5109,
      "▁26": 5110,
      "▁7.": 5111,
      "▁coastal": 5112,
      "▁2020": 5113,
      "▁choices": 5114,
      "▁flav": 5115,
      "▁ru": 5116,
      "reen": 5117,
      "▁da": 5118,
      "▁updated": 5119,
      "▁bor": 5120,
      "▁producing": 5121,
      "▁plus": 5122,
      "▁28": 5123,
      "▁seeing": 5124,
      "▁fo": 5125,
      "▁wave": 5126,
      "▁infrast": 5127,
      "abul": 5128,
      "▁era": 5129,
      "▁younger": 5130,
      "▁divided": 5131,
      "greg": 5132,
      "▁integ": 5133,
      "▁increasingly": 5134,
      "▁framework": 5135,
      "▁anth": 5136,
      "▁identity": 5137,
      "▁pit": 5138,
      "▁journey": 5139,
      "▁views": 5140,
      "▁bear": 5141,
      "ifying": 5142,
      "▁raw": 5143,
      "▁asthma": 5144,
      "▁horiz": 5145,
      "het": 5146,
      "roid": 5147,
      "▁diagnosed": 5148,
      "▁simpl": 5149,
      "ander": 5150,
      "ona": 5151,
      "▁architecture": 5152,
      "inations": 5153,
      "▁institutions": 5154,
      "▁kidney": 5155,
      "▁stomach": 5156,
      "▁paral": 5157,
      "▁controlled": 5158,
      "▁australian": 5159,
      "▁neck": 5160,
      "▁didnt": 5161,
      "ania": 5162,
      "▁narr": 5163,
      "▁calories": 5164,
      "▁mice": 5165,
      "▁academy": 5166,
      "▁acceler": 5167,
      "▁circuit": 5168,
      "▁sudden": 5169,
      "▁extract": 5170,
      "▁molecules": 5171,
      "▁recon": 5172,
      "▁request": 5173,
      "▁appoint": 5174,
      "▁advoc": 5175,
      "▁mild": 5176,
      "▁interactive": 5177,
      "▁ax": 5178,
      "▁fundamental": 5179,
      "▁settle": 5180,
      "odi": 5181,
      "▁genet": 5182,
      "▁franc": 5183,
      "▁stored": 5184,
      "ensus": 5185,
      "▁gro": 5186,
      "▁hid": 5187,
      "▁revealed": 5188,
      "▁unfortunately": 5189,
      "▁conv": 5190,
      "▁businesses": 5191,
      "▁zone": 5192,
      "▁indeed": 5193,
      "▁plays": 5194,
      "▁prices": 5195,
      "arent": 5196,
      "▁biggest": 5197,
      "▁inject": 5198,
      "▁secure": 5199,
      "last": 5200,
      "onal": 5201,
      "▁intelligence": 5202,
      "▁anc": 5203,
      "my": 5204,
      "riage": 5205,
      "▁narrow": 5206,
      "▁posted": 5207,
      "▁locations": 5208,
      "uls": 5209,
      "ushing": 5210,
      "▁contem": 5211,
      "being": 5212,
      "▁epid": 5213,
      "▁supplement": 5214,
      "▁regul": 5215,
      "▁feelings": 5216,
      "▁disapp": 5217,
      "▁happened": 5218,
      "state": 5219,
      "tra": 5220,
      "wing": 5221,
      "▁mont": 5222,
      "▁essays": 5223,
      "▁expensive": 5224,
      "▁depends": 5225,
      "▁27": 5226,
      "▁suffering": 5227,
      "asp": 5228,
      "▁bible": 5229,
      "▁portion": 5230,
      "▁manner": 5231,
      "▁tropical": 5232,
      "▁van": 5233,
      "-8": 5234,
      "tr": 5235,
      "irus": 5236,
      "▁gather": 5237,
      "▁skill": 5238,
      "-5": 5239,
      "▁300": 5240,
      "▁village": 5241,
      "health": 5242,
      "▁insul": 5243,
      "▁stages": 5244,
      "▁household": 5245,
      "▁nerve": 5246,
      "igenous": 5247,
      "▁engineers": 5248,
      "▁hero": 5249,
      "▁(18": 5250,
      "▁maybe": 5251,
      "▁sight": 5252,
      "how": 5253,
      "▁decline": 5254,
      "▁feeding": 5255,
      "no": 5256,
      "▁outl": 5257,
      "isp": 5258,
      "▁192": 5259,
      "▁concentration": 5260,
      "▁networks": 5261,
      "▁rab": 5262,
      "abulary": 5263,
      "example": 5264,
      "▁myster": 5265,
      "▁diag": 5266,
      "▁electro": 5267,
      "hor": 5268,
      "▁appreci": 5269,
      "▁scan": 5270,
      "lets": 5271,
      "▁concerned": 5272,
      "▁server": 5273,
      "▁hill": 5274,
      "▁produces": 5275,
      "field": 5276,
      "▁creates": 5277,
      "▁navig": 5278,
      "▁trial": 5279,
      "▁smith": 5280,
      "exp": 5281,
      "uel": 5282,
      "fish": 5283,
      "vision": 5284,
      "orith": 5285,
      "▁cup": 5286,
      "90": 5287,
      "▁traum": 5288,
      "▁chick": 5289,
      "▁louis": 5290,
      "▁tan": 5291,
      "▁instructions": 5292,
      ":||": 5293,
      "▁unknown": 5294,
      "▁fewer": 5295,
      "▁ring": 5296,
      "▁editor": 5297,
      "▁ken": 5298,
      "▁mountains": 5299,
      "ediatric": 5300,
      "▁legs": 5301,
      "▁consid": 5302,
      "mes": 5303,
      "▁contamin": 5304,
      "▁worse": 5305,
      "▁largely": 5306,
      "▁incl": 5307,
      "▁authority": 5308,
      "▁machines": 5309,
      "▁signals": 5310,
      "▁sharing": 5311,
      "▁algorith": 5312,
      "▁tells": 5313,
      "▁dedicated": 5314,
      "▁lands": 5315,
      "▁unus": 5316,
      "cal": 5317,
      "▁vocabulary": 5318,
      "▁apparent": 5319,
      "▁covers": 5320,
      "athy": 5321,
      "▁purchase": 5322,
      "▁frank": 5323,
      "▁sector": 5324,
      "▁everyday": 5325,
      "▁infrastructure": 5326,
      "▁videos": 5327,
      "quit": 5328,
      "cycl": 5329,
      "▁closed": 5330,
      "▁reform": 5331,
      "▁distingu": 5332,
      "▁roof": 5333,
      "▁calls": 5334,
      "▁leadership": 5335,
      "▁imper": 5336,
      "▁capable": 5337,
      "▁ms": 5338,
      "▁suitable": 5339,
      "▁forced": 5340,
      "▁autism": 5341,
      "▁planets": 5342,
      "▁ped": 5343,
      "weight": 5344,
      "▁slowly": 5345,
      "usive": 5346,
      "▁ash": 5347,
      "▁accompl": 5348,
      "▁exercises": 5349,
      "▁shop": 5350,
      "▁wid": 5351,
      "iet": 5352,
      "▁gun": 5353,
      "▁abnorm": 5354,
      "▁zero": 5355,
      "▁temple": 5356,
      "▁thir": 5357,
      "▁beneficial": 5358,
      "▁density": 5359,
      "▁movements": 5360,
      "▁turns": 5361,
      "▁implic": 5362,
      "burg": 5363,
      "▁independence": 5364,
      "ault": 5365,
      "▁alph": 5366,
      "▁accompan": 5367,
      "▁500": 5368,
      "▁iv": 5369,
      "▁committee": 5370,
      "▁fabric": 5371,
      "oh": 5372,
      "▁broken": 5373,
      "▁chart": 5374,
      "▁recognized": 5375,
      "▁wol": 5376,
      "▁amb": 5377,
      "▁filled": 5378,
      "▁painting": 5379,
      "▁indigenous": 5380,
      "ario": 5381,
      "tenance": 5382,
      "▁unless": 5383,
      "tering": 5384,
      "▁circle": 5385,
      "▁enable": 5386,
      "ria": 5387,
      "▁composition": 5388,
      "▁evaluation": 5389,
      "▁ib": 5390,
      "▁pool": 5391,
      "▁abund": 5392,
      "▁initiative": 5393,
      "▁ancest": 5394,
      "▁ultimately": 5395,
      "▁infect": 5396,
      "nthes": 5397,
      "▁possibly": 5398,
      "▁visitors": 5399,
      "▁bees": 5400,
      "▁permanent": 5401,
      "▁cryst": 5402,
      "▁selection": 5403,
      "▁drought": 5404,
      "ka": 5405,
      "▁vulnerable": 5406,
      "eters": 5407,
      "▁neighb": 5408,
      "▁instruments": 5409,
      "active": 5410,
      "stream": 5411,
      "▁examine": 5412,
      "▁noise": 5413,
      "▁whats": 5414,
      "▁cav": 5415,
      "▁extent": 5416,
      "▁kore": 5417,
      "othe": 5418,
      "war": 5419,
      "▁rice": 5420,
      "17": 5421,
      "▁shapes": 5422,
      "▁employees": 5423,
      "▁chain": 5424,
      "▁subsequ": 5425,
      "▁afford": 5426,
      "▁partnership": 5427,
      "▁2008": 5428,
      "▁budget": 5429,
      "▁canadian": 5430,
      "▁supports": 5431,
      "▁opening": 5432,
      "▁depos": 5433,
      "▁equival": 5434,
      "▁conventional": 5435,
      "▁regist": 5436,
      "▁mes": 5437,
      "▁agencies": 5438,
      "-6": 5439,
      "▁2015": 5440,
      "▁sad": 5441,
      "▁imagine": 5442,
      "with": 5443,
      "▁mentioned": 5444,
      "▁amazing": 5445,
      "▁boy": 5446,
      "▁falls": 5447,
      "izer": 5448,
      "inent": 5449,
      "angered": 5450,
      "▁rising": 5451,
      "▁transition": 5452,
      "orter": 5453,
      "▁mun": 5454,
      "▁trip": 5455,
      "▁3,": 5456,
      "hist": 5457,
      "▁communicate": 5458,
      "▁follows": 5459,
      "▁eld": 5460,
      "▁outbre": 5461,
      "rate": 5462,
      "▁arms": 5463,
      "▁successfully": 5464,
      "▁launched": 5465,
      "hand": 5466,
      "▁chic": 5467,
      "▁brand": 5468,
      "inating": 5469,
      "▁giant": 5470,
      "▁fasc": 5471,
      "▁catch": 5472,
      "▁188": 5473,
      "▁charles": 5474,
      "▁discipl": 5475,
      "▁toler": 5476,
      "gans": 5477,
      "▁uns": 5478,
      "▁magaz": 5479,
      "▁goods": 5480,
      "▁houses": 5481,
      "▁cultiv": 5482,
      "▁senior": 5483,
      "▁felt": 5484,
      "▁launch": 5485,
      "▁maintenance": 5486,
      "▁adoles": 5487,
      "▁rocks": 5488,
      "▁decade": 5489,
      "▁acts": 5490,
      "▁vessels": 5491,
      "▁item": 5492,
      "▁closer": 5493,
      "▁difficulty": 5494,
      "▁valid": 5495,
      "zen": 5496,
      "▁aircraft": 5497,
      "▁pdf": 5498,
      "▁honey": 5499,
      "▁appeared": 5500,
      "pass": 5501,
      "▁breath": 5502,
      "▁artists": 5503,
      "▁learners": 5504,
      "▁carefully": 5505,
      "▁newspap": 5506,
      "▁facilit": 5507,
      "▁nearby": 5508,
      "▁police": 5509,
      "erative": 5510,
      "▁programme": 5511,
      "▁carolina": 5512,
      "▁lakes": 5513,
      "▁endangered": 5514,
      "bac": 5515,
      "▁taste": 5516,
      "eper": 5517,
      "▁mosquit": 5518,
      "▁soldiers": 5519,
      "▁kingdom": 5520,
      "▁arab": 5521,
      "▁alle": 5522,
      "born": 5523,
      "phone": 5524,
      "▁generated": 5525,
      "asters": 5526,
      "zed": 5527,
      "▁usage": 5528,
      "▁35": 5529,
      "▁param": 5530,
      "▁consumer": 5531,
      "2)": 5532,
      "▁covid": 5533,
      "▁molecular": 5534,
      "▁fest": 5535,
      "▁supporting": 5536,
      "▁exchange": 5537,
      "och": 5538,
      "▁meters": 5539,
      "bel": 5540,
      "▁supplies": 5541,
      "▁wants": 5542,
      "▁administr": 5543,
      "▁biom": 5544,
      "▁henry": 5545,
      "▁pray": 5546,
      "▁bes": 5547,
      "▁rose": 5548,
      "▁gluc": 5549,
      "dy": 5550,
      "▁organisms": 5551,
      "▁micros": 5552,
      "▁bath": 5553,
      "▁https": 5554,
      "top": 5555,
      "which": 5556,
      "▁firm": 5557,
      "illing": 5558,
      "▁putting": 5559,
      "▁handle": 5560,
      "▁seat": 5561,
      "aped": 5562,
      "rep": 5563,
      "▁silver": 5564,
      "itz": 5565,
      "ctor": 5566,
      "▁demonstrate": 5567,
      "▁extension": 5568,
      "▁pharm": 5569,
      "▁viruses": 5570,
      "▁argument": 5571,
      "▁daugh": 5572,
      "▁possess": 5573,
      "▁correspond": 5574,
      "▁observations": 5575,
      "▁elementary": 5576,
      "osa": 5577,
      "▁mm": 5578,
      "▁concrete": 5579,
      "kin": 5580,
      "▁transmission": 5581,
      "▁jose": 5582,
      "▁assistance": 5583,
      "▁substant": 5584,
      "olute": 5585,
      "▁sufficient": 5586,
      "ifies": 5587,
      "▁cham": 5588,
      "▁(200": 5589,
      "▁inner": 5590,
      "▁georg": 5591,
      "▁investment": 5592,
      "▁decide": 5593,
      "▁cultures": 5594,
      "▁yog": 5595,
      "▁panel": 5596,
      "level": 5597,
      "▁meal": 5598,
      "▁psychology": 5599,
      "ups": 5600,
      "rors": 5601,
      "part": 5602,
      "▁compounds": 5603,
      "▁protocol": 5604,
      "▁acids": 5605,
      "iov": 5606,
      "▁volt": 5607,
      "▁mixed": 5608,
      "▁breeding": 5609,
      "▁preventing": 5610,
      "▁pediatric": 5611,
      "ament": 5612,
      "▁precise": 5613,
      "▁boys": 5614,
      "▁tried": 5615,
      "▁warning": 5616,
      "▁layers": 5617,
      "▁intel": 5618,
      "▁whom": 5619,
      "▁ital": 5620,
      "umps": 5621,
      "▁entry": 5622,
      "▁flag": 5623,
      "▁merc": 5624,
      "▁error": 5625,
      "but": 5626,
      "icide": 5627,
      "ugh": 5628,
      "▁knowing": 5629,
      "tles": 5630,
      "▁clus": 5631,
      "▁variable": 5632,
      "▁minerals": 5633,
      "▁francis": 5634,
      "▁1:": 5635,
      "▁accident": 5636,
      "▁gap": 5637,
      "▁alex": 5638,
      "▁researcher": 5639,
      ".|": 5640,
      "▁christmas": 5641,
      "▁participate": 5642,
      "▁lights": 5643,
      "umes": 5644,
      "▁formal": 5645,
      "▁discussed": 5646,
      "osen": 5647,
      "▁obst": 5648,
      "▁guard": 5649,
      "▁reserved": 5650,
      "osion": 5651,
      "▁bib": 5652,
      "▁resolution": 5653,
      "▁returned": 5654,
      "heast": 5655,
      "▁10.": 5656,
      "▁thank": 5657,
      "▁nose": 5658,
      "▁cab": 5659,
      "▁fisher": 5660,
      "▁attached": 5661,
      "hydr": 5662,
      "▁spok": 5663,
      "▁extended": 5664,
      "▁players": 5665,
      "▁md": 5666,
      "▁recycling": 5667,
      "▁attend": 5668,
      "▁gh": 5669,
      "fit": 5670,
      "▁summary": 5671,
      "iance": 5672,
      "▁pounds": 5673,
      "▁spin": 5674,
      "▁sequence": 5675,
      "75": 5676,
      "cr": 5677,
      "▁moisture": 5678,
      "▁satur": 5679,
      "▁mete": 5680,
      "▁jump": 5681,
      "▁bread": 5682,
      "alog": 5683,
      "▁brows": 5684,
      "▁category": 5685,
      "▁worksheets": 5686,
      "sm": 5687,
      "▁favorite": 5688,
      "▁burning": 5689,
      "▁mir": 5690,
      "sen": 5691,
      "orous": 5692,
      "gers": 5693,
      "▁estimates": 5694,
      "▁planting": 5695,
      "▁stands": 5696,
      "▁fourth": 5697,
      "▁orange": 5698,
      "▁remained": 5699,
      "▁persist": 5700,
      "▁hence": 5701,
      "▁scar": 5702,
      "▁missing": 5703,
      "▁fell": 5704,
      "▁institution": 5705,
      "ritis": 5706,
      "▁8.": 5707,
      "americ": 5708,
      "▁theme": 5709,
      "▁scot": 5710,
      "osph": 5711,
      "▁tub": 5712,
      "▁accounts": 5713,
      "▁adequ": 5714,
      "▁mechanical": 5715,
      "band": 5716,
      "ek": 5717,
      "▁pure": 5718,
      "▁integrated": 5719,
      "▁obtained": 5720,
      "▁sund": 5721,
      "inate": 5722,
      "▁substances": 5723,
      "▁cooking": 5724,
      "▁pregnant": 5725,
      "▁pestic": 5726,
      "________": 5727,
      "istan": 5728,
      "▁define": 5729,
      "▁scholars": 5730,
      "bc": 5731,
      "oke": 5732,
      "▁mond": 5733,
      "igan": 5734,
      "▁johns": 5735,
      "bles": 5736,
      "▁opposite": 5737,
      "▁standing": 5738,
      "▁collaboration": 5739,
      "▁evaluate": 5740,
      "▁door": 5741,
      "▁relax": 5742,
      "zheim": 5743,
      "ibilities": 5744,
      "▁damaged": 5745,
      "iac": 5746,
      "▁2016": 5747,
      "otic": 5748,
      "atever": 5749,
      "▁implementation": 5750,
      "▁aims": 5751,
      "icate": 5752,
      "ipping": 5753,
      "▁angle": 5754,
      "▁empire": 5755,
      "▁psychological": 5756,
      "▁russian": 5757,
      "stone": 5758,
      "▁polar": 5759,
      "fr": 5760,
      "▁hazard": 5761,
      "▁blind": 5762,
      "▁blocks": 5763,
      "▁tu": 5764,
      "▁repeated": 5765,
      "▁regulations": 5766,
      "▁peak": 5767,
      "▁absolute": 5768,
      "▁chest": 5769,
      "▁forget": 5770,
      "stood": 5771,
      "ba": 5772,
      "▁feedback": 5773,
      "▁ov": 5774,
      "▁coc": 5775,
      "▁tons": 5776,
      "▁repair": 5777,
      "▁abstract": 5778,
      "ache": 5779,
      "▁comparison": 5780,
      "▁indicates": 5781,
      "▁atom": 5782,
      "▁encycl": 5783,
      "▁crime": 5784,
      "▁derived": 5785,
      "ras": 5786,
      "▁cheap": 5787,
      "▁compost": 5788,
      "▁wheel": 5789,
      "▁honor": 5790,
      "hi": 5791,
      "sis": 5792,
      "▁password": 5793,
      "▁2007": 5794,
      "▁respiratory": 5795,
      "▁chrom": 5796,
      "▁agreement": 5797,
      "▁flash": 5798,
      "▁victor": 5799,
      "45": 5800,
      "▁spr": 5801,
      "ipedia": 5802,
      "▁alzheim": 5803,
      "▁ire": 5804,
      "▁remaining": 5805,
      "▁writer": 5806,
      "osal": 5807,
      "▁cord": 5808,
      "▁sharp": 5809,
      "▁yield": 5810,
      "▁match": 5811,
      "▁wait": 5812,
      "road": 5813,
      "▁audience": 5814,
      "▁heating": 5815,
      "▁kilomet": 5816,
      "▁improvement": 5817,
      "▁males": 5818,
      "▁measurements": 5819,
      "▁stimul": 5820,
      "iology": 5821,
      "▁pand": 5822,
      "▁adap": 5823,
      "itter": 5824,
      "▁educators": 5825,
      "ada": 5826,
      "▁weap": 5827,
      "▁neighbor": 5828,
      "▁connections": 5829,
      "▁ahead": 5830,
      "aria": 5831,
      "▁screening": 5832,
      "▁opened": 5833,
      "99": 5834,
      "▁reactions": 5835,
      "ev": 5836,
      "ki": 5837,
      "▁candid": 5838,
      "orses": 5839,
      "▁2000": 5840,
      "▁michael": 5841,
      "cience": 5842,
      "▁holiday": 5843,
      "kins": 5844,
      "▁capture": 5845,
      "▁measurement": 5846,
      "▁whatever": 5847,
      "▁catholic": 5848,
      "▁dar": 5849,
      "▁script": 5850,
      "▁marked": 5851,
      "▁imaging": 5852,
      "▁females": 5853,
      "▁cleaning": 5854,
      "▁ends": 5855,
      "▁plenty": 5856,
      "▁parks": 5857,
      "▁smooth": 5858,
      "etime": 5859,
      "ship": 5860,
      "▁encyclop": 5861,
      "▁pets": 5862,
      "▁truly": 5863,
      "▁frequent": 5864,
      "▁artist": 5865,
      "▁accessible": 5866,
      "▁imposs": 5867,
      "▁behaviors": 5868,
      "▁exploration": 5869,
      "▁sport": 5870,
      "78": 5871,
      "▁existence": 5872,
      "▁desert": 5873,
      "▁focuses": 5874,
      "▁surfaces": 5875,
      "▁generations": 5876,
      "▁apple": 5877,
      "▁associate": 5878,
      "▁nic": 5879,
      "organ": 5880,
      "▁kne": 5881,
      "▁jews": 5882,
      "▁settings": 5883,
      "▁maintaining": 5884,
      "▁bee": 5885,
      "▁satis": 5886,
      "▁printed": 5887,
      "▁facility": 5888,
      "▁disaster": 5889,
      "▁aids": 5890,
      "▁grades": 5891,
      "▁equivalent": 5892,
      "▁holy": 5893,
      "▁nitrogen": 5894,
      "▁cod": 5895,
      "▁tip": 5896,
      "▁laser": 5897,
      "▁45": 5898,
      "▁quot": 5899,
      "▁obtain": 5900,
      "▁bag": 5901,
      "▁mothers": 5902,
      "▁managed": 5903,
      "▁paras": 5904,
      "▁claims": 5905,
      "▁opinion": 5906,
      "▁session": 5907,
      "▁interaction": 5908,
      "▁emotions": 5909,
      "▁insulin": 5910,
      "▁refuge": 5911,
      "▁advent": 5912,
      "ili": 5913,
      "▁compr": 5914,
      "▁sunlight": 5915,
      "▁overview": 5916,
      "cell": 5917,
      "▁holes": 5918,
      "▁noun": 5919,
      "▁entirely": 5920,
      "▁cot": 5921,
      "▁sty": 5922,
      "▁mechanism": 5923,
      "▁paris": 5924,
      "▁achieved": 5925,
      "▁percentage": 5926,
      "▁teens": 5927,
      "▁innovation": 5928,
      "rooms": 5929,
      "hered": 5930,
      "▁restrict": 5931,
      "alities": 5932,
      "▁array": 5933,
      "▁budd": 5934,
      "▁drag": 5935,
      "plant": 5936,
      "▁decor": 5937,
      "▁copper": 5938,
      "▁185": 5939,
      "▁intervention": 5940,
      "▁founded": 5941,
      "sey": 5942,
      "▁sections": 5943,
      "ivery": 5944,
      "▁recommendations": 5945,
      "rd": 5946,
      "▁2017": 5947,
      "gov": 5948,
      "▁arent": 5949,
      "▁seconds": 5950,
      "heric": 5951,
      "▁sar": 5952,
      "▁teams": 5953,
      "▁columbia": 5954,
      "▁tube": 5955,
      "▁bell": 5956,
      "▁shift": 5957,
      "▁possibility": 5958,
      "▁measuring": 5959,
      "▁organized": 5960,
      "23": 5961,
      "pet": 5962,
      "▁sell": 5963,
      "▁turb": 5964,
      "▁announced": 5965,
      "▁wont": 5966,
      "▁atlantic": 5967,
      "odiversity": 5968,
      "eless": 5969,
      "▁marks": 5970,
      "▁column": 5971,
      "▁club": 5972,
      "writ": 5973,
      "▁additionally": 5974,
      "▁wash": 5975,
      "▁paralle": 5976,
      "▁biodiversity": 5977,
      "▁wish": 5978,
      "aska": 5979,
      "amins": 5980,
      "▁preval": 5981,
      "▁paid": 5982,
      "▁tobac": 5983,
      "ashion": 5984,
      "▁ske": 5985,
      "anta": 5986,
      "▁organs": 5987,
      "iform": 5988,
      "▁turning": 5989,
      "ented": 5990,
      "▁trained": 5991,
      "▁adopted": 5992,
      "▁schedule": 5993,
      "▁grid": 5994,
      "▁arctic": 5995,
      "▁overl": 5996,
      "▁challenging": 5997,
      "▁tissues": 5998,
      "▁printing": 5999,
      "ella": 6000,
      "▁tobacco": 6001,
      "▁hurric": 6002,
      "▁les": 6003,
      "▁drain": 6004,
      "▁distur": 6005,
      "▁philosophy": 6006,
      "▁treating": 6007,
      "▁antibiotics": 6008,
      "▁isn": 6009,
      "▁immediate": 6010,
      "▁worry": 6011,
      "ione": 6012,
      "▁inhab": 6013,
      "urt": 6014,
      "▁150": 6015,
      "▁border": 6016,
      "aching": 6017,
      "▁sup": 6018,
      "ua": 6019,
      "▁dys": 6020,
      "▁spacecraft": 6021,
      "olve": 6022,
      "▁installed": 6023,
      "▁housing": 6024,
      "▁clinic": 6025,
      "▁reduces": 6026,
      "▁pm": 6027,
      "▁spaces": 6028,
      "▁principle": 6029,
      "she": 6030,
      "▁theore": 6031,
      "han": 6032,
      "▁facebook": 6033,
      "inet": 6034,
      "▁modified": 6035,
      "▁explanation": 6036,
      "▁tank": 6037,
      "▁scott": 6038,
      "▁rig": 6039,
      "▁ment": 6040,
      "▁glucose": 6041,
      "▁impossible": 6042,
      "▁pollut": 6043,
      "▁insurance": 6044,
      "dis": 6045,
      "▁partner": 6046,
      "▁switch": 6047,
      "▁prison": 6048,
      "▁clar": 6049,
      "▁listening": 6050,
      "▁remov": 6051,
      "rapy": 6052,
      "ratic": 6053,
      "onia": 6054,
      "▁ratio": 6055,
      "▁marriage": 6056,
      "▁beauty": 6057,
      "▁chicago": 6058,
      "▁greatly": 6059,
      "▁accum": 6060,
      "▁varieties": 6061,
      "▁consistent": 6062,
      "▁brings": 6063,
      "▁subsc": 6064,
      "▁twenty": 6065,
      "▁shot": 6066,
      "▁debate": 6067,
      "▁reci": 6068,
      "▁protecting": 6069,
      "▁excl": 6070,
      "inks": 6071,
      "▁trials": 6072,
      "▁formula": 6073,
      "▁drivers": 6074,
      "▁gut": 6075,
      "▁recognition": 6076,
      "▁mining": 6077,
      "▁orient": 6078,
      "▁occasion": 6079,
      "▁athlet": 6080,
      "icon": 6081,
      "1)": 6082,
      "▁ongoing": 6083,
      "▁zeal": 6084,
      "▁confidence": 6085,
      "bon": 6086,
      "▁remark": 6087,
      "▁tv": 6088,
      "▁objective": 6089,
      "angle": 6090,
      "irect": 6091,
      "▁usa": 6092,
      "▁responses": 6093,
      "▁competition": 6094,
      "▁preparation": 6095,
      "▁ireland": 6096,
      "▁innovative": 6097,
      "▁(201": 6098,
      "▁ba": 6099,
      "▁hang": 6100,
      "▁delivery": 6101,
      "hal": 6102,
      "▁irrit": 6103,
      "▁replaced": 6104,
      "▁knew": 6105,
      "▁exciting": 6106,
      "rency": 6107,
      "4)": 6108,
      "▁incred": 6109,
      "▁ohio": 6110,
      "▁horses": 6111,
      "dra": 6112,
      "▁assembly": 6113,
      "▁interests": 6114,
      "▁hat": 6115,
      "ighter": 6116,
      "▁russia": 6117,
      "▁computing": 6118,
      "▁gardens": 6119,
      "▁gone": 6120,
      "▁trouble": 6121,
      "▁tap": 6122,
      "▁lie": 6123,
      "▁ger": 6124,
      "airy": 6125,
      "▁push": 6126,
      "▁outer": 6127,
      "inction": 6128,
      "▁chlor": 6129,
      "▁lies": 6130,
      "▁excessive": 6131,
      "▁cancers": 6132,
      "▁bond": 6133,
      "oster": 6134,
      "ague": 6135,
      "▁mood": 6136,
      "fts": 6137,
      "▁defense": 6138,
      "▁gods": 6139,
      "▁whereas": 6140,
      "▁none": 6141,
      "itudes": 6142,
      "▁industries": 6143,
      "▁guidance": 6144,
      "▁outd": 6145,
      "▁button": 6146,
      "▁resident": 6147,
      "▁expans": 6148,
      "▁reef": 6149,
      "▁shad": 6150,
      "▁wife": 6151,
      "▁potat": 6152,
      "▁channel": 6153,
      "▁runs": 6154,
      "▁mineral": 6155,
      "▁ethnic": 6156,
      "▁minute": 6157,
      "▁29": 6158,
      "▁sentences": 6159,
      "rants": 6160,
      "▁territory": 6161,
      "▁farming": 6162,
      "ey": 6163,
      "▁grows": 6164,
      "▁decay": 6165,
      "▁tight": 6166,
      "▁physician": 6167,
      "▁chosen": 6168,
      "▁false": 6169,
      "▁identifying": 6170,
      "icit": 6171,
      "lements": 6172,
      "▁knows": 6173,
      "▁detection": 6174,
      "▁orth": 6175,
      "▁publish": 6176,
      "▁telescope": 6177,
      "▁fighting": 6178,
      "nut": 6179,
      "▁fishing": 6180,
      "▁verb": 6181,
      "ston": 6182,
      "▁scene": 6183,
      "▁branches": 6184,
      "100": 6185,
      "▁contained": 6186,
      "▁ton": 6187,
      "▁monday": 6188,
      "ulty": 6189,
      "rid": 6190,
      "▁beach": 6191,
      "▁estimate": 6192,
      "▁manager": 6193,
      "▁clothing": 6194,
      "▁unusual": 6195,
      "▁surprising": 6196,
      "ribed": 6197,
      "▁poem": 6198,
      "▁187": 6199,
      "rays": 6200,
      "▁todays": 6201,
      "▁mathematical": 6202,
      "▁weve": 6203,
      "▁danger": 6204,
      "vis": 6205,
      "▁meteor": 6206,
      "▁queen": 6207,
      "bu": 6208,
      "▁herb": 6209,
      "▁unable": 6210,
      "▁ingredients": 6211,
      "▁facing": 6212,
      "books": 6213,
      "▁sensors": 6214,
      "▁bc": 6215,
      "▁thorough": 6216,
      "▁conversation": 6217,
      "▁limits": 6218,
      "ails": 6219,
      "▁4,": 6220,
      "pread": 6221,
      "ontal": 6222,
      "▁communications": 6223,
      "▁conclusion": 6224,
      "▁roads": 6225,
      "▁braz": 6226,
      "▁disabilities": 6227,
      "ini": 6228,
      "▁neu": 6229,
      "▁michigan": 6230,
      "ancing": 6231,
      "▁vib": 6232,
      "hs": 6233,
      "▁spending": 6234,
      "▁jun": 6235,
      "▁bigger": 6236,
      "▁diameter": 6237,
      "▁feat": 6238,
      "▁peter": 6239,
      "▁asking": 6240,
      "iovascular": 6241,
      "▁cyber": 6242,
      "▁underlying": 6243,
      "▁relief": 6244,
      "▁presents": 6245,
      "produ": 6246,
      "▁aster": 6247,
      "▁examination": 6248,
      "▁wides": 6249,
      "▁designs": 6250,
      "▁involving": 6251,
      "ymph": 6252,
      "▁nervous": 6253,
      "▁fixed": 6254,
      "▁roughly": 6255,
      "▁ye": 6256,
      "▁dates": 6257,
      "▁salmon": 6258,
      "▁stable": 6259,
      "▁executive": 6260,
      "▁celebrate": 6261,
      "▁prove": 6262,
      "▁bind": 6263,
      "▁vitamins": 6264,
      "▁pp": 6265,
      "uous": 6266,
      "cking": 6267,
      "▁route": 6268,
      "▁richard": 6269,
      "▁conve": 6270,
      "sts": 6271,
      "▁ships": 6272,
      "▁cardiovascular": 6273,
      "▁struggle": 6274,
      "▁categories": 6275,
      "▁lu": 6276,
      "▁functional": 6277,
      "▁widespread": 6278,
      "▁dietary": 6279,
      "▁surge": 6280,
      "▁circumst": 6281,
      "▁friday": 6282,
      "▁geomet": 6283,
      "print": 6284,
      "▁destroyed": 6285,
      "▁vs": 6286,
      "▁branch": 6287,
      "▁delay": 6288,
      "35": 6289,
      "▁mode": 6290,
      "▁wheat": 6291,
      "▁islam": 6292,
      "▁advert": 6293,
      "▁align": 6294,
      "▁steam": 6295,
      "ola": 6296,
      "▁thousand": 6297,
      "▁furn": 6298,
      "outs": 6299,
      "▁puzz": 6300,
      "cher": 6301,
      "▁moves": 6302,
      "cd": 6303,
      "▁membr": 6304,
      "po": 6305,
      "igare": 6306,
      "using": 6307,
      "▁advis": 6308,
      "gical": 6309,
      "▁politics": 6310,
      "▁spiritual": 6311,
      "▁minister": 6312,
      "▁understood": 6313,
      "▁thy": 6314,
      "▁dir": 6315,
      "▁dairy": 6316,
      "ari": 6317,
      "▁photographs": 6318,
      "▁census": 6319,
      "▁stuff": 6320,
      "▁martin": 6321,
      "▁exhibit": 6322,
      "▁manip": 6323,
      "icious": 6324,
      "200": 6325,
      "▁retrie": 6326,
      "▁italy": 6327,
      "ying": 6328,
      "▁thro": 6329,
      "▁glac": 6330,
      "▁parag": 6331,
      "▁cough": 6332,
      "▁regardless": 6333,
      "under": 6334,
      "▁considering": 6335,
      "raction": 6336,
      "▁voltage": 6337,
      "▁interactions": 6338,
      "▁neur": 6339,
      "▁texts": 6340,
      "ifications": 6341,
      "lar": 6342,
      "▁victims": 6343,
      "▁complications": 6344,
      "▁serving": 6345,
      "▁witness": 6346,
      "▁holds": 6347,
      "rian": 6348,
      "▁jul": 6349,
      "▁intest": 6350,
      "▁hus": 6351,
      "▁inspired": 6352,
      "▁vel": 6353,
      "▁mortality": 6354,
      "▁rome": 6355,
      "▁audio": 6356,
      "▁grew": 6357,
      "▁2006": 6358,
      "▁chair": 6359,
      "▁anywhere": 6360,
      "▁cel": 6361,
      "▁websites": 6362,
      "▁meals": 6363,
      "uracy": 6364,
      "▁compound": 6365,
      "▁stated": 6366,
      "scale": 6367,
      "24": 6368,
      "▁coron": 6369,
      "ien": 6370,
      "▁tract": 6371,
      "▁dol": 6372,
      "▁infant": 6373,
      "▁hormone": 6374,
      "isters": 6375,
      "edu": 6376,
      "▁pale": 6377,
      "▁row": 6378,
      "▁pel": 6379,
      "▁defect": 6380,
      "▁collections": 6381,
      "▁employment": 6382,
      "▁accepted": 6383,
      "▁implications": 6384,
      "rain": 6385,
      "▁removal": 6386,
      "mm": 6387,
      "▁batteries": 6388,
      "▁vote": 6389,
      "▁eru": 6390,
      "▁cotton": 6391,
      "▁plot": 6392,
      "▁lungs": 6393,
      "▁proven": 6394,
      "▁provider": 6395,
      "▁recre": 6396,
      "▁chocol": 6397,
      "itely": 6398,
      "▁reliable": 6399,
      "inity": 6400,
      "▁enab": 6401,
      "▁authorities": 6402,
      "▁sensor": 6403,
      "▁smell": 6404,
      "▁trends": 6405,
      "▁gast": 6406,
      "▁consume": 6407,
      "▁holding": 6408,
      "aked": 6409,
      "stein": 6410,
      "▁guar": 6411,
      "▁loved": 6412,
      "▁ow": 6413,
      "▁thermal": 6414,
      "▁joseph": 6415,
      "▁bringing": 6416,
      "▁messages": 6417,
      "luding": 6418,
      "▁phrase": 6419,
      "▁variables": 6420,
      "▁customers": 6421,
      "▁ecosystems": 6422,
      "▁epis": 6423,
      "▁moral": 6424,
      "▁controls": 6425,
      "itative": 6426,
      "▁gases": 6427,
      "▁wine": 6428,
      "▁proof": 6429,
      "▁bron": 6430,
      "▁fashion": 6431,
      "▁prime": 6432,
      "▁400": 6433,
      "▁spain": 6434,
      "▁indu": 6435,
      "▁score": 6436,
      "uses": 6437,
      "▁contents": 6438,
      "▁intense": 6439,
      "▁analyze": 6440,
      "▁mechanisms": 6441,
      "ctive": 6442,
      "▁flying": 6443,
      "▁36": 6444,
      "▁participation": 6445,
      "▁spectrum": 6446,
      "▁metabol": 6447,
      "▁finger": 6448,
      "▁quarter": 6449,
      "▁module": 6450,
      "▁os": 6451,
      "▁pupils": 6452,
      "▁luck": 6453,
      "▁constructed": 6454,
      "▁plane": 6455,
      "▁hunting": 6456,
      "▁italian": 6457,
      "▁aged": 6458,
      "ih": 6459,
      "▁vaccines": 6460,
      "▁abdom": 6461,
      "called": 6462,
      "▁prompt": 6463,
      "▁mere": 6464,
      "rene": 6465,
      "▁issued": 6466,
      "▁newly": 6467,
      "▁magazine": 6468,
      "▁microb": 6469,
      "▁identification": 6470,
      "▁offering": 6471,
      "▁mixt": 6472,
      "▁youve": 6473,
      "▁empt": 6474,
      "▁buff": 6475,
      "▁wikipedia": 6476,
      "▁fires": 6477,
      "▁covering": 6478,
      "while": 6479,
      "▁accuracy": 6480,
      "▁stronger": 6481,
      "▁managing": 6482,
      "▁workshop": 6483,
      "▁solving": 6484,
      "▁detected": 6485,
      "▁joined": 6486,
      "▁dollars": 6487,
      "▁tong": 6488,
      "▁manual": 6489,
      "▁rect": 6490,
      "▁finds": 6491,
      "▁rarely": 6492,
      "▁intellect": 6493,
      "▁cure": 6494,
      "▁tab": 6495,
      "▁sustainability": 6496,
      "▁craft": 6497,
      "▁liv": 6498,
      "▁tables": 6499,
      "▁examined": 6500,
      "▁hygi": 6501,
      "itals": 6502,
      "lig": 6503,
      "▁nice": 6504,
      "ograp": 6505,
      "▁breed": 6506,
      "▁colorado": 6507,
      "▁ari": 6508,
      "▁observe": 6509,
      "▁descript": 6510,
      "▁jack": 6511,
      "▁phosph": 6512,
      "▁experimental": 6513,
      "▁insert": 6514,
      "unt": 6515,
      "▁ell": 6516,
      "▁confirmed": 6517,
      "▁tech": 6518,
      "▁chances": 6519,
      "▁oldest": 6520,
      "▁exploring": 6521,
      "▁hypothes": 6522,
      "▁assistant": 6523,
      "▁mol": 6524,
      "▁contemporary": 6525,
      "▁perce": 6526,
      "▁brazil": 6527,
      "▁irish": 6528,
      "▁pc": 6529,
      "▁acute": 6530,
      "▁trail": 6531,
      "▁memorial": 6532,
      "▁corner": 6533,
      "▁introduce": 6534,
      "▁operate": 6535,
      "▁antio": 6536,
      "▁exists": 6537,
      "▁config": 6538,
      "ribe": 6539,
      "▁finished": 6540,
      "▁2018": 6541,
      "usions": 6542,
      "▁domain": 6543,
      "▁writers": 6544,
      "▁represented": 6545,
      "itivity": 6546,
      "▁grain": 6547,
      "▁infants": 6548,
      "▁eliminate": 6549,
      "▁wars": 6550,
      "▁watching": 6551,
      "▁saving": 6552,
      "▁ram": 6553,
      "▁necessarily": 6554,
      "▁bacterial": 6555,
      "▁dream": 6556,
      "▁significance": 6557,
      "▁filter": 6558,
      "▁preserve": 6559,
      "▁graduate": 6560,
      "▁happening": 6561,
      "▁habitats": 6562,
      "▁belief": 6563,
      "oids": 6564,
      "▁careful": 6565,
      "▁tick": 6566,
      "▁tox": 6567,
      "▁atmospheric": 6568,
      "▁cooling": 6569,
      "▁television": 6570,
      "▁musical": 6571,
      "▁mercury": 6572,
      "▁assignment": 6573,
      "▁banks": 6574,
      "▁distributed": 6575,
      "▁fuels": 6576,
      "▁2:": 6577,
      "▁universal": 6578,
      "▁rely": 6579,
      "aph": 6580,
      "▁parties": 6581,
      "▁continuous": 6582,
      "▁dance": 6583,
      "you": 6584,
      "▁panels": 6585,
      "▁drawn": 6586,
      "▁initially": 6587,
      "▁quantum": 6588,
      "▁guarant": 6589,
      "▁references": 6590,
      "ansas": 6591,
      "▁advantages": 6592,
      "berry": 6593,
      "▁captured": 6594,
      "▁trigger": 6595,
      "▁register": 6596,
      "▁adds": 6597,
      "▁protective": 6598,
      "gments": 6599,
      "▁golden": 6600,
      "rimination": 6601,
      "▁9.": 6602,
      "▁principal": 6603,
      "aa": 6604,
      "▁girl": 6605,
      "▁drinks": 6606,
      "▁processed": 6607,
      "▁debt": 6608,
      "▁soy": 6609,
      "▁substit": 6610,
      "▁matters": 6611,
      "▁sitting": 6612,
      "▁moderate": 6613,
      "▁sla": 6614,
      "▁engaging": 6615,
      "3)": 6616,
      "▁inhib": 6617,
      "▁elder": 6618,
      "▁spray": 6619,
      "▁receiving": 6620,
      "▁arrange": 6621,
      "iration": 6622,
      "▁approved": 6623,
      "▁li": 6624,
      "▁zealand": 6625,
      "▁hidden": 6626,
      "▁demonstrated": 6627,
      "lights": 6628,
      "▁zo": 6629,
      "▁disability": 6630,
      "▁184": 6631,
      "▁carrying": 6632,
      "▁acknow": 6633,
      "▁recover": 6634,
      "▁32": 6635,
      "▁container": 6636,
      "▁ourselves": 6637,
      "▁scul": 6638,
      "▁eleph": 6639,
      "▁asian": 6640,
      "▁invasive": 6641,
      "▁cas": 6642,
      "▁poetry": 6643,
      "▁subs": 6644,
      "▁los": 6645,
      "ressive": 6646,
      "adder": 6647,
      "▁passage": 6648,
      "▁ecological": 6649,
      "▁passing": 6650,
      "▁tutorial": 6651,
      "▁encouraged": 6652,
      "▁specialist": 6653,
      "asure": 6654,
      "▁mine": 6655,
      "rine": 6656,
      "▁mold": 6657,
      "fri": 6658,
      "▁realize": 6659,
      "ald": 6660,
      "▁parallel": 6661,
      "▁encyclopedia": 6662,
      "rol": 6663,
      "▁lecture": 6664,
      "▁swed": 6665,
      "▁farms": 6666,
      "▁grains": 6667,
      "▁lock": 6668,
      "▁didn": 6669,
      "▁clay": 6670,
      "soft": 6671,
      "hetic": 6672,
      "▁purs": 6673,
      "▁tues": 6674,
      "aming": 6675,
      "▁legislation": 6676,
      "▁earthquake": 6677,
      "▁dischar": 6678,
      "▁threatened": 6679,
      "▁oceans": 6680,
      "▁bure": 6681,
      "▁lens": 6682,
      "▁gree": 6683,
      "▁composed": 6684,
      "▁complicated": 6685,
      "coming": 6686,
      "mia": 6687,
      "▁sodium": 6688,
      "▁welcome": 6689,
      "▁aging": 6690,
      "▁threats": 6691,
      "▁shif": 6692,
      "▁phenomenon": 6693,
      "▁heres": 6694,
      "ita": 6695,
      "▁healing": 6696,
      "ushed": 6697,
      "▁asp": 6698,
      "▁conscious": 6699,
      "▁interior": 6700,
      "▁compl": 6701,
      "▁chocolate": 6702,
      "▁gravity": 6703,
      "▁correctly": 6704,
      "▁essentially": 6705,
      "▁translation": 6706,
      "▁saint": 6707,
      "▁directions": 6708,
      "▁statist": 6709,
      "▁heads": 6710,
      "▁?": 6711,
      "▁equation": 6712,
      "ylv": 6713,
      "mo": 6714,
      "▁creatures": 6715,
      "chen": 6716,
      "▁conj": 6717,
      "▁neighborhood": 6718,
      "▁theories": 6719,
      "▁split": 6720,
      "▁publ": 6721,
      "▁thurs": 6722,
      "▁bull": 6723,
      "▁rod": 6724,
      "▁comfortable": 6725,
      "▁acres": 6726,
      "dered": 6727,
      "teen": 6728,
      "igue": 6729,
      "▁sculpt": 6730,
      "▁gray": 6731,
      "▁failed": 6732,
      "▁slavery": 6733,
      "▁1,000": 6734,
      "ocy": 6735,
      "chang": 6736,
      "▁cort": 6737,
      "▁wednes": 6738,
      "▁constantly": 6739,
      "▁flows": 6740,
      "▁strain": 6741,
      "▁expressed": 6742,
      "▁basically": 6743,
      "▁stations": 6744,
      "▁daughter": 6745,
      "oir": 6746,
      "▁bost": 6747,
      "▁transc": 6748,
      "▁hawai": 6749,
      "xid": 6750,
      "▁cow": 6751,
      "▁bon": 6752,
      "▁winds": 6753,
      "hd": 6754,
      "36": 6755,
      "▁adequate": 6756,
      "elled": 6757,
      "▁grammar": 6758,
      "▁oste": 6759,
      "▁pink": 6760,
      "▁lighting": 6761,
      "▁cattle": 6762,
      "▁vegetable": 6763,
      "▁arrived": 6764,
      "▁player": 6765,
      "iding": 6766,
      "▁muslim": 6767,
      "▁tag": 6768,
      "▁decreased": 6769,
      "▁deeper": 6770,
      "ette": 6771,
      "▁literary": 6772,
      "ohydr": 6773,
      "▁georgia": 6774,
      "▁scr": 6775,
      "▁driver": 6776,
      "▁dynamic": 6777,
      "▁beliefs": 6778,
      "▁expansion": 6779,
      "▁manufacturers": 6780,
      "making": 6781,
      "▁caught": 6782,
      "▁canal": 6783,
      "▁recept": 6784,
      "▁pyth": 6785,
      "▁interface": 6786,
      "▁objectives": 6787,
      "▁resulted": 6788,
      "26": 6789,
      "▁reveal": 6790,
      "▁fatty": 6791,
      "▁conven": 6792,
      "▁paragraph": 6793,
      "▁ille": 6794,
      "▁effectiveness": 6795,
      "▁fats": 6796,
      "▁sunday": 6797,
      "ouds": 6798,
      "▁nutrient": 6799,
      "idity": 6800,
      "▁sales": 6801,
      "etts": 6802,
      "▁vegetation": 6803,
      "▁volunteers": 6804,
      "▁affecting": 6805,
      "▁fairly": 6806,
      "▁synthes": 6807,
      "▁calculate": 6808,
      "▁brains": 6809,
      "▁structural": 6810,
      "box": 6811,
      "▁enem": 6812,
      "from": 6813,
      "▁focusing": 6814,
      "▁ps": 6815,
      "ivered": 6816,
      "▁outdoor": 6817,
      "▁dele": 6818,
      "▁combat": 6819,
      "▁circumstances": 6820,
      "▁jeff": 6821,
      "▁migration": 6822,
      "▁exhibition": 6823,
      "▁2005": 6824,
      "▁dim": 6825,
      "▁pear": 6826,
      "▁pine": 6827,
      "▁radi": 6828,
      "▁carbohydr": 6829,
      "▁globe": 6830,
      "hea": 6831,
      "▁bol": 6832,
      "▁undert": 6833,
      "lings": 6834,
      "▁stores": 6835,
      "▁earliest": 6836,
      "▁investigation": 6837,
      "▁homework": 6838,
      "▁controvers": 6839,
      "▁quiz": 6840,
      "▁escape": 6841,
      "▁wis": 6842,
      "odies": 6843,
      "ora": 6844,
      "▁encoun": 6845,
      "▁calend": 6846,
      "▁stones": 6847,
      "bridge": 6848,
      "▁planned": 6849,
      "▁funds": 6850,
      "anda": 6851,
      "such": 6852,
      "▁oz": 6853,
      "▁||": 6854,
      "▁supposed": 6855,
      "reed": 6856,
      "▁dealing": 6857,
      "▁parl": 6858,
      "list": 6859,
      "▁cash": 6860,
      "▁restoration": 6861,
      "▁spinal": 6862,
      "▁weigh": 6863,
      "▁seeking": 6864,
      "▁rend": 6865,
      "▁tower": 6866,
      "▁reserve": 6867,
      "▁accessed": 6868,
      "▁hardware": 6869,
      "▁serves": 6870,
      "▁discrimination": 6871,
      "▁adolesc": 6872,
      "neys": 6873,
      "▁safely": 6874,
      "▁1990": 6875,
      "▁investigate": 6876,
      "▁strongly": 6877,
      "▁tuesday": 6878,
      "▁pad": 6879,
      "eenth": 6880,
      "▁bullying": 6881,
      "▁behavioral": 6882,
      "▁lists": 6883,
      "▁occurring": 6884,
      "indu": 6885,
      "▁willing": 6886,
      "▁antioxid": 6887,
      "zes": 6888,
      "▁targets": 6889,
      "▁peer": 6890,
      "▁doubt": 6891,
      "28": 6892,
      "def": 6893,
      "▁spots": 6894,
      "▁dement": 6895,
      "inf": 6896,
      "▁linear": 6897,
      "-18": 6898,
      "▁underground": 6899,
      "▁delivered": 6900,
      "▁wonderful": 6901,
      "▁clock": 6902,
      "▁trick": 6903,
      "▁urine": 6904,
      "▁beat": 6905,
      "▁suscept": 6906,
      "▁)": 6907,
      "▁hybr": 6908,
      "▁achievement": 6909,
      "▁brush": 6910,
      "racy": 6911,
      "erior": 6912,
      "▁worst": 6913,
      "▁pione": 6914,
      "▁dentist": 6915,
      "▁experiencing": 6916,
      "▁hub": 6917,
      "▁thursday": 6918,
      "▁wednesday": 6919,
      "▁mu": 6920,
      "▁flexible": 6921,
      "▁ts": 6922,
      "▁5,": 6923,
      "▁geographic": 6924,
      "▁boston": 6925,
      "33": 6926,
      "▁forg": 6927,
      "▁lymph": 6928,
      "▁shed": 6929,
      "class": 6930,
      "▁province": 6931,
      "▁explo": 6932,
      "▁beet": 6933,
      "▁roles": 6934,
      "▁penns": 6935,
      "▁insight": 6936,
      "▁plain": 6937,
      "har": 6938,
      "▁gradually": 6939,
      "▁sched": 6940,
      "▁markets": 6941,
      "▁mouse": 6942,
      "▁coverage": 6943,
      "-7": 6944,
      "▁inher": 6945,
      "▁neither": 6946,
      "▁supplements": 6947,
      "▁forming": 6948,
      "▁vertical": 6949,
      "▁pla": 6950,
      "▁evolved": 6951,
      "▁reaching": 6952,
      "▁clouds": 6953,
      "▁thread": 6954,
      "▁married": 6955,
      "▁rhyth": 6956,
      "▁tomat": 6957,
      "cur": 6958,
      "▁observation": 6959,
      "achus": 6960,
      "▁economics": 6961,
      "▁origins": 6962,
      "▁fellow": 6963,
      "▁wearing": 6964,
      "▁camer": 6965,
      "▁prize": 6966,
      "ylvania": 6967,
      "▁prey": 6968,
      "▁crim": 6969,
      "bean": 6970,
      "▁convention": 6971,
      "orph": 6972,
      "▁creek": 6973,
      "▁extend": 6974,
      "▁styles": 6975,
      "▁nov": 6976,
      "▁funded": 6977,
      "▁irrig": 6978,
      "▁antar": 6979,
      "▁medicines": 6980,
      "▁shru": 6981,
      "▁metals": 6982,
      "▁guess": 6983,
      "▁optical": 6984,
      "▁pronoun": 6985,
      "▁usual": 6986,
      "▁update": 6987,
      "▁soils": 6988,
      "▁earths": 6989,
      "▁tack": 6990,
      "▁dies": 6991,
      "rane": 6992,
      "▁flour": 6993,
      "95": 6994,
      "pdf": 6995,
      "there": 6996,
      "▁tumor": 6997,
      "▁wound": 6998,
      "rated": 6999,
      "▁spat": 7000,
      "american": 7001,
      "▁allergy": 7002,
      "▁lip": 7003,
      "▁errors": 7004,
      "▁signed": 7005,
      "▁aggress": 7006,
      "holds": 7007,
      "oned": 7008,
      "▁galaxy": 7009,
      "▁gat": 7010,
      "▁ric": 7011,
      "hent": 7012,
      "▁mammals": 7013,
      "▁bears": 7014,
      "▁keeps": 7015,
      "▁committed": 7016,
      "▁dose": 7017,
      "▁shore": 7018,
      "▁neurolog": 7019,
      "▁removing": 7020,
      "▁implemented": 7021,
      "▁convert": 7022,
      "▁faculty": 7023,
      "copy": 7024,
      "▁allergies": 7025,
      "pm": 7026,
      "▁hind": 7027,
      "▁exped": 7028,
      "▁calling": 7029,
      "▁sole": 7030,
      "▁adm": 7031,
      "▁deer": 7032,
      "nat": 7033,
      "▁lob": 7034,
      "▁phones": 7035,
      "▁ended": 7036,
      "▁dementia": 7037,
      "ude": 7038,
      "▁celebrated": 7039,
      "▁critic": 7040,
      "▁abilities": 7041,
      "ocking": 7042,
      "oli": 7043,
      "bris": 7044,
      "▁java": 7045,
      "▁classical": 7046,
      "▁atoms": 7047,
      "rous": 7048,
      "▁ul": 7049,
      "▁movie": 7050,
      "ricts": 7051,
      "▁falling": 7052,
      "▁lincol": 7053,
      "▁resc": 7054,
      "enue": 7055,
      "▁reporting": 7056,
      "worm": 7057,
      "hire": 7058,
      "standing": 7059,
      "▁definitions": 7060,
      "▁gulf": 7061,
      "▁180": 7062,
      "▁beans": 7063,
      "▁arthritis": 7064,
      "▁planted": 7065,
      "▁diagnost": 7066,
      "▁reward": 7067,
      "▁si": 7068,
      "▁coral": 7069,
      "ogue": 7070,
      "oral": 7071,
      "▁dress": 7072,
      "▁latter": 7073,
      "olving": 7074,
      "▁sizes": 7075,
      "▁relation": 7076,
      "▁destruction": 7077,
      "▁furthermore": 7078,
      "▁automatically": 7079,
      "▁choosing": 7080,
      "▁sheets": 7081,
      "▁dense": 7082,
      "▁kings": 7083,
      "▁illnesses": 7084,
      "estock": 7085,
      "▁consumed": 7086,
      "▁intensity": 7087,
      "▁strict": 7088,
      "▁succeed": 7089,
      "apor": 7090,
      "▁influenced": 7091,
      "bar": 7092,
      "umber": 7093,
      "wa": 7094,
      "▁trauma": 7095,
      "▁hung": 7096,
      "▁fascinating": 7097,
      "▁jaw": 7098,
      "apse": 7099,
      "▁parliam": 7100,
      "▁sir": 7101,
      "▁towns": 7102,
      "▁dimens": 7103,
      "▁aband": 7104,
      "abeth": 7105,
      "press": 7106,
      "▁twitter": 7107,
      "▁epa": 7108,
      "forest": 7109,
      "▁amend": 7110,
      "▁reviewed": 7111,
      "▁proceed": 7112,
      "▁worksheet": 7113,
      "enza": 7114,
      "▁versions": 7115,
      "▁dramatic": 7116,
      "▁fifth": 7117,
      "▁fatigue": 7118,
      "▁cul": 7119,
      "▁owner": 7120,
      "▁colonial": 7121,
      "achusetts": 7122,
      "▁characterized": 7123,
      "38": 7124,
      "▁crew": 7125,
      "▁eliz": 7126,
      "irds": 7127,
      "-12": 7128,
      "▁debris": 7129,
      "▁powers": 7130,
      "▁indicated": 7131,
      "▁(5": 7132,
      "▁uncom": 7133,
      "▁diarr": 7134,
      "ishment": 7135,
      "▁65": 7136,
      "▁nuts": 7137,
      "▁criteria": 7138,
      "▁iii": 7139,
      "ieval": 7140,
      "▁applying": 7141,
      "▁statements": 7142,
      "owing": 7143,
      "▁buried": 7144,
      "▁faces": 7145,
      "▁counsel": 7146,
      "▁nutritional": 7147,
      "▁mixture": 7148,
      "▁ai": 7149,
      "▁engaged": 7150,
      "ami": 7151,
      "▁31": 7152,
      "▁scotland": 7153,
      "▁confident": 7154,
      "%.": 7155,
      "....": 7156,
      "▁sovi": 7157,
      "▁pest": 7158,
      "▁joints": 7159,
      "▁mini": 7160,
      "▁stan": 7161,
      "▁somewhat": 7162,
      "usc": 7163,
      "▁sou": 7164,
      "inois": 7165,
      "▁resil": 7166,
      "▁healthier": 7167,
      "▁dating": 7168,
      "including": 7169,
      "borne": 7170,
      "▁enables": 7171,
      "▁juice": 7172,
      "▁reverse": 7173,
      "▁anat": 7174,
      "▁deploy": 7175,
      "▁officer": 7176,
      "▁(4": 7177,
      "ders": 7178,
      "▁spelling": 7179,
      "▁womens": 7180,
      "▁creativity": 7181,
      "▁preparing": 7182,
      "otype": 7183,
      "▁performing": 7184,
      "▁massachusetts": 7185,
      "▁ion": 7186,
      "▁harder": 7187,
      "▁pilot": 7188,
      "foot": 7189,
      "icing": 7190,
      "▁swit": 7191,
      "▁throat": 7192,
      "▁outbreak": 7193,
      "▁desire": 7194,
      "▁infectious": 7195,
      "▁symbols": 7196,
      "▁geography": 7197,
      "fast": 7198,
      "▁hygiene": 7199,
      "itory": 7200,
      "▁variation": 7201,
      "▁shock": 7202,
      "cel": 7203,
      "antly": 7204,
      "▁relie": 7205,
      "dep": 7206,
      "▁transmitted": 7207,
      "▁pennsylvania": 7208,
      "ctu": 7209,
      "▁rib": 7210,
      "▁cdc": 7211,
      "learn": 7212,
      "▁posts": 7213,
      "ometer": 7214,
      "▁bleeding": 7215,
      "▁gri": 7216,
      "▁archives": 7217,
      "▁harvard": 7218,
      "▁difficulties": 7219,
      "ano": 7220,
      "▁permission": 7221,
      "▁inch": 7222,
      "world": 7223,
      "ique": 7224,
      "▁traditions": 7225,
      "▁entered": 7226,
      "cin": 7227,
      "▁songs": 7228,
      "▁preschool": 7229,
      "▁mitig": 7230,
      "imm": 7231,
      "century": 7232,
      "▁gate": 7233,
      "▁assume": 7234,
      "shaped": 7235,
      "▁aimed": 7236,
      "▁racial": 7237,
      "▁ears": 7238,
      "▁rank": 7239,
      "that": 7240,
      "▁emerging": 7241,
      "▁ensuring": 7242,
      "▁devast": 7243,
      "▁friendly": 7244,
      "▁livestock": 7245,
      "▁alter": 7246,
      "▁alive": 7247,
      "▁castle": 7248,
      "▁robots": 7249,
      "▁confirm": 7250,
      "▁ta": 7251,
      "▁wings": 7252,
      "▁functioning": 7253,
      "▁commons": 7254,
      "▁soph": 7255,
      "▁medieval": 7256,
      "▁informed": 7257,
      "sl": 7258,
      "▁ranging": 7259,
      "▁1960": 7260,
      "arium": 7261,
      "▁ariz": 7262,
      "acts": 7263,
      "▁authent": 7264,
      "▁variations": 7265,
      "▁technological": 7266,
      "▁shaped": 7267,
      "▁ceremon": 7268,
      "uing": 7269,
      "grow": 7270,
      "pling": 7271,
      "ashes": 7272,
      "▁shoot": 7273,
      "▁moreover": 7274,
      "▁positions": 7275,
      "vin": 7276,
      "▁mail": 7277,
      "▁basin": 7278,
      "effect": 7279,
      "▁thesis": 7280,
      "▁troops": 7281,
      "▁develops": 7282,
      "lines": 7283,
      "▁oak": 7284,
      "ials": 7285,
      "▁oxford": 7286,
      "▁deficiency": 7287,
      "icy": 7288,
      "▁viewed": 7289,
      "friend": 7290,
      "ading": 7291,
      "▁parliament": 7292,
      "ographical": 7293,
      "▁reviews": 7294,
      "▁interpre": 7295,
      "▁hay": 7296,
      "▁uncertain": 7297,
      "▁bang": 7298,
      "▁naz": 7299,
      "▁bomb": 7300,
      "iana": 7301,
      "▁desired": 7302,
      "▁lam": 7303,
      "▁employed": 7304,
      "/201": 7305,
      "▁buck": 7306,
      "▁providers": 7307,
      "▁chicken": 7308,
      "▁concentrations": 7309,
      "ilation": 7310,
      "▁painful": 7311,
      "▁sensitivity": 7312,
      "cm": 7313,
      "▁promoting": 7314,
      "▁declared": 7315,
      "▁ultra": 7316,
      "▁digestive": 7317,
      "▁tens": 7318,
      "▁kar": 7319,
      "green": 7320,
      "▁75": 7321,
      "▁engines": 7322,
      "▁swimming": 7323,
      "▁illinois": 7324,
      "haust": 7325,
      "nas": 7326,
      "▁streams": 7327,
      "cons": 7328,
      "▁writes": 7329,
      "▁raising": 7330,
      "▁trace": 7331,
      "lymp": 7332,
      "▁hospitals": 7333,
      "▁electronics": 7334,
      "▁nick": 7335,
      "▁1970": 7336,
      "▁anthrop": 7337,
      "▁cycl": 7338,
      "▁license": 7339,
      "rh": 7340,
      "▁empty": 7341,
      "▁secretary": 7342,
      "▁municip": 7343,
      "▁regulation": 7344,
      "▁election": 7345,
      "▁adapted": 7346,
      "▁forum": 7347,
      "▁judge": 7348,
      "▁sevent": 7349,
      "sell": 7350,
      "▁engineer": 7351,
      "▁outcome": 7352,
      "▁ft": 7353,
      "cut": 7354,
      "mod": 7355,
      "▁rays": 7356,
      "onomic": 7357,
      "▁horn": 7358,
      "rape": 7359,
      "▁cave": 7360,
      "▁margin": 7361,
      "▁scores": 7362,
      "▁enorm": 7363,
      "▁transmit": 7364,
      "▁logic": 7365,
      "▁suggestions": 7366,
      "▁joy": 7367,
      "acent": 7368,
      "▁uv": 7369,
      "▁sug": 7370,
      "▁astron": 7371,
      "▁forth": 7372,
      "▁bush": 7373,
      "▁plas": 7374,
      "▁viet": 7375,
      "▁paintings": 7376,
      "▁1)": 7377,
      "▁dependent": 7378,
      "▁boat": 7379,
      "illion": 7380,
      "▁jac": 7381,
      "abil": 7382,
      "▁gif": 7383,
      "▁besides": 7384,
      "▁faced": 7385,
      "▁enforce": 7386,
      "html": 7387,
      "▁attach": 7388,
      "thal": 7389,
      "▁sel": 7390,
      "▁surgical": 7391,
      "▁pesticides": 7392,
      "▁auto": 7393,
      "▁clothes": 7394,
      "▁fet": 7395,
      "▁wing": 7396,
      "▁contributed": 7397,
      "▁pairs": 7398,
      "▁prominent": 7399,
      "▁balanced": 7400,
      "-10": 7401,
      "▁defe": 7402,
      "▁marsh": 7403,
      "▁weakness": 7404,
      "▁pace": 7405,
      "▁resistant": 7406,
      "▁6,": 7407,
      "▁diagram": 7408,
      "▁ease": 7409,
      "▁oreg": 7410,
      "▁emit": 7411,
      "western": 7412,
      "▁lifetime": 7413,
      "▁universities": 7414,
      "27": 7415,
      "▁genome": 7416,
      "▁newspaper": 7417,
      "▁losing": 7418,
      "▁bub": 7419,
      "▁cigare": 7420,
      "▁coat": 7421,
      "rey": 7422,
      "▁contribution": 7423,
      "ouri": 7424,
      "▁agents": 7425,
      "▁commitment": 7426,
      "▁annually": 7427,
      "▁physically": 7428,
      "▁sor": 7429,
      "▁olymp": 7430,
      "▁subsequent": 7431,
      "▁influenza": 7432,
      "▁correl": 7433,
      "iva": 7434,
      "▁repeat": 7435,
      "▁alert": 7436,
      "▁criminal": 7437,
      "ester": 7438,
      "▁elizabeth": 7439,
      "▁pill": 7440,
      "▁equally": 7441,
      "▁concluded": 7442,
      "uits": 7443,
      "▁genetics": 7444,
      "▁attempts": 7445,
      "▁savings": 7446,
      "▁narrative": 7447,
      "▁evening": 7448,
      "▁proportion": 7449,
      "▁maintained": 7450,
      "▁astronaut": 7451,
      "▁emphasis": 7452,
      "enger": 7453,
      "▁swelling": 7454,
      "▁inqu": 7455,
      "▁whenever": 7456,
      "▁hormones": 7457,
      "ala": 7458,
      "oured": 7459,
      "▁microsoft": 7460,
      "▁lunar": 7461,
      "▁licens": 7462,
      "▁loose": 7463,
      "▁hurricane": 7464,
      "-9": 7465,
      "ergart": 7466,
      "oric": 7467,
      "▁disrupt": 7468,
      "▁telling": 7469,
      "▁bac": 7470,
      "▁shorter": 7471,
      "▁ministry": 7472,
      "▁mature": 7473,
      "▁isolated": 7474,
      "▁embed": 7475,
      "▁slave": 7476,
      "ysis": 7477,
      "otherapy": 7478,
      "▁browser": 7479,
      "▁classic": 7480,
      "▁driven": 7481,
      "▁reconst": 7482,
      "▁transplant": 7483,
      "▁carn": 7484,
      "▁campus": 7485,
      "▁1980": 7486,
      "▁acquired": 7487,
      "▁disk": 7488,
      "▁pond": 7489,
      "▁mg": 7490,
      "▁monument": 7491,
      "rus": 7492,
      "▁determining": 7493,
      "▁wireless": 7494,
      "▁emper": 7495,
      "▁tumors": 7496,
      "▁ive": 7497,
      "▁viral": 7498,
      "▁calendar": 7499,
      "▁lowest": 7500,
      "ett": 7501,
      "▁resid": 7502,
      "▁johnson": 7503,
      "▁alumin": 7504,
      "▁improvements": 7505,
      "▁tig": 7506,
      "▁reject": 7507,
      "▁sediment": 7508,
      "▁collaborative": 7509,
      "▁$1": 7510,
      "▁advances": 7511,
      "▁prohib": 7512,
      "▁libraries": 7513,
      "▁lee": 7514,
      "'.": 7515,
      "▁handling": 7516,
      "▁ht": 7517,
      "▁indians": 7518,
      "ochem": 7519,
      "▁definitely": 7520,
      "mi": 7521,
      "▁districts": 7522,
      "▁exhaust": 7523,
      "▁believes": 7524,
      "▁weekly": 7525,
      "▁suffered": 7526,
      "iture": 7527,
      "▁gained": 7528,
      "▁reveals": 7529,
      "!!": 7530,
      "▁lawn": 7531,
      "▁excav": 7532,
      "▁developmental": 7533,
      "▁americas": 7534,
      "▁gent": 7535,
      "▁gran": 7536,
      "di": 7537,
      "▁breaking": 7538,
      "any": 7539,
      "▁themes": 7540,
      "grad": 7541,
      "osh": 7542,
      "48": 7543,
      "▁intellectual": 7544,
      "▁productivity": 7545,
      "▁ecology": 7546,
      "▁minnes": 7547,
      "▁alarm": 7548,
      "▁continuing": 7549,
      "▁wil": 7550,
      "▁zones": 7551,
      "▁beneath": 7552,
      "▁assigned": 7553,
      "▁governor": 7554,
      "▁supreme": 7555,
      "▁highlights": 7556,
      "▁priority": 7557,
      "',": 7558,
      "▁sacr": 7559,
      "author": 7560,
      "▁manif": 7561,
      "▁sulf": 7562,
      "▁3:": 7563,
      "rary": 7564,
      "▁colonies": 7565,
      "▁therm": 7566,
      "▁bottle": 7567,
      "▁soviet": 7568,
      "▁seal": 7569,
      "▁fitness": 7570,
      "lind": 7571,
      "uted": 7572,
      "▁caps": 7573,
      "▁quantity": 7574,
      "▁todd": 7575,
      "▁visiting": 7576,
      "page": 7577,
      "hyd": 7578,
      "amination": 7579,
      "▁abnormal": 7580,
      "▁particle": 7581,
      "▁brid": 7582,
      "▁equality": 7583,
      "▁templ": 7584,
      "▁basics": 7585,
      "▁oregon": 7586,
      "illa": 7587,
      "▁festival": 7588,
      "tw": 7589,
      "▁inequ": 7590,
      "32": 7591,
      "▁households": 7592,
      "▁blank": 7593,
      "▁bags": 7594,
      "65": 7595,
      "▁kent": 7596,
      "▁similarly": 7597,
      "▁exception": 7598,
      "▁mas": 7599,
      "▁workplace": 7600,
      "▁electrons": 7601,
      "▁sessions": 7602,
      "inter": 7603,
      "thetic": 7604,
      "cled": 7605,
      "▁adverse": 7606,
      "▁gear": 7607,
      "].": 7608,
      "▁spoken": 7609,
      "▁info": 7610,
      "eries": 7611,
      "▁temporary": 7612,
      "neum": 7613,
      "▁heavily": 7614,
      "▁analyzed": 7615,
      "▁transpa": 7616,
      "▁wise": 7617,
      "▁recording": 7618,
      "▁outline": 7619,
      "▁controlling": 7620,
      "▁pod": 7621,
      "▁lith": 7622,
      "▁availability": 7623,
      "▁ot": 7624,
      "▁restore": 7625,
      "ranean": 7626,
      "▁arizona": 7627,
      "▁alaska": 7628,
      "▁gly": 7629,
      "ourage": 7630,
      "▁respectively": 7631,
      "▁tongue": 7632,
      "▁shade": 7633,
      "fill": 7634,
      "▁visited": 7635,
      "▁protest": 7636,
      "37": 7637,
      "▁rocket": 7638,
      "▁rainfall": 7639,
      "▁contributions": 7640,
      "▁waiting": 7641,
      "mers": 7642,
      "▁ga": 7643,
      "▁marketing": 7644,
      "▁ny": 7645,
      "made": 7646,
      "▁substantial": 7647,
      "▁mapping": 7648,
      "▁uniform": 7649,
      "reated": 7650,
      "▁wisdom": 7651,
      "▁rit": 7652,
      "▁cream": 7653,
      "▁containers": 7654,
      "▁overcome": 7655,
      "▁absorb": 7656,
      "?\"": 7657,
      "▁breaks": 7658,
      "▁colored": 7659,
      "▁inhabit": 7660,
      "eland": 7661,
      "-201": 7662,
      "▁stake": 7663,
      "▁representation": 7664,
      "▁streets": 7665,
      "sters": 7666,
      "▁albert": 7667,
      "▁por": 7668,
      "rows": 7669,
      "▁perception": 7670,
      "▁publications": 7671,
      "▁hopes": 7672,
      "▁desk": 7673,
      "▁1/": 7674,
      "▁barrier": 7675,
      "▁reaches": 7676,
      "▁tape": 7677,
      "hus": 7678,
      "onym": 7679,
      "▁recall": 7680,
      "-20": 7681,
      "▁returns": 7682,
      "▁separated": 7683,
      "▁expanded": 7684,
      "▁na": 7685,
      "▁2019": 7686,
      "▁dun": 7687,
      "▁laid": 7688,
      "▁entering": 7689,
      "▁interventions": 7690,
      "comm": 7691,
      "▁fluor": 7692,
      "▁addiction": 7693,
      "▁remed": 7694,
      "▁shakes": 7695,
      "▁crown": 7696,
      "▁stability": 7697,
      "adel": 7698,
      "▁bureau": 7699,
      "▁weapons": 7700,
      "▁remarkable": 7701,
      "▁mud": 7702,
      "worth": 7703,
      "orig": 7704,
      "▁dutch": 7705,
      "▁straw": 7706,
      "▁storms": 7707,
      "▁agreed": 7708,
      "omp": 7709,
      "▁kilometers": 7710,
      "▁perm": 7711,
      "▁2004": 7712,
      "▁3-": 7713,
      "▁apps": 7714,
      "▁phd": 7715,
      "▁algae": 7716,
      "▁accidents": 7717,
      "▁sleeping": 7718,
      "▁scholar": 7719,
      "▁hills": 7720,
      "▁saved": 7721,
      "▁colony": 7722,
      "bow": 7723,
      "▁pandemic": 7724,
      "▁sheep": 7725,
      "▁portra": 7726,
      "▁killing": 7727,
      "rog": 7728,
      "▁featured": 7729,
      "▁fortun": 7730,
      "▁powder": 7731,
      "▁hazards": 7732,
      "▁neutral": 7733,
      "bn": 7734,
      "▁lincoln": 7735,
      "▁bru": 7736,
      "▁illegal": 7737,
      "▁bite": 7738,
      "▁physicians": 7739,
      "ommod": 7740,
      "▁48": 7741,
      "fly": 7742,
      "ipe": 7743,
      "▁2)": 7744,
      "▁diets": 7745,
      "▁mississ": 7746,
      "rin": 7747,
      "▁hi": 7748,
      "▁differently": 7749,
      "▁accommod": 7750,
      "oa": 7751,
      "▁agent": 7752,
      "artic": 7753,
      "omin": 7754,
      "▁democratic": 7755,
      "▁minds": 7756,
      "▁geological": 7757,
      "34": 7758,
      "▁7,": 7759,
      "▁toys": 7760,
      "▁embry": 7761,
      "▁spreading": 7762,
      "▁settlement": 7763,
      "▁athletes": 7764,
      "▁strengthen": 7765,
      "▁1950": 7766,
      "▁confed": 7767,
      "ena": 7768,
      "▁navy": 7769,
      "▁cheese": 7770,
      "▁accounting": 7771,
      "▁profile": 7772,
      "▁overw": 7773,
      "▁classified": 7774,
      "▁hes": 7775,
      "▁sq": 7776,
      "▁encouraging": 7777,
      "▁unw": 7778,
      "▁disappear": 7779,
      "▁kitchen": 7780,
      "psy": 7781,
      "ket": 7782,
      "▁toile": 7783,
      "▁cer": 7784,
      "▁registered": 7785,
      "ker": 7786,
      "▁gift": 7787,
      "▁addresses": 7788,
      "een": 7789,
      "▁legend": 7790,
      "ima": 7791,
      "▁sew": 7792,
      "▁circulation": 7793,
      "▁bloom": 7794,
      "ptions": 7795,
      "▁sib": 7796,
      "▁personality": 7797,
      "▁cann": 7798,
      "rot": 7799,
      "olar": 7800,
      "fa": 7801,
      "through": 7802,
      "▁ordinary": 7803,
      "▁graphic": 7804,
      "erated": 7805,
      "▁devot": 7806,
      "wal": 7807,
      "▁dub": 7808,
      "▁multipl": 7809,
      "▁radical": 7810,
      "ergarten": 7811,
      "▁hepat": 7812,
      "▁expertise": 7813,
      "▁contaminated": 7814,
      "▁erosion": 7815,
      "osaur": 7816,
      "trans": 7817,
      "inson": 7818,
      "plo": 7819,
      "▁displayed": 7820,
      "▁seasonal": 7821,
      "▁targeted": 7822,
      "▁expectations": 7823,
      ":00": 7824,
      "affe": 7825,
      "▁genus": 7826,
      "▁spine": 7827,
      "aneously": 7828,
      "▁trem": 7829,
      "▁surveys": 7830,
      "▁reproductive": 7831,
      "▁minnesota": 7832,
      "▁az": 7833,
      "▁ont": 7834,
      "▁cooperation": 7835,
      "▁contributing": 7836,
      "▁bun": 7837,
      "▁allergic": 7838,
      "▁integration": 7839,
      "▁losses": 7840,
      "▁scat": 7841,
      "▁ster": 7842,
      "ippi": 7843,
      "▁boundaries": 7844,
      "▁astronomers": 7845,
      "77": 7846,
      "assium": 7847,
      "▁divide": 7848,
      "▁;": 7849,
      "yn": 7850,
      "▁opposed": 7851,
      "▁certific": 7852,
      "▁pak": 7853,
      "▁noticed": 7854,
      "▁nursing": 7855,
      "▁proved": 7856,
      "▁quiet": 7857,
      "▁metabolism": 7858,
      "▁cher": 7859,
      "astern": 7860,
      "/0": 7861,
      "▁elected": 7862,
      "▁wider": 7863,
      "▁parameters": 7864,
      "▁taxes": 7865,
      "▁francisco": 7866,
      "▁package": 7867,
      "▁slaves": 7868,
      "▁diagnostic": 7869,
      "▁negot": 7870,
      "▁alphabet": 7871,
      "▁mul": 7872,
      "▁suicide": 7873,
      "anth": 7874,
      "▁concerning": 7875,
      "▁guides": 7876,
      "▁duration": 7877,
      "▁vom": 7878,
      "▁python": 7879,
      "▁passion": 7880,
      "▁statistical": 7881,
      "▁replacement": 7882,
      "▁indoor": 7883,
      "▁10,": 7884,
      "▁restaur": 7885,
      "▁probability": 7886,
      "▁compens": 7887,
      "▁aside": 7888,
      "grade": 7889,
      "berries": 7890,
      "uten": 7891,
      "▁apparently": 7892,
      "29": 7893,
      "aded": 7894,
      "▁ans": 7895,
      "▁predators": 7896,
      "▁coordin": 7897,
      "▁phon": 7898,
      "rapeut": 7899,
      "▁pose": 7900,
      "▁bare": 7901,
      "▁gums": 7902,
      "▁celebration": 7903,
      "▁wake": 7904,
      "elly": 7905,
      "▁cerv": 7906,
      "▁psychi": 7907,
      "▁precip": 7908,
      "▁shr": 7909,
      "mail": 7910,
      "▁literally": 7911,
      "pled": 7912,
      "profit": 7913,
      "▁turkey": 7914,
      "▁traits": 7915,
      "food": 7916,
      "astics": 7917,
      "apes": 7918,
      "▁spatial": 7919,
      "▁annivers": 7920,
      "▁overweight": 7921,
      "▁finish": 7922,
      "▁gest": 7923,
      "▁flooding": 7924,
      "▁emotion": 7925,
      "py": 7926,
      "6)": 7927,
      "icians": 7928,
      "▁bark": 7929,
      "▁tam": 7930,
      "flies": 7931,
      "▁stems": 7932,
      "bage": 7933,
      "▁folk": 7934,
      "▁simult": 7935,
      "▁specialized": 7936,
      "▁dc": 7937,
      "ref": 7938,
      "holders": 7939,
      "▁wooden": 7940,
      "▁lady": 7941,
      "▁jup": 7942,
      "▁pneum": 7943,
      "▁stopped": 7944,
      "▁enormous": 7945,
      "▁torn": 7946,
      "▁ren": 7947,
      "39": 7948,
      "▁citation": 7949,
      "▁tang": 7950,
      "opl": 7951,
      "▁rac": 7952,
      "▁northwest": 7953,
      "10.": 7954,
      "esh": 7955,
      "▁zoo": 7956,
      "▁vice": 7957,
      "▁comprom": 7958,
      "erts": 7959,
      "gent": 7960,
      "▁charged": 7961,
      "▁yoga": 7962,
      "▁chromos": 7963,
      "▁degrad": 7964,
      "▁gathered": 7965,
      "▁aggressive": 7966,
      "▁insights": 7967,
      "▁interpretation": 7968,
      "▁crack": 7969,
      "▁@": 7970,
      "▁palm": 7971,
      "avirus": 7972,
      "section": 7973,
      "▁transact": 7974,
      "medi": 7975,
      "▁sought": 7976,
      "friendly": 7977,
      "▁pipe": 7978,
      ".;": 7979,
      "▁democracy": 7980,
      "izers": 7981,
      "▁veloc": 7982,
      "▁scales": 7983,
      "eness": 7984,
      "▁illustrated": 7985,
      "asant": 7986,
      "▁superior": 7987,
      "▁overwhel": 7988,
      "▁algorithm": 7989,
      "▁compos": 7990,
      "▁discussions": 7991,
      "▁incident": 7992,
      "htt": 7993,
      "▁equations": 7994,
      "child": 7995,
      "ema": 7996,
      "▁ome": 7997,
      "▁potassium": 7998,
      "▁invented": 7999,
      "▁pests": 8000,
      "▁mcc": 8001,
      "rolled": 8002,
      "▁classification": 8003,
      "anted": 8004,
      "▁barriers": 8005,
      "▁mrs": 8006,
      "▁safer": 8007,
      "▁modeling": 8008,
      "▁satisf": 8009,
      "burn": 8010,
      "wan": 8011,
      "ogenic": 8012,
      "▁privacy": 8013,
      "▁verte": 8014,
      "▁compass": 8015,
      "lu": 8016,
      "step": 8017,
      "▁characteristic": 8018,
      "▁preservation": 8019,
      "▁panc": 8020,
      "▁hybrid": 8021,
      "▁tracking": 8022,
      "▁declar": 8023,
      "▁practition": 8024,
      "▁deadly": 8025,
      "▁hip": 8026,
      "▁publishing": 8027,
      "▁fingers": 8028,
      "▁shoes": 8029,
      "▁gallery": 8030,
      "iated": 8031,
      "▁jet": 8032,
      "hum": 8033,
      "▁capabilities": 8034,
      "▁absence": 8035,
      "▁commem": 8036,
      "they": 8037,
      "44": 8038,
      "usal": 8039,
      "▁eag": 8040,
      "▁mile": 8041,
      "▁beings": 8042,
      "▁fred": 8043,
      "▁visits": 8044,
      "▁susceptible": 8045,
      "▁dil": 8046,
      "▁subt": 8047,
      "▁addressed": 8048,
      "▁evolutionary": 8049,
      "▁fiction": 8050,
      "roud": 8051,
      "▁santa": 8052,
      "▁chip": 8053,
      "▁2012,": 8054,
      "▁knee": 8055,
      "▁irrigation": 8056,
      "▁2003": 8057,
      "oons": 8058,
      "▁lingu": 8059,
      "▁conqu": 8060,
      "▁combine": 8061,
      "idal": 8062,
      "icted": 8063,
      "▁loop": 8064,
      "bered": 8065,
      "▁dimensions": 8066,
      "rob": 8067,
      "▁pointed": 8068,
      "olit": 8069,
      "▁fox": 8070,
      "▁addressing": 8071,
      "▁indo": 8072,
      "▁alzheimers": 8073,
      "▁engagement": 8074,
      "elect": 8075,
      "asty": 8076,
      "▁html": 8077,
      "▁ethical": 8078,
      "▁accurately": 8079,
      "▁intent": 8080,
      "▁mississippi": 8081,
      "▁considerable": 8082,
      "iate": 8083,
      "▁jacks": 8084,
      "▁purchased": 8085,
      "spec": 8086,
      "▁aren": 8087,
      "▁submitted": 8088,
      "▁curios": 8089,
      "▁carri": 8090,
      "▁buying": 8091,
      "▁cylind": 8092,
      "▁landing": 8093,
      "▁tourism": 8094,
      "▁occasionally": 8095,
      "emia": 8096,
      "▁virtually": 8097,
      "▁satellites": 8098,
      "▁malaria": 8099,
      "▁ech": 8100,
      "▁libert": 8101,
      "▁stere": 8102,
      "▁catalog": 8103,
      "▁reservoir": 8104,
      "▁complement": 8105,
      "▁elsewhere": 8106,
      "imal": 8107,
      "▁strange": 8108,
      "▁humanity": 8109,
      "▁fung": 8110,
      "▁managers": 8111,
      "opher": 8112,
      "▁recycled": 8113,
      "▁parad": 8114,
      "▁shakespe": 8115,
      "▁consideration": 8116,
      "aust": 8117,
      "▁feels": 8118,
      "▁ampl": 8119,
      "ori": 8120,
      "▁speaker": 8121,
      "▁dre": 8122,
      "▁corresponding": 8123,
      "▁lunch": 8124,
      "▁amazon": 8125,
      "▁dropped": 8126,
      "▁displays": 8127,
      "▁everywhere": 8128,
      "▁improves": 8129,
      "▁designing": 8130,
      "▁fertilizer": 8131,
      "▁acting": 8132,
      "▁oblig": 8133,
      "▁defend": 8134,
      "▁illustrations": 8135,
      "▁husband": 8136,
      "kind": 8137,
      "nea": 8138,
      "mble": 8139,
      "▁painted": 8140,
      "▁scope": 8141,
      "▁grams": 8142,
      "▁anniversary": 8143,
      "▁sket": 8144,
      "▁directed": 8145,
      "▁enterpr": 8146,
      "▁counties": 8147,
      "▁attribut": 8148,
      "▁thyroid": 8149,
      "iterranean": 8150,
      "fol": 8151,
      "▁(1)": 8152,
      "▁korea": 8153,
      "una": 8154,
      "▁crypt": 8155,
      "iders": 8156,
      "▁southeast": 8157,
      "▁dried": 8158,
      "▁chamber": 8159,
      "▁demands": 8160,
      "▁hack": 8161,
      "▁bless": 8162,
      "advant": 8163,
      "cule": 8164,
      "▁arrest": 8165,
      "▁magnet": 8166,
      "▁stretch": 8167,
      "▁contamination": 8168,
      "▁purple": 8169,
      "▁expanding": 8170,
      "ran": 8171,
      "▁anne": 8172,
      "rared": 8173,
      "▁aquatic": 8174,
      "▁boxes": 8175,
      "▁consuming": 8176,
      "▁elderly": 8177,
      "hips": 8178,
      "▁excel": 8179,
      "▁swall": 8180,
      "▁sensory": 8181,
      "gged": 8182,
      "▁assessments": 8183,
      "▁obese": 8184,
      "▁default": 8185,
      "▁oxid": 8186,
      "▁vaccination": 8187,
      "▁jr": 8188,
      "▁surprise": 8189,
      "▁conversion": 8190,
      "▁entr": 8191,
      "▁belt": 8192,
      "▁neurons": 8193,
      "▁mystery": 8194,
      "▁assets": 8195,
      "▁38": 8196,
      "▁vig": 8197,
      "▁traditionally": 8198,
      "zym": 8199,
      "▁arc": 8200,
      "▁submit": 8201,
      "▁cem": 8202,
      "▁uncle": 8203,
      "▁converted": 8204,
      "▁fan": 8205,
      "▁meaningful": 8206,
      "▁producers": 8207,
      "▁collecting": 8208,
      "▁impair": 8209,
      "▁incorporate": 8210,
      "▁33": 8211,
      "▁bugs": 8212,
      "▁granted": 8213,
      "▁missouri": 8214,
      "ricks": 8215,
      "▁tough": 8216,
      "▁membrane": 8217,
      "doors": 8218,
      "▁galaxies": 8219,
      "▁scheme": 8220,
      "healthy": 8221,
      "▁codes": 8222,
      "▁rehab": 8223,
      "bour": 8224,
      "▁passes": 8225,
      "▁archaeological": 8226,
      "urable": 8227,
      "▁kindergarten": 8228,
      "▁tribes": 8229,
      "68": 8230,
      "▁fant": 8231,
      "herent": 8232,
      "imp": 8233,
      "elfare": 8234,
      "▁bin": 8235,
      "ighth": 8236,
      "▁diarrhea": 8237,
      "▁mediterranean": 8238,
      "▁wolf": 8239,
      "ogens": 8240,
      "▁hazardous": 8241,
      "▁pock": 8242,
      "▁designated": 8243,
      "copic": 8244,
      "stic": 8245,
      "school": 8246,
      "▁8,": 8247,
      "unct": 8248,
      "▁injured": 8249,
      "▁facilitate": 8250,
      "▁emperor": 8251,
      "▁nap": 8252,
      "▁propag": 8253,
      "▁fraction": 8254,
      "pres": 8255,
      "▁tone": 8256,
      "▁calculated": 8257,
      "requ": 8258,
      "function": 8259,
      "kal": 8260,
      "▁installation": 8261,
      "▁asc": 8262,
      "▁11,": 8263,
      "▁magnitude": 8264,
      "▁dynamics": 8265,
      "▁preserved": 8266,
      "▁sending": 8267,
      "▁avoiding": 8268,
      "▁eaten": 8269,
      "agon": 8270,
      "▁predicted": 8271,
      "▁varied": 8272,
      "▁affairs": 8273,
      "▁dish": 8274,
      "▁treaty": 8275,
      "▁owned": 8276,
      "▁cass": 8277,
      "▁missions": 8278,
      "▁extinction": 8279,
      "▁energ": 8280,
      "▁edward": 8281,
      "▁arguments": 8282,
      "ela": 8283,
      "▁spark": 8284,
      "▁autonom": 8285,
      "▁schedul": 8286,
      "▁kh": 8287,
      "▁pic": 8288,
      "▁linux": 8289,
      "▁restric": 8290,
      "▁classrooms": 8291,
      "▁atomic": 8292,
      "ested": 8293,
      "▁indones": 8294,
      "▁marg": 8295,
      "▁suspect": 8296,
      "▁fda": 8297,
      "▁analog": 8298,
      "▁provin": 8299,
      "▁remem": 8300,
      "▁explores": 8301,
      "▁omega": 8302,
      "▁gardening": 8303,
      ")|": 8304,
      "▁width": 8305,
      "▁varies": 8306,
      "aneous": 8307,
      "▁seemed": 8308,
      "storm": 8309,
      "ere": 8310,
      "▁tempor": 8311,
      "▁minimize": 8312,
      "▁250": 8313,
      "adelph": 8314,
      "▁welfare": 8315,
      "▁watershed": 8316,
      "rix": 8317,
      "▁cable": 8318,
      "▁shelter": 8319,
      "▁prospect": 8320,
      "▁prescribed": 8321,
      "▁promise": 8322,
      "▁cuts": 8323,
      "rison": 8324,
      "▁client": 8325,
      "▁therapeut": 8326,
      "▁plates": 8327,
      "▁ranges": 8328,
      "▁refrig": 8329,
      "▁curve": 8330,
      "▁ending": 8331,
      "▁incorporated": 8332,
      "▁hepatitis": 8333,
      "▁cameras": 8334,
      "ng": 8335,
      "▁cosm": 8336,
      "▁mask": 8337,
      "▁vine": 8338,
      "▁recommends": 8339,
      "ja": 8340,
      "cat": 8341,
      "night": 8342,
      "▁preferred": 8343,
      "▁incidence": 8344,
      "▁numer": 8345,
      "▁teaches": 8346,
      "keep": 8347,
      "▁till": 8348,
      "▁hebre": 8349,
      "▁prevalence": 8350,
      "▁rubber": 8351,
      "▁monthly": 8352,
      "▁adolescents": 8353,
      "▁carib": 8354,
      "▁disadvant": 8355,
      "▁34": 8356,
      "▁paying": 8357,
      "▁peers": 8358,
      "▁dramatically": 8359,
      "fir": 8360,
      "▁keys": 8361,
      "▁attitudes": 8362,
      "eli": 8363,
      "▁fought": 8364,
      "▁curiosity": 8365,
      "▁oils": 8366,
      "▁maryland": 8367,
      "▁discipline": 8368,
      "gebra": 8369,
      "▁labels": 8370,
      "also": 8371,
      "▁cambridge": 8372,
      "▁beam": 8373,
      "▁horizontal": 8374,
      "iop": 8375,
      "▁grounds": 8376,
      "bec": 8377,
      "▁embra": 8378,
      "▁fatal": 8379,
      "▁terror": 8380,
      "▁angeles": 8381,
      "▁yard": 8382,
      "▁obama": 8383,
      "▁synthetic": 8384,
      "▁quad": 8385,
      "ruption": 8386,
      "▁202": 8387,
      "ustration": 8388,
      "▁puts": 8389,
      "▁partial": 8390,
      "▁circul": 8391,
      "▁snake": 8392,
      "ructive": 8393,
      "words": 8394,
      "regular": 8395,
      "icts": 8396,
      "▁120": 8397,
      "▁wasnt": 8398,
      "▁outdoors": 8399,
      "▁traveling": 8400,
      "▁societies": 8401,
      "▁sale": 8402,
      "▁encourages": 8403,
      "▁accomplish": 8404,
      "▁soap": 8405,
      "sex": 8406,
      "oto": 8407,
      "iscons": 8408,
      "▁enthus": 8409,
      "▁efficiently": 8410,
      "▁55": 8411,
      "conn": 8412,
      "▁excited": 8413,
      "▁alongside": 8414,
      "lastname": 8415,
      "▁slide": 8416,
      "▁violent": 8417,
      "▁severity": 8418,
      "dl": 8419,
      "▁methane": 8420,
      "▁actively": 8421,
      "▁cluster": 8422,
      "▁cellular": 8423,
      "▁cemeter": 8424,
      "▁quantities": 8425,
      "▁whales": 8426,
      "orus": 8427,
      "▁initiatives": 8428,
      "anium": 8429,
      "▁whit": 8430,
      "▁copies": 8431,
      "98": 8432,
      "aired": 8433,
      "▁chose": 8434,
      "▁officers": 8435,
      "▁10,000": 8436,
      "▁sacred": 8437,
      "orted": 8438,
      "▁optimal": 8439,
      "▁mosquito": 8440,
      "▁hunt": 8441,
      "▁specified": 8442,
      "▁loud": 8443,
      "▁seriously": 8444,
      "amine": 8445,
      "▁enzym": 8446,
      ".'": 8447,
      "zyme": 8448,
      "▁1930": 8449,
      "▁artif": 8450,
      "▁shoulder": 8451,
      "▁hurt": 8452,
      "▁photography": 8453,
      "▁wales": 8454,
      "▁prevents": 8455,
      "issance": 8456,
      "▁fluids": 8457,
      "▁opinions": 8458,
      "▁residential": 8459,
      "▁representing": 8460,
      "▁cu": 8461,
      "▁hypothesis": 8462,
      "jo": 8463,
      "▁circular": 8464,
      "phal": 8465,
      "▁600": 8466,
      "orate": 8467,
      "▁daniel": 8468,
      "▁happiness": 8469,
      "▁accompanied": 8470,
      "dp": 8471,
      "▁differ": 8472,
      "▁museums": 8473,
      "fulness": 8474,
      "▁theoretical": 8475,
      "%)": 8476,
      "esium": 8477,
      "▁memor": 8478,
      "inking": 8479,
      "kers": 8480,
      "olds": 8481,
      "▁suit": 8482,
      "▁utility": 8483,
      "▁deeply": 8484,
      "▁bats": 8485,
      "▁1.5": 8486,
      "▁developments": 8487,
      "▁philadelph": 8488,
      "▁derm": 8489,
      "▁2012.": 8490,
      "▁caffe": 8491,
      "▁plaque": 8492,
      "▁profit": 8493,
      "▁warmer": 8494,
      "ums": 8495,
      "▁kansas": 8496,
      "▁evil": 8497,
      "▁meter": 8498,
      "eg": 8499,
      "▁imperial": 8500,
      "▁strategic": 8501,
      "▁gy": 8502,
      "▁affordable": 8503,
      "▁legacy": 8504,
      "▁shallow": 8505,
      "zo": 8506,
      "▁tension": 8507,
      "▁searching": 8508,
      "▁nom": 8509,
      "▁suddenly": 8510,
      "▁chips": 8511,
      "▁educate": 8512,
      "real": 8513,
      "▁repet": 8514,
      "▁anticip": 8515,
      "▁wetlands": 8516,
      "▁representative": 8517,
      "▁2013.": 8518,
      "ulating": 8519,
      "▁hemisp": 8520,
      "▁12,": 8521,
      "▁surviv": 8522,
      "uther": 8523,
      "▁pert": 8524,
      "▁grey": 8525,
      "▁imagination": 8526,
      "▁citizen": 8527,
      "▁claimed": 8528,
      "▁alternatives": 8529,
      "▁strike": 8530,
      "▁relate": 8531,
      "▁scenario": 8532,
      "▁customer": 8533,
      "iological": 8534,
      "ji": 8535,
      "▁edges": 8536,
      "▁saturday": 8537,
      "employ": 8538,
      "▁melan": 8539,
      "▁15,": 8540,
      "▁barn": 8541,
      "▁wiscons": 8542,
      "▁pollen": 8543,
      "▁pi": 8544,
      "type": 8545,
      "▁seiz": 8546,
      "▁doub": 8547,
      "▁forecast": 8548,
      "▁continent": 8549,
      "▁theat": 8550,
      "▁prox": 8551,
      "▁distant": 8552,
      "▁enjoyed": 8553,
      "▁enhanced": 8554,
      "▁requirement": 8555,
      "▁thereby": 8556,
      "▁powered": 8557,
      "▁attractive": 8558,
      "ugs": 8559,
      "ifier": 8560,
      "▁menu": 8561,
      "▁ride": 8562,
      "▁valve": 8563,
      "▁occas": 8564,
      "oves": 8565,
      "▁mexican": 8566,
      "▁settled": 8567,
      "▁speakers": 8568,
      "inn": 8569,
      "loc": 8570,
      "oline": 8571,
      "▁begun": 8572,
      "▁jupiter": 8573,
      "66": 8574,
      "▁sperm": 8575,
      "▁astronomy": 8576,
      "▁rooms": 8577,
      "▁comparing": 8578,
      "▁flexibility": 8579,
      "▁antibiotic": 8580,
      "text": 8581,
      "7)": 8582,
      "▁reflection": 8583,
      "▁anger": 8584,
      "fig": 8585,
      "▁symptom": 8586,
      "▁segment": 8587,
      "▁busy": 8588,
      "▁abundant": 8589,
      "▁possibilities": 8590,
      "chem": 8591,
      "▁doses": 8592,
      "▁hunger": 8593,
      "▁asteroid": 8594,
      "vol": 8595,
      "tons": 8596,
      "ika": 8597,
      "ologically": 8598,
      "▁ancestors": 8599,
      "▁metabolic": 8600,
      "▁larv": 8601,
      "cia": 8602,
      "▁speeds": 8603,
      "▁finance": 8604,
      "▁gastro": 8605,
      "▁carbohydrates": 8606,
      "yard": 8607,
      "▁neuros": 8608,
      "▁dominant": 8609,
      "▁reinforce": 8610,
      "naissance": 8611,
      "▁draft": 8612,
      "▁counting": 8613,
      "▁expedition": 8614,
      "about": 8615,
      "▁calc": 8616,
      "best": 8617,
      "▁prescription": 8618,
      "▁pakistan": 8619,
      "▁1920": 8620,
      "estone": 8621,
      "▁argue": 8622,
      "▁foster": 8623,
      "▁arrang": 8624,
      "▁participating": 8625,
      "▁molecule": 8626,
      "▁distract": 8627,
      "▁readily": 8628,
      "▁railroad": 8629,
      "▁dying": 8630,
      "▁prolong": 8631,
      "▁flavor": 8632,
      "▁minimal": 8633,
      "▁ozone": 8634,
      "rem": 8635,
      "▁tort": 8636,
      "fat": 8637,
      "ilst": 8638,
      "▁regulate": 8639,
      "▁kg": 8640,
      "▁jur": 8641,
      "▁cite": 8642,
      "▁calm": 8643,
      "▁connecting": 8644,
      "▁2001": 8645,
      "▁nerves": 8646,
      "osaurs": 8647,
      "▁~": 8648,
      "▁compact": 8649,
      "▁persu": 8650,
      "▁varying": 8651,
      "▁rings": 8652,
      "▁bish": 8653,
      "▁relating": 8654,
      "esy": 8655,
      "arsh": 8656,
      "▁courts": 8657,
      "▁encounter": 8658,
      "▁sons": 8659,
      "▁deposits": 8660,
      "▁observatory": 8661,
      "▁proud": 8662,
      "▁velocity": 8663,
      "▁chapters": 8664,
      "▁complexity": 8665,
      "▁summar": 8666,
      "▁philipp": 8667,
      "▁motivation": 8668,
      "▁films": 8669,
      "▁nig": 8670,
      "▁wisconsin": 8671,
      "▁versus": 8672,
      "▁epidem": 8673,
      "▁retrieved": 8674,
      "▁highway": 8675,
      "▁ww": 8676,
      "▁appointment": 8677,
      "chnology": 8678,
      "▁flies": 8679,
      "▁disturb": 8680,
      "▁tends": 8681,
      "()": 8682,
      "yer": 8683,
      "▁silicon": 8684,
      "when": 8685,
      "▁chim": 8686,
      "▁elevated": 8687,
      "▁volcanic": 8688,
      "▁cycles": 8689,
      "▁documented": 8690,
      "▁philadelphia": 8691,
      "▁intr": 8692,
      "▁prostate": 8693,
      "▁labour": 8694,
      "▁dangers": 8695,
      "▁influences": 8696,
      "efficient": 8697,
      "▁emer": 8698,
      "owa": 8699,
      "▁poems": 8700,
      "▁burned": 8701,
      "▁currency": 8702,
      "▁neural": 8703,
      "▁immigrants": 8704,
      "▁lew": 8705,
      "▁logical": 8706,
      "▁factory": 8707,
      "▁awarded": 8708,
      "▁triangle": 8709,
      "▁worship": 8710,
      "▁abundance": 8711,
      "expected": 8712,
      "▁37": 8713,
      "▁pole": 8714,
      "▁9,": 8715,
      "▁describing": 8716,
      "▁encry": 8717,
      "▁comprehension": 8718,
      "▁discharge": 8719,
      "iano": 8720,
      "▁axis": 8721,
      "▁meanwhile": 8722,
      "▁rational": 8723,
      "source": 8724,
      "imensional": 8725,
      "▁vomiting": 8726,
      "▁memories": 8727,
      "rical": 8728,
      "▁revers": 8729,
      "▁qualities": 8730,
      "▁ordered": 8731,
      "▁achieving": 8732,
      "▁rou": 8733,
      "▁toxins": 8734,
      "nis": 8735,
      "▁1000": 8736,
      "pos": 8737,
      "▁opens": 8738,
      "▁thrive": 8739,
      "▁countrys": 8740,
      "ols": 8741,
      "try": 8742,
      "▁12.": 8743,
      "▁diagnose": 8744,
      "▁vector": 8745,
      "▁hypert": 8746,
      "▁attitude": 8747,
      "ifer": 8748,
      "▁dipl": 8749,
      "▁frozen": 8750,
      "▁productive": 8751,
      "▁vag": 8752,
      "▁alexander": 8753,
      "88": 8754,
      "▁popularity": 8755,
      "▁algorithms": 8756,
      "▁merely": 8757,
      "▁tunnel": 8758,
      "▁mim": 8759,
      "▁lig": 8760,
      "▁resemb": 8761,
      "▁appreciate": 8762,
      "▁larvae": 8763,
      "▁mistakes": 8764,
      "▁2002": 8765,
      "▁placing": 8766,
      "▁perspectives": 8767,
      "▁clients": 8768,
      "▁graphics": 8769,
      "mental": 8770,
      "▁pope": 8771,
      "quality": 8772,
      "clic": 8773,
      "ani": 8774,
      "▁emission": 8775,
      "▁equipped": 8776,
      "▁convey": 8777,
      "▁jackson": 8778,
      "bell": 8779,
      "verages": 8780,
      "▁discl": 8781,
      "▁packaging": 8782,
      "▁prince": 8783,
      "atus": 8784,
      "▁declaration": 8785,
      "▁marker": 8786,
      "▁seasons": 8787,
      "▁bills": 8788,
      "▁implementing": 8789,
      "▁spell": 8790,
      "▁usda": 8791,
      "▁obviously": 8792,
      "wall": 8793,
      "▁regarded": 8794,
      "▁invention": 8795,
      "▁competitive": 8796,
      "▁hu": 8797,
      "▁representatives": 8798,
      "▁whilst": 8799,
      "osphere": 8800,
      "ttes": 8801,
      "▁chin": 8802,
      "▁encl": 8803,
      "▁kick": 8804,
      "▁prayer": 8805,
      "▁reasoning": 8806,
      "▁simulation": 8807,
      "▁penet": 8808,
      "▁extraord": 8809,
      "▁sho": 8810,
      "▁rats": 8811,
      "▁migr": 8812,
      "itzer": 8813,
      "▁bladder": 8814,
      "rics": 8815,
      "▁cape": 8816,
      "▁defects": 8817,
      "▁southwest": 8818,
      "▁2010,": 8819,
      "velength": 8820,
      "case": 8821,
      "▁nur": 8822,
      "▁algebra": 8823,
      "▁recur": 8824,
      "▁irregular": 8825,
      "▁volunteer": 8826,
      "▁patent": 8827,
      "▁doors": 8828,
      "▁identical": 8829,
      "55": 8830,
      "▁pupp": 8831,
      "▁geometry": 8832,
      "pow": 8833,
      "▁adaptation": 8834,
      "▁courtesy": 8835,
      "renn": 8836,
      "▁portug": 8837,
      "▁doi": 8838,
      "mont": 8839,
      "▁archive": 8840,
      "mann": 8841,
      "▁hawaii": 8842,
      "▁bulbs": 8843,
      "▁skull": 8844,
      "▁organis": 8845,
      "▁preced": 8846,
      "▁firstname": 8847,
      "▁genetically": 8848,
      "▁coins": 8849,
      "hr": 8850,
      "fire": 8851,
      "▁glue": 8852,
      "64": 8853,
      "▁organisation": 8854,
      "▁andrew": 8855,
      "▁embedded": 8856,
      "▁unlikely": 8857,
      "▁thirty": 8858,
      "▁requiring": 8859,
      "▁digit": 8860,
      "▁wells": 8861,
      "▁enzymes": 8862,
      "▁(2)": 8863,
      "▁stabil": 8864,
      "▁conclusions": 8865,
      "▁tel": 8866,
      "▁tet": 8867,
      "ripts": 8868,
      "\")": 8869,
      "▁inver": 8870,
      "▁adopt": 8871,
      "▁burns": 8872,
      "▁duty": 8873,
      "▁disasters": 8874,
      "▁orders": 8875,
      "▁channels": 8876,
      "▁godd": 8877,
      "▁muc": 8878,
      "▁crust": 8879,
      "ingly": 8880,
      "ologic": 8881,
      "▁greece": 8882,
      "gregation": 8883,
      "▁epidemic": 8884,
      "▁inspiration": 8885,
      "▁certified": 8886,
      "▁surrounded": 8887,
      "▁drops": 8888,
      "▁borrow": 8889,
      "▁discoveries": 8890,
      "▁sees": 8891,
      "▁brothers": 8892,
      "▁drainage": 8893,
      "▁infrared": 8894,
      "▁carp": 8895,
      "uce": 8896,
      "▁drawings": 8897,
      "▁hebrew": 8898,
      "▁ethics": 8899,
      "phones": 8900,
      "▁2010.": 8901,
      "▁burden": 8902,
      "▁demonstrates": 8903,
      "▁limitations": 8904,
      "agen": 8905,
      "▁cad": 8906,
      "aware": 8907,
      "▁weaken": 8908,
      "▁cardiac": 8909,
      "▁viewing": 8910,
      "▁phy": 8911,
      "▁headaches": 8912,
      "▁ultimate": 8913,
      "▁absorption": 8914,
      "▁frost": 8915,
      "▁4:": 8916,
      "▁50%": 8917,
      "▁adhd": 8918,
      "▁markers": 8919,
      "heastern": 8920,
      "iolet": 8921,
      "▁worker": 8922,
      "▁unexpected": 8923,
      "elve": 8924,
      "▁beta": 8925,
      "▁expressions": 8926,
      "▁pas": 8927,
      "▁sophistic": 8928,
      "▁suggesting": 8929,
      "▁officially": 8930,
      "▁distinguish": 8931,
      "▁wra": 8932,
      "▁mutations": 8933,
      "▁lapt": 8934,
      "▁photograp": 8935,
      "sized": 8936,
      "▁jim": 8937,
      "▁entit": 8938,
      "▁dolph": 8939,
      "▁specialists": 8940,
      "▁withdra": 8941,
      "etary": 8942,
      "▁discusses": 8943,
      "▁intensive": 8944,
      "▁luc": 8945,
      "▁chi": 8946,
      "▁groundwater": 8947,
      "ucky": 8948,
      "▁sister": 8949,
      "itarian": 8950,
      "▁humidity": 8951,
      "erness": 8952,
      "▁perfectly": 8953,
      "▁reput": 8954,
      "oly": 8955,
      "▁semi": 8956,
      "▁fisheries": 8957,
      "▁shares": 8958,
      "▁heal": 8959,
      "▁recru": 8960,
      "aints": 8961,
      "▁hob": 8962,
      "▁alloc": 8963,
      "▁charl": 8964,
      "▁plasma": 8965,
      "▁strains": 8966,
      "iry": 8967,
      "▁dwar": 8968,
      "▁magic": 8969,
      "bul": 8970,
      "▁vietnam": 8971,
      "▁hide": 8972,
      "▁bonds": 8973,
      "pv": 8974,
      "aka": 8975,
      "▁boards": 8976,
      "aste": 8977,
      "imen": 8978,
      "▁syll": 8979,
      "pie": 8980,
      "arios": 8981,
      "aping": 8982,
      "▁emerged": 8983,
      "▁edit": 8984,
      "▁amendment": 8985,
      "▁holoc": 8986,
      "▁williams": 8987,
      "▁applies": 8988,
      "▁prone": 8989,
      "▁lift": 8990,
      "agnetic": 8991,
      "▁globally": 8992,
      "▁realized": 8993,
      "▁worn": 8994,
[...]
