<unk>	0
<s>	0
</s>	0
<pad>	0
<0x00>	0
<0x01>	0
<0x02>	0
<0x03>	0
<0x04>	0
<0x05>	0
<0x06>	0
<0x07>	0
<0x08>	0
<0x09>	0
<0x0A>	0
<0x0B>	0
<0x0C>	0
<0x0D>	0
<0x0E>	0
<0x0F>	0
<0x10>	0
<0x11>	0
<0x12>	0
<0x13>	0
<0x14>	0
<0x15>	0
<0x16>	0
<0x17>	0
<0x18>	0
<0x19>	0
<0x1A>	0
<0x1B>	0
<0x1C>	0
<0x1D>	0
<0x1E>	0
<0x1F>	0
<0x20>	0
<0x21>	0
<0x22>	0
<0x23>	0
<0x24>	0
<0x25>	0
<0x26>	0
<0x27>	0
<0x28>	0
<0x29>	0
<0x2A>	0
<0x2B>	0
<0x2C>	0
<0x2D>	0
<0x2E>	0
<0x2F>	0
<0x30>	0
<0x31>	0
<0x32>	0
<0x33>	0
<0x34>	0
<0x35>	0
<0x36>	0
<0x37>	0
<0x38>	0
<0x39>	0
<0x3A>	0
<0x3B>	0
<0x3C>	0
<0x3D>	0
<0x3E>	0
<0x3F>	0
<0x40>	0
<0x41>	0
<0x42>	0
<0x43>	0
<0x44>	0
<0x45>	0
<0x46>	0
<0x47>	0
<0x48>	0
<0x49>	0
<0x4A>	0
<0x4B>	0
<0x4C>	0
<0x4D>	0
<0x4E>	0
<0x4F>	0
<0x50>	0
<0x51>	0
<0x52>	0
<0x53>	0
<0x54>	0
<0x55>	0
<0x56>	0
<0x57>	0
<0x58>	0
<0x59>	0
<0x5A>	0
<0x5B>	0
<0x5C>	0
<0x5D>	0
<0x5E>	0
<0x5F>	0
<0x60>	0
<0x61>	0
<0x62>	0
<0x63>	0
<0x64>	0
<0x65>	0
<0x66>	0
<0x67>	0
<0x68>	0
<0x69>	0
<0x6A>	0
<0x6B>	0
<0x6C>	0
<0x6D>	0
<0x6E>	0
<0x6F>	0
<0x70>	0
<0x71>	0
<0x72>	0
<0x73>	0
<0x74>	0
<0x75>	0
<0x76>	0
<0x77>	0
<0x78>	0
<0x79>	0
<0x7A>	0
<0x7B>	0
<0x7C>	0
<0x7D>	0
<0x7E>	0
<0x7F>	0
<0x80>	0
<0x81>	0
<0x82>	0
<0x83>	0
<0x84>	0
<0x85>	0
<0x86>	0
<0x87>	0
<0x88>	0
<0x89>	0
<0x8A>	0
<0x8B>	0
<0x8C>	0
<0x8D>	0
<0x8E>	0
<0x8F>	0
<0x90>	0
<0x91>	0
<0x92>	0
<0x93>	0
<0x94>	0
<0x95>	0
<0x96>	0
<0x97>	0
<0x98>	0
<0x99>	0
<0x9A>	0
<0x9B>	0
<0x9C>	0
<0x9D>	0
<0x9E>	0
<0x9F>	0
<0xA0>	0
<0xA1>	0
<0xA2>	0
<0xA3>	0
<0xA4>	0
<0xA5>	0
<0xA6>	0
<0xA7>	0
<0xA8>	0
<0xA9>	0
<0xAA>	0
<0xAB>	0
<0xAC>	0
<0xAD>	0
<0xAE>	0
<0xAF>	0
<0xB0>	0
<0xB1>	0
<0xB2>	0
<0xB3>	0
<0xB4>	0
<0xB5>	0
<0xB6>	0
<0xB7>	0
<0xB8>	0
<0xB9>	0
<0xBA>	0
<0xBB>	0
<0xBC>	0
<0xBD>	0
<0xBE>	0
<0xBF>	0
<0xC0>	0
<0xC1>	0
<0xC2>	0
<0xC3>	0
<0xC4>	0
<0xC5>	0
<0xC6>	0
<0xC7>	0
<0xC8>	0
<0xC9>	0
<0xCA>	0
<0xCB>	0
<0xCC>	0
<0xCD>	0
<0xCE>	0
<0xCF>	0
<0xD0>	0
<0xD1>	0
<0xD2>	0
<0xD3>	0
<0xD4>	0
<0xD5>	0
<0xD6>	0
<0xD7>	0
<0xD8>	0
<0xD9>	0
<0xDA>	0
<0xDB>	0
<0xDC>	0
<0xDD>	0
<0xDE>	0
<0xDF>	0
<0xE0>	0
<0xE1>	0
<0xE2>	0
<0xE3>	0
<0xE4>	0
<0xE5>	0
<0xE6>	0
<0xE7>	0
<0xE8>	0
<0xE9>	0
<0xEA>	0
<0xEB>	0
<0xEC>	0
<0xED>	0
<0xEE>	0
<0xEF>	0
<0xF0>	0
<0xF1>	0
<0xF2>	0
<0xF3>	0
<0xF4>	0
<0xF5>	0
<0xF6>	0
<0xF7>	0
<0xF8>	0
<0xF9>	0
<0xFA>	0
<0xFB>	0
<0xFC>	0
<0xFD>	0
<0xFE>	0
<0xFF>	0
▁t	-0
▁a	-1
he	-2
in	-3
re	-4
▁the	-5
▁s	-6
▁o	-7
er	-8
▁c	-9
at	-10
on	-11
▁w	-12
en	-13
▁p	-14
es	-15
▁b	-16
is	-17
it	-18
▁f	-19
nd	-20
or	-21
▁m	-22
al	-23
▁in	-24
an	-25
ed	-26
ing	-27
▁of	-28
▁d	-29
ou	-30
ar	-31
▁to	-32
▁and	-33
ic	-34
ion	-35
le	-36
ro	-37
▁h	-38
▁th	-39
as	-40
▁e	-41
ent	-42
▁l	-43
▁n	-44
▁re	-45
ct	-46
il	-47
▁g	-48
ve	-49
om	-50
us	-51
▁is	-52
▁be	-53
ly	-54
ol	-55
▁st	-56
st	-57
▁y	-58
id	-59
im	-60
et	-61
ation	-62
ra	-63
▁for	-64
ow	-65
ut	-66
ch	-67
ur	-68
▁on	-69
ce	-70
ot	-71
ig	-72
▁that	-73
ver	-74
se	-75
ir	-76
▁you	-77
▁it	-78
ay	-79
▁as	-80
▁pro	-81
ul	-82
▁an	-83
▁he	-84
▁are	-85
am	-86
▁wh	-87
▁con	-88
if	-89
un	-90
ith	-91
▁al	-92
el	-93
ad	-94
▁with	-95
▁or	-96
her	-97
▁mo	-98
ter	-99
▁de	-100
th	-101
ge	-102
▁v	-103
▁we	-104
▁ch	-105
ill	-106
op	-107
ment	-108
▁com	-109
▁ex	-110
ts	-111
ers	-112
ate	-113
▁ha	-114
▁1	-115
ess	-116
ies	-117
od	-118
▁r	-119
▁(	-120
ect	-121
ke	-122
▁this	-123
um	-124
▁can	-125
▁ne	-126
ab	-127
res	-128
▁us	-129
rom	-130
▁at	-131
ive	-132
ac	-133
ity	-134
▁by	-135
▁su	-136
qu	-137
▁se	-138
est	-139
ud	-140
ist	-141
ld	-142
▁-	-143
os	-144
▁le	-145
▁from	-146
igh	-147
iv	-148
▁en	-149
ain	-150
pp	-151
▁sp	-152
em	-153
▁j	-154
ci	-155
▁k	-156
and	-157
ren	-158
▁sh	-159
▁was	-160
▁u	-161
▁wor	-162
▁2	-163
ure	-164
ant	-165
▁have	-166
ort	-167
▁ab	-168
ical	-169
▁pl	-170
▁not	-171
og	-172
ri	-173
art	-174
▁im	-175
▁your	-176
rou	-177
red	-178
▁un	-179
all	-180
▁whe	-181
▁they	-182
out	-183
ap	-184
▁so	-185
ions	-186
ine	-187
our	-188
ome	-189
gh	-190
ide	-191
▁ad	-192
ag	-193
ich	-194
ight	-195
ated	-196
ust	-197
▁their	-198
ould	-199
ard	-200
00	-201
▁will	-202
ell	-203
act	-204
▁int	-205
▁te	-206
ther	-207
oc	-208
age	-209
▁comp	-210
▁more	-211
▁dis	-212
so	-213
▁all	-214
du	-215
ast	-216
▁cl	-217
▁ac	-218
ood	-219
ak	-220
▁cont	-221
ff	-222
▁inc	-223
ans	-224
per	-225
pl	-226
ally	-227
▁but	-228
▁res	-229
ild	-230
pt	-231
▁do	-232
▁which	-233
▁man	-234
ater	-235
vel	-236
▁stud	-237
▁has	-238
ib	-239
iz	-240
ous	-241
ear	-242
ru	-243
▁ar	-244
ks	-245
end	-246
▁how	-247
orm	-248
ia	-249
ie	-250
ents	-251
▁one	-252
▁me	-253
ations	-254
▁other	-255
ip	-256
ong	-257
ary	-258
▁per	-259
ind	-260
oun	-261
ore	-262
▁imp	-263
oo	-264
▁also	-265
able	-266
ult	-267
▁about	-268
ake	-269
▁if	-270
ach	-271
ry	-272
ial	-273
▁am	-274
ase	-275
▁pe	-276
ence	-277
▁when	-278
reat	-279
▁inf	-280
▁out	-281
▁new	-282
ass	-283
▁comm	-284
▁ro	-285
▁i	-286
▁sy	-287
▁tim	-288
ign	-289
▁sa	-290
▁col	-291
▁its	-292
▁app	-293
▁ev	-294
▁co	-295
aus	-296
▁di	-297
▁there	-298
ace	-299
ice	-300
▁"	-301
▁these	-302
ance	-303
very	-304
▁qu	-305
▁pre	-306
cess	-307
ction	-308
one	-309
fe	-310
▁some	-311
ress	-312
▁what	-313
ition	-314
▁fe	-315
▁were	-316
ber	-317
▁who	-318
ory	-319
ite	-320
▁may	-321
ens	-322
▁ind	-323
ces	-324
ound	-325
▁year	-326
▁bl	-327
ors	-328
ack	-329
are	-330
ord	-331
▁part	-332
ike	-333
▁spe	-334
▁up	-335
now	-336
▁ra	-337
▁fl	-338
ish	-339
av	-340
▁than	-341
ays	-342
olog	-343
ang	-344
ree	-345
▁ph	-346
▁po	-347
ame	-348
ep	-349
▁bec	-350
▁rec	-351
▁them	-352
ub	-353
ric	-354
▁child	-355
▁our	-356
▁use	-357
ount	-358
▁peop	-359
▁go	-360
ue	-361
▁tra	-362
ose	-363
▁hel	-364
ile	-365
▁people	-366
vers	-367
▁work	-368
▁ag	-369
rent	-370
▁over	-371
alth	-372
▁most	-373
▁act	-374
ings	-375
ph	-376
arn	-377
▁19	-378
te	-379
ail	-380
ys	-381
▁time	-382
ates	-383
lud	-384
rit	-385
▁help	-386
▁und	-387
▁20	-388
pe	-389
ook	-390
▁into	-391
▁like	-392
▁des	-393
▁rese	-394
▁know	-395
ms	-396
▁3	-397
▁dif	-398
▁sc	-399
▁his	-400
▁cons	-401
rough	-402
▁tw	-403
▁been	-404
▁em	-405
▁no	-406
▁resear	-407
erv	-408
▁inter	-409
▁health	-410
les	-411
row	-412
▁fir	-413
ough	-414
▁gen	-415
▁tr	-416
▁af	-417
ject	-418
▁under	-419
▁bet	-420
als	-421
ause	-422
we	-423
▁many	-424
velop	-425
uc	-426
▁need	-427
▁includ	-428
lect	-429
▁pr	-430
▁develop	-431
low	-432
ian	-433
▁rep	-434
▁first	-435
ond	-436
ific	-437
ities	-438
▁water	-439
ons	-440
▁used	-441
▁mar	-442
lic	-443
ments	-444
stem	-445
▁eff	-446
▁through	-447
▁produ	-448
▁such	-449
▁any	-450
).	-451
▁prov	-452
ational	-453
▁ed	-454
round	-455
ple	-456
ating	-457
▁sur	-458
▁add	-459
▁rel	-460
▁acc	-461
▁sm	-462
hed	-463
▁ear	-464
▁learn	-465
ics	-466
▁cent	-467
▁sci	-468
ink	-469
▁off	-470
ular	-471
▁system	-472
▁two	-473
▁reg	-474
▁ob	-475
ire	-476
ative	-477
▁med	-478
▁sch	-479
cial	-480
▁only	-481
▁inst	-482
▁diffe	-483
▁would	-484
ool	-485
ced	-486
eth	-487
▁car	-488
ble	-489
▁world	-490
▁get	-491
ath	-492
ious	-493
uring	-494
▁exp	-495
erg	-496
int	-497
▁high	-498
ick	-499
▁well	-500
▁make	-501
ual	-502
▁pres	-503
▁dec	-504
iss	-505
ram	-506
▁bu	-507
ange	-508
ful	-509
▁years	-510
oss	-511
ures	-512
▁rem	-513
▁plan	-514
▁after	-515
▁had	-516
ower	-517
oth	-518
▁found	-519
▁ke	-520
ten	-521
▁children	-522
ise	-523
ased	-524
▁students	-525
ife	-526
ds	-527
▁form	-528
▁201	-529
own	-530
ck	-531
rib	-532
ting	-533
▁said	-534
▁gra	-535
▁ty	-536
▁4	-537
▁inform	-538
ible	-539
▁supp	-540
▁should	-541
▁att	-542
▁inv	-543
▁read	-544
▁sub	-545
hes	-546
chn	-547
▁par	-548
ract	-549
▁prog	-550
erm	-551
▁school	-552
▁eng	-553
ility	-554
ology	-555
▁where	-556
▁pub	-557
▁num	-558
▁spec	-559
ll	-560
its	-561
▁could	-562
wn	-563
▁mon	-564
eric	-565
▁sim	-566
ob	-567
▁research	-568
▁5	-569
▁import	-570
▁trans	-571
▁count	-572
cy	-573
▁uni	-574
▁she	-575
▁just	-576
▁exam	-577
▁techn	-578
▁study	-579
ween	-580
▁che	-581
ne	-582
ps	-583
▁mod	-584
▁see	-585
▁food	-586
▁between	-587
▁each	-588
ists	-589
▁sol	-590
▁dr	-591
urn	-592
▁pol	-593
ert	-594
fore	-595
▁art	-596
ade	-597
▁because	-598
ins	-599
▁exper	-600
),	-601
▁sk	-602
▁dep	-603
▁then	-604
▁pers	-605
▁disc	-606
▁even	-607
▁hum	-608
gan	-609
▁long	-610
ily	-611
▁gl	-612
xt	-613
ural	-614
▁every	-615
▁lar	-616
▁hist	-617
ines	-618
▁information	-619
▁fol	-620
▁dat	-621
▁different	-622
ident	-623
▁her	-624
▁det	-625
ied	-626
ost	-627
▁while	-628
hers	-629
▁find	-630
▁pat	-631
ont	-632
▁during	-633
get	-634
▁way	-635
▁effect	-636
ution	-637
ved	-638
ict	-639
ually	-640
▁americ	-641
▁gener	-642
▁cre	-643
iron	-644
▁incre	-645
ft	-646
▁loc	-647
cer	-648
land	-649
▁day	-650
▁using	-651
▁call	-652
▁cur	-653
▁sec	-654
▁var	-655
aking	-656
ited	-657
▁sign	-658
▁br	-659
▁ass	-660
▁commun	-661
▁dise	-662
▁very	-663
▁min	-664
vent	-665
arm	-666
▁ext	-667
sel	-668
uch	-669
▁av	-670
ature	-671
▁those	-672
▁fam	-673
ety	-674
▁life	-675
ove	-676
ages	-677
..	-678
▁expl	-679
tern	-680
iew	-681
▁important	-682
cent	-683
ives	-684
▁grow	-685
▁aut	-686
ases	-687
ving	-688
▁cor	-689
▁la	-690
▁process	-691
▁resp	-692
▁now	-693
▁data	-694
▁set	-695
▁fact	-696
ues	-697
▁200	-698
the	-699
▁partic	-700
ically	-701
▁my	-702
versity	-703
▁proble	-704
▁bod	-705
▁mus	-706
ros	-707
day	-708
▁state	-709
▁dist	-710
▁show	-711
▁level	-712
form	-713
▁env	-714
▁ma	-715
▁vis	-716
rect	-717
▁prot	-718
cc	-719
▁lead	-720
▁educ	-721
▁follow	-722
▁much	-723
▁back	-724
▁18	-725
▁being	-726
▁ins	-727
▁less	-728
▁good	-729
▁treat	-730
ruct	-731
▁does	-732
▁|	-733
▁environ	-734
gg	-735
ever	-736
tle	-737
▁pop	-738
▁6	-739
▁small	-740
▁str	-741
▁ris	-742
▁class	-743
▁ent	-744
led	-745
▁take	-746
▁requ	-747
▁def	-748
io	-749
ergy	-750
▁design	-751
▁gu	-752
▁gre	-753
▁lit	-754
ize	-755
ness	-756
▁before	-757
▁ec	-758
old	-759
ices	-760
▁fun	-761
▁both	-762
▁grou	-763
▁end	-764
▁val	-765
▁char	-766
▁cal	-767
ning	-768
other	-769
▁down	-770
▁activ	-771
read	-772
▁look	-773
▁pa	-774
▁common	-775
▁comple	-776
▁serv	-777
▁around	-778
ection	-779
ene	-780
ted	-781
ward	-782
stand	-783
▁elect	-784
▁made	-785
▁own	-786
▁environment	-787
▁however	-788
▁often	-789
▁main	-790
ids	-791
ism	-792
▁cell	-793
oy	-794
▁bra	-795
ale	-796
akes	-797
▁cap	-798
▁organ	-799
▁ref	-800
▁project	-801
▁number	-802
▁provid	-803
ves	-804
▁person	-805
▁test	-806
imate	-807
▁cle	-808
▁here	-809
▁great	-810
▁energy	-811
ger	-812
▁inte	-813
ected	-814
000	-815
und	-816
▁wom	-817
▁redu	-818
▁same	-819
▁mem	-820
ather	-821
iel	-822
▁university	-823
▁hand	-824
▁body	-825
▁disease	-826
▁three	-827
▁appro	-828
ized	-829
▁human	-830
ty	-831
▁writ	-832
▁contro	-833
▁national	-834
▁eas	-835
ality	-836
▁care	-837
cept	-838
ork	-839
▁prof	-840
▁power	-841
▁build	-842
▁cour	-843
▁ser	-844
ute	-845
▁land	-846
ets	-847
ished	-848
com	-849
▁som	-850
▁z	-851
▁public	-852
▁program	-853
▁met	-854
▁bo	-855
▁cond	-856
▁occ	-857
ix	-858
ters	-859
▁mat	-860
▁jo	-861
▁understand	-862
▁10	-863
ants	-864
▁start	-865
ient	-866
▁too	-867
onom	-868
▁ve	-869
▁history	-870
▁scient	-871
ince	-872
▁quest	-873
▁bel	-874
der	-875
▁air	-876
▁op	-877
▁mater	-878
▁fin	-879
▁phys	-880
▁poss	-881
iving	-882
▁intern	-883
de	-884
ains	-885
ined	-886
hip	-887
▁aff	-888
▁adv	-889
▁bi	-890
▁including	-891
ivid	-892
▁7	-893
ury	-894
▁mill	-895
▁states	-896
ral	-897
ier	-898
vern	-899
▁fr	-900
▁tem	-901
rest	-902
ull	-903
▁equ	-904
▁bre	-905
▁material	-906
▁typ	-907
▁think	-908
▁known	-909
▁pract	-910
▁home	-911
▁est	-912
cl	-913
up	-914
▁sym	-915
▁nat	-916
▁aw	-917
king	-918
▁large	-919
▁development	-920
▁caus	-921
acter	-922
▁const	-923
ults	-924
ross	-925
▁play	-926
▁change	-927
▁stand	-928
oms	-929
ources	-930
nt	-931
▁learning	-932
ital	-933
▁8	-934
▁contin	-935
ency	-936
▁called	-937
▁allow	-938
▁science	-939
▁bas	-940
ulation	-941
▁ant	-942
ars	-943
▁anim	-944
▁researc	-945
▁again	-946
ording	-947
orn	-948
▁report	-949
▁beh	-950
▁though	-951
▁keep	-952
outh	-953
▁blood	-954
▁impro	-955
line	-956
▁support	-957
▁top	-958
▁sl	-959
▁risk	-960
▁hy	-961
ouse	-962
,000	-963
▁example	-964
▁old	-965
▁light	-966
▁place	-967
▁pain	-968
▁direct	-969
▁chang	-970
uss	-971
▁pot	-972
▁govern	-973
▁area	-974
raph	-975
itions	-976
."	-977
▁ret	-978
els	-979
▁another	-980
▁still	-981
▁rev	-982
▁conf	-983
▁few	-984
bs	-985
▁ge	-986
ional	-987
▁tre	-988
▁plant	-989
▁did	-990
▁since	-991
▁el	-992
me	-993
▁experi	-994
▁meth	-995
▁ide	-996
▁product	-997
ock	-998
ared	-999
eng	-1000
agn	-1001
▁sw	-1002
▁right	-1003
angu	-1004
▁ident	-1005
ium	-1006
▁last	-1007
▁ess	-1008
▁according	-1009
▁want	-1010
▁nor	-1011
ering	-1012
lish	-1013
,"	-1014
▁species	-1015
▁iss	-1016
▁early	-1017
▁present	-1018
▁prevent	-1019
▁must	-1020
▁war	-1021
▁include	-1022
▁anal	-1023
▁9	-1024
▁pur	-1025
orts	-1026
▁meas	-1027
ron	-1028
ource	-1029
▁women	-1030
▁earth	-1031
▁wee	-1032
▁langu	-1033
▁why	-1034
▁education	-1035
soci	-1036
▁american	-1037
▁bir	-1038
ential	-1039
▁percent	-1040
▁best	-1041
20	-1042
▁mil	-1043
▁book	-1044
▁lab	-1045
▁space	-1046
▁dem	-1047
ights	-1048
ills	-1049
▁control	-1050
itive	-1051
▁sit	-1052
ired	-1053
▁es	-1054
gin	-1055
ries	-1056
▁low	-1057
▁might	-1058
▁researchers	-1059
rop	-1060
▁second	-1061
rence	-1062
▁imm	-1063
▁social	-1064
air	-1065
▁within	-1066
-1	-1067
▁without	-1068
▁vir	-1069
▁vari	-1070
ark	-1071
▁associ	-1072
||	-1073
▁fore	-1074
▁colle	-1075
▁pap	-1076
▁cancer	-1077
▁pass	-1078
pr	-1079
osed	-1080
▁current	-1081
co	-1082
▁better	-1083
▁ele	-1084
▁cause	-1085
▁post	-1086
bers	-1087
▁individ	-1088
rodu	-1089
▁mark	-1090
▁near	-1091
▁family	-1092
▁sever	-1093
▁free	-1094
▁group	-1095
ats	-1096
▁cr	-1097
▁avail	-1098
ption	-1099
▁comput	-1100
▁dra	-1101
▁press	-1102
▁method	-1103
▁desc	-1104
▁profess	-1105
▁addition	-1106
br	-1107
iven	-1108
ining	-1109
▁result	-1110
ination	-1111
cing	-1112
▁interest	-1113
▁technology	-1114
ave	-1115
ner	-1116
▁provide	-1117
▁dev	-1118
▁gr	-1119
lished	-1120
▁bene	-1121
iqu	-1122
▁cult	-1123
ns	-1124
▁proper	-1125
▁list	-1126
ason	-1127
ental	-1128
inal	-1129
▁says	-1130
ton	-1131
be	-1132
iver	-1133
ield	-1134
▁creat	-1135
ify	-1136
ax	-1137
▁auth	-1138
ograph	-1139
▁natural	-1140
uro	-1141
▁orig	-1142
▁cam	-1143
▁type	-1144
▁let	-1145
self	-1146
▁pos	-1147
ior	-1148
▁age	-1149
▁leg	-1150
▁maj	-1151
▁access	-1152
▁rest	-1153
▁become	-1154
▁today	-1155
▁mean	-1156
▁open	-1157
▁move	-1158
au	-1159
▁times	-1160
hing	-1161
▁month	-1162
▁youn	-1163
▁vol	-1164
ov	-1165
▁several	-1166
▁teac	-1167
ense	-1168
▁&	-1169
▁treatment	-1170
▁artic	-1171
▁areas	-1172
▁cert	-1173
ah	-1174
▁(1	-1175
ients	-1176
▁bus	-1177
▁head	-1178
▁available	-1179
▁occur	-1180
ator	-1181
ards	-1182
▁four	-1183
▁able	-1184
ological	-1185
▁sun	-1186
work	-1187
ots	-1188
▁del	-1189
ways	-1190
▁medic	-1191
man	-1192
▁econom	-1193
▁united	-1194
ently	-1195
▁major	-1196
▁him	-1197
▁benef	-1198
ization	-1199
▁name	-1200
iod	-1201
▁happ	-1202
▁say	-1203
ified	-1204
▁hig	-1205
▁ill	-1206
▁heart	-1207
▁works	-1208
ences	-1209
▁law	-1210
ration	-1211
▁point	-1212
▁opp	-1213
▁ter	-1214
▁oper	-1215
oid	-1216
iness	-1217
▁real	-1218
▁belie	-1219
▁perform	-1220
▁turn	-1221
▁rad	-1222
▁conn	-1223
▁means	-1224
osp	-1225
▁object	-1226
ived	-1227
▁phot	-1228
ones	-1229
▁following	-1230
▁problems	-1231
less	-1232
gen	-1233
▁based	-1234
▁impact	-1235
ories	-1236
▁unt	-1237
▁period	-1238
▁create	-1239
▁language	-1240
▁possible	-1241
▁compan	-1242
ability	-1243
▁things	-1244
▁run	-1245
▁order	-1246
▁non	-1247
cle	-1248
▁lim	-1249
ples	-1250
▁cost	-1251
▁view	-1252
ission	-1253
▁fre	-1254
▁plants	-1255
▁hard	-1256
▁infl	-1257
ex	-1258
▁bro	-1259
▁suc	-1260
▁among	-1261
ug	-1262
▁15	-1263
▁chem	-1264
sc	-1265
▁foc	-1266
▁feel	-1267
▁invol	-1268
▁problem	-1269
ern	-1270
▁cells	-1271
0.	-1272
▁ey	-1273
▁fac	-1274
▁step	-1275
▁dam	-1276
▁making	-1277
atic	-1278
▁north	-1279
▁prom	-1280
ides	-1281
▁put	-1282
▁mult	-1283
▁team	-1284
▁little	-1285
▁diff	-1286
▁levels	-1287
▁brain	-1288
▁mic	-1289
par	-1290
▁sum	-1291
▁government	-1292
ames	-1293
▁struct	-1294
▁soci	-1295
na	-1296
▁green	-1297
▁glob	-1298
▁others	-1299
to	-1300
ained	-1301
ooks	-1302
▁wind	-1303
▁x	-1304
▁city	-1305
▁next	-1306
ik	-1307
▁words	-1308
▁particular	-1309
ank	-1310
▁local	-1311
▁sal	-1312
▁south	-1313
__	-1314
▁focus	-1315
▁men	-1316
ians	-1317
▁mot	-1318
ends	-1319
▁ste	-1320
▁short	-1321
ered	-1322
▁special	-1323
▁million	-1324
▁young	-1325
▁key	-1326
▁course	-1327
▁community	-1328
▁wr	-1329
▁signific	-1330
▁sympt	-1331
▁er	-1332
▁country	-1333
ash	-1334
ider	-1335
ling	-1336
.,	-1337
▁temper	-1338
▁net	-1339
▁red	-1340
▁lo	-1341
ime	-1342
ests	-1343
▁cir	-1344
▁medical	-1345
▁tool	-1346
▁fil	-1347
▁rele	-1348
▁cy	-1349
face	-1350
ane	-1351
▁try	-1352
▁once	-1353
▁come	-1354
ision	-1355
▁indust	-1356
▁results	-1357
▁systems	-1358
▁ce	-1359
bit	-1360
ogn	-1361
erc	-1362
▁tri	-1363
une	-1364
▁manage	-1365
▁usually	-1366
▁paper	-1367
▁sugg	-1368
▁fut	-1369
▁consum	-1370
▁along	-1371
ina	-1372
ateg	-1373
here	-1374
▁black	-1375
▁cat	-1376
rap	-1377
ope	-1378
▁past	-1379
▁mid	-1380
az	-1381
▁fur	-1382
ething	-1383
▁big	-1384
▁due	-1385
▁house	-1386
▁record	-1387
▁climate	-1388
sw	-1389
ww	-1390
▁days	-1391
▁resources	-1392
▁12	-1393
cially	-1394
▁word	-1395
ised	-1396
▁sing	-1397
▁enc	-1398
▁center	-1399
▁nut	-1400
ilar	-1401
alk	-1402
▁studies	-1403
▁trad	-1404
▁behav	-1405
ention	-1406
tt	-1407
▁instit	-1408
▁until	-1409
▁dig	-1410
ended	-1411
▁against	-1412
▁something	-1413
▁likely	-1414
atory	-1415
▁function	-1416
▁obs	-1417
▁comb	-1418
▁working	-1419
▁certain	-1420
▁determ	-1421
▁future	-1422
▁symptoms	-1423
pect	-1424
▁success	-1425
▁full	-1426
▁engine	-1427
▁give	-1428
▁rece	-1429
▁across	-1430
▁arch	-1431
▁news	-1432
idence	-1433
▁death	-1434
▁flow	-1435
▁ann	-1436
▁far	-1437
▁teach	-1438
▁protect	-1439
etic	-1440
▁white	-1441
▁toget	-1442
▁similar	-1443
▁together	-1444
▁increase	-1445
ances	-1446
▁week	-1447
▁scientists	-1448
▁patients	-1449
▁prev	-1450
▁improve	-1451
▁begin	-1452
▁prop	-1453
▁author	-1454
icult	-1455
▁general	-1456
▁ur	-1457
▁stre	-1458
though	-1459
▁discuss	-1460
ape	-1461
▁jour	-1462
▁$	-1463
▁skills	-1464
▁given	-1465
▁invest	-1466
▁color	-1467
▁case	-1468
▁summ	-1469
▁cop	-1470
▁text	-1471
ote	-1472
▁'	-1473
urope	-1474
▁significant	-1475
▁english	-1476
ven	-1477
▁don	-1478
▁line	-1479
▁story	-1480
▁17	-1481
▁below	-1482
▁source	-1483
▁always	-1484
▁ways	-1485
▁wild	-1486
▁conditions	-1487
▁effective	-1488
▁later	-1489
...	-1490
ortun	-1491
▁types	-1492
▁dont	-1493
ators	-1494
arch	-1495
▁199	-1496
rents	-1497
ured	-1498
▁repres	-1499
▁appear	-1500
▁changes	-1501
▁applic	-1502
cul	-1503
▁norm	-1504
▁healthy	-1505
▁century	-1506
▁although	-1507
str	-1508
aring	-1509
omm	-1510
▁questions	-1511
ably	-1512
ours	-1513
▁ple	-1514
aves	-1515
ems	-1516
▁activities	-1517
▁wat	-1518
▁bat	-1519
▁specific	-1520
ode	-1521
hy	-1522
▁lib	-1523
▁sens	-1524
▁complete	-1525
▁flu	-1526
aps	-1527
eral	-1528
ately	-1529
▁europe	-1530
▁physical	-1531
▁further	-1532
▁soil	-1533
▁activity	-1534
ression	-1535
▁site	-1536
▁mass	-1537
▁needs	-1538
▁population	-1539
ox	-1540
gs	-1541
ledge	-1542
imes	-1543
aw	-1544
▁introdu	-1545
aut	-1546
▁reading	-1547
▁sure	-1548
▁higher	-1549
▁kind	-1550
▁[	-1551
▁opt	-1552
▁bar	-1553
▁afric	-1554
▁published	-1555
▁environmental	-1556
lo	-1557
▁sam	-1558
aken	-1559
▁ver	-1560
pecially	-1561
▁global	-1562
▁difficult	-1563
▁histor	-1564
que	-1565
▁visit	-1566
▁live	-1567
elf	-1568
ring	-1569
▁experience	-1570
▁crit	-1571
▁side	-1572
▁article	-1573
▁lower	-1574
▁answ	-1575
ending	-1576
ember	-1577
▁having	-1578
▁et	-1579
▁away	-1580
▁fall	-1581
▁carb	-1582
▁check	-1583
▁online	-1584
▁whether	-1585
aces	-1586
▁various	-1587
▁har	-1588
▁prim	-1589
▁strong	-1590
▁1.	-1591
▁god	-1592
▁hal	-1593
▁effects	-1594
▁kids	-1595
▁character	-1596
▁.	-1597
▁enough	-1598
▁materials	-1599
▁chall	-1600
▁describ	-1601
▁ground	-1602
pa	-1603
▁fish	-1604
atures	-1605
ips	-1606
asing	-1607
▁saf	-1608
▁writing	-1609
ables	-1610
aining	-1611
▁range	-1612
▁cut	-1613
▁dru	-1614
▁least	-1615
ae	-1616
▁vide	-1617
olution	-1618
rist	-1619
▁ask	-1620
▁animals	-1621
▁computer	-1622
▁affect	-1623
▁building	-1624
▁above	-1625
▁win	-1626
▁stat	-1627
▁five	-1628
aster	-1629
▁quality	-1630
▁port	-1631
▁field	-1632
por	-1633
hern	-1634
ruction	-1635
▁16	-1636
eds	-1637
▁business	-1638
▁lot	-1639
▁reduce	-1640
ploy	-1641
min	-1642
▁skin	-1643
▁international	-1644
▁fat	-1645
▁communic	-1646
▁never	-1647
amm	-1648
ither	-1649
▁particip	-1650
▁surface	-1651
▁hol	-1652
▁especially	-1653
let	-1654
▁term	-1655
▁countries	-1656
▁vi	-1657
▁left	-1658
ribut	-1659
ening	-1660
nal	-1661
▁sat	-1662
▁fund	-1663
omes	-1664
▁lat	-1665
sh	-1666
▁makes	-1667
sy	-1668
▁doct	-1669
ires	-1670
ches	-1671
▁fri	-1672
▁respons	-1673
▁sound	-1674
▁knowledge	-1675
▁loss	-1676
▁diet	-1677
▁analys	-1678
▁clear	-1679
ument	-1680
▁parents	-1681
▁understanding	-1682
hen	-1683
most	-1684
▁products	-1685
▁student	-1686
▁amount	-1687
ilt	-1688
▁require	-1689
▁going	-1690
▁pred	-1691
▁simple	-1692
▁collect	-1693
verage	-1694
▁developed	-1695
of	-1696
oot	-1697
▁11	-1698
▁event	-1699
▁sle	-1700
▁tru	-1701
▁page	-1702
▁ir	-1703
▁exerc	-1704
ints	-1705
▁sea	-1706
ray	-1707
▁je	-1708
▁question	-1709
ilities	-1710
▁depart	-1711
hem	-1712
▁model	-1713
ler	-1714
▁brit	-1715
▁coll	-1716
▁gas	-1717
▁suff	-1718
▁management	-1719
▁clean	-1720
▁subject	-1721
▁tell	-1722
▁doc	-1723
oney	-1724
rams	-1725
ored	-1726
▁link	-1727
▁role	-1728
▁recomm	-1729
oura	-1730
▁size	-1731
ipp	-1732
▁chemical	-1733
▁really	-1734
▁nature	-1735
ott	-1736
▁cases	-1737
▁detail	-1738
▁farm	-1739
ites	-1740
▁oil	-1741
▁ens	-1742
▁indic	-1743
edi	-1744
▁society	-1745
▁web	-1746
▁related	-1747
▁avoid	-1748
▁growth	-1749
▁created	-1750
▁consider	-1751
▁production	-1752
gest	-1753
▁safe	-1754
▁mor	-1755
▁joh	-1756
▁pressure	-1757
not	-1758
mit	-1759
▁mind	-1760
▁close	-1761
over	-1762
▁30	-1763
▁ach	-1764
duct	-1765
itor	-1766
▁circ	-1767
▁observ	-1768
▁contact	-1769
▁dog	-1770
ially	-1771
▁exist	-1772
by	-1773
▁assess	-1774
▁provides	-1775
thing	-1776
▁christ	-1777
▁gard	-1778
▁deg	-1779
ands	-1780
▁liter	-1781
▁image	-1782
▁practice	-1783
▁potential	-1784
▁vac	-1785
ison	-1786
▁living	-1787
▁germ	-1788
▁service	-1789
▁weight	-1790
▁wide	-1791
▁init	-1792
wh	-1793
▁fire	-1794
▁coun	-1795
▁=	-1796
▁review	-1797
amin	-1798
▁self	-1799
▁rights	-1800
ready	-1801
▁poll	-1802
▁ut	-1803
▁forest	-1804
▁tradition	-1805
side	-1806
▁polic	-1807
▁prin	-1808
▁represent	-1809
▁value	-1810
▁concer	-1811
▁offic	-1812
▁necess	-1813
▁ap	-1814
etimes	-1815
▁seen	-1816
▁mal	-1817
ged	-1818
▁influ	-1819
▁stress	-1820
ley	-1821
▁famil	-1822
▁polit	-1823
ned	-1824
▁done	-1825
▁bill	-1826
osis	-1827
▁sleep	-1828
ware	-1829
ising	-1830
▁lay	-1831
▁already	-1832
▁island	-1833
▁estab	-1834
▁stra	-1835
//	-1836
▁techniqu	-1837
▁issues	-1838
▁prob	-1839
▁suggest	-1840
▁groups	-1841
▁quick	-1842
▁river	-1843
50	-1844
▁super	-1845
▁individual	-1846
▁cho	-1847
▁address	-1848
▁micro	-1849
▁fru	-1850
▁--	-1851
▁opportun	-1852
▁recogn	-1853
▁solar	-1854
▁safety	-1855
eter	-1856
iting	-1857
▁bab	-1858
▁return	-1859
▁schools	-1860
verse	-1861
▁relations	-1862
for	-1863
lement	-1864
▁aust	-1865
▁single	-1866
▁modern	-1867
▁rate	-1868
▁wood	-1869
▁condition	-1870
ma	-1871
▁tot	-1872
▁heat	-1873
▁achie	-1874
▁soft	-1875
▁2.	-1876
▁actually	-1877
▁parts	-1878
rel	-1879
▁services	-1880
▁carbon	-1881
2.	-1882
selves	-1883
▁sometimes	-1884
uals	-1885
ster	-1886
▁sent	-1887
▁bal	-1888
▁associated	-1889
org	-1890
▁meet	-1891
port	-1892
▁recent	-1893
▁measure	-1894
▁analysis	-1895
▁inj	-1896
▁feed	-1897
▁throughout	-1898
▁yet	-1899
▁eat	-1900
▁shows	-1901
▁diagn	-1902
▁pict	-1903
▁14	-1904
ret	-1905
▁star	-1906
▁arm	-1907
▁neg	-1908
▁teachers	-1909
▁webs	-1910
▁smo	-1911
dle	-1912
▁either	-1913
aging	-1914
▁frequ	-1915
▁increased	-1916
af	-1917
▁ju	-1918
▁comes	-1919
▁king	-1920
put	-1921
xic	-1922
▁fig	-1923
ead	-1924
fact	-1925
▁bacter	-1926
▁face	-1927
▁fed	-1928
ask	-1929
go	-1930
▁half	-1931
▁journal	-1932
▁toward	-1933
▁causes	-1934
▁department	-1935
▁reason	-1936
://	-1937
ival	-1938
▁repl	-1939
icient	-1940
▁content	-1941
▁print	-1942
▁rather	-1943
▁taken	-1944
▁ox	-1945
▁abs	-1946
▁vers	-1947
▁dom	-1948
abet	-1949
▁warm	-1950
istic	-1951
ze	-1952
▁months	-1953
▁america	-1954
ference	-1955
▁produce	-1956
▁became	-1957
▁100	-1958
▁needed	-1959
▁pie	-1960
▁stop	-1961
▁foods	-1962
▁electric	-1963
▁designed	-1964
▁ability	-1965
▁whole	-1966
▁disord	-1967
▁taking	-1968
ges	-1969
▁easy	-1970
▁fu	-1971
▁almost	-1972
▁please	-1973
▁six	-1974
ching	-1975
▁ang	-1976
▁includes	-1977
ump	-1978
▁spread	-1979
▁ep	-1980
▁prote	-1981
▁strateg	-1982
way	-1983
1.	-1984
▁miss	-1985
ification	-1986
▁video	-1987
▁ever	-1988
mber	-1989
▁situ	-1990
gar	-1991
▁oce	-1992
ird	-1993
▁13	-1994
like	-1995
▁evidence	-1996
▁mount	-1997
utes	-1998
acy	-1999
▁interact	-2000
▁experim	-2001
yl	-2002
urs	-2003
▁path	-2004
▁travel	-2005
▁music	-2006
gr	-2007
▁psy	-2008
lying	-2009
erve	-2010
▁employ	-2011
▁identify	-2012
▁pay	-2013
▁origin	-2014
▁pattern	-2015
▁previous	-2016
▁react	-2017
▁tree	-2018
▁mach	-2019
▁temperature	-2020
ibility	-2021
▁draw	-2022
▁subst	-2023
▁contain	-2024
▁books	-2025
▁pen	-2026
▁cra	-2027
▁tar	-2028
▁factors	-2029
reme	-2030
▁break	-2031
▁lives	-2032
▁instead	-2033
▁helps	-2034
▁vit	-2035
▁civ	-2036
astic	-2037
▁conduct	-2038
▁job	-2039
▁click	-2040
▁complex	-2041
mon	-2042
▁regular	-2043
▁idea	-2044
▁write	-2045
iction	-2046
▁region	-2047
based	-2048
▁virus	-2049
▁training	-2050
▁popular	-2051
▁encoura	-2052
▁maint	-2053
▁pan	-2054
idered	-2055
▁approach	-2056
▁hours	-2057
▁caused	-2058
▁thought	-2059
▁basic	-2060
▁lif	-2061
yle	-2062
▁htt	-2063
▁eye	-2064
▁libr	-2065
ections	-2066
hib	-2067
ming	-2068
rict	-2069
▁benefits	-2070
▁company	-2071
▁uses	-2072
▁park	-2073
▁trees	-2074
▁sust	-2075
▁considered	-2076
ched	-2077
▁required	-2078
ened	-2079
▁surv	-2080
app	-2081
▁psych	-2082
▁programs	-2083
ronic	-2084
hol	-2085
use	-2086
ensive	-2087
▁personal	-2088
▁action	-2089
▁animal	-2090
▁german	-2091
1,	-2092
▁veget	-2093
▁pri	-2094
aily	-2095
▁surve	-2096
▁brow	-2097
▁average	-2098
2,	-2099
ued	-2100
▁variety	-2101
▁canad	-2102
▁damage	-2103
fer	-2104
illed	-2105
▁vacc	-2106
▁entire	-2107
▁defin	-2108
ec	-2109
ney	-2110
ann	-2111
ils	-2112
▁purp	-2113
acks	-2114
▁emerg	-2115
▁west	-2116
▁fail	-2117
ese	-2118
▁members	-2119
▁built	-2120
ows	-2121
▁conserv	-2122
▁essay	-2123
▁select	-2124
aff	-2125
▁structure	-2126
▁network	-2127
▁standard	-2128
augh	-2129
▁hyd	-2130
▁magn	-2131
▁sil	-2132
▁account	-2133
ls	-2134
▁behavior	-2135
▁dest	-2136
▁diseases	-2137
aged	-2138
▁getting	-2139
▁economic	-2140
▁market	-2141
▁professor	-2142
ivity	-2143
▁developing	-2144
aced	-2145
room	-2146
uck	-2147
▁answer	-2148
▁total	-2149
ises	-2150
▁share	-2151
▁money	-2152
▁led	-2153
▁images	-2154
oose	-2155
▁deep	-2156
▁individuals	-2157
ym	-2158
▁rom	-2159
▁50	-2160
▁lin	-2161
▁sources	-2162
ores	-2163
▁meaning	-2164
▁daily	-2165
▁central	-2166
▁increasing	-2167
▁labor	-2168
itud	-2169
▁conc	-2170
▁college	-2171
▁industry	-2172
ricult	-2173
▁relationship	-2174
aim	-2175
▁numbers	-2176
urity	-2177
ush	-2178
▁muse	-2179
▁fem	-2180
erous	-2181
▁bur	-2182
iation	-2183
pts	-2184
▁growing	-2185
▁agricult	-2186
▁methods	-2187
nam	-2188
▁civil	-2189
▁hun	-2190
chan	-2191
▁series	-2192
cient	-2193
▁looking	-2194
▁feet	-2195
vere	-2196
alu	-2197
▁displ	-2198
▁sn	-2199
ef	-2200
▁bring	-2201
▁card	-2202
10	-2203
▁arg	-2204
▁austral	-2205
▁0	-2206
anced	-2207
▁squ	-2208
▁written	-2209
▁normal	-2210
5.	-2211
oph	-2212
▁waste	-2213
▁drink	-2214
▁slow	-2215
▁search	-2216
▁rob	-2217
new	-2218
▁middle	-2219
▁scre	-2220
▁museum	-2221
▁note	-2222
ried	-2223
adem	-2224
▁scientific	-2225
▁habit	-2226
▁active	-2227
▁themselves	-2228
▁multip	-2229
▁wall	-2230
iam	-2231
rences	-2232
▁john	-2233
▁positive	-2234
▁teaching	-2235
▁president	-2236
▁medicine	-2237
▁log	-2238
▁longer	-2239
▁tur	-2240
▁therefore	-2241
▁cit	-2242
3.	-2243
▁calif	-2244
overed	-2245
▁institute	-2246
▁road	-2247
▁princi	-2248
ply	-2249
▁inside	-2250
▁chur	-2251
▁exc	-2252
▁dry	-2253
▁came	-2254
▁threat	-2255
▁pet	-2256
▁love	-2257
light	-2258
▁rock	-2259
▁lun	-2260
▁rich	-2261
umb	-2262
.)	-2263
▁tools	-2264
▁diabet	-2265
▁exercise	-2266
utions	-2267
ners	-2268
epend	-2269
▁therap	-2270
▁sout	-2271
▁events	-2272
▁nas	-2273
▁3.	-2274
▁arr	-2275
▁cannot	-2276
ength	-2277
▁phil	-2278
▁academ	-2279
▁clin	-2280
▁issue	-2281
▁ago	-2282
▁summer	-2283
▁heav	-2284
▁ice	-2285
▁sex	-2286
istics	-2287
▁continue	-2288
hood	-2289
▁teeth	-2290
ume	-2291
ery	-2292
▁prep	-2293
▁york	-2294
▁provided	-2295
▁county	-2296
estern	-2297
▁separ	-2298
▁media	-2299
ok	-2300
▁dou	-2301
▁humans	-2302
30	-2303
▁hold	-2304
den	-2305
fully	-2306
▁necessary	-2307
ulations	-2308
ales	-2309
▁assist	-2310
▁thus	-2311
▁relig	-2312
▁doing	-2313
izing	-2314
▁cover	-2315
reng	-2316
▁capt	-2317
▁matter	-2318
▁californ	-2319
▁dy	-2320
ai	-2321
▁late	-2322
▁mess	-2323
▁cross	-2324
inary	-2325
▁website	-2326
▁diabetes	-2327
▁thing	-2328
▁,	-2329
▁mechan	-2330
▁ensure	-2331
▁demon	-2332
▁manu	-2333
▁culture	-2334
▁correct	-2335
▁math	-2336
▁etc	-2337
▁admin	-2338
▁ideas	-2339
▁reach	-2340
▁rul	-2341
▁added	-2342
▁extreme	-2343
▁guide	-2344
▁simply	-2345
▁determine	-2346
▁took	-2347
▁began	-2348
▁challeng	-2349
▁investig	-2350
▁outside	-2351
▁198	-2352
▁weather	-2353
▁night	-2354
▁priv	-2355
▁ocean	-2356
rs	-2357
oration	-2358
4.	-2359
▁serious	-2360
▁sustain	-2361
▁harm	-2362
▁adults	-2363
▁appl	-2364
▁shown	-2365
▁target	-2366
▁nort	-2367
▁fa	-2368
ici	-2369
▁coast	-2370
▁hot	-2371
onse	-2372
5,	-2373
▁/	-2374
load	-2375
aches	-2376
▁produced	-2377
▁internet	-2378
ography	-2379
▁streng	-2380
▁essential	-2381
▁primary	-2382
▁jap	-2383
▁sense	-2384
▁document	-2385
▁regard	-2386
▁dang	-2387
▁chap	-2388
▁eating	-2389
pro	-2390
asc	-2391
imately	-2392
▁terms	-2393
ule	-2394
▁itself	-2395
▁colon	-2396
▁native	-2397
▁expos	-2398
▁copy	-2399
▁manufact	-2400
▁doctor	-2401
▁greater	-2402
▁div	-2403
▁takes	-2404
▁protection	-2405
che	-2406
▁movement	-2407
ellow	-2408
▁believe	-2409
▁burn	-2410
▁date	-2411
▁poor	-2412
bo	-2413
sequ	-2414
wor	-2415
▁san	-2416
▁bad	-2417
ades	-2418
▁bul	-2419
▁guid	-2420
▁involved	-2421
▁compon	-2422
rought	-2423
▁forms	-2424
▁true	-2425
▁egg	-2426
▁reported	-2427
elling	-2428
▁mental	-2429
▁foot	-2430
lex	-2431
▁stay	-2432
▁upon	-2433
usion	-2434
▁analy	-2435
hic	-2436
▁original	-2437
▁someone	-2438
▁ancient	-2439
▁eth	-2440
▁game	-2441
cies	-2442
reg	-2443
▁town	-2444
▁altern	-2445
▁british	-2446
▁evalu	-2447
▁birth	-2448
▁infection	-2449
life	-2450
▁ones	-2451
▁generally	-2452
▁bacteria	-2453
apt	-2454
▁garden	-2455
▁aud	-2456
ground	-2457
bol	-2458
▁digital	-2459
▁tiss	-2460
▁attention	-2461
▁response	-2462
▁bit	-2463
3,	-2464
▁unique	-2465
▁resist	-2466
▁estim	-2467
▁leaves	-2468
▁federal	-2469
▁independ	-2470
▁table	-2471
▁commit	-2472
▁california	-2473
▁ten	-2474
▁additional	-2475
▁code	-2476
▁planet	-2477
▁winter	-2478
▁inn	-2479
overy	-2480
▁cold	-2481
▁communities	-2482
▁cele	-2483
▁emot	-2484
▁examples	-2485
▁earl	-2486
▁cool	-2487
▁position	-2488
amed	-2489
▁japan	-2490
▁ast	-2491
▁tit	-2492
▁easily	-2493
▁implement	-2494
water	-2495
▁map	-2496
▁enj	-2497
▁exce	-2498
ban	-2499
▁jew	-2500
▁hor	-2501
▁included	-2502
sect	-2503
▁deb	-2504
▁talk	-2505
oles	-2506
▁east	-2507
oses	-2508
▁political	-2509
▁dark	-2510
▁birds	-2511
ging	-2512
▁nearly	-2513
▁critical	-2514
▁jan	-2515
▁church	-2516
▁difference	-2517
uge	-2518
▁pack	-2519
▁rain	-2520
▁ho	-2521
▁allows	-2522
▁hosp	-2523
oring	-2524
▁probably	-2525
▁force	-2526
▁thous	-2527
▁contains	-2528
▁season	-2529
aries	-2530
book	-2531
mb	-2532
▁traditional	-2533
▁vehic	-2534
▁pal	-2535
▁aug	-2536
ee	-2537
▁compared	-2538
▁teacher	-2539
▁tend	-2540
▁(2	-2541
▁third	-2542
▁celebr	-2543
▁library	-2544
▁collection	-2545
▁relative	-2546
▁front	-2547
know	-2548
6.	-2549
▁:	-2550
▁oct	-2551
dom	-2552
▁particularly	-2553
▁minutes	-2554
view	-2555
▁compet	-2556
▁sus	-2557
▁administ	-2558
▁blue	-2559
▁currently	-2560
▁viol	-2561
▁multiple	-2562
▁severe	-2563
▁families	-2564
▁197	-2565
▁remember	-2566
▁aim	-2567
ino	-2568
▁tax	-2569
▁vict	-2570
▁explore	-2571
9.	-2572
▁section	-2573
▁lack	-2574
4,	-2575
▁started	-2576
aling	-2577
▁sugar	-2578
▁behind	-2579
cks	-2580
▁rout	-2581
▁tex	-2582
▁refer	-2583
-2	-2584
▁ban	-2585
itary	-2586
▁transport	-2587
▁reve	-2588
▁connect	-2589
rench	-2590
▁196	-2591
ancy	-2592
eding	-2593
▁progress	-2594
▁fast	-2595
▁enjoy	-2596
8.	-2597
ister	-2598
▁cust	-2599
▁march	-2600
▁spring	-2601
▁emb	-2602
issions	-2603
▁extra	-2604
▁projects	-2605
omet	-2606
idge	-2607
▁policy	-2608
▁gold	-2609
▁hands	-2610
▁monitor	-2611
pri	-2612
▁larger	-2613
▁creating	-2614
▁security	-2615
oor	-2616
con	-2617
▁software	-2618
▁washing	-2619
▁hope	-2620
▁http	-2621
▁fib	-2622
▁acid	-2623
▁quickly	-2624
▁mole	-2625
▁sites	-2626
▁features	-2627
ctions	-2628
bre	-2629
▁recently	-2630
▁seem	-2631
ucle	-2632
▁official	-2633
▁conservation	-2634
▁file	-2635
7.	-2636
▁ult	-2637
▁25	-2638
▁points	-2639
▁tests	-2640
▁performance	-2641
gn	-2642
▁ii	-2643
resh	-2644
▁40	-2645
▁largest	-2646
▁offer	-2647
rition	-2648
▁minim	-2649
▁mel	-2650
▁breat	-2651
▁survey	-2652
ties	-2653
▁broad	-2654
▁base	-2655
▁cred	-2656
▁achieve	-2657
ops	-2658
▁decre	-2659
▁weeks	-2660
8,	-2661
oes	-2662
▁reflect	-2663
itis	-2664
▁cook	-2665
▁thinking	-2666
____	-2667
▁miles	-2668
▁concent	-2669
▁choose	-2670
uries	-2671
6,	-2672
▁wa	-2673
▁devices	-2674
ounds	-2675
iot	-2676
9,	-2677
▁memory	-2678
▁length	-2679
▁drug	-2680
▁concept	-2681
▁rare	-2682
▁theory	-2683
▁apr	-2684
rial	-2685
▁sept	-2686
▁speak	-2687
▁leading	-2688
▁office	-2689
▁demonstr	-2690
▁nation	-2691
▁wal	-2692
▁fram	-2693
▁located	-2694
arily	-2695
▁fit	-2696
▁soon	-2697
▁western	-2698
201	-2699
▁standards	-2700
▁useful	-2701
▁born	-2702
ension	-2703
▁appropri	-2704
▁proced	-2705
▁finan	-2706
▁india	-2707
inc	-2708
▁nar	-2709
▁*	-2710
▁fuel	-2711
ached	-2712
year	-2713
itation	-2714
▁install	-2715
oint	-2716
▁european	-2717
▁bott	-2718
▁express	-2719
▁testing	-2720
▁classroom	-2721
▁prior	-2722
▁imag	-2723
▁eyes	-2724
▁claim	-2725
▁speed	-2726
oll	-2727
▁typically	-2728
▁techniques	-2729
ounts	-2730
▁ball	-2731
where	-2732
▁engineering	-2733
▁atm	-2734
pan	-2735
▁contribut	-2736
7,	-2737
▁objects	-2738
▁quite	-2739
fect	-2740
▁association	-2741
enced	-2742
▁older	-2743
▁interesting	-2744
ript	-2745
▁quant	-2746
▁rap	-2747
▁beaut	-2748
rast	-2749
▁protein	-2750
▁attack	-2751
uary	-2752
▁calcul	-2753
asons	-2754
iciency	-2755
▁visual	-2756
▁communication	-2757
▁tal	-2758
atives	-2759
osing	-2760
▁friends	-2761
▁highly	-2762
▁beginning	-2763
▁goal	-2764
▁consist	-2765
rad	-2766
▁applications	-2767
bor	-2768
right	-2769
ribution	-2770
istry	-2771
▁lesson	-2772
nes	-2773
▁historical	-2774
▁supply	-2775
imin	-2776
▁places	-2777
ana	-2778
▁discovered	-2779
idents	-2780
▁bud	-2781
▁moon	-2782
▁african	-2783
▁negative	-2784
▁electr	-2785
tic	-2786
▁fav	-2787
ses	-2788
can	-2789
▁nucle	-2790
▁fruit	-2791
▁hydro	-2792
▁findings	-2793
▁atmosp	-2794
▁africa	-2795
▁board	-2796
▁court	-2797
ura	-2798
▁patient	-2799
▁fair	-2800
▁immedi	-2801
ender	-2802
▁importance	-2803
▁host	-2804
▁194	-2805
▁pregn	-2806
ief	-2807
▁respect	-2808
▁grade	-2809
▁elements	-2810
▁swe	-2811
eration	-2812
itude	-2813
▁device	-2814
▁china	-2815
▁cro	-2816
ields	-2817
▁americans	-2818
▁leaders	-2819
▁sand	-2820
▁youre	-2821
▁educational	-2822
▁southern	-2823
▁gir	-2824
▁expect	-2825
▁box	-2826
▁dead	-2827
▁june	-2828
▁mathem	-2829
▁thats	-2830
▁insp	-2831
▁1,	-2832
undred	-2833
▁got	-2834
▁french	-2835
gress	-2836
fl	-2837
isions	-2838
▁unit	-2839
▁fra	-2840
▁companies	-2841
▁exact	-2842
▁mix	-2843
▁ful	-2844
▁shape	-2845
▁4.	-2846
▁directly	-2847
ription	-2848
▁application	-2849
▁mag	-2850
cohol	-2851
▁jud	-2852
▁stri	-2853
▁resource	-2854
ustr	-2855
ille	-2856
▁everyone	-2857
ulate	-2858
▁surround	-2859
▁accept	-2860
term	-2861
▁decl	-2862
▁remo	-2863
▁professional	-2864
ivers	-2865
▁insect	-2866
cra	-2867
▁vitamin	-2868
▁april	-2869
▁lines	-2870
▁nutrition	-2871
pper	-2872
--	-2873
oming	-2874
▁organization	-2875
▁spir	-2876
▁impl	-2877
▁nasa	-2878
▁poly	-2879
▁hundred	-2880
▁location	-2881
▁construction	-2882
▁exposure	-2883
▁equip	-2884
edia	-2885
▁lost	-2886
www	-2887
ias	-2888
▁transl	-2889
▁fight	-2890
ologies	-2891
▁rates	-2892
▁carry	-2893
▁milk	-2894
head	-2895
▁display	-2896
val	-2897
▁northern	-2898
▁graph	-2899
▁symbol	-2900
▁overall	-2901
▁therapy	-2902
cil	-2903
▁indian	-2904
▁alcohol	-2905
▁solution	-2906
▁upd	-2907
▁plastic	-2908
▁foundation	-2909
▁values	-2910
▁signs	-2911
▁span	-2912
▁mouth	-2913
▁max	-2914
ift	-2915
▁room	-2916
▁commer	-2917
cles	-2918
▁purpose	-2919
ha	-2920
▁laun	-2921
▁wildlife	-2922
▁mom	-2923
▁cultural	-2924
▁attem	-2925
▁track	-2926
▁mission	-2927
▁emp	-2928
▁element	-2929
hens	-2930
▁custom	-2931
hel	-2932
▁gradu	-2933
bert	-2934
▁sold	-2935
▁stories	-2936
▁baby	-2937
▁nations	-2938
▁gives	-2939
ams	-2940
isms	-2941
▁instru	-2942
oud	-2943
▁director	-2944
ively	-2945
fort	-2946
osition	-2947
▁steps	-2948
▁genetic	-2949
▁fort	-2950
▁nav	-2951
▁wond	-2952
▁mac	-2953
▁aspect	-2954
▁hen	-2955
▁july	-2956
▁uk	-2957
▁users	-2958
▁picture	-2959
▁desp	-2960
wide	-2961
estic	-2962
iers	-2963
▁dav	-2964
▁providing	-2965
▁opportunity	-2966
▁drugs	-2967
▁autom	-2968
▁rapid	-2969
▁sen	-2970
▁requires	-2971
▁save	-2972
uff	-2973
▁approx	-2974
▁yourself	-2975
▁gal	-2976
▁told	-2977
itect	-2978
▁emissions	-2979
amp	-2980
▁billion	-2981
▁recommend	-2982
▁financial	-2983
▁+	-2984
▁reports	-2985
▁efforts	-2986
▁processes	-2987
▁download	-2988
▁equipment	-2989
▁illness	-2990
▁affected	-2991
ius	-2992
▁tou	-2993
▁exhib	-2994
▁games	-2995
▁tooth	-2996
▁mis	-2997
▁block	-2998
▁den	-2999
▁behavi	-3000
▁topic	-3001
▁cou	-3002
time	-3003
ula	-3004
▁receive	-3005
▁mig	-3006
▁smaller	-3007
▁held	-3008
▁prec	-3009
▁email	-3010
▁established	-3011
ror	-3012
▁canada	-3013
▁commonly	-3014
▁breast	-3015
▁architect	-3016
aren	-3017
▁innov	-3018
tery	-3019
▁stage	-3020
▁buy	-3021
med	-3022
▁appropriate	-3023
▁conce	-3024
▁respond	-3025
▁24	-3026
▁explain	-3027
▁glass	-3028
▁prevention	-3029
col	-3030
▁fresh	-3031
▁else	-3032
▁responsible	-3033
▁everything	-3034
▁adj	-3035
▁remains	-3036
entially	-3037
▁nutri	-3038
reek	-3039
▁mob	-3040
haps	-3041
▁collab	-3042
▁hon	-3043
▁limited	-3044
izes	-3045
encies	-3046
▁workers	-3047
▁version	-3048
▁enh	-3049
▁august	-3050
▁(19	-3051
▁costs	-3052
▁named	-3053
11	-3054
inct	-3055
▁yellow	-3056
▁towards	-3057
▁experts	-3058
▁occurs	-3059
▁practices	-3060
osy	-3061
▁expected	-3062
▁unf	-3063
▁0.	-3064
▁kid	-3065
izations	-3066
▁tips	-3067
▁washington	-3068
▁died	-3069
▁via	-3070
▁feb	-3071
ody	-3072
see	-3073
▁bey	-3074
▁enter	-3075
ech	-3076
▁mathemat	-3077
dr	-3078
▁lake	-3079
▁cru	-3080
▁hair	-3081
set	-3082
▁purch	-3083
ober	-3084
▁brown	-3085
▁england	-3086
▁scale	-3087
wise	-3088
ribute	-3089
▁benefit	-3090
▁eight	-3091
▁antib	-3092
▁mother	-3093
mar	-3094
aught	-3095
craft	-3096
▁integr	-3097
▁leave	-3098
▁constit	-3099
▁detect	-3100
▁interp	-3101
▁syn	-3102
▁obt	-3103
anc	-3104
back	-3105
0,	-3106
enge	-3107
▁beyond	-3108
▁camp	-3109
▁assessment	-3110
▁figure	-3111
▁dece	-3112
▁whose	-3113
▁bird	-3114
▁perhaps	-3115
▁cry	-3116
▁bone	-3117
▁goes	-3118
▁hous	-3119
▁vo	-3120
▁seems	-3121
▁anything	-3122
▁der	-3123
▁properties	-3124
▁hospital	-3125
▁capac	-3126
▁disp	-3127
▁planning	-3128
▁models	-3129
▁assign	-3130
▁gene	-3131
▁kill	-3132
uments	-3133
▁military	-3134
▁immune	-3135
▁dogs	-3136
▁son	-3137
▁electricity	-3138
▁walk	-3139
rection	-3140
▁release	-3141
▁user	-3142
▁reserv	-3143
▁tissue	-3144
▁final	-3145
▁depression	-3146
▁member	-3147
mission	-3148
▁continu	-3149
come	-3150
▁categ	-3151
▁trying	-3152
▁initi	-3153
▁chronic	-3154
▁frame	-3155
▁machine	-3156
▁moving	-3157
▁offers	-3158
▁root	-3159
rees	-3160
oon	-3161
▁william	-3162
▁names	-3163
▁rise	-3164
▁becomes	-3165
iar	-3166
▁predict	-3167
▁iron	-3168
▁accom	-3169
hold	-3170
▁deal	-3171
▁vision	-3172
▁despite	-3173
▁stru	-3174
bl	-3175
ulum	-3176
▁applied	-3177
▁pages	-3178
▁september	-3179
▁thousands	-3180
▁citiz	-3181
▁pick	-3182
▁surger	-3183
▁patterns	-3184
cop	-3185
aly	-3186
iles	-3187
▁mexic	-3188
▁perfect	-3189
▁controll	-3190
▁chapter	-3191
▁plans	-3192
▁remain	-3193
▁staff	-3194
▁anti	-3195
▁style	-3196
▁pow	-3197
▁curric	-3198
▁dna	-3199
▁temperatures	-3200
▁earlier	-3201
▁piece	-3202
▁items	-3203
▁situation	-3204
▁details	-3205
):	-3206
▁exec	-3207
▁illustr	-3208
▁virt	-3209
▁beg	-3210
▁except	-3211
vant	-3212
▁stem	-3213
▁harv	-3214
▁received	-3215
▁oxy	-3216
▁sequ	-3217
ext	-3218
▁constant	-3219
▁q	-3220
▁rot	-3221
▁reasons	-3222
▁conver	-3223
▁21	-3224
▁rules	-3225
iny	-3226
▁asked	-3227
gy	-3228
▁compre	-3229
▁property	-3230
▁urban	-3231
▁decision	-3232
▁notes	-3233
▁advant	-3234
▁organic	-3235
▁pu	-3236
▁successful	-3237
▁tele	-3238
▁hear	-3239
▁october	-3240
▁january	-3241
▁private	-3242
▁female	-3243
ama	-3244
▁trade	-3245
ously	-3246
ios	-3247
▁agree	-3248
▁partners	-3249
ided	-3250
▁disorder	-3251
hest	-3252
▁sett	-3253
▁adop	-3254
▁60	-3255
▁remove	-3256
▁die	-3257
▁went	-3258
▁core	-3259
df	-3260
▁maintain	-3261
▁flood	-3262
▁>	-3263
▁clinical	-3264
▁watch	-3265
▁finally	-3266
▁fert	-3267
▁...	-3268
▁instruct	-3269
▁spect	-3270
rick	-3271
vi	-3272
▁pollution	-3273
inese	-3274
▁efficient	-3275
areness	-3276
▁showed	-3277
▁liqu	-3278
ologist	-3279
▁recy	-3280
▁demand	-3281
ica	-3282
▁chance	-3283
▁influence	-3284
▁rat	-3285
▁facts	-3286
▁challenges	-3287
word	-3288
▁strength	-3289
▁incor	-3290
▁parent	-3291
▁bed	-3292
▁measures	-3293
▁letter	-3294
era	-3295
▁strategies	-3296
▁flor	-3297
▁consequ	-3298
▁russ	-3299
related	-3300
-19	-3301
".	-3302
▁homes	-3303
bur	-3304
▁warn	-3305
rote	-3306
▁feature	-3307
▁evolution	-3308
▁store	-3309
▁technologies	-3310
▁doesnt	-3311
▁hyp	-3312
▁participants	-3313
▁cities	-3314
itch	-3315
ocks	-3316
▁effort	-3317
▁task	-3318
▁australia	-3319
▁flowers	-3320
▁functions	-3321
▁encourage	-3322
house	-3323
▁mos	-3324
ensity	-3325
12	-3326
aled	-3327
pped	-3328
iest	-3329
▁coming	-3330
▁consumption	-3331
▁ca	-3332
▁laws	-3333
▁surgery	-3334
mat	-3335
▁completely	-3336
▁establish	-3337
▁convent	-3338
▁identified	-3339
▁topics	-3340
▁differences	-3341
orial	-3342
▁storm	-3343
▁shap	-3344
▁brought	-3345
▁seven	-3346
sp	-3347
▁radio	-3348
▁#	-3349
▁definition	-3350
▁dri	-3351
▁discover	-3352
▁distance	-3353
▁command	-3354
ste	-3355
▁neigh	-3356
▁options	-3357
▁adult	-3358
▁sustainable	-3359
▁landsc	-3360
▁released	-3361
▁basis	-3362
▁reduced	-3363
uth	-3364
▁hur	-3365
▁apply	-3366
▁finding	-3367
▁reference	-3368
▁muscle	-3369
▁grass	-3370
cont	-3371
itable	-3372
zz	-3373
ford	-3374
▁advanced	-3375
▁metal	-3376
▁running	-3377
▁challenge	-3378
▁chinese	-3379
▁nan	-3380
▁cast	-3381
▁approximately	-3382
lands	-3383
▁capital	-3384
▁mich	-3385
▁increases	-3386
▁opportunities	-3387
▁introduction	-3388
ida	-3389
▁seeds	-3390
▁saw	-3391
▁formed	-3392
▁experiment	-3393
iful	-3394
▁pul	-3395
▁eventually	-3396
▁disorders	-3397
▁awareness	-3398
▁limit	-3399
▁oxygen	-3400
gra	-3401
-3	-3402
▁tour	-3403
▁station	-3404
▁repe	-3405
▁suggests	-3406
▁articles	-3407
ulated	-3408
▁union	-3409
▁authors	-3410
oma	-3411
▁wet	-3412
▁powerful	-3413
▁convers	-3414
equ	-3415
▁huge	-3416
▁spot	-3417
▁economy	-3418
▁degree	-3419
▁eggs	-3420
▁expand	-3421
▁alternative	-3422
▁dro	-3423
used	-3424
ream	-3425
▁placed	-3426
▁bran	-3427
roy	-3428
▁radiation	-3429
▁vill	-3430
▁agency	-3431
ml	-3432
▁dental	-3433
ience	-3434
▁seed	-3435
▁surpr	-3436
▁starting	-3437
rome	-3438
▁hom	-3439
▁annual	-3440
▁regions	-3441
▁snow	-3442
▁marine	-3443
▁curriculum	-3444
mitted	-3445
son	-3446
▁injury	-3447
▁cand	-3448
▁gall	-3449
pping	-3450
▁giving	-3451
known	-3452
▁depend	-3453
▁followed	-3454
▁sample	-3455
▁helping	-3456
▁industrial	-3457
▁compar	-3458
▁generation	-3459
uk	-3460
▁5.	-3461
▁thin	-3462
▁transform	-3463
▁construct	-3464
▁excess	-3465
▁laboratory	-3466
▁upper	-3467
▁goals	-3468
▁components	-3469
▁absor	-3470
▁hit	-3471
▁comprehens	-3472
▁fear	-3473
▁vegetables	-3474
ographic	-3475
▁statement	-3476
▁alone	-3477
▁nove	-3478
▁alg	-3479
▁emergency	-3480
▁physic	-3481
▁agriculture	-3482
▁depending	-3483
▁volume	-3484
▁legal	-3485
▁bottom	-3486
▁load	-3487
▁jes	-3488
▁choice	-3489
▁records	-3490
▁ic	-3491
pes	-3492
▁datab	-3493
iant	-3494
▁hop	-3495
▁november	-3496
▁infections	-3497
▁accur	-3498
▁nothing	-3499
aving	-3500
ube	-3501
▁corn	-3502
▁anx	-3503
▁conflic	-3504
▁changed	-3505
▁maxim	-3506
▁habitat	-3507
▁plat	-3508
▁buildings	-3509
▁structures	-3510
▁balance	-3511
▁grand	-3512
▁december	-3513
▁battle	-3514
▁fill	-3515
olic	-3516
roll	-3517
▁occup	-3518
▁drive	-3519
▁described	-3520
▁speech	-3521
do	-3522
lim	-3523
▁price	-3524
▁easier	-3525
▁drinking	-3526
▁degrees	-3527
▁heavy	-3528
ologists	-3529
ocol	-3530
hab	-3531
▁recommended	-3532
▁friend	-3533
▁famous	-3534
uit	-3535
ondon	-3536
ruary	-3537
▁changing	-3538
▁rule	-3539
▁treated	-3540
▁promot	-3541
works	-3542
enty	-3543
▁smart	-3544
▁literature	-3545
▁square	-3546
▁solutions	-3547
▁forward	-3548
▁reducing	-3549
▁bri	-3550
▁appe	-3551
▁du	-3552
▁waters	-3553
▁male	-3554
arian	-3555
▁appears	-3556
▁gain	-3557
ony	-3558
▁worked	-3559
▁photo	-3560
iday	-3561
▁ages	-3562
▁anyone	-3563
▁kn	-3564
▁context	-3565
▁equal	-3566
▁mer	-3567
▁causing	-3568
▁peace	-3569
▁commercial	-3570
▁mit	-3571
▁fields	-3572
rig	-3573
ham	-3574
▁blog	-3575
▁shar	-3576
da	-3577
▁youth	-3578
▁cove	-3579
fs	-3580
enn	-3581
▁happen	-3582
care	-3583
▁conducted	-3584
▁wrote	-3585
isc	-3586
▁cycle	-3587
▁crow	-3588
▁extremely	-3589
erate	-3590
▁woman	-3591
odes	-3592
▁factor	-3593
des	-3594
▁learned	-3595
▁credit	-3596
ta	-3597
lin	-3598
▁spirit	-3599
▁tum	-3600
▁stim	-3601
▁status	-3602
▁nuclear	-3603
▁voc	-3604
▁cant	-3605
▁song	-3606
erson	-3607
▁father	-3608
▁novel	-3609
▁fro	-3610
lection	-3611
▁2012	-3612
▁vaccine	-3613
▁existing	-3614
ibly	-3615
▁fully	-3616
▁mi	-3617
▁coal	-3618
ero	-3619
▁hearing	-3620
60	-3621
▁gar	-3622
▁bank	-3623
▁py	-3624
▁salt	-3625
▁191	-3626
▁concepts	-3627
▁ready	-3628
▁que	-3629
▁links	-3630
▁texas	-3631
▁complic	-3632
cs	-3633
▁revolution	-3634
more	-3635
▁attract	-3636
▁layer	-3637
▁motor	-3638
▁haz	-3639
▁attempt	-3640
▁risks	-3641
▁electrical	-3642
▁gets	-3643
tical	-3644
▁linked	-3645
▁technique	-3646
bits	-3647
▁ves	-3648
▁amaz	-3649
▁bright	-3650
▁letters	-3651
▁populations	-3652
80	-3653
▁satell	-3654
▁util	-3655
▁academic	-3656
ding	-3657
▁dangerous	-3658
cers	-3659
▁mart	-3660
▁estimated	-3661
▁chemicals	-3662
▁london	-3663
▁freed	-3664
▁religious	-3665
▁prepar	-3666
▁describe	-3667
osystem	-3668
▁latest	-3669
▁trig	-3670
this	-3671
▁highest	-3672
orage	-3673
▁decades	-3674
▁rub	-3675
▁joint	-3676
▁copyright	-3677
▁film	-3678
▁trust	-3679
ogle	-3680
▁secret	-3681
▁acqu	-3682
▁adapt	-3683
▁presented	-3684
▁suppl	-3685
sec	-3686
▁clos	-3687
▁resistance	-3688
wards	-3689
▁volun	-3690
▁february	-3691
name	-3692
abilities	-3693
▁background	-3694
▁cogn	-3695
▁foss	-3696
▁worth	-3697
▁expert	-3698
▁format	-3699
▁atmosphere	-3700
▁ly	-3701
▁mary	-3702
mer	-3703
bed	-3704
▁vul	-3705
eles	-3706
ellig	-3707
▁thanks	-3708
▁favor	-3709
▁discovery	-3710
▁reprodu	-3711
▁setting	-3712
▁las	-3713
▁weak	-3714
▁lessons	-3715
▁genes	-3716
▁invent	-3717
inated	-3718
▁commission	-3719
▁multi	-3720
▁round	-3721
▁district	-3722
elines	-3723
▁capacity	-3724
ingu	-3725
▁stars	-3726
▁univers	-3727
▁synd	-3728
▁ber	-3729
▁aqu	-3730
edic	-3731
▁becoming	-3732
ws	-3733
▁allowed	-3734
iety	-3735
▁oral	-3736
);	-3737
lor	-3738
▁mut	-3739
▁creative	-3740
▁relatively	-3741
▁bay	-3742
▁actions	-3743
ublic	-3744
log	-3745
▁transfer	-3746
▁sac	-3747
▁eastern	-3748
▁experiences	-3749
ping	-3750
dule	-3751
ogen	-3752
▁qual	-3753
ux	-3754
▁congress	-3755
▁organizations	-3756
▁mars	-3757
▁significantly	-3758
▁od	-3759
▁beautiful	-3760
▁ecosystem	-3761
▁direction	-3762
▁neuro	-3763
▁optim	-3764
▁kil	-3765
▁roman	-3766
imens	-3767
▁strugg	-3768
▁covered	-3769
▁inflamm	-3770
▁mention	-3771
▁perspect	-3772
▁replace	-3773
▁sciences	-3774
▁stro	-3775
ara	-3776
ifically	-3777
▁forces	-3778
▁army	-3779
▁confir	-3780
▁id	-3781
off	-3782
▁fine	-3783
▁farmers	-3784
▁centre	-3785
▁former	-3786
oe	-3787
▁pun	-3788
▁stone	-3789
▁happens	-3790
key	-3791
paign	-3792
40	-3793
gi	-3794
▁moment	-3795
bi	-3796
▁hall	-3797
met	-3798
▁thick	-3799
▁looks	-3800
▁lic	-3801
▁renew	-3802
▁spanish	-3803
▁trou	-3804
▁divid	-3805
▁thr	-3806
▁classes	-3807
▁slight	-3808
▁wrong	-3809
orge	-3810
isl	-3811
▁sem	-3812
▁council	-3813
▁horm	-3814
▁pip	-3815
ares	-3816
▁languages	-3817
▁intellig	-3818
ris	-3819
▁interested	-3820
▁windows	-3821
▁presence	-3822
aur	-3823
gl	-3824
▁rang	-3825
antic	-3826
▁introduced	-3827
▁immediately	-3828
▁gender	-3829
▁excell	-3830
mal	-3831
▁mountain	-3832
▁schol	-3833
▁hiv	-3834
asks	-3835
▁discussion	-3836
▁storage	-3837
ken	-3838
▁pac	-3839
▁fruits	-3840
▁wel	-3841
▁index	-3842
phas	-3843
▁majority	-3844
▁meat	-3845
▁bodies	-3846
▁astr	-3847
char	-3848
board	-3849
▁80	-3850
▁coord	-3851
▁workshe	-3852
▁agricultural	-3853
▁trend	-3854
▁unlike	-3855
▁dram	-3856
▁diction	-3857
▁properly	-3858
▁vary	-3859
▁ther	-3860
▁hour	-3861
▁philos	-3862
▁destroy	-3863
▁believed	-3864
▁engage	-3865
▁solid	-3866
▁preserv	-3867
bal	-3868
▁exactly	-3869
cious	-3870
▁numerous	-3871
▁worlds	-3872
▁pair	-3873
▁keeping	-3874
▁citizens	-3875
▁girls	-3876
▁david	-3877
▁defined	-3878
▁193	-3879
▁income	-3880
ii	-3881
▁frequently	-3882
▁characteristics	-3883
▁distribution	-3884
▁jesus	-3885
▁ben	-3886
▁fix	-3887
▁consult	-3888
▁incorpor	-3889
▁separate	-3890
▁allerg	-3891
▁campaign	-3892
▁paint	-3893
▁diam	-3894
▁profession	-3895
▁diagnosis	-3896
▁google	-3897
▁exposed	-3898
▁pieces	-3899
▁roll	-3900
25	-3901
▁toxic	-3902
▁bound	-3903
▁doctors	-3904
▁2013	-3905
▁combination	-3906
▁arts	-3907
▁treatments	-3908
▁aid	-3909
▁concentr	-3910
▁flower	-3911
19	-3912
urally	-3913
▁pret	-3914
ager	-3915
▁master	-3916
cular	-3917
▁technical	-3918
▁widely	-3919
▁astronom	-3920
▁virgin	-3921
▁theres	-3922
▁passed	-3923
▁vessel	-3924
▁requirements	-3925
▁sounds	-3926
▁phone	-3927
ags	-3928
▁promote	-3929
▁christian	-3930
▁sect	-3931
▁sexual	-3932
ulf	-3933
▁monitoring	-3934
▁aware	-3935
▁asse	-3936
▁wonder	-3937
▁bow	-3938
force	-3939
oxide	-3940
▁ip	-3941
▁message	-3942
▁grant	-3943
▁contract	-3944
▁biological	-3945
ought	-3946
▁kit	-3947
▁street	-3948
▁connected	-3949
▁serve	-3950
iter	-3951
▁meeting	-3952
▁anxiety	-3953
▁mostly	-3954
▁sess	-3955
▁bot	-3956
▁moist	-3957
▁sky	-3958
ung	-3959
▁vehicle	-3960
▁liquid	-3961
▁dan	-3962
▁screen	-3963
▁observed	-3964
▁removed	-3965
▁atl	-3966
▁operations	-3967
▁yes	-3968
spe	-3969
▁boo	-3970
▁syndrome	-3971
umn	-3972
▁muscles	-3973
▁previously	-3974
▁liver	-3975
rim	-3976
▁phen	-3977
▁notice	-3978
▁carried	-3979
▁scen	-3980
▁aspects	-3981
▁germany	-3982
▁independent	-3983
▁nit	-3984
zing	-3985
▁helped	-3986
▁impacts	-3987
▁title	-3988
▁principles	-3989
▁height	-3990
▁dent	-3991
west	-3992
▁sports	-3993
iring	-3994
▁hyper	-3995
▁pictures	-3996
▁fing	-3997
▁continued	-3998
▁send	-3999
▁feeling	-4000
onds	-4001
▁violence	-4002
▁output	-4003
▁intervent	-4004
▁practical	-4005
ole	-4006
▁sche	-4007
▁decisions	-4008
▁failure	-4009
ball	-4010
▁samples	-4011
▁administration	-4012
▁esc	-4013
▁physics	-4014
▁affects	-4015
isher	-4016
▁comment	-4017
li	-4018
▁nutrients	-4019
▁involves	-4020
▁connection	-4021
▁emphas	-4022
▁ship	-4023
▁traff	-4024
▁unc	-4025
▁france	-4026
▁explains	-4027
iling	-4028
▁internal	-4029
▁shel	-4030
▁processing	-4031
▁initial	-4032
▁ing	-4033
cipl	-4034
▁tast	-4035
▁trib	-4036
▁rand	-4037
▁japanese	-4038
▁efficiency	-4039
▁centers	-4040
15	-4041
▁2010	-4042
▁james	-4043
▁tod	-4044
▁inches	-4045
▁showing	-4046
▁elimin	-4047
▁mexico	-4048
▁deaths	-4049
chool	-4050
icial	-4051
omas	-4052
▁input	-4053
▁emotional	-4054
ky	-4055
▁instruction	-4056
▁roy	-4057
resp	-4058
▁bord	-4059
▁actual	-4060
▁vulner	-4061
▁amounts	-4062
cast	-4063
▁biology	-4064
▁improved	-4065
▁prepared	-4066
ca	-4067
▁persons	-4068
▁gave	-4069
▁fundam	-4070
▁race	-4071
▁earn	-4072
▁legisl	-4073
▁resulting	-4074
▁adding	-4075
▁wear	-4076
▁herit	-4077
▁foreign	-4078
▁shall	-4079
▁rid	-4080
amb	-4081
▁performed	-4082
▁gum	-4083
▁advice	-4084
▁195	-4085
▁units	-4086
▁rail	-4087
▁2011	-4088
▁sud	-4089
oty	-4090
▁originally	-4091
▁instance	-4092
▁pig	-4093
mark	-4094
▁aer	-4095
▁mobile	-4096
▁presc	-4097
▁answers	-4098
▁bio	-4099
▁manufacture	-4100
▁lived	-4101
acters	-4102
▁isnt	-4103
▁phase	-4104
▁particles	-4105
▁join	-4106
att	-4107
▁ord	-4108
▁mamm	-4109
mp	-4110
igen	-4111
▁greek	-4112
▁option	-4113
▁cere	-4114
▁90	-4115
▁computers	-4116
▁minor	-4117
▁clim	-4118
▁sed	-4119
▁tor	-4120
cope	-4121
▁robot	-4122
vious	-4123
ees	-4124
▁files	-4125
",	-4126
esity	-4127
▁characters	-4128
gypt	-4129
ga	-4130
▁democ	-4131
atric	-4132
omen	-4133
▁coop	-4134
▁jewish	-4135
▁faster	-4136
▁detailed	-4137
▁dut	-4138
▁2,	-4139
▁flat	-4140
▁relationships	-4141
▁flex	-4142
▁party	-4143
▁pregnancy	-4144
eties	-4145
▁colors	-4146
▁brief	-4147
▁ham	-4148
▁contribute	-4149
▁tow	-4150
▁electronic	-4151
▁fel	-4152
▁pil	-4153
▁dynam	-4154
▁dictionary	-4155
▁career	-4156
▁morning	-4157
▁begins	-4158
▁22	-4159
▁islands	-4160
▁apart	-4161
▁double	-4162
▁roots	-4163
ss	-4164
emic	-4165
▁database	-4166
▁lou	-4167
▁completed	-4168
▁ign	-4169
ata	-4170
▁digest	-4171
▁driving	-4172
▁announ	-4173
▁reaction	-4174
▁guidelines	-4175
▁tested	-4176
▁quar	-4177
▁wire	-4178
▁vital	-4179
▁playing	-4180
▁reality	-4181
▁creation	-4182
▁heritage	-4183
atically	-4184
▁experienced	-4185
▁procedure	-4186
▁moved	-4187
▁obesity	-4188
▁freedom	-4189
▁leaf	-4190
othes	-4191
▁execut	-4192
▁crops	-4193
▁collected	-4194
▁prefer	-4195
▁cognitive	-4196
▁infected	-4197
▁specifically	-4198
▁oh	-4199
rael	-4200
▁mist	-4201
▁heard	-4202
▁injuries	-4203
▁ze	-4204
bra	-4205
rupt	-4206
▁concl	-4207
▁adjust	-4208
▁sort	-4209
▁lord	-4210
▁opin	-4211
ads	-4212
▁effectively	-4213
eff	-4214
▁george	-4215
▁spend	-4216
▁latin	-4217
▁recorded	-4218
▁distinct	-4219
▁ara	-4220
▁tun	-4221
▁70	-4222
▁straight	-4223
▁clearly	-4224
▁harvest	-4225
ternal	-4226
▁tiny	-4227
▁continues	-4228
▁jobs	-4229
▁cloud	-4230
▁assemb	-4231
▁programming	-4232
iff	-4233
▁historic	-4234
▁din	-4235
▁prepare	-4236
▁allowing	-4237
▁republic	-4238
▁186	-4239
▁tail	-4240
▁assum	-4241
cling	-4242
▁asia	-4243
eed	-4244
▁territ	-4245
▁photos	-4246
▁pacific	-4247
▁pump	-4248
▁carol	-4249
▁leads	-4250
▁flight	-4251
▁hundreds	-4252
▁lets	-4253
▁egypt	-4254
▁comfort	-4255
porary	-4256
▁victim	-4257
▁insects	-4258
ago	-4259
asion	-4260
▁cm	-4261
rogen	-4262
verty	-4263
▁pric	-4264
▁surrounding	-4265
change	-4266
▁counter	-4267
▁nurs	-4268
▁poverty	-4269
za	-4270
▁childhood	-4271
▁6.	-4272
▁killed	-4273
▁grown	-4274
▁190	-4275
▁chief	-4276
▁landscape	-4277
▁concerns	-4278
▁fif	-4279
▁stick	-4280
tes	-4281
▁readers	-4282
ado	-4283
gal	-4284
▁nerv	-4285
▁sod	-4286
▁mort	-4287
tered	-4288
▁cris	-4289
▁2014	-4290
▁antibiot	-4291
▁formation	-4292
mas	-4293
▁coff	-4294
▁spent	-4295
▁mr	-4296
▁warming	-4297
▁mc	-4298
▁veter	-4299
what	-4300
▁fluid	-4301
▁millions	-4302
▁visible	-4303
▁flo	-4304
70	-4305
▁wed	-4306
▁isol	-4307
▁dust	-4308
wood	-4309
ceed	-4310
▁archae	-4311
ded	-4312
▁publication	-4313
▁comments	-4314
▁regarding	-4315
▁reduction	-4316
▁description	-4317
▁onto	-4318
▁maps	-4319
isation	-4320
▁strategy	-4321
▁motion	-4322
▁orbit	-4323
▁concern	-4324
▁voice	-4325
▁wanted	-4326
pal	-4327
iable	-4328
▁residents	-4329
▁potentially	-4330
▁operation	-4331
ishing	-4332
▁km	-4333
▁policies	-4334
▁trop	-4335
▁pin	-4336
▁smoking	-4337
▁subjects	-4338
▁medications	-4339
▁truth	-4340
roph	-4341
sa	-4342
▁worldwide	-4343
▁drop	-4344
▁edition	-4345
▁theyre	-4346
▁volunte	-4347
ctic	-4348
▁owners	-4349
▁officials	-4350
akers	-4351
▁photograph	-4352
pap	-4353
▁signal	-4354
encing	-4355
▁referred	-4356
▁operating	-4357
▁himself	-4358
▁israel	-4359
aint	-4360
onic	-4361
▁cars	-4362
▁rough	-4363
omb	-4364
pat	-4365
▁valu	-4366
▁vehicles	-4367
▁fertil	-4368
▁protected	-4369
▁taught	-4370
▁focused	-4371
▁justice	-4372
▁contrast	-4373
▁shared	-4374
▁studied	-4375
▁florida	-4376
▁bones	-4377
▁relevant	-4378
▁forests	-4379
teries	-4380
▁turned	-4381
▁constitution	-4382
▁involve	-4383
men	-4384
▁immun	-4385
▁division	-4386
▁noted	-4387
▁excellent	-4388
▁combined	-4389
▁extensive	-4390
▁perman	-4391
olved	-4392
▁chann	-4393
▁dedic	-4394
▁diversity	-4395
▁doll	-4396
ilit	-4397
▁23	-4398
▁helpful	-4399
▁served	-4400
▁sin	-4401
▁seek	-4402
▁fle	-4403
▁kinds	-4404
16	-4405
asts	-4406
▁statistics	-4407
▁ble	-4408
▁colleag	-4409
▁typical	-4410
bt	-4411
▁instrument	-4412
▁189	-4413
▁saying	-4414
▁ven	-4415
▁cd	-4416
umin	-4417
enth	-4418
▁indicate	-4419
▁sweet	-4420
▁valley	-4421
▁platform	-4422
▁obvious	-4423
▁comprehensive	-4424
▁phr	-4425
▁belong	-4426
▁wik	-4427
▁stret	-4428
▁royal	-4429
▁band	-4430
▁vent	-4431
▁advance	-4432
▁familiar	-4433
▁normally	-4434
▁accurate	-4435
cip	-4436
▁collabor	-4437
▁cloth	-4438
▁sick	-4439
▁fab	-4440
▁mainly	-4441
▁train	-4442
▁ok	-4443
icks	-4444
▁plate	-4445
▁rh	-4446
▁lifest	-4447
su	-4448
rie	-4449
▁spl	-4450
oul	-4451
▁intended	-4452
▁tasks	-4453
▁courses	-4454
free	-4455
asive	-4456
▁cart	-4457
▁conflict	-4458
▁explained	-4459
rete	-4460
▁documents	-4461
▁touch	-4462
▁stream	-4463
▁youll	-4464
▁conclud	-4465
▁otherwise	-4466
5%	-4467
ped	-4468
▁fly	-4469
▁crop	-4470
osite	-4471
▁metab	-4472
urance	-4473
▁frequency	-4474
▁<	-4475
▁pra	-4476
21	-4477
▁studying	-4478
▁shell	-4479
▁solve	-4480
iveness	-4481
unk	-4482
▁columb	-4483
▁universe	-4484
▁advantage	-4485
▁ideal	-4486
▁lose	-4487
▁tut	-4488
▁volcan	-4489
rum	-4490
▁recovery	-4491
▁stroke	-4492
▁governments	-4493
net	-4494
▁situations	-4495
-4	-4496
car	-4497
▁motiv	-4498
uration	-4499
▁interpret	-4500
▁drawing	-4501
▁cath	-4502
▁expression	-4503
▁mathematics	-4504
gu	-4505
▁regional	-4506
acing	-4507
▁explan	-4508
▁reb	-4509
▁rural	-4510
▁myth	-4511
▁regularly	-4512
going	-4513
▁blo	-4514
ressed	-4515
down	-4516
▁walking	-4517
▁faith	-4518
ributed	-4519
▁periods	-4520
ophy	-4521
▁butter	-4522
gment	-4523
▁cats	-4524
▁stock	-4525
▁leader	-4526
▁looked	-4527
▁determined	-4528
▁diss	-4529
norm	-4530
▁abuse	-4531
▁lots	-4532
place	-4533
▁improving	-4534
▁naturally	-4535
▁bridge	-4536
▁award	-4537
▁ol	-4538
ht	-4539
▁haw	-4540
ferences	-4541
▁measured	-4542
▁depth	-4543
▁label	-4544
▁inflammation	-4545
olester	-4546
zy	-4547
ava	-4548
▁colour	-4549
▁ran	-4550
▁artific	-4551
▁slightly	-4552
▁unfortun	-4553
▁dial	-4554
▁attacks	-4555
aks	-4556
▁kept	-4557
▁meant	-4558
▁talking	-4559
▁alt	-4560
comes	-4561
vert	-4562
▁jer	-4563
▁charge	-4564
lers	-4565
▁teen	-4566
▁doesn	-4567
▁grav	-4568
▁vot	-4569
▁purposes	-4570
▁ingred	-4571
▁papers	-4572
▁mur	-4573
▁harmful	-4574
▁domestic	-4575
▁paul	-4576
▁fossil	-4577
▁traffic	-4578
▁sheet	-4579
▁proteins	-4580
▁primarily	-4581
▁tall	-4582
▁consists	-4583
▁pull	-4584
▁(3	-4585
iled	-4586
ota	-4587
olesterol	-4588
cium	-4589
ipped	-4590
▁sav	-4591
▁fer	-4592
▁random	-4593
▁neut	-4594
▁elev	-4595
▁cos	-4596
▁floor	-4597
ascular	-4598
▁centuries	-4599
▁electron	-4600
la	-4601
▁pretty	-4602
▁presentation	-4603
▁containing	-4604
▁consequences	-4605
▁galax	-4606
▁childs	-4607
▁eu	-4608
▁steel	-4609
▁camera	-4610
▁experiments	-4611
▁raise	-4612
▁maximum	-4613
ny	-4614
▁poet	-4615
kes	-4616
▁babies	-4617
▁valuable	-4618
▁literacy	-4619
exam	-4620
cules	-4621
▁cards	-4622
/2	-4623
iment	-4624
fall	-4625
ael	-4626
▁acce	-4627
▁magnetic	-4628
▁happy	-4629
▁supported	-4630
▁survival	-4631
▁www	-4632
▁phenomen	-4633
▁greenhouse	-4634
ception	-4635
▁cholesterol	-4636
▁won	-4637
▁battery	-4638
▁decided	-4639
▁listen	-4640
▁enhance	-4641
13	-4642
18	-4643
bing	-4644
▁component	-4645
▁selected	-4646
reci	-4647
▁waves	-4648
▁window	-4649
▁satellite	-4650
▁arth	-4651
itors	-4652
▁sentence	-4653
ication	-4654
▁scientist	-4655
▁chemistry	-4656
hma	-4657
flow	-4658
▁swim	-4659
▁thomas	-4660
tion	-4661
▁religion	-4662
▁walls	-4663
anes	-4664
ishes	-4665
▁rivers	-4666
▁sets	-4667
▁remind	-4668
▁conference	-4669
▁tom	-4670
vid	-4671
ira	-4672
▁decrease	-4673
eria	-4674
▁surf	-4675
pre	-4676
▁coffee	-4677
▁childrens	-4678
▁gram	-4679
14	-4680
▁worksh	-4681
▁starts	-4682
▁stom	-4683
▁suggested	-4684
long	-4685
▁manufacturing	-4686
▁fract	-4687
▁healthcare	-4688
▁2009	-4689
▁crucial	-4690
rich	-4691
▁refers	-4692
▁wealth	-4693
▁perspective	-4694
▁nest	-4695
rant	-4696
well	-4697
▁played	-4698
▁boost	-4699
win	-4700
▁rein	-4701
▁medication	-4702
fered	-4703
ertain	-4704
▁deliver	-4705
icip	-4706
ructure	-4707
▁fiber	-4708
ville	-4709
▁intake	-4710
ij	-4711
▁pup	-4712
▁suffer	-4713
▁mad	-4714
▁calcium	-4715
▁reached	-4716
lam	-4717
body	-4718
▁lect	-4719
▁ath	-4720
▁vast	-4721
▁remote	-4722
▁professionals	-4723
eline	-4724
▁fever	-4725
▁committe	-4726
▁speaking	-4727
▁twice	-4728
▁fal	-4729
▁secondary	-4730
▁susp	-4731
▁hem	-4732
▁habits	-4733
▁facilities	-4734
▁virginia	-4735
▁earthqu	-4736
▁peoples	-4737
500	-4738
22	-4739
▁recognize	-4740
▁closely	-4741
▁corpor	-4742
▁shut	-4743
heim	-4744
▁funding	-4745
▁mand	-4746
▁smoke	-4747
ya	-4748
▁wit	-4749
▁cub	-4750
airs	-4751
▁interview	-4752
point	-4753
▁corresp	-4754
▁hole	-4755
▁prem	-4756
▁occurred	-4757
▁barri	-4758
ortion	-4759
▁throw	-4760
-0	-4761
arr	-4762
▁thor	-4763
▁tro	-4764
▁cutting	-4765
▁certainly	-4766
▁edge	-4767
▁massive	-4768
▁medium	-4769
▁transportation	-4770
▁renewable	-4771
▁domin	-4772
▁behaviour	-4773
▁breathing	-4774
▁outcomes	-4775
▁routine	-4776
nic	-4777
▁hydrogen	-4778
iced	-4779
▁figures	-4780
▁generate	-4781
▁thoughts	-4782
▁mov	-4783
▁raised	-4784
▁robert	-4785
▁colleagues	-4786
▁responsibility	-4787
▁nine	-4788
▁teles	-4789
▁britain	-4790
▁string	-4791
▁proposed	-4792
▁procedures	-4793
▁greatest	-4794
▁tea	-4795
▁sensitive	-4796
erals	-4797
rew	-4798
▁rapidly	-4799
▁external	-4800
▁virtual	-4801
▁describes	-4802
enses	-4803
▁brother	-4804
▁rhy	-4805
▁minimum	-4806
mic	-4807
atch	-4808
▁dioxide	-4809
▁reader	-4810
▁represents	-4811
aker	-4812
▁lung	-4813
▁artificial	-4814
nel	-4815
va	-4816
▁pros	-4817
▁environments	-4818
▁abst	-4819
▁leaving	-4820
▁offered	-4821
▁immig	-4822
▁sides	-4823
ady	-4824
▁horse	-4825
▁diverse	-4826
▁lifestyle	-4827
▁appearance	-4828
▁circum	-4829
▁lik	-4830
▁pron	-4831
▁listed	-4832
▁substance	-4833
berg	-4834
▁survive	-4835
▁approaches	-4836
▁crisis	-4837
unction	-4838
▁poison	-4839
▁respir	-4840
▁couple	-4841
ules	-4842
▁consumers	-4843
▁compare	-4844
agers	-4845
▁strengthe	-4846
▁highlight	-4847
alled	-4848
omy	-4849
▁26	-4850
▁7.	-4851
▁coastal	-4852
▁2020	-4853
▁choices	-4854
▁flav	-4855
▁ru	-4856
reen	-4857
▁da	-4858
▁updated	-4859
▁bor	-4860
▁producing	-4861
▁plus	-4862
▁28	-4863
▁seeing	-4864
▁fo	-4865
▁wave	-4866
▁infrast	-4867
abul	-4868
▁era	-4869
▁younger	-4870
▁divided	-4871
greg	-4872
▁integ	-4873
▁increasingly	-4874
▁framework	-4875
▁anth	-4876
▁identity	-4877
▁pit	-4878
▁journey	-4879
▁views	-4880
▁bear	-4881
ifying	-4882
▁raw	-4883
▁asthma	-4884
▁horiz	-4885
het	-4886
roid	-4887
▁diagnosed	-4888
▁simpl	-4889
ander	-4890
ona	-4891
▁architecture	-4892
inations	-4893
▁institutions	-4894
▁kidney	-4895
▁stomach	-4896
▁paral	-4897
▁controlled	-4898
▁australian	-4899
▁neck	-4900
▁didnt	-4901
ania	-4902
▁narr	-4903
▁calories	-4904
▁mice	-4905
▁academy	-4906
▁acceler	-4907
▁circuit	-4908
▁sudden	-4909
▁extract	-4910
▁molecules	-4911
▁recon	-4912
▁request	-4913
▁appoint	-4914
▁advoc	-4915
▁mild	-4916
▁interactive	-4917
▁ax	-4918
▁fundamental	-4919
▁settle	-4920
odi	-4921
▁genet	-4922
▁franc	-4923
▁stored	-4924
ensus	-4925
▁gro	-4926
▁hid	-4927
▁revealed	-4928
▁unfortunately	-4929
▁conv	-4930
▁businesses	-4931
▁zone	-4932
▁indeed	-4933
▁plays	-4934
▁prices	-4935
arent	-4936
▁biggest	-4937
▁inject	-4938
▁secure	-4939
last	-4940
onal	-4941
▁intelligence	-4942
▁anc	-4943
my	-4944
riage	-4945
▁narrow	-4946
▁posted	-4947
▁locations	-4948
uls	-4949
ushing	-4950
▁contem	-4951
being	-4952
▁epid	-4953
▁supplement	-4954
▁regul	-4955
▁feelings	-4956
▁disapp	-4957
▁happened	-4958
state	-4959
tra	-4960
wing	-4961
▁mont	-4962
▁essays	-4963
▁expensive	-4964
▁depends	-4965
▁27	-4966
▁suffering	-4967
asp	-4968
▁bible	-4969
▁portion	-4970
▁manner	-4971
▁tropical	-4972
▁van	-4973
-8	-4974
tr	-4975
irus	-4976
▁gather	-4977
▁skill	-4978
-5	-4979
▁300	-4980
▁village	-4981
health	-4982
▁insul	-4983
▁stages	-4984
▁household	-4985
▁nerve	-4986
igenous	-4987
▁engineers	-4988
▁hero	-4989
▁(18	-4990
▁maybe	-4991
▁sight	-4992
how	-4993
▁decline	-4994
▁feeding	-4995
no	-4996
▁outl	-4997
isp	-4998
▁192	-4999
▁concentration	-5000
▁networks	-5001
▁rab	-5002
abulary	-5003
example	-5004
▁myster	-5005
▁diag	-5006
▁electro	-5007
hor	-5008
▁appreci	-5009
▁scan	-5010
lets	-5011
▁concerned	-5012
▁server	-5013
▁hill	-5014
▁produces	-5015
field	-5016
▁creates	-5017
▁navig	-5018
▁trial	-5019
▁smith	-5020
exp	-5021
uel	-5022
fish	-5023
vision	-5024
orith	-5025
▁cup	-5026
90	-5027
▁traum	-5028
▁chick	-5029
▁louis	-5030
▁tan	-5031
▁instructions	-5032
:||	-5033
▁unknown	-5034
▁fewer	-5035
▁ring	-5036
▁editor	-5037
▁ken	-5038
▁mountains	-5039
ediatric	-5040
▁legs	-5041
▁consid	-5042
mes	-5043
▁contamin	-5044
▁worse	-5045
▁largely	-5046
▁incl	-5047
▁authority	-5048
▁machines	-5049
▁signals	-5050
▁sharing	-5051
▁algorith	-5052
▁tells	-5053
▁dedicated	-5054
▁lands	-5055
▁unus	-5056
cal	-5057
▁vocabulary	-5058
▁apparent	-5059
▁covers	-5060
athy	-5061
▁purchase	-5062
▁frank	-5063
▁sector	-5064
▁everyday	-5065
▁infrastructure	-5066
▁videos	-5067
quit	-5068
cycl	-5069
▁closed	-5070
▁reform	-5071
▁distingu	-5072
▁roof	-5073
▁calls	-5074
▁leadership	-5075
▁imper	-5076
▁capable	-5077
▁ms	-5078
▁suitable	-5079
▁forced	-5080
▁autism	-5081
▁planets	-5082
▁ped	-5083
weight	-5084
▁slowly	-5085
usive	-5086
▁ash	-5087
▁accompl	-5088
▁exercises	-5089
▁shop	-5090
▁wid	-5091
iet	-5092
▁gun	-5093
▁abnorm	-5094
▁zero	-5095
▁temple	-5096
▁thir	-5097
▁beneficial	-5098
▁density	-5099
▁movements	-5100
▁turns	-5101
▁implic	-5102
burg	-5103
▁independence	-5104
ault	-5105
▁alph	-5106
▁accompan	-5107
▁500	-5108
▁iv	-5109
▁committee	-5110
▁fabric	-5111
oh	-5112
▁broken	-5113
▁chart	-5114
▁recognized	-5115
▁wol	-5116
▁amb	-5117
▁filled	-5118
▁painting	-5119
▁indigenous	-5120
ario	-5121
tenance	-5122
▁unless	-5123
tering	-5124
▁circle	-5125
▁enable	-5126
ria	-5127
▁composition	-5128
▁evaluation	-5129
▁ib	-5130
▁pool	-5131
▁abund	-5132
▁initiative	-5133
▁ancest	-5134
▁ultimately	-5135
▁infect	-5136
nthes	-5137
▁possibly	-5138
▁visitors	-5139
▁bees	-5140
▁permanent	-5141
▁cryst	-5142
▁selection	-5143
▁drought	-5144
ka	-5145
▁vulnerable	-5146
eters	-5147
▁neighb	-5148
▁instruments	-5149
active	-5150
stream	-5151
▁examine	-5152
▁noise	-5153
▁whats	-5154
▁cav	-5155
▁extent	-5156
▁kore	-5157
othe	-5158
war	-5159
▁rice	-5160
17	-5161
▁shapes	-5162
▁employees	-5163
▁chain	-5164
▁subsequ	-5165
▁afford	-5166
▁partnership	-5167
▁2008	-5168
▁budget	-5169
▁canadian	-5170
▁supports	-5171
▁opening	-5172
▁depos	-5173
▁equival	-5174
▁conventional	-5175
▁regist	-5176
▁mes	-5177
▁agencies	-5178
-6	-5179
▁2015	-5180
▁sad	-5181
▁imagine	-5182
with	-5183
▁mentioned	-5184
▁amazing	-5185
▁boy	-5186
▁falls	-5187
izer	-5188
inent	-5189
angered	-5190
▁rising	-5191
▁transition	-5192
orter	-5193
▁mun	-5194
▁trip	-5195
▁3,	-5196
hist	-5197
▁communicate	-5198
▁follows	-5199
▁eld	-5200
▁outbre	-5201
rate	-5202
▁arms	-5203
▁successfully	-5204
▁launched	-5205
hand	-5206
▁chic	-5207
▁brand	-5208
inating	-5209
▁giant	-5210
▁fasc	-5211
▁catch	-5212
▁188	-5213
▁charles	-5214
▁discipl	-5215
▁toler	-5216
gans	-5217
▁uns	-5218
▁magaz	-5219
▁goods	-5220
▁houses	-5221
▁cultiv	-5222
▁senior	-5223
▁felt	-5224
▁launch	-5225
▁maintenance	-5226
▁adoles	-5227
▁rocks	-5228
▁decade	-5229
▁acts	-5230
▁vessels	-5231
▁item	-5232
▁closer	-5233
▁difficulty	-5234
▁valid	-5235
zen	-5236
▁aircraft	-5237
▁pdf	-5238
▁honey	-5239
▁appeared	-5240
pass	-5241
▁breath	-5242
▁artists	-5243
▁learners	-5244
▁carefully	-5245
▁newspap	-5246
▁facilit	-5247
▁nearby	-5248
▁police	-5249
erative	-5250
▁programme	-5251
▁carolina	-5252
▁lakes	-5253
▁endangered	-5254
bac	-5255
▁taste	-5256
eper	-5257
▁mosquit	-5258
▁soldiers	-5259
▁kingdom	-5260
▁arab	-5261
▁alle	-5262
born	-5263
phone	-5264
▁generated	-5265
asters	-5266
zed	-5267
▁usage	-5268
▁35	-5269
▁param	-5270
▁consumer	-5271
2)	-5272
▁covid	-5273
▁molecular	-5274
▁fest	-5275
▁supporting	-5276
▁exchange	-5277
och	-5278
▁meters	-5279
bel	-5280
▁supplies	-5281
▁wants	-5282
▁administr	-5283
▁biom	-5284
▁henry	-5285
▁pray	-5286
▁bes	-5287
▁rose	-5288
▁gluc	-5289
dy	-5290
▁organisms	-5291
▁micros	-5292
▁bath	-5293
▁https	-5294
top	-5295
which	-5296
▁firm	-5297
illing	-5298
▁putting	-5299
▁handle	-5300
▁seat	-5301
aped	-5302
rep	-5303
▁silver	-5304
itz	-5305
ctor	-5306
▁demonstrate	-5307
▁extension	-5308
▁pharm	-5309
▁viruses	-5310
▁argument	-5311
▁daugh	-5312
▁possess	-5313
▁correspond	-5314
▁observations	-5315
▁elementary	-5316
osa	-5317
▁mm	-5318
▁concrete	-5319
kin	-5320
▁transmission	-5321
▁jose	-5322
▁assistance	-5323
▁substant	-5324
olute	-5325
▁sufficient	-5326
ifies	-5327
▁cham	-5328
▁(200	-5329
▁inner	-5330
▁georg	-5331
▁investment	-5332
▁decide	-5333
▁cultures	-5334
▁yog	-5335
▁panel	-5336
level	-5337
▁meal	-5338
▁psychology	-5339
ups	-5340
rors	-5341
part	-5342
▁compounds	-5343
▁protocol	-5344
▁acids	-5345
iov	-5346
▁volt	-5347
▁mixed	-5348
▁breeding	-5349
▁preventing	-5350
▁pediatric	-5351
ament	-5352
▁precise	-5353
▁boys	-5354
▁tried	-5355
▁warning	-5356
▁layers	-5357
▁intel	-5358
▁whom	-5359
▁ital	-5360
umps	-5361
▁entry	-5362
▁flag	-5363
▁merc	-5364
▁error	-5365
but	-5366
icide	-5367
ugh	-5368
▁knowing	-5369
tles	-5370
▁clus	-5371
▁variable	-5372
▁minerals	-5373
▁francis	-5374
▁1:	-5375
▁accident	-5376
▁gap	-5377
▁alex	-5378
▁researcher	-5379
.|	-5380
▁christmas	-5381
▁participate	-5382
▁lights	-5383
umes	-5384
▁formal	-5385
▁discussed	-5386
osen	-5387
▁obst	-5388
▁guard	-5389
▁reserved	-5390
osion	-5391
▁bib	-5392
▁resolution	-5393
▁returned	-5394
heast	-5395
▁10.	-5396
▁thank	-5397
▁nose	-5398
▁cab	-5399
▁fisher	-5400
▁attached	-5401
hydr	-5402
▁spok	-5403
▁extended	-5404
▁players	-5405
▁md	-5406
▁recycling	-5407
▁attend	-5408
▁gh	-5409
fit	-5410
▁summary	-5411
iance	-5412
▁pounds	-5413
▁spin	-5414
▁sequence	-5415
75	-5416
cr	-5417
▁moisture	-5418
▁satur	-5419
▁mete	-5420
▁jump	-5421
▁bread	-5422
alog	-5423
▁brows	-5424
▁category	-5425
▁worksheets	-5426
sm	-5427
▁favorite	-5428
▁burning	-5429
▁mir	-5430
sen	-5431
orous	-5432
gers	-5433
▁estimates	-5434
▁planting	-5435
▁stands	-5436
▁fourth	-5437
▁orange	-5438
▁remained	-5439
▁persist	-5440
▁hence	-5441
▁scar	-5442
▁missing	-5443
▁fell	-5444
▁institution	-5445
ritis	-5446
▁8.	-5447
americ	-5448
▁theme	-5449
▁scot	-5450
osph	-5451
▁tub	-5452
▁accounts	-5453
▁adequ	-5454
▁mechanical	-5455
band	-5456
ek	-5457
▁pure	-5458
▁integrated	-5459
▁obtained	-5460
▁sund	-5461
inate	-5462
▁substances	-5463
▁cooking	-5464
▁pregnant	-5465
▁pestic	-5466
________	-5467
istan	-5468
▁define	-5469
▁scholars	-5470
bc	-5471
oke	-5472
▁mond	-5473
igan	-5474
▁johns	-5475
bles	-5476
▁opposite	-5477
▁standing	-5478
▁collaboration	-5479
▁evaluate	-5480
▁door	-5481
▁relax	-5482
zheim	-5483
ibilities	-5484
▁damaged	-5485
iac	-5486
▁2016	-5487
otic	-5488
atever	-5489
▁implementation	-5490
▁aims	-5491
icate	-5492
ipping	-5493
▁angle	-5494
▁empire	-5495
▁psychological	-5496
▁russian	-5497
stone	-5498
▁polar	-5499
fr	-5500
▁hazard	-5501
▁blind	-5502
▁blocks	-5503
▁tu	-5504
▁repeated	-5505
▁regulations	-5506
▁peak	-5507
▁absolute	-5508
▁chest	-5509
▁forget	-5510
stood	-5511
ba	-5512
▁feedback	-5513
▁ov	-5514
▁coc	-5515
▁tons	-5516
▁repair	-5517
▁abstract	-5518
ache	-5519
▁comparison	-5520
▁indicates	-5521
▁atom	-5522
▁encycl	-5523
▁crime	-5524
▁derived	-5525
ras	-5526
▁cheap	-5527
▁compost	-5528
▁wheel	-5529
▁honor	-5530
hi	-5531
sis	-5532
▁password	-5533
▁2007	-5534
▁respiratory	-5535
▁chrom	-5536
▁agreement	-5537
▁flash	-5538
▁victor	-5539
45	-5540
▁spr	-5541
ipedia	-5542
▁alzheim	-5543
▁ire	-5544
▁remaining	-5545
▁writer	-5546
osal	-5547
▁cord	-5548
▁sharp	-5549
▁yield	-5550
▁match	-5551
▁wait	-5552
road	-5553
▁audience	-5554
▁heating	-5555
▁kilomet	-5556
▁improvement	-5557
▁males	-5558
▁measurements	-5559
▁stimul	-5560
iology	-5561
▁pand	-5562
▁adap	-5563
itter	-5564
▁educators	-5565
ada	-5566
▁weap	-5567
▁neighbor	-5568
▁connections	-5569
▁ahead	-5570
aria	-5571
▁screening	-5572
▁opened	-5573
99	-5574
▁reactions	-5575
ev	-5576
ki	-5577
▁candid	-5578
orses	-5579
▁2000	-5580
▁michael	-5581
cience	-5582
▁holiday	-5583
kins	-5584
▁capture	-5585
▁measurement	-5586
▁whatever	-5587
▁catholic	-5588
▁dar	-5589
▁script	-5590
▁marked	-5591
▁imaging	-5592
▁females	-5593
▁cleaning	-5594
▁ends	-5595
▁plenty	-5596
▁parks	-5597
▁smooth	-5598
etime	-5599
ship	-5600
▁encyclop	-5601
▁pets	-5602
▁truly	-5603
▁frequent	-5604
▁artist	-5605
▁accessible	-5606
▁imposs	-5607
▁behaviors	-5608
▁exploration	-5609
▁sport	-5610
78	-5611
▁existence	-5612
▁desert	-5613
▁focuses	-5614
▁surfaces	-5615
▁generations	-5616
▁apple	-5617
▁associate	-5618
▁nic	-5619
organ	-5620
▁kne	-5621
▁jews	-5622
▁settings	-5623
▁maintaining	-5624
▁bee	-5625
▁satis	-5626
▁printed	-5627
▁facility	-5628
▁disaster	-5629
▁aids	-5630
▁grades	-5631
▁equivalent	-5632
▁holy	-5633
▁nitrogen	-5634
▁cod	-5635
▁tip	-5636
▁laser	-5637
▁45	-5638
▁quot	-5639
▁obtain	-5640
▁bag	-5641
▁mothers	-5642
▁managed	-5643
▁paras	-5644
▁claims	-5645
▁opinion	-5646
▁session	-5647
▁interaction	-5648
▁emotions	-5649
▁insulin	-5650
▁refuge	-5651
▁advent	-5652
ili	-5653
▁compr	-5654
▁sunlight	-5655
▁overview	-5656
cell	-5657
▁holes	-5658
▁noun	-5659
▁entirely	-5660
▁cot	-5661
▁sty	-5662
▁mechanism	-5663
▁paris	-5664
▁achieved	-5665
▁percentage	-5666
▁teens	-5667
▁innovation	-5668
rooms	-5669
hered	-5670
▁restrict	-5671
alities	-5672
▁array	-5673
▁budd	-5674
▁drag	-5675
plant	-5676
▁decor	-5677
▁copper	-5678
▁185	-5679
▁intervention	-5680
▁founded	-5681
sey	-5682
▁sections	-5683
ivery	-5684
▁recommendations	-5685
rd	-5686
▁2017	-5687
gov	-5688
▁arent	-5689
▁seconds	-5690
heric	-5691
▁sar	-5692
▁teams	-5693
▁columbia	-5694
▁tube	-5695
▁bell	-5696
▁shift	-5697
▁possibility	-5698
▁measuring	-5699
▁organized	-5700
23	-5701
pet	-5702
▁sell	-5703
▁turb	-5704
▁announced	-5705
▁wont	-5706
▁atlantic	-5707
odiversity	-5708
eless	-5709
▁marks	-5710
▁column	-5711
▁club	-5712
writ	-5713
▁additionally	-5714
▁wash	-5715
▁paralle	-5716
▁biodiversity	-5717
▁wish	-5718
aska	-5719
amins	-5720
▁preval	-5721
▁paid	-5722
▁tobac	-5723
ashion	-5724
▁ske	-5725
anta	-5726
▁organs	-5727
iform	-5728
▁turning	-5729
ented	-5730
▁trained	-5731
▁adopted	-5732
▁schedule	-5733
▁grid	-5734
▁arctic	-5735
▁overl	-5736
▁challenging	-5737
▁tissues	-5738
▁printing	-5739
ella	-5740
▁tobacco	-5741
▁hurric	-5742
▁les	-5743
▁drain	-5744
▁distur	-5745
▁philosophy	-5746
▁treating	-5747
▁antibiotics	-5748
▁isn	-5749
▁immediate	-5750
▁worry	-5751
ione	-5752
▁inhab	-5753
urt	-5754
▁150	-5755
▁border	-5756
aching	-5757
▁sup	-5758
ua	-5759
▁dys	-5760
▁spacecraft	-5761
olve	-5762
▁installed	-5763
▁housing	-5764
▁clinic	-5765
▁reduces	-5766
▁pm	-5767
▁spaces	-5768
▁principle	-5769
she	-5770
▁theore	-5771
han	-5772
▁facebook	-5773
inet	-5774
▁modified	-5775
▁explanation	-5776
▁tank	-5777
▁scott	-5778
▁rig	-5779
▁ment	-5780
▁glucose	-5781
▁impossible	-5782
▁pollut	-5783
▁insurance	-5784
dis	-5785
▁partner	-5786
▁switch	-5787
▁prison	-5788
▁clar	-5789
▁listening	-5790
▁remov	-5791
rapy	-5792
ratic	-5793
onia	-5794
▁ratio	-5795
▁marriage	-5796
▁beauty	-5797
▁chicago	-5798
▁greatly	-5799
▁accum	-5800
▁varieties	-5801
▁consistent	-5802
▁brings	-5803
▁subsc	-5804
▁twenty	-5805
▁shot	-5806
▁debate	-5807
▁reci	-5808
▁protecting	-5809
▁excl	-5810
inks	-5811
▁trials	-5812
▁formula	-5813
▁drivers	-5814
▁gut	-5815
▁recognition	-5816
▁mining	-5817
▁orient	-5818
▁occasion	-5819
▁athlet	-5820
icon	-5821
1)	-5822
▁ongoing	-5823
▁zeal	-5824
▁confidence	-5825
bon	-5826
▁remark	-5827
▁tv	-5828
▁objective	-5829
angle	-5830
irect	-5831
▁usa	-5832
▁responses	-5833
▁competition	-5834
▁preparation	-5835
▁ireland	-5836
▁innovative	-5837
▁(201	-5838
▁ba	-5839
▁hang	-5840
▁delivery	-5841
hal	-5842
▁irrit	-5843
▁replaced	-5844
▁knew	-5845
▁exciting	-5846
rency	-5847
4)	-5848
▁incred	-5849
▁ohio	-5850
▁horses	-5851
dra	-5852
▁assembly	-5853
▁interests	-5854
▁hat	-5855
ighter	-5856
▁russia	-5857
▁computing	-5858
▁gardens	-5859
▁gone	-5860
▁trouble	-5861
▁tap	-5862
▁lie	-5863
▁ger	-5864
airy	-5865
▁push	-5866
▁outer	-5867
inction	-5868
▁chlor	-5869
▁lies	-5870
▁excessive	-5871
▁cancers	-5872
▁bond	-5873
oster	-5874
ague	-5875
▁mood	-5876
fts	-5877
▁defense	-5878
▁gods	-5879
▁whereas	-5880
▁none	-5881
itudes	-5882
▁industries	-5883
▁guidance	-5884
▁outd	-5885
▁button	-5886
▁resident	-5887
▁expans	-5888
▁reef	-5889
▁shad	-5890
▁wife	-5891
▁potat	-5892
▁channel	-5893
▁runs	-5894
▁mineral	-5895
▁ethnic	-5896
▁minute	-5897
▁29	-5898
▁sentences	-5899
rants	-5900
▁territory	-5901
▁farming	-5902
ey	-5903
▁grows	-5904
▁decay	-5905
▁tight	-5906
▁physician	-5907
▁chosen	-5908
▁false	-5909
▁identifying	-5910
icit	-5911
lements	-5912
▁knows	-5913
▁detection	-5914
▁orth	-5915
▁publish	-5916
▁telescope	-5917
▁fighting	-5918
nut	-5919
▁fishing	-5920
▁verb	-5921
ston	-5922
▁scene	-5923
▁branches	-5924
100	-5925
▁contained	-5926
▁ton	-5927
▁monday	-5928
ulty	-5929
rid	-5930
▁beach	-5931
▁estimate	-5932
▁manager	-5933
▁clothing	-5934
▁unusual	-5935
▁surprising	-5936
ribed	-5937
▁poem	-5938
▁187	-5939
rays	-5940
▁todays	-5941
▁mathematical	-5942
▁weve	-5943
▁danger	-5944
vis	-5945
▁meteor	-5946
▁queen	-5947
bu	-5948
▁herb	-5949
▁unable	-5950
▁ingredients	-5951
▁facing	-5952
books	-5953
▁sensors	-5954
▁bc	-5955
▁thorough	-5956
▁conversation	-5957
▁limits	-5958
ails	-5959
▁4,	-5960
pread	-5961
ontal	-5962
▁communications	-5963
▁conclusion	-5964
▁roads	-5965
▁braz	-5966
▁disabilities	-5967
ini	-5968
▁neu	-5969
▁michigan	-5970
ancing	-5971
▁vib	-5972
hs	-5973
▁spending	-5974
▁jun	-5975
▁bigger	-5976
▁diameter	-5977
▁feat	-5978
▁peter	-5979
▁asking	-5980
iovascular	-5981
▁cyber	-5982
▁underlying	-5983
▁relief	-5984
▁presents	-5985
produ	-5986
▁aster	-5987
▁examination	-5988
▁wides	-5989
▁designs	-5990
▁involving	-5991
ymph	-5992
▁nervous	-5993
▁fixed	-5994
▁roughly	-5995
▁ye	-5996
▁dates	-5997
▁salmon	-5998
▁stable	-5999
▁executive	-6000
▁celebrate	-6001
▁prove	-6002
▁bind	-6003
▁vitamins	-6004
▁pp	-6005
uous	-6006
cking	-6007
▁route	-6008
▁richard	-6009
▁conve	-6010
sts	-6011
▁ships	-6012
▁cardiovascular	-6013
▁struggle	-6014
▁categories	-6015
▁lu	-6016
▁functional	-6017
▁widespread	-6018
▁dietary	-6019
▁surge	-6020
▁circumst	-6021
▁friday	-6022
▁geomet	-6023
print	-6024
▁destroyed	-6025
▁vs	-6026
▁branch	-6027
▁delay	-6028
35	-6029
▁mode	-6030
▁wheat	-6031
▁islam	-6032
▁advert	-6033
▁align	-6034
▁steam	-6035
ola	-6036
▁thousand	-6037
▁furn	-6038
outs	-6039
▁puzz	-6040
cher	-6041
▁moves	-6042
cd	-6043
▁membr	-6044
po	-6045
igare	-6046
using	-6047
▁advis	-6048
gical	-6049
▁politics	-6050
▁spiritual	-6051
▁minister	-6052
▁understood	-6053
▁thy	-6054
▁dir	-6055
▁dairy	-6056
ari	-6057
▁photographs	-6058
▁census	-6059
▁stuff	-6060
▁martin	-6061
▁exhibit	-6062
▁manip	-6063
icious	-6064
200	-6065
▁retrie	-6066
▁italy	-6067
ying	-6068
▁thro	-6069
▁glac	-6070
▁parag	-6071
▁cough	-6072
▁regardless	-6073
under	-6074
▁considering	-6075
raction	-6076
▁voltage	-6077
▁interactions	-6078
▁neur	-6079
▁texts	-6080
ifications	-6081
lar	-6082
▁victims	-6083
▁complications	-6084
▁serving	-6085
▁witness	-6086
▁holds	-6087
rian	-6088
▁jul	-6089
▁intest	-6090
▁hus	-6091
▁inspired	-6092
▁vel	-6093
▁mortality	-6094
▁rome	-6095
▁audio	-6096
▁grew	-6097
▁2006	-6098
▁chair	-6099
▁anywhere	-6100
▁cel	-6101
▁websites	-6102
▁meals	-6103
uracy	-6104
▁compound	-6105
▁stated	-6106
scale	-6107
24	-6108
▁coron	-6109
ien	-6110
▁tract	-6111
▁dol	-6112
▁infant	-6113
▁hormone	-6114
isters	-6115
edu	-6116
▁pale	-6117
▁row	-6118
▁pel	-6119
▁defect	-6120
▁collections	-6121
▁employment	-6122
▁accepted	-6123
▁implications	-6124
rain	-6125
▁removal	-6126
mm	-6127
▁batteries	-6128
▁vote	-6129
▁eru	-6130
▁cotton	-6131
▁plot	-6132
▁lungs	-6133
▁proven	-6134
▁provider	-6135
▁recre	-6136
▁chocol	-6137
itely	-6138
▁reliable	-6139
inity	-6140
▁enab	-6141
▁authorities	-6142
▁sensor	-6143
▁smell	-6144
▁trends	-6145
▁gast	-6146
▁consume	-6147
▁holding	-6148
aked	-6149
stein	-6150
▁guar	-6151
▁loved	-6152
▁ow	-6153
▁thermal	-6154
▁joseph	-6155
▁bringing	-6156
▁messages	-6157
luding	-6158
▁phrase	-6159
▁variables	-6160
▁customers	-6161
▁ecosystems	-6162
▁epis	-6163
▁moral	-6164
▁controls	-6165
itative	-6166
▁gases	-6167
▁wine	-6168
▁proof	-6169
▁bron	-6170
▁fashion	-6171
▁prime	-6172
▁400	-6173
▁spain	-6174
▁indu	-6175
▁score	-6176
uses	-6177
▁contents	-6178
▁intense	-6179
▁analyze	-6180
▁mechanisms	-6181
ctive	-6182
▁flying	-6183
▁36	-6184
▁participation	-6185
▁spectrum	-6186
▁metabol	-6187
▁finger	-6188
▁quarter	-6189
▁module	-6190
▁os	-6191
▁pupils	-6192
▁luck	-6193
▁constructed	-6194
▁plane	-6195
▁hunting	-6196
▁italian	-6197
▁aged	-6198
ih	-6199
▁vaccines	-6200
▁abdom	-6201
called	-6202
▁prompt	-6203
▁mere	-6204
rene	-6205
▁issued	-6206
▁newly	-6207
▁magazine	-6208
▁microb	-6209
▁identification	-6210
▁offering	-6211
▁mixt	-6212
▁youve	-6213
▁empt	-6214
▁buff	-6215
▁wikipedia	-6216
▁fires	-6217
▁covering	-6218
while	-6219
▁accuracy	-6220
▁stronger	-6221
▁managing	-6222
▁workshop	-6223
▁solving	-6224
▁detected	-6225
▁joined	-6226
▁dollars	-6227
▁tong	-6228
▁manual	-6229
▁rect	-6230
▁finds	-6231
▁rarely	-6232
▁intellect	-6233
▁cure	-6234
▁tab	-6235
▁sustainability	-6236
▁craft	-6237
▁liv	-6238
▁tables	-6239
▁examined	-6240
▁hygi	-6241
itals	-6242
lig	-6243
▁nice	-6244
ograp	-6245
▁breed	-6246
▁colorado	-6247
▁ari	-6248
▁observe	-6249
▁descript	-6250
▁jack	-6251
▁phosph	-6252
▁experimental	-6253
▁insert	-6254
unt	-6255
▁ell	-6256
▁confirmed	-6257
▁tech	-6258
▁chances	-6259
▁oldest	-6260
▁exploring	-6261
▁hypothes	-6262
▁assistant	-6263
▁mol	-6264
▁contemporary	-6265
▁perce	-6266
▁brazil	-6267
▁irish	-6268
▁pc	-6269
▁acute	-6270
▁trail	-6271
▁memorial	-6272
▁corner	-6273
▁introduce	-6274
▁operate	-6275
▁antio	-6276
▁exists	-6277
▁config	-6278
ribe	-6279
▁finished	-6280
▁2018	-6281
usions	-6282
▁domain	-6283
▁writers	-6284
▁represented	-6285
itivity	-6286
▁grain	-6287
▁infants	-6288
▁eliminate	-6289
▁wars	-6290
▁watching	-6291
▁saving	-6292
▁ram	-6293
▁necessarily	-6294
▁bacterial	-6295
▁dream	-6296
▁significance	-6297
▁filter	-6298
▁preserve	-6299
▁graduate	-6300
▁happening	-6301
▁habitats	-6302
▁belief	-6303
oids	-6304
▁careful	-6305
▁tick	-6306
▁tox	-6307
▁atmospheric	-6308
▁cooling	-6309
▁television	-6310
▁musical	-6311
▁mercury	-6312
▁assignment	-6313
▁banks	-6314
▁distributed	-6315
▁fuels	-6316
▁2:	-6317
▁universal	-6318
▁rely	-6319
aph	-6320
▁parties	-6321
▁continuous	-6322
▁dance	-6323
you	-6324
▁panels	-6325
▁drawn	-6326
▁initially	-6327
▁quantum	-6328
▁guarant	-6329
▁references	-6330
ansas	-6331
▁advantages	-6332
berry	-6333
▁captured	-6334
▁trigger	-6335
▁register	-6336
▁adds	-6337
▁protective	-6338
gments	-6339
▁golden	-6340
rimination	-6341
▁9.	-6342
▁principal	-6343
aa	-6344
▁girl	-6345
▁drinks	-6346
▁processed	-6347
▁debt	-6348
▁soy	-6349
▁substit	-6350
▁matters	-6351
▁sitting	-6352
▁moderate	-6353
▁sla	-6354
▁engaging	-6355
3)	-6356
▁inhib	-6357
▁elder	-6358
▁spray	-6359
▁receiving	-6360
▁arrange	-6361
iration	-6362
▁approved	-6363
▁li	-6364
▁zealand	-6365
▁hidden	-6366
▁demonstrated	-6367
lights	-6368
▁zo	-6369
▁disability	-6370
▁184	-6371
▁carrying	-6372
▁acknow	-6373
▁recover	-6374
▁32	-6375
▁container	-6376
▁ourselves	-6377
▁scul	-6378
▁eleph	-6379
▁asian	-6380
▁invasive	-6381
▁cas	-6382
▁poetry	-6383
▁subs	-6384
▁los	-6385
ressive	-6386
adder	-6387
▁passage	-6388
▁ecological	-6389
▁passing	-6390
▁tutorial	-6391
▁encouraged	-6392
▁specialist	-6393
asure	-6394
▁mine	-6395
rine	-6396
▁mold	-6397
fri	-6398
▁realize	-6399
ald	-6400
▁parallel	-6401
▁encyclopedia	-6402
rol	-6403
▁lecture	-6404
▁swed	-6405
▁farms	-6406
▁grains	-6407
▁lock	-6408
▁didn	-6409
▁clay	-6410
soft	-6411
hetic	-6412
▁purs	-6413
▁tues	-6414
aming	-6415
▁legislation	-6416
▁earthquake	-6417
▁dischar	-6418
▁threatened	-6419
▁oceans	-6420
▁bure	-6421
▁lens	-6422
▁gree	-6423
▁composed	-6424
▁complicated	-6425
coming	-6426
mia	-6427
▁sodium	-6428
▁welcome	-6429
▁aging	-6430
▁threats	-6431
▁shif	-6432
▁phenomenon	-6433
▁heres	-6434
ita	-6435
▁healing	-6436
ushed	-6437
▁asp	-6438
▁conscious	-6439
▁interior	-6440
▁compl	-6441
▁chocolate	-6442
▁gravity	-6443
▁correctly	-6444
▁essentially	-6445
▁translation	-6446
▁saint	-6447
▁directions	-6448
▁statist	-6449
▁heads	-6450
▁?	-6451
▁equation	-6452
ylv	-6453
mo	-6454
▁creatures	-6455
chen	-6456
▁conj	-6457
▁neighborhood	-6458
▁theories	-6459
▁split	-6460
▁publ	-6461
▁thurs	-6462
▁bull	-6463
▁rod	-6464
▁comfortable	-6465
▁acres	-6466
dered	-6467
teen	-6468
igue	-6469
▁sculpt	-6470
▁gray	-6471
▁failed	-6472
▁slavery	-6473
▁1,000	-6474
ocy	-6475
chang	-6476
▁cort	-6477
▁wednes	-6478
▁constantly	-6479
▁flows	-6480
▁strain	-6481
▁expressed	-6482
▁basically	-6483
▁stations	-6484
▁daughter	-6485
oir	-6486
▁bost	-6487
▁transc	-6488
▁hawai	-6489
xid	-6490
▁cow	-6491
▁bon	-6492
▁winds	-6493
hd	-6494
36	-6495
▁adequate	-6496
elled	-6497
▁grammar	-6498
▁oste	-6499
▁pink	-6500
▁lighting	-6501
▁cattle	-6502
▁vegetable	-6503
▁arrived	-6504
▁player	-6505
iding	-6506
▁muslim	-6507
▁tag	-6508
▁decreased	-6509
▁deeper	-6510
ette	-6511
▁literary	-6512
ohydr	-6513
▁georgia	-6514
▁scr	-6515
▁driver	-6516
▁dynamic	-6517
▁beliefs	-6518
▁expansion	-6519
▁manufacturers	-6520
making	-6521
▁caught	-6522
▁canal	-6523
▁recept	-6524
▁pyth	-6525
▁interface	-6526
▁objectives	-6527
▁resulted	-6528
26	-6529
▁reveal	-6530
▁fatty	-6531
▁conven	-6532
▁paragraph	-6533
▁ille	-6534
▁effectiveness	-6535
▁fats	-6536
▁sunday	-6537
ouds	-6538
▁nutrient	-6539
idity	-6540
▁sales	-6541
etts	-6542
▁vegetation	-6543
▁volunteers	-6544
▁affecting	-6545
▁fairly	-6546
▁synthes	-6547
▁calculate	-6548
▁brains	-6549
▁structural	-6550
box	-6551
▁enem	-6552
from	-6553
▁focusing	-6554
▁ps	-6555
ivered	-6556
▁outdoor	-6557
▁dele	-6558
▁combat	-6559
▁circumstances	-6560
▁jeff	-6561
▁migration	-6562
▁exhibition	-6563
▁2005	-6564
▁dim	-6565
▁pear	-6566
▁pine	-6567
▁radi	-6568
▁carbohydr	-6569
▁globe	-6570
hea	-6571
▁bol	-6572
▁undert	-6573
lings	-6574
▁stores	-6575
▁earliest	-6576
▁investigation	-6577
▁homework	-6578
▁controvers	-6579
▁quiz	-6580
▁escape	-6581
▁wis	-6582
odies	-6583
ora	-6584
▁encoun	-6585
▁calend	-6586
▁stones	-6587
bridge	-6588
▁planned	-6589
▁funds	-6590
anda	-6591
such	-6592
▁oz	-6593
▁||	-6594
▁supposed	-6595
reed	-6596
▁dealing	-6597
▁parl	-6598
list	-6599
▁cash	-6600
▁restoration	-6601
▁spinal	-6602
▁weigh	-6603
▁seeking	-6604
▁rend	-6605
▁tower	-6606
▁reserve	-6607
▁accessed	-6608
▁hardware	-6609
▁serves	-6610
▁discrimination	-6611
▁adolesc	-6612
neys	-6613
▁safely	-6614
▁1990	-6615
▁investigate	-6616
▁strongly	-6617
▁tuesday	-6618
▁pad	-6619
eenth	-6620
▁bullying	-6621
▁behavioral	-6622
▁lists	-6623
▁occurring	-6624
indu	-6625
▁willing	-6626
▁antioxid	-6627
zes	-6628
▁targets	-6629
▁peer	-6630
▁doubt	-6631
28	-6632
def	-6633
▁spots	-6634
▁dement	-6635
inf	-6636
▁linear	-6637
-18	-6638
▁underground	-6639
▁delivered	-6640
▁wonderful	-6641
▁clock	-6642
▁trick	-6643
▁urine	-6644
▁beat	-6645
▁suscept	-6646
▁)	-6647
▁hybr	-6648
▁achievement	-6649
▁brush	-6650
racy	-6651
erior	-6652
▁worst	-6653
▁pione	-6654
▁dentist	-6655
▁experiencing	-6656
▁hub	-6657
▁thursday	-6658
▁wednesday	-6659
▁mu	-6660
▁flexible	-6661
▁ts	-6662
▁5,	-6663
▁geographic	-6664
▁boston	-6665
33	-6666
▁forg	-6667
▁lymph	-6668
▁shed	-6669
class	-6670
▁province	-6671
▁explo	-6672
▁beet	-6673
▁roles	-6674
▁penns	-6675
▁insight	-6676
▁plain	-6677
har	-6678
▁gradually	-6679
▁sched	-6680
▁markets	-6681
▁mouse	-6682
▁coverage	-6683
-7	-6684
▁inher	-6685
▁neither	-6686
▁supplements	-6687
▁forming	-6688
▁vertical	-6689
▁pla	-6690
▁evolved	-6691
▁reaching	-6692
▁clouds	-6693
▁thread	-6694
▁married	-6695
▁rhyth	-6696
▁tomat	-6697
cur	-6698
▁observation	-6699
achus	-6700
▁economics	-6701
▁origins	-6702
▁fellow	-6703
▁wearing	-6704
▁camer	-6705
▁prize	-6706
ylvania	-6707
▁prey	-6708
▁crim	-6709
bean	-6710
▁convention	-6711
orph	-6712
▁creek	-6713
▁extend	-6714
▁styles	-6715
▁nov	-6716
▁funded	-6717
▁irrig	-6718
▁antar	-6719
▁medicines	-6720
▁shru	-6721
▁metals	-6722
▁guess	-6723
▁optical	-6724
▁pronoun	-6725
▁usual	-6726
▁update	-6727
▁soils	-6728
▁earths	-6729
▁tack	-6730
▁dies	-6731
rane	-6732
▁flour	-6733
95	-6734
pdf	-6735
there	-6736
▁tumor	-6737
▁wound	-6738
rated	-6739
▁spat	-6740
american	-6741
▁allergy	-6742
▁lip	-6743
▁errors	-6744
▁signed	-6745
▁aggress	-6746
holds	-6747
oned	-6748
▁galaxy	-6749
▁gat	-6750
▁ric	-6751
hent	-6752
▁mammals	-6753
▁bears	-6754
▁keeps	-6755
▁committed	-6756
▁dose	-6757
▁shore	-6758
▁neurolog	-6759
▁removing	-6760
▁implemented	-6761
▁convert	-6762
▁faculty	-6763
copy	-6764
▁allergies	-6765
pm	-6766
▁hind	-6767
▁exped	-6768
▁calling	-6769
▁sole	-6770
▁adm	-6771
▁deer	-6772
nat	-6773
▁lob	-6774
▁phones	-6775
▁ended	-6776
▁dementia	-6777
ude	-6778
▁celebrated	-6779
▁critic	-6780
▁abilities	-6781
ocking	-6782
oli	-6783
bris	-6784
▁java	-6785
▁classical	-6786
▁atoms	-6787
rous	-6788
▁ul	-6789
▁movie	-6790
ricts	-6791
▁falling	-6792
▁lincol	-6793
▁resc	-6794
enue	-6795
▁reporting	-6796
worm	-6797
hire	-6798
standing	-6799
▁definitions	-6800
▁gulf	-6801
▁180	-6802
▁beans	-6803
▁arthritis	-6804
▁planted	-6805
▁diagnost	-6806
▁reward	-6807
▁si	-6808
▁coral	-6809
ogue	-6810
oral	-6811
▁dress	-6812
▁latter	-6813
olving	-6814
▁sizes	-6815
▁relation	-6816
▁destruction	-6817
▁furthermore	-6818
▁automatically	-6819
▁choosing	-6820
▁sheets	-6821
▁dense	-6822
▁kings	-6823
▁illnesses	-6824
estock	-6825
▁consumed	-6826
▁intensity	-6827
▁strict	-6828
▁succeed	-6829
apor	-6830
▁influenced	-6831
bar	-6832
umber	-6833
wa	-6834
▁trauma	-6835
▁hung	-6836
▁fascinating	-6837
▁jaw	-6838
apse	-6839
▁parliam	-6840
▁sir	-6841
▁towns	-6842
▁dimens	-6843
▁aband	-6844
abeth	-6845
press	-6846
▁twitter	-6847
▁epa	-6848
forest	-6849
▁amend	-6850
▁reviewed	-6851
▁proceed	-6852
▁worksheet	-6853
enza	-6854
▁versions	-6855
▁dramatic	-6856
▁fifth	-6857
▁fatigue	-6858
▁cul	-6859
▁owner	-6860
▁colonial	-6861
achusetts	-6862
▁characterized	-6863
38	-6864
▁crew	-6865
▁eliz	-6866
irds	-6867
-12	-6868
▁debris	-6869
▁powers	-6870
▁indicated	-6871
▁(5	-6872
▁uncom	-6873
▁diarr	-6874
ishment	-6875
▁65	-6876
▁nuts	-6877
▁criteria	-6878
▁iii	-6879
ieval	-6880
▁applying	-6881
▁statements	-6882
owing	-6883
▁buried	-6884
▁faces	-6885
▁counsel	-6886
▁nutritional	-6887
▁mixture	-6888
▁ai	-6889
▁engaged	-6890
ami	-6891
▁31	-6892
▁scotland	-6893
▁confident	-6894
%.	-6895
....	-6896
▁sovi	-6897
▁pest	-6898
▁joints	-6899
▁mini	-6900
▁stan	-6901
▁somewhat	-6902
usc	-6903
▁sou	-6904
inois	-6905
▁resil	-6906
▁healthier	-6907
▁dating	-6908
including	-6909
borne	-6910
▁enables	-6911
▁juice	-6912
▁reverse	-6913
▁anat	-6914
▁deploy	-6915
▁officer	-6916
▁(4	-6917
ders	-6918
▁spelling	-6919
▁womens	-6920
▁creativity	-6921
▁preparing	-6922
otype	-6923
▁performing	-6924
▁massachusetts	-6925
▁ion	-6926
▁harder	-6927
▁pilot	-6928
foot	-6929
icing	-6930
▁swit	-6931
▁throat	-6932
▁outbreak	-6933
▁desire	-6934
▁infectious	-6935
▁symbols	-6936
▁geography	-6937
fast	-6938
▁hygiene	-6939
itory	-6940
▁variation	-6941
▁shock	-6942
cel	-6943
antly	-6944
▁relie	-6945
dep	-6946
▁transmitted	-6947
▁pennsylvania	-6948
ctu	-6949
▁rib	-6950
▁cdc	-6951
learn	-6952
▁posts	-6953
ometer	-6954
▁bleeding	-6955
▁gri	-6956
▁archives	-6957
▁harvard	-6958
▁difficulties	-6959
ano	-6960
▁permission	-6961
▁inch	-6962
world	-6963
ique	-6964
▁traditions	-6965
▁entered	-6966
cin	-6967
▁songs	-6968
▁preschool	-6969
▁mitig	-6970
imm	-6971
century	-6972
▁gate	-6973
▁assume	-6974
shaped	-6975
▁aimed	-6976
▁racial	-6977
▁ears	-6978
▁rank	-6979
that	-6980
▁emerging	-6981
▁ensuring	-6982
▁devast	-6983
▁friendly	-6984
▁livestock	-6985
▁alter	-6986
▁alive	-6987
▁castle	-6988
▁robots	-6989
▁confirm	-6990
▁ta	-6991
▁wings	-6992
▁functioning	-6993
▁commons	-6994
▁soph	-6995
▁medieval	-6996
▁informed	-6997
sl	-6998
▁ranging	-6999
▁1960	-7000
arium	-7001
▁ariz	-7002
acts	-7003
▁authent	-7004
▁variations	-7005
▁technological	-7006
▁shaped	-7007
▁ceremon	-7008
uing	-7009
grow	-7010
pling	-7011
ashes	-7012
▁shoot	-7013
▁moreover	-7014
▁positions	-7015
vin	-7016
▁mail	-7017
▁basin	-7018
effect	-7019
▁thesis	-7020
▁troops	-7021
▁develops	-7022
lines	-7023
▁oak	-7024
ials	-7025
▁oxford	-7026
▁deficiency	-7027
icy	-7028
▁viewed	-7029
friend	-7030
ading	-7031
▁parliament	-7032
ographical	-7033
▁reviews	-7034
▁interpre	-7035
▁hay	-7036
▁uncertain	-7037
▁bang	-7038
▁naz	-7039
▁bomb	-7040
iana	-7041
▁desired	-7042
▁lam	-7043
▁employed	-7044
/201	-7045
▁buck	-7046
▁providers	-7047
▁chicken	-7048
▁concentrations	-7049
ilation	-7050
▁painful	-7051
▁sensitivity	-7052
cm	-7053
▁promoting	-7054
▁declared	-7055
▁ultra	-7056
▁digestive	-7057
▁tens	-7058
▁kar	-7059
green	-7060
▁75	-7061
▁engines	-7062
▁swimming	-7063
▁illinois	-7064
haust	-7065
nas	-7066
▁streams	-7067
cons	-7068
▁writes	-7069
▁raising	-7070
▁trace	-7071
lymp	-7072
▁hospitals	-7073
▁electronics	-7074
▁nick	-7075
▁1970	-7076
▁anthrop	-7077
▁cycl	-7078
▁license	-7079
rh	-7080
▁empty	-7081
▁secretary	-7082
▁municip	-7083
▁regulation	-7084
▁election	-7085
▁adapted	-7086
▁forum	-7087
▁judge	-7088
▁sevent	-7089
sell	-7090
▁engineer	-7091
▁outcome	-7092
▁ft	-7093
cut	-7094
mod	-7095
▁rays	-7096
onomic	-7097
▁horn	-7098
rape	-7099
▁cave	-7100
▁margin	-7101
▁scores	-7102
▁enorm	-7103
▁transmit	-7104
▁logic	-7105
▁suggestions	-7106
▁joy	-7107
acent	-7108
▁uv	-7109
▁sug	-7110
▁astron	-7111
▁forth	-7112
▁bush	-7113
▁plas	-7114
▁viet	-7115
▁paintings	-7116
▁1)	-7117
▁dependent	-7118
▁boat	-7119
illion	-7120
▁jac	-7121
abil	-7122
▁gif	-7123
▁besides	-7124
▁faced	-7125
▁enforce	-7126
html	-7127
▁attach	-7128
thal	-7129
▁sel	-7130
▁surgical	-7131
▁pesticides	-7132
▁auto	-7133
▁clothes	-7134
▁fet	-7135
▁wing	-7136
▁contributed	-7137
▁pairs	-7138
▁prominent	-7139
▁balanced	-7140
-10	-7141
▁defe	-7142
▁marsh	-7143
▁weakness	-7144
▁pace	-7145
▁resistant	-7146
▁6,	-7147
▁diagram	-7148
▁ease	-7149
▁oreg	-7150
▁emit	-7151
western	-7152
▁lifetime	-7153
▁universities	-7154
27	-7155
▁genome	-7156
▁newspaper	-7157
▁losing	-7158
▁bub	-7159
▁cigare	-7160
▁coat	-7161
rey	-7162
▁contribution	-7163
ouri	-7164
▁agents	-7165
▁commitment	-7166
▁annually	-7167
▁physically	-7168
▁sor	-7169
▁olymp	-7170
▁subsequent	-7171
▁influenza	-7172
▁correl	-7173
iva	-7174
▁repeat	-7175
▁alert	-7176
▁criminal	-7177
ester	-7178
▁elizabeth	-7179
▁pill	-7180
▁equally	-7181
▁concluded	-7182
uits	-7183
▁genetics	-7184
▁attempts	-7185
▁savings	-7186
▁narrative	-7187
▁evening	-7188
▁proportion	-7189
▁maintained	-7190
▁astronaut	-7191
▁emphasis	-7192
enger	-7193
▁swelling	-7194
▁inqu	-7195
▁whenever	-7196
▁hormones	-7197
ala	-7198
oured	-7199
▁microsoft	-7200
▁lunar	-7201
▁licens	-7202
▁loose	-7203
▁hurricane	-7204
-9	-7205
ergart	-7206
oric	-7207
▁disrupt	-7208
▁telling	-7209
▁bac	-7210
▁shorter	-7211
▁ministry	-7212
▁mature	-7213
▁isolated	-7214
▁embed	-7215
▁slave	-7216
ysis	-7217
otherapy	-7218
▁browser	-7219
▁classic	-7220
▁driven	-7221
▁reconst	-7222
▁transplant	-7223
▁carn	-7224
▁campus	-7225
▁1980	-7226
▁acquired	-7227
▁disk	-7228
▁pond	-7229
▁mg	-7230
▁monument	-7231
rus	-7232
▁determining	-7233
▁wireless	-7234
▁emper	-7235
▁tumors	-7236
▁ive	-7237
▁viral	-7238
▁calendar	-7239
▁lowest	-7240
ett	-7241
▁resid	-7242
▁johnson	-7243
▁alumin	-7244
▁improvements	-7245
▁tig	-7246
▁reject	-7247
▁sediment	-7248
▁collaborative	-7249
▁$1	-7250
▁advances	-7251
▁prohib	-7252
▁libraries	-7253
▁lee	-7254
'.	-7255
▁handling	-7256
▁ht	-7257
▁indians	-7258
ochem	-7259
▁definitely	-7260
mi	-7261
▁districts	-7262
▁exhaust	-7263
▁believes	-7264
▁weekly	-7265
▁suffered	-7266
iture	-7267
▁gained	-7268
▁reveals	-7269
!!	-7270
▁lawn	-7271
▁excav	-7272
▁developmental	-7273
▁americas	-7274
▁gent	-7275
▁gran	-7276
di	-7277
▁breaking	-7278
any	-7279
▁themes	-7280
grad	-7281
osh	-7282
48	-7283
▁intellectual	-7284
▁productivity	-7285
▁ecology	-7286
▁minnes	-7287
▁alarm	-7288
▁continuing	-7289
▁wil	-7290
▁zones	-7291
▁beneath	-7292
▁assigned	-7293
▁governor	-7294
▁supreme	-7295
▁highlights	-7296
▁priority	-7297
',	-7298
▁sacr	-7299
author	-7300
▁manif	-7301
▁sulf	-7302
▁3:	-7303
rary	-7304
▁colonies	-7305
▁therm	-7306
▁bottle	-7307
▁soviet	-7308
▁seal	-7309
▁fitness	-7310
lind	-7311
uted	-7312
▁caps	-7313
▁quantity	-7314
▁todd	-7315
▁visiting	-7316
page	-7317
hyd	-7318
amination	-7319
▁abnormal	-7320
▁particle	-7321
▁brid	-7322
▁equality	-7323
▁templ	-7324
▁basics	-7325
▁oregon	-7326
illa	-7327
▁festival	-7328
tw	-7329
▁inequ	-7330
32	-7331
▁households	-7332
▁blank	-7333
▁bags	-7334
65	-7335
▁kent	-7336
▁similarly	-7337
▁exception	-7338
▁mas	-7339
▁workplace	-7340
▁electrons	-7341
▁sessions	-7342
inter	-7343
thetic	-7344
cled	-7345
▁adverse	-7346
▁gear	-7347
].	-7348
▁spoken	-7349
▁info	-7350
eries	-7351
▁temporary	-7352
neum	-7353
▁heavily	-7354
▁analyzed	-7355
▁transpa	-7356
▁wise	-7357
▁recording	-7358
▁outline	-7359
▁controlling	-7360
▁pod	-7361
▁lith	-7362
▁availability	-7363
▁ot	-7364
▁restore	-7365
ranean	-7366
▁arizona	-7367
▁alaska	-7368
▁gly	-7369
ourage	-7370
▁respectively	-7371
▁tongue	-7372
▁shade	-7373
fill	-7374
▁visited	-7375
▁protest	-7376
37	-7377
▁rocket	-7378
▁rainfall	-7379
▁contributions	-7380
▁waiting	-7381
mers	-7382
▁ga	-7383
▁marketing	-7384
▁ny	-7385
made	-7386
▁substantial	-7387
▁mapping	-7388
▁uniform	-7389
reated	-7390
▁wisdom	-7391
▁rit	-7392
▁cream	-7393
▁containers	-7394
▁overcome	-7395
▁absorb	-7396
?"	-7397
▁breaks	-7398
▁colored	-7399
▁inhabit	-7400
eland	-7401
-201	-7402
▁stake	-7403
▁representation	-7404
▁streets	-7405
sters	-7406
▁albert	-7407
▁por	-7408
rows	-7409
▁perception	-7410
▁publications	-7411
▁hopes	-7412
▁desk	-7413
▁1/	-7414
▁barrier	-7415
▁reaches	-7416
▁tape	-7417
hus	-7418
onym	-7419
▁recall	-7420
-20	-7421
▁returns	-7422
▁separated	-7423
▁expanded	-7424
▁na	-7425
▁2019	-7426
▁dun	-7427
▁laid	-7428
▁entering	-7429
▁interventions	-7430
comm	-7431
▁fluor	-7432
▁addiction	-7433
▁remed	-7434
▁shakes	-7435
▁crown	-7436
▁stability	-7437
adel	-7438
▁bureau	-7439
▁weapons	-7440
▁remarkable	-7441
▁mud	-7442
worth	-7443
orig	-7444
▁dutch	-7445
▁straw	-7446
▁storms	-7447
▁agreed	-7448
omp	-7449
▁kilometers	-7450
▁perm	-7451
▁2004	-7452
▁3-	-7453
▁apps	-7454
▁phd	-7455
▁algae	-7456
▁accidents	-7457
▁sleeping	-7458
▁scholar	-7459
▁hills	-7460
▁saved	-7461
▁colony	-7462
bow	-7463
▁pandemic	-7464
▁sheep	-7465
▁portra	-7466
▁killing	-7467
rog	-7468
▁featured	-7469
▁fortun	-7470
▁powder	-7471
▁hazards	-7472
▁neutral	-7473
bn	-7474
▁lincoln	-7475
▁bru	-7476
▁illegal	-7477
▁bite	-7478
▁physicians	-7479
ommod	-7480
▁48	-7481
fly	-7482
ipe	-7483
▁2)	-7484
▁diets	-7485
▁mississ	-7486
rin	-7487
▁hi	-7488
▁differently	-7489
▁accommod	-7490
oa	-7491
▁agent	-7492
artic	-7493
omin	-7494
▁democratic	-7495
▁minds	-7496
▁geological	-7497
34	-7498
▁7,	-7499
▁toys	-7500
▁embry	-7501
▁spreading	-7502
▁settlement	-7503
▁athletes	-7504
▁strengthen	-7505
▁1950	-7506
▁confed	-7507
ena	-7508
▁navy	-7509
▁cheese	-7510
▁accounting	-7511
▁profile	-7512
▁overw	-7513
▁classified	-7514
▁hes	-7515
▁sq	-7516
▁encouraging	-7517
▁unw	-7518
▁disappear	-7519
▁kitchen	-7520
psy	-7521
ket	-7522
▁toile	-7523
▁cer	-7524
▁registered	-7525
ker	-7526
▁gift	-7527
▁addresses	-7528
een	-7529
▁legend	-7530
ima	-7531
▁sew	-7532
▁circulation	-7533
▁bloom	-7534
ptions	-7535
▁sib	-7536
▁personality	-7537
▁cann	-7538
rot	-7539
olar	-7540
fa	-7541
through	-7542
▁ordinary	-7543
▁graphic	-7544
erated	-7545
▁devot	-7546
wal	-7547
▁dub	-7548
▁multipl	-7549
▁radical	-7550
ergarten	-7551
▁hepat	-7552
▁expertise	-7553
▁contaminated	-7554
▁erosion	-7555
osaur	-7556
trans	-7557
inson	-7558
plo	-7559
▁displayed	-7560
▁seasonal	-7561
▁targeted	-7562
▁expectations	-7563
:00	-7564
affe	-7565
▁genus	-7566
▁spine	-7567
aneously	-7568
▁trem	-7569
▁surveys	-7570
▁reproductive	-7571
▁minnesota	-7572
▁az	-7573
▁ont	-7574
▁cooperation	-7575
▁contributing	-7576
▁bun	-7577
▁allergic	-7578
▁integration	-7579
▁losses	-7580
▁scat	-7581
▁ster	-7582
ippi	-7583
▁boundaries	-7584
▁astronomers	-7585
77	-7586
assium	-7587
▁divide	-7588
▁;	-7589
yn	-7590
▁opposed	-7591
▁certific	-7592
▁pak	-7593
▁noticed	-7594
▁nursing	-7595
▁proved	-7596
▁quiet	-7597
▁metabolism	-7598
▁cher	-7599
astern	-7600
/0	-7601
▁elected	-7602
▁wider	-7603
▁parameters	-7604
▁taxes	-7605
▁francisco	-7606
▁package	-7607
▁slaves	-7608
▁diagnostic	-7609
▁negot	-7610
▁alphabet	-7611
▁mul	-7612
▁suicide	-7613
anth	-7614
▁concerning	-7615
▁guides	-7616
▁duration	-7617
▁vom	-7618
▁python	-7619
▁passion	-7620
▁statistical	-7621
▁replacement	-7622
▁indoor	-7623
▁10,	-7624
▁restaur	-7625
▁probability	-7626
▁compens	-7627
▁aside	-7628
grade	-7629
berries	-7630
uten	-7631
▁apparently	-7632
29	-7633
aded	-7634
▁ans	-7635
▁predators	-7636
▁coordin	-7637
▁phon	-7638
rapeut	-7639
▁pose	-7640
▁bare	-7641
▁gums	-7642
▁celebration	-7643
▁wake	-7644
elly	-7645
▁cerv	-7646
▁psychi	-7647
▁precip	-7648
▁shr	-7649
mail	-7650
▁literally	-7651
pled	-7652
profit	-7653
▁turkey	-7654
▁traits	-7655
food	-7656
astics	-7657
apes	-7658
▁spatial	-7659
▁annivers	-7660
▁overweight	-7661
▁finish	-7662
▁gest	-7663
▁flooding	-7664
▁emotion	-7665
py	-7666
6)	-7667
icians	-7668
▁bark	-7669
▁tam	-7670
flies	-7671
▁stems	-7672
bage	-7673
▁folk	-7674
▁simult	-7675
▁specialized	-7676
▁dc	-7677
ref	-7678
holders	-7679
▁wooden	-7680
▁lady	-7681
▁jup	-7682
▁pneum	-7683
▁stopped	-7684
▁enormous	-7685
▁torn	-7686
▁ren	-7687
39	-7688
▁citation	-7689
▁tang	-7690
opl	-7691
▁rac	-7692
▁northwest	-7693
10.	-7694
esh	-7695
▁zoo	-7696
▁vice	-7697
▁comprom	-7698
erts	-7699
gent	-7700
▁charged	-7701
▁yoga	-7702
▁chromos	-7703
▁degrad	-7704
▁gathered	-7705
▁aggressive	-7706
▁insights	-7707
▁interpretation	-7708
▁crack	-7709
▁@	-7710
▁palm	-7711
avirus	-7712
section	-7713
▁transact	-7714
medi	-7715
▁sought	-7716
friendly	-7717
▁pipe	-7718
.;	-7719
▁democracy	-7720
izers	-7721
▁veloc	-7722
▁scales	-7723
eness	-7724
▁illustrated	-7725
asant	-7726
▁superior	-7727
▁overwhel	-7728
▁algorithm	-7729
▁compos	-7730
▁discussions	-7731
▁incident	-7732
htt	-7733
▁equations	-7734
child	-7735
ema	-7736
▁ome	-7737
▁potassium	-7738
▁invented	-7739
▁pests	-7740
▁mcc	-7741
rolled	-7742
▁classification	-7743
anted	-7744
▁barriers	-7745
▁mrs	-7746
▁safer	-7747
▁modeling	-7748
▁satisf	-7749
burn	-7750
wan	-7751
ogenic	-7752
▁privacy	-7753
▁verte	-7754
▁compass	-7755
lu	-7756
step	-7757
▁characteristic	-7758
▁preservation	-7759
▁panc	-7760
▁hybrid	-7761
▁tracking	-7762
▁declar	-7763
▁practition	-7764
▁deadly	-7765
▁hip	-7766
▁publishing	-7767
▁fingers	-7768
▁shoes	-7769
▁gallery	-7770
iated	-7771
▁jet	-7772
hum	-7773
▁capabilities	-7774
▁absence	-7775
▁commem	-7776
they	-7777
44	-7778
usal	-7779
▁eag	-7780
▁mile	-7781
▁beings	-7782
▁fred	-7783
▁visits	-7784
▁susceptible	-7785
▁dil	-7786
▁subt	-7787
▁addressed	-7788
▁evolutionary	-7789
▁fiction	-7790
roud	-7791
▁santa	-7792
▁chip	-7793
▁2012,	-7794
▁knee	-7795
▁irrigation	-7796
▁2003	-7797
oons	-7798
▁lingu	-7799
▁conqu	-7800
▁combine	-7801
idal	-7802
icted	-7803
▁loop	-7804
bered	-7805
▁dimensions	-7806
rob	-7807
▁pointed	-7808
olit	-7809
▁fox	-7810
▁addressing	-7811
▁indo	-7812
▁alzheimers	-7813
▁engagement	-7814
elect	-7815
asty	-7816
▁html	-7817
▁ethical	-7818
▁accurately	-7819
▁intent	-7820
▁mississippi	-7821
▁considerable	-7822
iate	-7823
▁jacks	-7824
▁purchased	-7825
spec	-7826
▁aren	-7827
▁submitted	-7828
▁curios	-7829
▁carri	-7830
▁buying	-7831
▁cylind	-7832
▁landing	-7833
▁tourism	-7834
▁occasionally	-7835
emia	-7836
▁virtually	-7837
▁satellites	-7838
▁malaria	-7839
▁ech	-7840
▁libert	-7841
▁stere	-7842
▁catalog	-7843
▁reservoir	-7844
▁complement	-7845
▁elsewhere	-7846
imal	-7847
▁strange	-7848
▁humanity	-7849
▁fung	-7850
▁managers	-7851
opher	-7852
▁recycled	-7853
▁parad	-7854
▁shakespe	-7855
▁consideration	-7856
aust	-7857
▁feels	-7858
▁ampl	-7859
ori	-7860
▁speaker	-7861
▁dre	-7862
▁corresponding	-7863
▁lunch	-7864
▁amazon	-7865
▁dropped	-7866
▁displays	-7867
▁everywhere	-7868
▁improves	-7869
▁designing	-7870
▁fertilizer	-7871
▁acting	-7872
▁oblig	-7873
▁defend	-7874
▁illustrations	-7875
▁husband	-7876
kind	-7877
nea	-7878
mble	-7879
▁painted	-7880
▁scope	-7881
▁grams	-7882
▁anniversary	-7883
▁sket	-7884
▁directed	-7885
▁enterpr	-7886
▁counties	-7887
▁attribut	-7888
▁thyroid	-7889
iterranean	-7890
fol	-7891
▁(1)	-7892
▁korea	-7893
una	-7894
▁crypt	-7895
iders	-7896
▁southeast	-7897
▁dried	-7898
▁chamber	-7899
▁demands	-7900
▁hack	-7901
▁bless	-7902
advant	-7903
cule	-7904
▁arrest	-7905
▁magnet	-7906
▁stretch	-7907
▁contamination	-7908
▁purple	-7909
▁expanding	-7910
ran	-7911
▁anne	-7912
rared	-7913
▁aquatic	-7914
▁boxes	-7915
▁consuming	-7916
▁elderly	-7917
hips	-7918
▁excel	-7919
▁swall	-7920
▁sensory	-7921
gged	-7922
▁assessments	-7923
▁obese	-7924
▁default	-7925
▁oxid	-7926
▁vaccination	-7927
▁jr	-7928
▁surprise	-7929
▁conversion	-7930
▁entr	-7931
▁belt	-7932
▁neurons	-7933
▁mystery	-7934
▁assets	-7935
▁38	-7936
▁vig	-7937
▁traditionally	-7938
zym	-7939
▁arc	-7940
▁submit	-7941
▁cem	-7942
▁uncle	-7943
▁converted	-7944
▁fan	-7945
▁meaningful	-7946
▁producers	-7947
▁collecting	-7948
▁impair	-7949
▁incorporate	-7950
▁33	-7951
▁bugs	-7952
▁granted	-7953
▁missouri	-7954
ricks	-7955
▁tough	-7956
▁membrane	-7957
doors	-7958
▁galaxies	-7959
▁scheme	-7960
healthy	-7961
▁codes	-7962
▁rehab	-7963
bour	-7964
▁passes	-7965
▁archaeological	-7966
urable	-7967
▁kindergarten	-7968
▁tribes	-7969
68	-7970
▁fant	-7971
herent	-7972
imp	-7973
elfare	-7974
▁bin	-7975
ighth	-7976
▁diarrhea	-7977
▁mediterranean	-7978
▁wolf	-7979
ogens	-7980
▁hazardous	-7981
▁pock	-7982
▁designated	-7983
copic	-7984
stic	-7985
school	-7986
▁8,	-7987
unct	-7988
▁injured	-7989
▁facilitate	-7990
▁emperor	-7991
▁nap	-7992
▁propag	-7993
▁fraction	-7994
pres	-7995
▁tone	-7996
▁calculated	-7997
requ	-7998
function	-7999
kal	-8000
▁installation	-8001
▁asc	-8002
▁11,	-8003
▁magnitude	-8004
▁dynamics	-8005
▁preserved	-8006
▁sending	-8007
▁avoiding	-8008
▁eaten	-8009
agon	-8010
▁predicted	-8011
▁varied	-8012
▁affairs	-8013
▁dish	-8014
▁treaty	-8015
▁owned	-8016
▁cass	-8017
▁missions	-8018
▁extinction	-8019
▁energ	-8020
▁edward	-8021
▁arguments	-8022
ela	-8023
▁spark	-8024
▁autonom	-8025
▁schedul	-8026
▁kh	-8027
▁pic	-8028
▁linux	-8029
▁restric	-8030
▁classrooms	-8031
▁atomic	-8032
ested	-8033
▁indones	-8034
▁marg	-8035
▁suspect	-8036
▁fda	-8037
▁analog	-8038
▁provin	-8039
▁remem	-8040
▁explores	-8041
▁omega	-8042
▁gardening	-8043
)|	-8044
▁width	-8045
▁varies	-8046
aneous	-8047
▁seemed	-8048
storm	-8049
ere	-8050
▁tempor	-8051
▁minimize	-8052
▁250	-8053
adelph	-8054
▁welfare	-8055
▁watershed	-8056
rix	-8057
▁cable	-8058
▁shelter	-8059
▁prospect	-8060
▁prescribed	-8061
▁promise	-8062
▁cuts	-8063
rison	-8064
▁client	-8065
▁therapeut	-8066
▁plates	-8067
▁ranges	-8068
▁refrig	-8069
▁curve	-8070
▁ending	-8071
▁incorporated	-8072
▁hepatitis	-8073
▁cameras	-8074
ng	-8075
▁cosm	-8076
▁mask	-8077
▁vine	-8078
▁recommends	-8079
ja	-8080
cat	-8081
night	-8082
▁preferred	-8083
▁incidence	-8084
▁numer	-8085
▁teaches	-8086
keep	-8087
▁till	-8088
▁hebre	-8089
▁prevalence	-8090
▁rubber	-8091
▁monthly	-8092
▁adolescents	-8093
▁carib	-8094
▁disadvant	-8095
▁34	-8096
▁paying	-8097
▁peers	-8098
▁dramatically	-8099
fir	-8100
▁keys	-8101
▁attitudes	-8102
eli	-8103
▁fought	-8104
▁curiosity	-8105
▁oils	-8106
▁maryland	-8107
▁discipline	-8108
gebra	-8109
▁labels	-8110
also	-8111
▁cambridge	-8112
▁beam	-8113
▁horizontal	-8114
iop	-8115
▁grounds	-8116
bec	-8117
▁embra	-8118
▁fatal	-8119
▁terror	-8120
▁angeles	-8121
▁yard	-8122
▁obama	-8123
▁synthetic	-8124
▁quad	-8125
ruption	-8126
▁202	-8127
ustration	-8128
▁puts	-8129
▁partial	-8130
▁circul	-8131
▁snake	-8132
ructive	-8133
words	-8134
regular	-8135
icts	-8136
▁120	-8137
▁wasnt	-8138
▁outdoors	-8139
▁traveling	-8140
▁societies	-8141
▁sale	-8142
▁encourages	-8143
▁accomplish	-8144
▁soap	-8145
sex	-8146
oto	-8147
iscons	-8148
▁enthus	-8149
▁efficiently	-8150
▁55	-8151
conn	-8152
▁excited	-8153
▁alongside	-8154
lastname	-8155
▁slide	-8156
▁violent	-8157
▁severity	-8158
dl	-8159
▁methane	-8160
▁actively	-8161
▁cluster	-8162
▁cellular	-8163
▁cemeter	-8164
▁quantities	-8165
▁whales	-8166
orus	-8167
▁initiatives	-8168
anium	-8169
▁whit	-8170
▁copies	-8171
98	-8172
aired	-8173
▁chose	-8174
▁officers	-8175
▁10,000	-8176
▁sacred	-8177
orted	-8178
▁optimal	-8179
▁mosquito	-8180
▁hunt	-8181
▁specified	-8182
▁loud	-8183
▁seriously	-8184
amine	-8185
▁enzym	-8186
.'	-8187
zyme	-8188
▁1930	-8189
▁artif	-8190
▁shoulder	-8191
▁hurt	-8192
▁photography	-8193
▁wales	-8194
▁prevents	-8195
issance	-8196
▁fluids	-8197
▁opinions	-8198
▁residential	-8199
▁representing	-8200
▁cu	-8201
▁hypothesis	-8202
jo	-8203
▁circular	-8204
phal	-8205
▁600	-8206
orate	-8207
▁daniel	-8208
▁happiness	-8209
▁accompanied	-8210
dp	-8211
▁differ	-8212
▁museums	-8213
fulness	-8214
▁theoretical	-8215
%)	-8216
esium	-8217
▁memor	-8218
inking	-8219
kers	-8220
olds	-8221
▁suit	-8222
▁utility	-8223
▁deeply	-8224
▁bats	-8225
▁1.5	-8226
▁developments	-8227
▁philadelph	-8228
▁derm	-8229
▁2012.	-8230
▁caffe	-8231
▁plaque	-8232
▁profit	-8233
▁warmer	-8234
ums	-8235
▁kansas	-8236
▁evil	-8237
▁meter	-8238
eg	-8239
▁imperial	-8240
▁strategic	-8241
▁gy	-8242
▁affordable	-8243
▁legacy	-8244
▁shallow	-8245
zo	-8246
▁tension	-8247
▁searching	-8248
▁nom	-8249
▁suddenly	-8250
▁chips	-8251
▁educate	-8252
real	-8253
▁repet	-8254
▁anticip	-8255
▁wetlands	-8256
▁representative	-8257
▁2013.	-8258
ulating	-8259
▁hemisp	-8260
▁12,	-8261
▁surviv	-8262
uther	-8263
▁pert	-8264
▁grey	-8265
▁imagination	-8266
▁citizen	-8267
▁claimed	-8268
▁alternatives	-8269
▁strike	-8270
▁relate	-8271
▁scenario	-8272
▁customer	-8273
iological	-8274
ji	-8275
▁edges	-8276
▁saturday	-8277
employ	-8278
▁melan	-8279
▁15,	-8280
▁barn	-8281
▁wiscons	-8282
▁pollen	-8283
▁pi	-8284
type	-8285
▁seiz	-8286
▁doub	-8287
▁forecast	-8288
▁continent	-8289
▁theat	-8290
▁prox	-8291
▁distant	-8292
▁enjoyed	-8293
▁enhanced	-8294
▁requirement	-8295
▁thereby	-8296
▁powered	-8297
▁attractive	-8298
ugs	-8299
ifier	-8300
▁menu	-8301
▁ride	-8302
▁valve	-8303
▁occas	-8304
oves	-8305
▁mexican	-8306
▁settled	-8307
▁speakers	-8308
inn	-8309
loc	-8310
oline	-8311
▁begun	-8312
▁jupiter	-8313
66	-8314
▁sperm	-8315
▁astronomy	-8316
▁rooms	-8317
▁comparing	-8318
▁flexibility	-8319
▁antibiotic	-8320
text	-8321
7)	-8322
▁reflection	-8323
▁anger	-8324
fig	-8325
▁symptom	-8326
▁segment	-8327
▁busy	-8328
▁abundant	-8329
▁possibilities	-8330
chem	-8331
▁doses	-8332
▁hunger	-8333
▁asteroid	-8334
vol	-8335
tons	-8336
ika	-8337
ologically	-8338
▁ancestors	-8339
▁metabolic	-8340
▁larv	-8341
cia	-8342
▁speeds	-8343
▁finance	-8344
▁gastro	-8345
▁carbohydrates	-8346
yard	-8347
▁neuros	-8348
▁dominant	-8349
▁reinforce	-8350
naissance	-8351
▁draft	-8352
▁counting	-8353
▁expedition	-8354
about	-8355
▁calc	-8356
best	-8357
▁prescription	-8358
▁pakistan	-8359
▁1920	-8360
estone	-8361
▁argue	-8362
▁foster	-8363
▁arrang	-8364
▁participating	-8365
▁molecule	-8366
▁distract	-8367
▁readily	-8368
▁railroad	-8369
▁dying	-8370
▁prolong	-8371
▁flavor	-8372
▁minimal	-8373
▁ozone	-8374
rem	-8375
▁tort	-8376
fat	-8377
ilst	-8378
▁regulate	-8379
▁kg	-8380
▁jur	-8381
▁cite	-8382
▁calm	-8383
▁connecting	-8384
▁2001	-8385
▁nerves	-8386
osaurs	-8387
▁~	-8388
▁compact	-8389
▁persu	-8390
▁varying	-8391
▁rings	-8392
▁bish	-8393
▁relating	-8394
esy	-8395
arsh	-8396
▁courts	-8397
▁encounter	-8398
▁sons	-8399
▁deposits	-8400
▁observatory	-8401
▁proud	-8402
▁velocity	-8403
▁chapters	-8404
▁complexity	-8405
▁summar	-8406
▁philipp	-8407
▁motivation	-8408
▁films	-8409
▁nig	-8410
▁wisconsin	-8411
▁versus	-8412
▁epidem	-8413
▁retrieved	-8414
▁highway	-8415
▁ww	-8416
▁appointment	-8417
chnology	-8418
▁flies	-8419
▁disturb	-8420
▁tends	-8421
()	-8422
yer	-8423
▁silicon	-8424
when	-8425
▁chim	-8426
▁elevated	-8427
▁volcanic	-8428
▁cycles	-8429
▁documented	-8430
▁philadelphia	-8431
▁intr	-8432
▁prostate	-8433
▁labour	-8434
▁dangers	-8435
▁influences	-8436
efficient	-8437
▁emer	-8438
owa	-8439
▁poems	-8440
▁burned	-8441
▁currency	-8442
▁neural	-8443
▁immigrants	-8444
▁lew	-8445
▁logical	-8446
▁factory	-8447
▁awarded	-8448
▁triangle	-8449
▁worship	-8450
▁abundance	-8451
expected	-8452
▁37	-8453
▁pole	-8454
▁9,	-8455
▁describing	-8456
▁encry	-8457
▁comprehension	-8458
▁discharge	-8459
iano	-8460
▁axis	-8461
▁meanwhile	-8462
▁rational	-8463
source	-8464
imensional	-8465
▁vomiting	-8466
▁memories	-8467
rical	-8468
▁revers	-8469
▁qualities	-8470
▁ordered	-8471
▁achieving	-8472
▁rou	-8473
▁toxins	-8474
nis	-8475
▁1000	-8476
pos	-8477
▁opens	-8478
▁thrive	-8479
▁countrys	-8480
ols	-8481
try	-8482
▁12.	-8483
▁diagnose	-8484
▁vector	-8485
▁hypert	-8486
▁attitude	-8487
ifer	-8488
▁dipl	-8489
▁frozen	-8490
▁productive	-8491
▁vag	-8492
▁alexander	-8493
88	-8494
▁popularity	-8495
▁algorithms	-8496
▁merely	-8497
▁tunnel	-8498
▁mim	-8499
▁lig	-8500
▁resemb	-8501
▁appreciate	-8502
▁larvae	-8503
▁mistakes	-8504
▁2002	-8505
▁placing	-8506
▁perspectives	-8507
▁clients	-8508
▁graphics	-8509
mental	-8510
▁pope	-8511
quality	-8512
clic	-8513
ani	-8514
▁emission	-8515
▁equipped	-8516
▁convey	-8517
▁jackson	-8518
bell	-8519
verages	-8520
▁discl	-8521
▁packaging	-8522
▁prince	-8523
atus	-8524
▁declaration	-8525
▁marker	-8526
▁seasons	-8527
▁bills	-8528
▁implementing	-8529
▁spell	-8530
▁usda	-8531
▁obviously	-8532
wall	-8533
▁regarded	-8534
▁invention	-8535
▁competitive	-8536
▁hu	-8537
▁representatives	-8538
▁whilst	-8539
osphere	-8540
ttes	-8541
▁chin	-8542
▁encl	-8543
▁kick	-8544
▁prayer	-8545
▁reasoning	-8546
▁simulation	-8547
▁penet	-8548
▁extraord	-8549
▁sho	-8550
▁rats	-8551
▁migr	-8552
itzer	-8553
▁bladder	-8554
rics	-8555
▁cape	-8556
▁defects	-8557
▁southwest	-8558
▁2010,	-8559
velength	-8560
case	-8561
▁nur	-8562
▁algebra	-8563
▁recur	-8564
▁irregular	-8565
▁volunteer	-8566
▁patent	-8567
▁doors	-8568
▁identical	-8569
55	-8570
▁pupp	-8571
▁geometry	-8572
pow	-8573
▁adaptation	-8574
▁courtesy	-8575
renn	-8576
▁portug	-8577
▁doi	-8578
mont	-8579
▁archive	-8580
mann	-8581
▁hawaii	-8582
▁bulbs	-8583
▁skull	-8584
▁organis	-8585
▁preced	-8586
▁firstname	-8587
▁genetically	-8588
▁coins	-8589
hr	-8590
fire	-8591
▁glue	-8592
64	-8593
▁organisation	-8594
▁andrew	-8595
▁embedded	-8596
▁unlikely	-8597
▁thirty	-8598
▁requiring	-8599
▁digit	-8600
▁wells	-8601
▁enzymes	-8602
▁(2)	-8603
▁stabil	-8604
▁conclusions	-8605
▁tel	-8606
▁tet	-8607
ripts	-8608
")	-8609
▁inver	-8610
▁adopt	-8611
▁burns	-8612
▁duty	-8613
▁disasters	-8614
▁orders	-8615
▁channels	-8616
▁godd	-8617
▁muc	-8618
▁crust	-8619
ingly	-8620
ologic	-8621
▁greece	-8622
gregation	-8623
▁epidemic	-8624
▁inspiration	-8625
▁certified	-8626
▁surrounded	-8627
▁drops	-8628
▁borrow	-8629
▁discoveries	-8630
▁sees	-8631
▁brothers	-8632
▁drainage	-8633
▁infrared	-8634
▁carp	-8635
uce	-8636
▁drawings	-8637
▁hebrew	-8638
▁ethics	-8639
phones	-8640
▁2010.	-8641
▁burden	-8642
▁demonstrates	-8643
▁limitations	-8644
agen	-8645
▁cad	-8646
aware	-8647
▁weaken	-8648
▁cardiac	-8649
▁viewing	-8650
▁phy	-8651
▁headaches	-8652
▁ultimate	-8653
▁absorption	-8654
▁frost	-8655
▁4:	-8656
▁50%	-8657
▁adhd	-8658
▁markers	-8659
heastern	-8660
iolet	-8661
▁worker	-8662
▁unexpected	-8663
elve	-8664
▁beta	-8665
▁expressions	-8666
▁pas	-8667
▁sophistic	-8668
▁suggesting	-8669
▁officially	-8670
▁distinguish	-8671
▁wra	-8672
▁mutations	-8673
▁lapt	-8674
▁photograp	-8675
sized	-8676
▁jim	-8677
▁entit	-8678
▁dolph	-8679
▁specialists	-8680
▁withdra	-8681
etary	-8682
▁discusses	-8683
▁intensive	-8684
▁luc	-8685
▁chi	-8686
▁groundwater	-8687
ucky	-8688
▁sister	-8689
itarian	-8690
▁humidity	-8691
erness	-8692
▁perfectly	-8693
▁reput	-8694
oly	-8695
▁semi	-8696
▁fisheries	-8697
▁shares	-8698
▁heal	-8699
▁recru	-8700
aints	-8701
▁hob	-8702
▁alloc	-8703
▁charl	-8704
▁plasma	-8705
▁strains	-8706
iry	-8707
▁dwar	-8708
▁magic	-8709
bul	-8710
▁vietnam	-8711
▁hide	-8712
▁bonds	-8713
pv	-8714
aka	-8715
▁boards	-8716
aste	-8717
imen	-8718
▁syll	-8719
pie	-8720
arios	-8721
aping	-8722
▁emerged	-8723
▁edit	-8724
▁amendment	-8725
▁holoc	-8726
▁williams	-8727
▁applies	-8728
▁prone	-8729
▁lift	-8730
agnetic	-8731
▁globally	-8732
▁realized	-8733
▁worn	-8734
wered	-8735
power	-8736
▁jersey	-8737
▁poisoning	-8738
▁shark	-8739
▁protects	-8740
▁reflected	-8741
actic	-8742
▁beer	-8743
▁bob	-8744
▁dyn	-8745
▁aluminum	-8746
▁therapies	-8747
▁impressive	-8748
▁bodys	-8749
▁pollutants	-8750
▁inspect	-8751
▁mirror	-8752
▁survived	-8753
▁shakespeare	-8754
eem	-8755
▁han	-8756
▁persistent	-8757
isa	-8758
▁2011,	-8759
▁fault	-8760
▁specimens	-8761
▁penins	-8762
▁somewhere	-8763
opes	-8764
▁involvement	-8765
▁analyses	-8766
▁struggling	-8767
▁developers	-8768
▁potatoes	-8769
▁updates	-8770
▁enzyme	-8771
▁founder	-8772
inger	-8773
▁neglect	-8774
▁11.	-8775
▁vacu	-8776
▁ontario	-8777
▁ecl	-8778
▁sail	-8779
▁monarch	-8780
▁bits	-8781
▁morph	-8782
▁reasonable	-8783
▁empower	-8784
▁magnesium	-8785
31	-8786
▁enlar	-8787
acles	-8788
▁facial	-8789
▁evaluated	-8790
▁indicators	-8791
ethe	-8792
▁alb	-8793
▁personnel	-8794
obic	-8795
▁appet	-8796
▁surprised	-8797
resist	-8798
▁victory	-8799
tte	-8800
rend	-8801
▁historically	-8802
▁intermedi	-8803
▁schem	-8804
▁twelve	-8805
▁fibers	-8806
▁testament	-8807
▁generating	-8808
▁termin	-8809
▁soda	-8810
▁amino	-8811
was	-8812
▁anch	-8813
▁completion	-8814
!)	-8815
▁lean	-8816
iances	-8817
▁discom	-8818
infl	-8819
▁regen	-8820
▁importantly	-8821
ourse	-8822
▁profound	-8823
anut	-8824
anol	-8825
▁caffeine	-8826
▁phrases	-8827
▁wool	-8828
▁enforcement	-8829
▁pier	-8830
▁dimin	-8831
▁whale	-8832
theless	-8833
▁incent	-8834
▁onset	-8835
▁drives	-8836
▁makers	-8837
▁800	-8838
▁mira	-8839
ila	-8840
▁wavelength	-8841
▁anten	-8842
▁rhythm	-8843
▁kin	-8844
quar	-8845
▁breathe	-8846
▁eco	-8847
▁blow	-8848
▁strand	-8849
▁courage	-8850
▁incredible	-8851
▁revolutionary	-8852
▁spar	-8853
▁rescue	-8854
▁reflects	-8855
▁manusc	-8856
▁proposal	-8857
▁palace	-8858
▁totally	-8859
▁breakfast	-8860
▁broadcast	-8861
▁leak	-8862
▁cows	-8863
zer	-8864
▁utilize	-8865
▁2011.	-8866
awn	-8867
▁promotes	-8868
stru	-8869
found	-8870
▁bapt	-8871
▁zinc	-8872
person	-8873
unci	-8874
spr	-8875
▁indirect	-8876
▁tib	-8877
gm	-8878
▁autumn	-8879
▁botan	-8880
▁lasting	-8881
onso	-8882
▁utah	-8883
▁nevertheless	-8884
▁architectural	-8885
▁mosquitoes	-8886
▁artistic	-8887
▁voy	-8888
▁antibodies	-8889
▁establishing	-8890
▁abandoned	-8891
▁kat	-8892
ipher	-8893
▁(20	-8894
nn	-8895
▁guided	-8896
who	-8897
▁loan	-8898
▁ng	-8899
dimensional	-8900
▁circles	-8901
▁reproduction	-8902
▁dot	-8903
▁scal	-8904
▁corps	-8905
▁bottles	-8906
▁tubes	-8907
▁dollar	-8908
http	-8909
▁apples	-8910
▁absolutely	-8911
▁absorbed	-8912
▁intelligent	-8913
▁jerusal	-8914
5)	-8915
owed	-8916
▁sampling	-8917
gradu	-8918
▁sab	-8919
▁organism	-8920
▁therapeutic	-8921
▁2014.	-8922
▁ray	-8923
▁shield	-8924
▁abra	-8925
▁senate	-8926
▁bern	-8927
▁examines	-8928
▁ct	-8929
arth	-8930
enter	-8931
▁exceed	-8932
▁enemy	-8933
▁cp	-8934
idae	-8935
▁carries	-8936
▁explored	-8937
▁cooperative	-8938
▁boundary	-8939
▁transferred	-8940
▁toy	-8941
▁existed	-8942
▁confused	-8943
aters	-8944
▁bore	-8945
elihood	-8946
▁filling	-8947
▁entertain	-8948
▁regulatory	-8949
▁historians	-8950
keys	-8951
▁poul	-8952
▁amongst	-8953
▁translated	-8954
▁jar	-8955
▁collapse	-8956
▁interv	-8957
▁christians	-8958
▁offices	-8959
▁%	-8960
reprene	-8961
],	-8962
▁ker	-8963
auc	-8964
▁chord	-8965
▁needle	-8966
▁precision	-8967
▁14,	-8968
▁woods	-8969
aug	-8970
▁conducting	-8971
▁discomfort	-8972
specific	-8973
ulsion	-8974
▁simultaneously	-8975
▁(8	-8976
▁jon	-8977
▁progressive	-8978
▁bibli	-8979
▁acknowled	-8980
▁establishment	-8981
▁erect	-8982
▁abdominal	-8983
▁colleges	-8984
▁restrictions	-8985
▁unp	-8986
▁retail	-8987
▁promising	-8988
otypes	-8989
▁peanut	-8990
▁staying	-8991
nia	-8992
▁churches	-8993
▁thoroughly	-8994
▁paste	-8995
▁wax	-8996
▁striking	-8997
iants	-8998
▁honest	-8999
▁tags	-9000
▁odd	-9001
▁biof	-9002
▁talks	-9003
▁football	-9004
uv	-9005
▁basket	-9006
▁patch	-9007
▁likelihood	-9008
▁unemploy	-9009
▁confusion	-9010
▁angles	-9011
▁nether	-9012
▁instant	-9013
▁rocky	-9014
▁heaven	-9015
▁freshwater	-9016
▁queens	-9017
stration	-9018
▁constra	-9019
▁armed	-9020
screen	-9021
tube	-9022
engers	-9023
▁descend	-9024
9)	-9025
▁bh	-9026
▁bug	-9027
date	-9028
asm	-9029
▁20,	-9030
▁directory	-9031
▁circuits	-9032
▁procl	-9033
icular	-9034
▁nurse	-9035
▁tracks	-9036
▁licensed	-9037
▁jerusalem	-9038
acc	-9039
▁dragon	-9040
play	-9041
owners	-9042
sub	-9043
▁assignments	-9044
▁herbs	-9045
▁candidate	-9046
▁dinosaurs	-9047
▁prevented	-9048
▁alab	-9049
▁biomass	-9050
rens	-9051
cover	-9052
utical	-9053
▁consisting	-9054
▁cope	-9055
▁appointed	-9056
▁isolation	-9057
▁departments	-9058
▁lifes	-9059
atories	-9060
▁metres	-9061
▁restricted	-9062
▁favour	-9063
▁utilized	-9064
original	-9065
▁sharks	-9066
▁camps	-9067
▁boil	-9068
▁tolerance	-9069
▁ink	-9070
▁grace	-9071
▁olive	-9072
▁100,000	-9073
anas	-9074
▁flowering	-9075
▁collective	-9076
▁gau	-9077
▁recess	-9078
▁fertility	-9079
just	-9080
▁locally	-9081
▁veterin	-9082
▁entreprene	-9083
igned	-9084
▁attributes	-9085
▁devastating	-9086
even	-9087
▁adjacent	-9088
▁distances	-9089
▁environmentally	-9090
▁pipes	-9091
otes	-9092
▁gross	-9093
tail	-9094
▁tribe	-9095
icides	-9096
▁springs	-9097
▁corporation	-9098
▁bowel	-9099
lab	-9100
▁beef	-9101
▁returning	-9102
phe	-9103
rels	-9104
aved	-9105
▁permit	-9106
▁combust	-9107
47	-9108
ooked	-9109
▁volcano	-9110
pted	-9111
amps	-9112
▁178	-9113
▁hier	-9114
▁pyram	-9115
▁petro	-9116
▁iowa	-9117
▁arise	-9118
▁distinctive	-9119
▁osc	-9120
▁diamond	-9121
▁separation	-9122
▁brill	-9123
▁fossils	-9124
▁explaining	-9125
▁cited	-9126
chester	-9127
after	-9128
▁16,	-9129
burgh	-9130
▁documentation	-9131
▁exams	-9132
▁spider	-9133
▁shopping	-9134
terior	-9135
oding	-9136
▁navigation	-9137
▁earthquakes	-9138
▁robust	-9139
▁perceived	-9140
▁beds	-9141
jan	-9142
oded	-9143
isons	-9144
▁colours	-9145
▁crafts	-9146
▁smallest	-9147
▁texture	-9148
▁analyzing	-9149
▁bike	-9150
▁estate	-9151
raine	-9152
▁twist	-9153
bury	-9154
▁gaps	-9155
sk	-9156
▁careers	-9157
▁bowl	-9158
▁soul	-9159
▁puzzle	-9160
iments	-9161
▁comet	-9162
▁ll	-9163
▁curious	-9164
▁earned	-9165
▁assumed	-9166
▁stuck	-9167
aws	-9168
▁pix	-9169
▁operated	-9170
olf	-9171
stud	-9172
▁cemetery	-9173
▁damaging	-9174
▁contributes	-9175
▁villages	-9176
▁institutes	-9177
▁intention	-9178
▁mobility	-9179
▁prosper	-9180
idays	-9181
▁ornam	-9182
▁guarantee	-9183
▁saturn	-9184
cus	-9185
▁bridges	-9186
▁caribbean	-9187
▁ninet	-9188
▁civilization	-9189
▁quit	-9190
▁3)	-9191
▁printable	-9192
▁calculations	-9193
ilitation	-9194
▁destination	-9195
▁orch	-9196
▁conflicts	-9197
nals	-9198
▁tired	-9199
▁1800	-9200
ilson	-9201
▁fathers	-9202
▁scenarios	-9203
97	-9204
rons	-9205
67	-9206
▁examining	-9207
▁charts	-9208
▁hemisphere	-9209
▁rash	-9210
▁gathering	-9211
▁ownership	-9212
▁explos	-9213
▁cany	-9214
▁juven	-9215
▁ka	-9216
▁quote	-9217
▁borders	-9218
▁resilience	-9219
▁jacob	-9220
▁lon	-9221
▁cin	-9222
▁situated	-9223
▁veterans	-9224
▁il	-9225
▁gay	-9226
▁ark	-9227
▁egyptian	-9228
generation	-9229
▁bought	-9230
▁socio	-9231
▁18,	-9232
▁arrive	-9233
▁2015.	-9234
▁coordination	-9235
▁sne	-9236
▁vacuum	-9237
▁singing	-9238
▁partially	-9239
▁attributed	-9240
▁floating	-9241
▁receives	-9242
▁cataly	-9243
▁plastics	-9244
▁maths	-9245
▁inhabitants	-9246
letter	-9247
▁salv	-9248
▁arteries	-9249
cp	-9250
▁struck	-9251
▁yields	-9252
1).	-9253
may	-9254
▁illustrate	-9255
▁dialogue	-9256
▁transformation	-9257
▁alike	-9258
ciplinary	-9259
▁weed	-9260
compass	-9261
▁dict	-9262
▁perenn	-9263
▁2,000	-9264
▁gentle	-9265
asses	-9266
▁workshops	-9267
▁coloring	-9268
▁colum	-9269
▁precipitation	-9270
▁orthod	-9271
▁scottish	-9272
▁champ	-9273
▁entrance	-9274
▁nodes	-9275
▁revenue	-9276
▁candidates	-9277
▁100%	-9278
▁liberty	-9279
cos	-9280
iors	-9281
▁stood	-9282
▁rotation	-9283
tech	-9284
▁bicy	-9285
▁forever	-9286
icting	-9287
stra	-9288
atile	-9289
▁retain	-9290
▁davis	-9291
apping	-9292
unning	-9293
▁enabling	-9294
▁manifest	-9295
iah	-9296
▁barb	-9297
▁meditation	-9298
▁turtles	-9299
▁crystal	-9300
▁orientation	-9301
▁originated	-9302
▁ros	-9303
▁coin	-9304
▁electrom	-9305
▁instructional	-9306
▁melting	-9307
▁filters	-9308
▁victoria	-9309
▁decreases	-9310
▁evident	-9311
▁17,	-9312
▁employers	-9313
▁reson	-9314
300	-9315
▁amph	-9316
ceptions	-9317
▁rip	-9318
▁combining	-9319
▁chat	-9320
▁qualified	-9321
ipse	-9322
▁1900	-9323
▁corporate	-9324
▁sophisticated	-9325
▁adoption	-9326
imeter	-9327
▁shortly	-9328
▁announce	-9329
▁cooked	-9330
▁timing	-9331
▁divers	-9332
otechnology	-9333
abled	-9334
▁peninsula	-9335
▁substitute	-9336
arians	-9337
▁13,	-9338
▁assessed	-9339
▁demonstration	-9340
▁toilet	-9341
▁integrity	-9342
▁premature	-9343
wr	-9344
▁cs	-9345
▁locate	-9346
▁stack	-9347
▁fallen	-9348
leton	-9349
▁harsh	-9350
fi	-9351
▁sap	-9352
▁spoke	-9353
▁designers	-9354
▁adject	-9355
▁fungi	-9356
▁om	-9357
▁blu	-9358
▁dip	-9359
▁integral	-9360
▁authentic	-9361
▁synthesis	-9362
▁ingest	-9363
▁shipping	-9364
▁furniture	-9365
▁ingredient	-9366
▁44	-9367
aceutical	-9368
▁builds	-9369
▁minority	-9370
izz	-9371
▁forgot	-9372
economic	-9373
▁lind	-9374
inery	-9375
▁instances	-9376
▁editing	-9377
▁10%	-9378
▁unhealthy	-9379
▁snakes	-9380
▁holocaust	-9381
▁notable	-9382
▁osteop	-9383
▁arrival	-9384
▁exem	-9385
▁settlers	-9386
▁pathogens	-9387
▁harbor	-9388
▁reli	-9389
▁nurses	-9390
▁pharmac	-9391
▁freely	-9392
▁bias	-9393
▁glasses	-9394
▁systematic	-9395
orie	-9396
▁pigs	-9397
▁progression	-9398
▁defines	-9399
▁lion	-9400
▁millenn	-9401
▁ultras	-9402
▁checking	-9403
▁pathways	-9404
▁matrix	-9405
▁distinguished	-9406
rat	-9407
▁astronauts	-9408
▁convenient	-9409
ople	-9410
▁careg	-9411
▁tennes	-9412
aine	-9413
▁stimulate	-9414
▁netherlands	-9415
▁consciousness	-9416
▁arranged	-9417
▁ank	-9418
▁ry	-9419
▁footprint	-9420
▁bullet	-9421
▁teenagers	-9422
▁broader	-9423
iti	-9424
▁caring	-9425
▁lewis	-9426
▁routes	-9427
mond	-9428
▁dermat	-9429
▁inclusion	-9430
▁cups	-9431
▁fungus	-9432
cor	-9433
▁birthday	-9434
▁melt	-9435
▁elig	-9436
▁icon	-9437
▁seas	-9438
▁altered	-9439
lock	-9440
▁occupational	-9441
▁extraordinary	-9442
▁diver	-9443
▁sectors	-9444
▁acceptable	-9445
▁independently	-9446
▁pride	-9447
▁hypertension	-9448
▁payment	-9449
▁incredibly	-9450
▁hed	-9451
▁immunity	-9452
▁alliance	-9453
▁rebu	-9454
▁spotted	-9455
▁explicit	-9456
▁177	-9457
▁blacks	-9458
▁sher	-9459
▁inspire	-9460
▁subsequently	-9461
▁newborn	-9462
▁platforms	-9463
▁bibl	-9464
▁asbest	-9465
income	-9466
mel	-9467
▁lev	-9468
▁rises	-9469
▁hispan	-9470
▁append	-9471
▁microbi	-9472
▁abraham	-9473
md	-9474
illance	-9475
▁columns	-9476
▁editors	-9477
▁commands	-9478
▁cater	-9479
▁revised	-9480
▁decomp	-9481
▁korean	-9482
▁entitled	-9483
▁panic	-9484
▁stops	-9485
feeding	-9486
lete	-9487
▁alabama	-9488
▁cock	-9489
spring	-9490
▁brushing	-9491
2).	-9492
▁injection	-9493
effective	-9494
▁floss	-9495
parts	-9496
▁tomatoes	-9497
▁artifacts	-9498
▁radioactive	-9499
itus	-9500
▁2013,	-9501
esthetic	-9502
▁advertising	-9503
▁hindu	-9504
▁clusters	-9505
▁certificate	-9506
irable	-9507
▁landscapes	-9508
▁radar	-9509
▁mt	-9510
▁databases	-9511
ador	-9512
▁gaz	-9513
▁christianity	-9514
copes	-9515
▁hamm	-9516
▁convin	-9517
▁trash	-9518
▁steady	-9519
iral	-9520
▁occurrence	-9521
▁jones	-9522
▁accord	-9523
itate	-9524
▁gland	-9525
bird	-9526
▁ira	-9527
▁unne	-9528
▁occupied	-9529
lah	-9530
▁extinct	-9531
▁template	-9532
▁nause	-9533
▁ig	-9534
ogram	-9535
▁vapor	-9536
formation	-9537
▁lad	-9538
▁comparative	-9539
▁merch	-9540
▁prair	-9541
▁ak	-9542
▁haven	-9543
▁releases	-9544
▁5:	-9545
athan	-9546
▁yeast	-9547
wind	-9548
▁ants	-9549
▁gps	-9550
▁asks	-9551
▁dinner	-9552
▁readings	-9553
▁coding	-9554
gon	-9555
▁thickness	-9556
amic	-9557
▁oxide	-9558
▁organize	-9559
▁journals	-9560
▁telephone	-9561
▁implant	-9562
▁introducing	-9563
weed	-9564
▁saturated	-9565
▁appetite	-9566
▁antioxidants	-9567
▁colorful	-9568
tim	-9569
▁selling	-9570
▁scheduled	-9571
▁headache	-9572
▁stressed	-9573
▁conversations	-9574
▁undergo	-9575
▁dirt	-9576
▁poultry	-9577
▁incorrect	-9578
▁textbook	-9579
▁cathed	-9580
inch	-9581
▁crater	-9582
enti	-9583
▁captain	-9584
▁animation	-9585
▁(6	-9586
▁meetings	-9587
▁dak	-9588
▁jane	-9589
▁passive	-9590
▁tremend	-9591
▁phenomena	-9592
build	-9593
▁modules	-9594
ques	-9595
▁uter	-9596
▁intra	-9597
▁weeds	-9598
.).	-9599
▁sweden	-9600
▁kidneys	-9601
▁indiana	-9602
▁neurological	-9603
▁nobel	-9604
iner	-9605
▁youtube	-9606
▁potato	-9607
▁disposal	-9608
▁indicator	-9609
restrial	-9610
▁surveillance	-9611
commun	-9612
unciation	-9613
▁bbc	-9614
▁peng	-9615
▁va	-9616
▁meg	-9617
lem	-9618
▁plains	-9619
▁answered	-9620
▁consistently	-9621
▁masters	-9622
▁northeast	-9623
▁semin	-9624
▁aquarium	-9625
▁foundations	-9626
▁2-	-9627
▁iran	-9628
▁closest	-9629
▁meanings	-9630
▁luther	-9631
▁kentucky	-9632
high	-9633
▁moth	-9634
96	-9635
▁naval	-9636
itt	-9637
▁mans	-9638
▁myself	-9639
inte	-9640
▁scenes	-9641
▁cookies	-9642
▁butterflies	-9643
▁tuber	-9644
▁practicing	-9645
▁wilson	-9646
▁clicking	-9647
▁discussing	-9648
▁organisations	-9649
▁ruled	-9650
▁sugars	-9651
▁trading	-9652
▁investigated	-9653
▁duct	-9654
writing	-9655
▁crossing	-9656
▁coronavirus	-9657
▁tale	-9658
▁prol	-9659
olis	-9660
isible	-9661
▁descriptions	-9662
▁crash	-9663
▁ridge	-9664
▁cavity	-9665
▁planetary	-9666
▁distribut	-9667
aic	-9668
▁lenses	-9669
▁tennessee	-9670
hour	-9671
first	-9672
▁incom	-9673
▁static	-9674
▁inflammatory	-9675
▁cha	-9676
▁treas	-9677
▁movies	-9678
▁acquire	-9679
▁moments	-9680
▁ie	-9681
▁bil	-9682
rium	-9683
▁berlin	-9684
▁inflation	-9685
▁elephant	-9686
▁publisher	-9687
▁immigration	-9688
▁seism	-9689
▁thumb	-9690
▁42	-9691
▁ky	-9692
thood	-9693
▁patri	-9694
▁asbestos	-9695
▁attor	-9696
▁picked	-9697
aver	-9698
uble	-9699
▁sandy	-9700
▁gloss	-9701
▁checked	-9702
▁lag	-9703
▁educated	-9704
▁prolonged	-9705
▁underwater	-9706
▁tay	-9707
▁stiff	-9708
▁concentrated	-9709
▁relatives	-9710
dig	-9711
▁vin	-9712
▁gm	-9713
▁rept	-9714
ifice	-9715
oven	-9716
▁railway	-9717
▁reign	-9718
▁statue	-9719
▁precious	-9720
▁obser	-9721
▁voting	-9722
ushes	-9723
▁duke	-9724
%,	-9725
▁au	-9726
▁wage	-9727
▁prun	-9728
▁bronze	-9729
▁diego	-9730
▁tact	-9731
▁diesel	-9732
▁kenned	-9733
▁imagery	-9734
ropri	-9735
46	-9736
▁1/2	-9737
▁trips	-9738
ova	-9739
▁episode	-9740
▁2009,	-9741
▁22,	-9742
agan	-9743
▁dishes	-9744
▁continuously	-9745
▁probe	-9746
▁shrubs	-9747
▁rows	-9748
▁shadow	-9749
▁poorly	-9750
▁observing	-9751
▁subscribe	-9752
▁operational	-9753
▁anatomy	-9754
irt	-9755
onsored	-9756
▁volumes	-9757
bro	-9758
▁30,	-9759
▁insc	-9760
▁completing	-9761
▁grab	-9762
▁cervical	-9763
▁continental	-9764
▁berries	-9765
guard	-9766
▁pharmaceutical	-9767
▁precisely	-9768
▁employee	-9769
▁butterfly	-9770
▁relieve	-9771
makers	-9772
acular	-9773
▁worms	-9774
▁gallons	-9775
▁operators	-9776
▁microbes	-9777
oman	-9778
autions	-9779
▁alzheimer	-9780
hu	-9781
▁yester	-9782
enda	-9783
▁smile	-9784
▁flowing	-9785
▁stephen	-9786
▁unnecess	-9787
▁bold	-9788
▁easter	-9789
▁attended	-9790
▁21,	-9791
▁tackle	-9792
▁appeal	-9793
home	-9794
▁brook	-9795
▁snack	-9796
▁voices	-9797
▁grocer	-9798
▁controversial	-9799
▁node	-9800
▁wastewater	-9801
▁dougl	-9802
▁indicating	-9803
▁avoided	-9804
rown	-9805
▁artery	-9806
▁partly	-9807
▁programmes	-9808
▁tanks	-9809
▁19,	-9810
▁dispers	-9811
▁newspapers	-9812
▁generator	-9813
ghan	-9814
▁emerge	-9815
product	-9816
▁historian	-9817
▁neighbors	-9818
▁dispar	-9819
▁cement	-9820
▁replacing	-9821
▁bearing	-9822
▁kim	-9823
▁stir	-9824
agus	-9825
▁broke	-9826
▁indonesia	-9827
ptic	-9828
▁tied	-9829
develop	-9830
je	-9831
▁geology	-9832
▁lt	-9833
▁untreated	-9834
rox	-9835
▁veterinary	-9836
▁presidential	-9837
▁edited	-9838
raid	-9839
▁timber	-9840
post	-9841
▁proport	-9842
noon	-9843
▁islamic	-9844
▁femin	-9845
▁suspected	-9846
▁mechanics	-9847
▁depr	-9848
▁leon	-9849
▁holidays	-9850
▁renaissance	-9851
▁tomor	-9852
▁matthe	-9853
▁proceedings	-9854
▁prototype	-9855
▁critically	-9856
▁administrative	-9857
▁travels	-9858
▁realistic	-9859
▁ay	-9860
▁1998	-9861
rible	-9862
add	-9863
rose	-9864
▁inequality	-9865
icking	-9866
▁laugh	-9867
▁tsun	-9868
▁brick	-9869
▁recipes	-9870
jud	-9871
▁portions	-9872
amel	-9873
gered	-9874
▁summit	-9875
▁reserves	-9876
▁ches	-9877
▁fundament	-9878
▁export	-9879
abs	-9880
giving	-9881
▁invited	-9882
▁ultrasound	-9883
▁jefferson	-9884
▁configuration	-9885
▁mistake	-9886
riction	-9887
▁rna	-9888
▁foli	-9889
hop	-9890
▁indoors	-9891
.1	-9892
▁carcin	-9893
▁louisiana	-9894
▁presentations	-9895
▁turtle	-9896
▁resolve	-9897
▁survivors	-9898
▁nausea	-9899
▁notion	-9900
▁lact	-9901
▁capability	-9902
▁volunt	-9903
▁sword	-9904
▁hearts	-9905
▁encompass	-9906
rec	-9907
▁floods	-9908
▁pushed	-9909
▁fried	-9910
km	-9911
▁2.5	-9912
▁reinfor	-9913
▁opposition	-9914
▁stakeholders	-9915
▁nu	-9916
▁paths	-9917
▁sear	-9918
▁grants	-9919
▁160	-9920
white	-9921
▁mant	-9922
imedia	-9923
▁prelim	-9924
▁twe	-9925
ouses	-9926
oys	-9927
miss	-9928
▁philosoph	-9929
▁impression	-9930
▁39	-9931
inge	-9932
whe	-9933
link	-9934
▁gang	-9935
▁manufactured	-9936
energy	-9937
grou	-9938
chron	-9939
▁explosion	-9940
awa	-9941
▁ate	-9942
▁wires	-9943
▁herself	-9944
▁portray	-9945
3).	-9946
▁traveled	-9947
▁rehabilitation	-9948
▁piano	-9949
▁wy	-9950
▁cheaper	-9951
▁portable	-9952
▁rover	-9953
▁pursue	-9954
▁insulation	-9955
▁inev	-9956
▁founding	-9957
▁64	-9958
▁secre	-9959
▁divine	-9960
▁ferment	-9961
▁punishment	-9962
▁silk	-9963
iro	-9964
▁meets	-9965
▁franklin	-9966
▁gluten	-9967
▁racism	-9968
▁certification	-9969
fold	-9970
▁tear	-9971
▁aspir	-9972
▁ug	-9973
▁senses	-9974
orth	-9975
news	-9976
▁intermediate	-9977
pur	-9978
▁rust	-9979
▁whites	-9980
▁invasion	-9981
▁foliage	-9982
▁practitioners	-9983
▁bent	-9984
▁afternoon	-9985
▁("	-9986
▁25,	-9987
▁grave	-9988
▁isbn	-9989
▁crimes	-9990
▁20%	-9991
▁reefs	-9992
▁thinks	-9993
azz	-9994
▁tomb	-9995
rophic	-9996
ophys	-9997
comput	-9998
graduate	-9999
▁peripher	-10000
▁conjunction	-10001
rell	-10002
▁mast	-10003
▁unpre	-10004
▁venus	-10005
▁interviews	-10006
▁deaf	-10007
▁fortunately	-10008
▁eve	-10009
▁pneumonia	-10010
▁associations	-10011
▁portrait	-10012
▁rating	-10013
▁aboriginal	-10014
▁instructor	-10015
▁1999	-10016
▁alkal	-10017
▁equity	-10018
▁gosp	-10019
▁dynasty	-10020
non	-10021
▁breakthrough	-10022
▁fran	-10023
▁refugees	-10024
▁elab	-10025
▁ward	-10026
▁pref	-10027
named	-10028
shore	-10029
▁limiting	-10030
ician	-10031
▁adam	-10032
▁prevalent	-10033
-200	-10034
▁constitutional	-10035
itored	-10036
▁caution	-10037
▁explorer	-10038
400	-10039
▁strat	-10040
resistant	-10041
▁verbal	-10042
▁terminal	-10043
▁league	-10044
▁pushing	-10045
▁infin	-10046
town	-10047
▁farmer	-10048
▁administered	-10049
▁stap	-10050
▁bulb	-10051
obe	-10052
▁slope	-10053
▁counts	-10054
▁poster	-10055
▁4-	-10056
▁winning	-10057
▁acceptance	-10058
▁severely	-10059
▁surgeon	-10060
▁bend	-10061
▁labs	-10062
▁trap	-10063
acle	-10064
▁fleet	-10065
inflamm	-10066
▁participated	-10067
wik	-10068
omal	-10069
▁rhe	-10070
rint	-10071
abetic	-10072
▁longest	-10073
▁fluoride	-10074
orters	-10075
▁weekend	-10076
▁enabled	-10077
▁perpet	-10078
▁drilling	-10079
front	-10080
▁biblical	-10081
▁pound	-10082
▁phases	-10083
▁disciplines	-10084
▁polymer	-10085
▁pengu	-10086
▁ensures	-10087
▁automatic	-10088
▁enterprise	-10089
▁plug	-10090
▁binding	-10091
▁digestion	-10092
▁penal	-10093
▁gel	-10094
▁loy	-10095
oler	-10096
▁compress	-10097
▁bip	-10098
▁reputation	-10099
▁cram	-10100
▁afraid	-10101
▁privile	-10102
600	-10103
▁sixth	-10104
▁pencil	-10105
▁outbreaks	-10106
▁assessing	-10107
▁dur	-10108
▁sul	-10109
▁keywords	-10110
▁pitch	-10111
▁spill	-10112
ulture	-10113
▁bands	-10114
▁restored	-10115
▁transparent	-10116
grim	-10117
▁interfe	-10118
▁companion	-10119
▁elephants	-10120
1:	-10121
▁inquiry	-10122
▁deple	-10123
▁microw	-10124
▁airpl	-10125
▁delta	-10126
▁consequently	-10127
▁balls	-10128
▁fluctu	-10129
▁feathers	-10130
▁approval	-10131
aya	-10132
onin	-10133
▁lining	-10134
appropri	-10135
▁extends	-10136
▁extraction	-10137
▁hou	-10138
▁declined	-10139
▁veins	-10140
▁antarctic	-10141
▁glow	-10142
▁dinosaur	-10143
▁mah	-10144
casts	-10145
▁hell	-10146
▁drill	-10147
▁wouldnt	-10148
▁ana	-10149
▁navigate	-10150
▁methodology	-10151
▁calculator	-10152
▁heated	-10153
▁preliminary	-10154
▁sustained	-10155
▁kennedy	-10156
▁transformed	-10157
leys	-10158
agger	-10159
▁matching	-10160
▁cree	-10161
▁refe	-10162
▁catast	-10163
85	-10164
aud	-10165
▁trump	-10166
▁devoted	-10167
▁deterior	-10168
▁monitored	-10169
▁keyboard	-10170
plan	-10171
▁slides	-10172
▁inherited	-10173
▁strip	-10174
▁correlation	-10175
▁disag	-10176
▁triang	-10177
▁chemotherapy	-10178
▁boom	-10179
▁seeks	-10180
▁subsid	-10181
▁compiled	-10182
ppers	-10183
▁dv	-10184
▁tendency	-10185
▁purchasing	-10186
94	-10187
▁sink	-10188
▁alpha	-10189
▁gains	-10190
▁crystals	-10191
isition	-10192
▁selecting	-10193
▁determines	-10194
atur	-10195
▁bars	-10196
▁dual	-10197
▁printer	-10198
ali	-10199
mouth	-10200
▁stamp	-10201
risk	-10202
arest	-10203
▁gig	-10204
▁deals	-10205
▁brilliant	-10206
▁commod	-10207
▁glands	-10208
▁parasites	-10209
▁fifty	-10210
▁nationwide	-10211
▁abol	-10212
▁trim	-10213
▁hungry	-10214
▁mixing	-10215
▁biography	-10216
arer	-10217
▁stretching	-10218
▁alf	-10219
▁oklah	-10220
▁ss	-10221
mill	-10222
▁appliances	-10223
cket	-10224
▁shower	-10225
▁symmet	-10226
▁dwarf	-10227
activity	-10228
▁scra	-10229
▁unders	-10230
▁accomplished	-10231
-15	-10232
▁pulse	-10233
▁titles	-10234
oping	-10235
▁grind	-10236
▁viable	-10237
▁sanitation	-10238
▁preventive	-10239
▁geographical	-10240
▁adventure	-10241
▁gem	-10242
oning	-10243
▁2008,	-10244
▁billions	-10245
▁inherent	-10246
▁drum	-10247
▁silent	-10248
▁recipe	-10249
▁triggers	-10250
▁wilderness	-10251
▁physiological	-10252
▁cooler	-10253
▁exchang	-10254
▁flora	-10255
▁integrate	-10256
erb	-10257
▁ford	-10258
▁robotic	-10259
▁`	-10260
▁hopefully	-10261
▁satisfact	-10262
▁carl	-10263
pers	-10264
▁fate	-10265
▁dos	-10266
▁registration	-10267
▁horizon	-10268
▁tb	-10269
▁coinc	-10270
▁menstru	-10271
▁inventory	-10272
▁183	-10273
eu	-10274
▁clip	-10275
▁projected	-10276
fam	-10277
usively	-10278
▁lighter	-10279
▁pilgrim	-10280
acu	-10281
▁canyon	-10282
▁goddess	-10283
some	-10284
▁pulled	-10285
▁sorts	-10286
▁trunk	-10287
eller	-10288
▁traged	-10289
▁greg	-10290
▁evaluating	-10291
ishers	-10292
▁nights	-10293
ateral	-10294
▁structured	-10295
▁uc	-10296
▁screens	-10297
inea	-10298
▁pant	-10299
▁24,	-10300
▁ceremony	-10301
▁gasoline	-10302
▁currents	-10303
igma	-10304
▁nev	-10305
▁lying	-10306
▁maine	-10307
▁gently	-10308
▁mammal	-10309
▁referring	-10310
▁wheels	-10311
▁microscope	-10312
▁28,	-10313
▁vocal	-10314
▁nineteenth	-10315
▁gaining	-10316
▁cathedral	-10317
▁adul	-10318
▁servers	-10319
▁highlighted	-10320
▁ah	-10321
count	-10322
▁eagle	-10323
▁patches	-10324
▁investments	-10325
▁predomin	-10326
▁machinery	-10327
▁ein	-10328
▁craw	-10329
▁sequences	-10330
▁watering	-10331
ucks	-10332
erman	-10333
▁quantitative	-10334
▁mounted	-10335
enh	-10336
▁altitude	-10337
▁mines	-10338
▁refriger	-10339
▁compassion	-10340
▁bom	-10341
▁nin	-10342
▁manufacturer	-10343
▁strang	-10344
▁jean	-10345
▁strings	-10346
stock	-10347
▁metrop	-10348
▁categor	-10349
▁rear	-10350
▁moses	-10351
▁distress	-10352
▁arabic	-10353
nc	-10354
▁pronunciation	-10355
atin	-10356
▁overwhelming	-10357
▁lg	-10358
powered	-10359
▁mush	-10360
olitan	-10361
▁mutation	-10362
leum	-10363
▁automated	-10364
ugg	-10365
▁binary	-10366
▁consent	-10367
math	-10368
▁stal	-10369
▁corros	-10370
▁ignore	-10371
▁harvesting	-10372
▁bulk	-10373
++	-10374
orient	-10375
edge	-10376
▁mph	-10377
▁litter	-10378
pert	-10379
▁lightning	-10380
▁eric	-10381
▁cavities	-10382
▁elevation	-10383
▁overse	-10384
mans	-10385
▁compression	-10386
safe	-10387
birds	-10388
ellar	-10389
▁85	-10390
ollo	-10391
▁iraq	-10392
natural	-10393
don	-10394
itar	-10395
▁sore	-10396
▁designer	-10397
ether	-10398
▁argued	-10399
▁trapped	-10400
▁riding	-10401
▁recreation	-10402
▁tiger	-10403
▁consultation	-10404
▁chile	-10405
▁moons	-10406
▁blooms	-10407
▁recovered	-10408
▁lux	-10409
▁truck	-10410
▁mysterious	-10411
▁predictions	-10412
icacy	-10413
▁defining	-10414
▁nasas	-10415
▁pedest	-10416
▁apnea	-10417
▁hydra	-10418
▁fluores	-10419
▁beverages	-10420
▁coating	-10421
▁ott	-10422
▁samuel	-10423
▁eclipse	-10424
▁gravit	-10425
▁influential	-10426
▁charges	-10427
▁dozen	-10428
▁lectures	-10429
ju	-10430
▁reads	-10431
▁palest	-10432
▁maternal	-10433
▁compat	-10434
▁poland	-10435
▁nazi	-10436
note	-10437
icated	-10438
▁attracted	-10439
▁bishop	-10440
▁provision	-10441
▁occupation	-10442
arness	-10443
▁yesterday	-10444
▁municipal	-10445
**	-10446
ulates	-10447
▁expenses	-10448
marks	-10449
▁myths	-10450
▁packed	-10451
▁dawn	-10452
▁toll	-10453
▁subtle	-10454
▁freezing	-10455
ko	-10456
▁erad	-10457
▁mead	-10458
violet	-10459
▁nucleus	-10460
▁26,	-10461
▁heter	-10462
▁gifts	-10463
▁tales	-10464
▁confederate	-10465
▁degradation	-10466
▁tomorrow	-10467
alt	-10468
▁isa	-10469
▁bites	-10470
▁investigating	-10471
▁costly	-10472
▁dreams	-10473
▁pour	-10474
▁stanford	-10475
▁dump	-10476
▁networking	-10477
▁passengers	-10478
▁combustion	-10479
▁unst	-10480
ctica	-10481
rub	-10482
▁overs	-10483
▁shelf	-10484
▁automob	-10485
▁shells	-10486
onents	-10487
▁fart	-10488
▁inh	-10489
▁interf	-10490
▁oklahoma	-10491
▁feas	-10492
▁duties	-10493
▁impaired	-10494
oen	-10495
▁titled	-10496
▁cum	-10497
atal	-10498
▁hosts	-10499
adequ	-10500
▁vow	-10501
▁intrig	-10502
▁traumatic	-10503
▁supplied	-10504
reach	-10505
olid	-10506
click	-10507
▁worried	-10508
▁..	-10509
▁territories	-10510
monary	-10511
▁traces	-10512
▁6:	-10513
▁consequence	-10514
3%	-10515
▁ket	-10516
▁raises	-10517
rots	-10518
▁clues	-10519
▁steep	-10520
▁spiders	-10521
▁masses	-10522
▁eruption	-10523
sens	-10524
▁terra	-10525
▁creature	-10526
▁tai	-10527
▁1940	-10528
▁operator	-10529
▁presenting	-10530
ods	-10531
pack	-10532
▁wellbeing	-10533
▁arist	-10534
▁solely	-10535
▁alien	-10536
▁forty	-10537
ashed	-10538
▁liz	-10539
▁monaster	-10540
▁orb	-10541
▁substr	-10542
card	-10543
▁layout	-10544
zens	-10545
▁executed	-10546
esco	-10547
▁chron	-10548
▁unemployment	-10549
▁font	-10550
▁sour	-10551
49	-10552
▁audi	-10553
▁scans	-10554
▁assert	-10555
iser	-10556
▁blast	-10557
▁pv	-10558
▁dakota	-10559
▁feast	-10560
▁battles	-10561
▁47	-10562
▁entertainment	-10563
gas	-10564
▁balloon	-10565
▁aviation	-10566
▁mp	-10567
▁dehyd	-10568
▁rolling	-10569
▁deriv	-10570
▁verbs	-10571
▁contrary	-10572
▁decreasing	-10573
▁nasal	-10574
▁2015,	-10575
▁labeled	-10576
▁frequencies	-10577
arms	-10578
chain	-10579
▁nests	-10580
▁10-	-10581
▁(10	-10582
▁havent	-10583
▁browse	-10584
aids	-10585
▁modify	-10586
▁greens	-10587
ochemical	-10588
▁murder	-10589
▁liberal	-10590
▁loads	-10591
▁exclud	-10592
ictions	-10593
▁enters	-10594
▁introduces	-10595
▁explanations	-10596
▁investigations	-10597
▁chains	-10598
▁treasure	-10599
▁2014,	-10600
▁delib	-10601
▁surviving	-10602
keley	-10603
▁exercising	-10604
leep	-10605
▁polish	-10606
▁fragment	-10607
ught	-10608
▁ku	-10609
asy	-10610
osure	-10611
▁advocate	-10612
▁strengths	-10613
rup	-10614
▁norway	-10615
▁autonomous	-10616
▁drew	-10617
▁oun	-10618
▁contra	-10619
▁impacted	-10620
▁$2	-10621
itic	-10622
▁sie	-10623
▁bund	-10624
▁23,	-10625
these	-10626
▁upcoming	-10627
▁scratch	-10628
govern	-10629
▁fracture	-10630
▁hook	-10631
▁psychiat	-10632
▁tire	-10633
▁700	-10634
▁ende	-10635
▁placement	-10636
▁perf	-10637
▁fulf	-10638
▁poore	-10639
graph	-10640
▁surprisingly	-10641
▁squir	-10642
▁gam	-10643
▁sha	-10644
▁wellness	-10645
▁constell	-10646
sch	-10647
▁nile	-10648
▁nesting	-10649
▁phosphorus	-10650
aid	-10651
▁belonging	-10652
▁46	-10653
▁roose	-10654
▁infest	-10655
week	-10656
▁inclusive	-10657
▁unnecessary	-10658
▁spokes	-10659
▁alternate	-10660
▁antarctica	-10661
▁ions	-10662
▁sanct	-10663
▁archaeology	-10664
gic	-10665
▁pathway	-10666
▁outstanding	-10667
▁argent	-10668
▁romans	-10669
▁skilled	-10670
▁economies	-10671
away	-10672
heres	-10673
organisms	-10674
▁pleasure	-10675
▁macro	-10676
▁inadequ	-10677
▁execution	-10678
hamm	-10679
▁tablets	-10680
▁0.0	-10681
sur	-10682
▁corp	-10683
▁sque	-10684
▁pediatrics	-10685
▁andre	-10686
▁osteopor	-10687
▁jewel	-10688
ivals	-10689
▁enrich	-10690
security	-10691
▁prost	-10692
▁weapon	-10693
▁gn	-10694
▁argues	-10695
ulous	-10696
▁offspring	-10697
▁darwin	-10698
▁dozens	-10699
▁lap	-10700
▁kir	-10701
▁gates	-10702
▁determination	-10703
icut	-10704
▁tremendous	-10705
educ	-10706
▁ted	-10707
▁elections	-10708
▁beetles	-10709
▁invisible	-10710
▁frag	-10711
▁fragments	-10712
▁179	-10713
mid	-10714
▁informal	-10715
▁garbage	-10716
▁2016.	-10717
▁hollow	-10718
86	-10719
▁judgment	-10720
▁periodic	-10721
▁fold	-10722
▁pigment	-10723
▁datas	-10724
▁advised	-10725
cedented	-10726
▁pots	-10727
▁belg	-10728
▁analytical	-10729
▁vic	-10730
esis	-10731
▁fusion	-10732
▁slower	-10733
quarters	-10734
▁robotics	-10735
▁13.	-10736
▁apollo	-10737
▁petroleum	-10738
omic	-10739
▁nm	-10740
names	-10741
▁attempted	-10742
elson	-10743
entieth	-10744
▁electromagnetic	-10745
pub	-10746
▁bench	-10747
▁yours	-10748
▁studio	-10749
flower	-10750
▁encount	-10751
irth	-10752
seud	-10753
▁revol	-10754
▁tribal	-10755
▁condens	-10756
▁dorm	-10757
▁turk	-10758
▁roosevel	-10759
▁encountered	-10760
▁lesser	-10761
▁surroundings	-10762
▁burial	-10763
▁likewise	-10764
▁wasn	-10765
▁cubic	-10766
▁abdomen	-10767
▁harness	-10768
▁friction	-10769
bus	-10770
▁irre	-10771
▁pumps	-10772
▁endeav	-10773
▁arrangement	-10774
▁blame	-10775
▁candy	-10776
▁shuttle	-10777
access	-10778
▁forb	-10779
ilage	-10780
▁1995	-10781
▁gdp	-10782
▁conclude	-10783
▁merg	-10784
▁angry	-10785
▁multiplication	-10786
month	-10787
▁1-	-10788
ril	-10789
▁isot	-10790
▁combinations	-10791
▁arsen	-10792
alo	-10793
▁evacu	-10794
▁sulfur	-10795
▁rush	-10796
▁forgotten	-10797
exist	-10798
▁acidic	-10799
▁beaches	-10800
web	-10801
threat	-10802
▁attain	-10803
▁metall	-10804
hot	-10805
▁frog	-10806
rill	-10807
▁matthew	-10808
oard	-10809
▁unprecedented	-10810
pill	-10811
▁adams	-10812
cet	-10813
aimed	-10814
▁recip	-10815
▁80%	-10816
▁boats	-10817
run	-10818
▁prairie	-10819
▁illustration	-10820
▁2009.	-10821
▁tears	-10822
▁newsletter	-10823
▁hipp	-10824
▁bitter	-10825
ati	-10826
liance	-10827
▁osteoporosis	-10828
▁theatre	-10829
▁frustr	-10830
▁uncertainty	-10831
xual	-10832
arded	-10833
agog	-10834
▁kern	-10835
▁impairment	-10836
▁gravitational	-10837
▁angel	-10838
▁missed	-10839
▁juvenile	-10840
.),	-10841
tically	-10842
▁citizenship	-10843
▁(7	-10844
▁motors	-10845
▁identifies	-10846
▁kenya	-10847
▁median	-10848
▁1997	-10849
▁cran	-10850
▁touching	-10851
▁protocols	-10852
▁nc	-10853
third	-10854
depth	-10855
▁entries	-10856
▁precautions	-10857
▁cosmic	-10858
▁laboratories	-10859
kee	-10860
▁insuff	-10861
file	-10862
adays	-10863
▁extending	-10864
▁sexually	-10865
▁bald	-10866
ogs	-10867
▁compliance	-10868
▁inspection	-10869
bola	-10870
▁clark	-10871
▁90%	-10872
▁buddh	-10873
lan	-10874
▁photosy	-10875
olith	-10876
▁afghan	-10877
▁garlic	-10878
▁theyve	-10879
ti	-10880
expl	-10881
omed	-10882
▁plut	-10883
▁writings	-10884
▁excer	-10885
comp	-10886
▁von	-10887
▁innovations	-10888
▁loans	-10889
▁breeds	-10890
▁radius	-10891
▁hierarch	-10892
appropriate	-10893
vs	-10894
bral	-10895
▁urinary	-10896
▁campaigns	-10897
▁learner	-10898
▁sacrifice	-10899
▁repeatedly	-10900
aments	-10901
▁agenda	-10902
)||	-10903
plus	-10904
▁taylor	-10905
▁seizures	-10906
▁absent	-10907
▁muslims	-10908
▁transit	-10909
▁recycle	-10910
,'	-10911
olas	-10912
▁fits	-10913
▁societ	-10914
bone	-10915
olia	-10916
▁fractures	-10917
▁uplo	-10918
articles	-10919
▁reproduce	-10920
igs	-10921
▁distinction	-10922
▁epic	-10923
▁harvested	-10924
dish	-10925
eared	-10926
▁arthur	-10927
▁acknowledge	-10928
▁cleaner	-10929
▁generates	-10930
▁mulch	-10931
▁clot	-10932
▁segments	-10933
vas	-10934
▁eliminating	-10935
proof	-10936
▁sof	-10937
▁plag	-10938
earth	-10939
▁hardly	-10940
▁conceptual	-10941
▁frogs	-10942
▁closing	-10943
othy	-10944
▁lan	-10945
▁nich	-10946
▁exhibits	-10947
▁pile	-10948
▁baking	-10949
▁airport	-10950
▁dor	-10951
▁transactions	-10952
▁rum	-10953
▁belongs	-10954
▁incidents	-10955
▁sensation	-10956
▁dirty	-10957
▁gym	-10958
▁likes	-10959
human	-10960
learning	-10961
iotic	-10962
▁receptors	-10963
▁vulnerability	-10964
mus	-10965
▁endoc	-10966
▁vascular	-10967
▁pesticide	-10968
▁calculation	-10969
▁allevi	-10970
▁pocket	-10971
▁tonnes	-10972
8)	-10973
inflammatory	-10974
dam	-10975
▁um	-10976
▁heading	-10977
▁veterinarian	-10978
▁folks	-10979
▁27,	-10980
▁cigarettes	-10981
▁appreciation	-10982
chi	-10983
cils	-10984
uana	-10985
▁dimension	-10986
▁philippines	-10987
▁enthusias	-10988
▁recognizing	-10989
▁warned	-10990
▁legit	-10991
▁stopping	-10992
otal	-10993
▁2007,	-10994
▁disabled	-10995
ylon	-10996
▁terrain	-10997
▁delight	-10998
▁refused	-10999
▁translate	-11000
:5	-11001
▁documentary	-11002
mates	-11003
▁intestinal	-11004
pler	-11005
▁sketch	-11006
▁multiply	-11007
▁antiqu	-11008
esteem	-11009
lob	-11010
▁grape	-11011
▁sprou	-11012
▁scroll	-11013
▁grocery	-11014
▁triggered	-11015
opathy	-11016
▁credits	-11017
forestation	-11018
▁fantastic	-11019
▁verse	-11020
▁fractions	-11021
alf	-11022
▁gab	-11023
▁worm	-11024
rimin	-11025
▁lamp	-11026
▁wre	-11027
▁deleg	-11028
▁banned	-11029
▁cigarette	-11030
▁considerably	-11031
ront	-11032
search	-11033
▁anyway	-11034
▁>>	-11035
▁drama	-11036
▁germs	-11037
▁hoping	-11038
▁olympic	-11039
pin	-11040
▁hort	-11041
▁composite	-11042
asia	-11043
chers	-11044
▁loyal	-11045
▁maria	-11046
▁scrap	-11047
▁pressures	-11048
▁specially	-11049
cence	-11050
▁lateral	-11051
▁attending	-11052
▁dop	-11053
onymous	-11054
▁enroll	-11055
▁lawrence	-11056
▁nowadays	-11057
▁casual	-11058
breaking	-11059
▁promotion	-11060
▁couldnt	-11061
▁mong	-11062
▁aggreg	-11063
▁talked	-11064
▁eligible	-11065
▁95	-11066
▁fears	-11067
▁baseball	-11068
▁ritual	-11069
▁connecticut	-11070
bod	-11071
rolog	-11072
▁nurt	-11073
▁syd	-11074
▁sticks	-11075
▁tourists	-11076
▁concentrate	-11077
▁hate	-11078
▁plum	-11079
exts	-11080
42	-11081
▁fah	-11082
▁unclear	-11083
▁combines	-11084
isd	-11085
▁soc	-11086
▁antioxidant	-11087
▁spectacular	-11088
▁tries	-11089
▁tin	-11090
▁ultraviolet	-11091
▁breakdown	-11092
▁wounds	-11093
ington	-11094
▁hug	-11095
heit	-11096
▁diabetic	-11097
rc	-11098
ighters	-11099
teenth	-11100
▁gi	-11101
▁mb	-11102
▁stain	-11103
▁contexts	-11104
▁delicate	-11105
▁recreational	-11106
▁blocked	-11107
▁inserted	-11108
▁esoph	-11109
▁applicable	-11110
ierra	-11111
▁2021	-11112
▁jenn	-11113
lessly	-11114
▁sweat	-11115
▁prints	-11116
▁suppress	-11117
onto	-11118
▁criticism	-11119
▁urgent	-11120
▁quotes	-11121
▁conservative	-11122
▁14.	-11123
▁mathematic	-11124
▁connects	-11125
vo	-11126
acre	-11127
▁bass	-11128
imeters	-11129
▁nutrit	-11130
▁smokers	-11131
▁chop	-11132
▁dots	-11133
▁noble	-11134
▁joining	-11135
▁intervals	-11136
▁twentieth	-11137
▁berkeley	-11138
▁2008.	-11139
9%	-11140
map	-11141
▁prediction	-11142
look	-11143
esthes	-11144
▁forestry	-11145
▁loaded	-11146
test	-11147
▁skip	-11148
▁warri	-11149
▁formats	-11150
▁cous	-11151
▁charter	-11152
▁epile	-11153
▁lithium	-11154
▁181	-11155
▁arom	-11156
▁ammon	-11157
▁namely	-11158
▁runoff	-11159
▁implants	-11160
▁personally	-11161
▁simulations	-11162
erately	-11163
▁handbook	-11164
▁hpv	-11165
▁guinea	-11166
▁hubble	-11167
▁switzer	-11168
disciplinary	-11169
▁intact	-11170
▁storing	-11171
▁acou	-11172
▁imbal	-11173
▁oy	-11174
▁attacked	-11175
▁trillion	-11176
▁ub	-11177
▁pent	-11178
▁rheum	-11179
▁atlas	-11180
▁exclusively	-11181
intest	-11182
▁1996	-11183
▁calib	-11184
▁implies	-11185
1/	-11186
▁matt	-11187
▁marginal	-11188
▁hydraul	-11189
▁tie	-11190
▁lid	-11191
▁odds	-11192
▁archaeologists	-11193
ked	-11194
▁abroad	-11195
▁neighbour	-11196
▁ventilation	-11197
▁guy	-11198
igm	-11199
▁odor	-11200
▁skelet	-11201
omon	-11202
▁sunscreen	-11203
▁obsc	-11204
pson	-11205
▁lub	-11206
▁behave	-11207
▁compete	-11208
▁featuring	-11209
▁numerical	-11210
▁relies	-11211
▁vaccinated	-11212
▁dehydration	-11213
kg	-11214
800	-11215
uan	-11216
▁assumptions	-11217
▁threatening	-11218
▁saliva	-11219
▁posture	-11220
expensive	-11221
▁reuse	-11222
▁miller	-11223
▁microbial	-11224
▁sends	-11225
▁centres	-11226
▁medicinal	-11227
bet	-11228
▁synt	-11229
▁houston	-11230
▁soldier	-11231
▁attempting	-11232
lyn	-11233
kh	-11234
▁politicians	-11235
▁strengthening	-11236
second	-11237
▁headed	-11238
▁ethanol	-11239
▁sensing	-11240
▁revision	-11241
▁destructive	-11242
▁creator	-11243
:0	-11244
▁guest	-11245
▁pseud	-11246
▁specify	-11247
▁aerial	-11248
▁extracted	-11249
▁advocates	-11250
▁ore	-11251
▁wages	-11252
▁shots	-11253
▁thrown	-11254
▁thunder	-11255
atics	-11256
▁drying	-11257
▁plural	-11258
▁charity	-11259
▁warrant	-11260
▁adolescent	-11261
▁biop	-11262
▁firef	-11263
▁innoc	-11264
▁prisoners	-11265
▁laptop	-11266
intestinal	-11267
▁delivering	-11268
▁pronounced	-11269
sea	-11270
▁acquisition	-11271
1%	-11272
▁darkness	-11273
▁mri	-11274
minute	-11275
▁quart	-11276
▁draws	-11277
▁roosevelt	-11278
ogether	-11279
▁celebrating	-11280
▁mayo	-11281
▁poles	-11282
▁hud	-11283
▁nursery	-11284
▁swedish	-11285
unks	-11286
▁jam	-11287
▁titan	-11288
▁antenna	-11289
pton	-11290
▁aur	-11291
▁fastest	-11292
▁similarities	-11293
▁undergraduate	-11294
▁grasses	-11295
▁grat	-11296
lux	-11297
▁physiology	-11298
▁nail	-11299
▁________	-11300
▁umb	-11301
▁(3)	-11302
enders	-11303
▁3,000	-11304
▁responding	-11305
▁imported	-11306
▁treats	-11307
▁comparable	-11308
▁amphib	-11309
▁seemingly	-11310
▁arrow	-11311
▁standardized	-11312
▁perennial	-11313
!"	-11314
▁ml	-11315
omatic	-11316
▁29,	-11317
▁utilizing	-11318
▁accordingly	-11319
▁coronary	-11320
orrh	-11321
earing	-11322
▁reminder	-11323
▁practiced	-11324
43	-11325
▁dign	-11326
▁regime	-11327
asse	-11328
▁counseling	-11329
▁ardu	-11330
▁herbal	-11331
▁uncommon	-11332
▁reconstruction	-11333
▁fool	-11334
▁trains	-11335
neath	-11336
▁motivated	-11337
opy	-11338
▁cannab	-11339
▁mate	-11340
▁watched	-11341
▁rus	-11342
▁dominated	-11343
▁achievements	-11344
▁leop	-11345
▁attorney	-11346
▁shifts	-11347
▁turbines	-11348
▁aph	-11349
urred	-11350
▁ni	-11351
▁relates	-11352
▁ports	-11353
▁edible	-11354
▁glaciers	-11355
▁caterpill	-11356
▁fungal	-11357
▁communicating	-11358
▁sits	-11359
▁checks	-11360
▁solved	-11361
▁republican	-11362
ecd	-11363
▁lemon	-11364
▁singap	-11365
▁sponsored	-11366
iciencies	-11367
▁reliability	-11368
▁apost	-11369
▁negoti	-11370
▁suited	-11371
▁wealthy	-11372
▁stimulation	-11373
ationally	-11374
▁shooting	-11375
▁conditioning	-11376
92	-11377
▁transf	-11378
▁landmark	-11379
▁workforce	-11380
▁tsunami	-11381
▁acre	-11382
▁enamel	-11383
tz	-11384
▁unwanted	-11385
▁sql	-11386
▁priest	-11387
▁functionality	-11388
serv	-11389
▁pollin	-11390
▁brist	-11391
▁transported	-11392
his	-11393
fare	-11394
▁frames	-11395
▁contag	-11396
▁wolves	-11397
hard	-11398
inv	-11399
▁oscill	-11400
▁planes	-11401
▁turbine	-11402
▁countless	-11403
uty	-11404
▁retire	-11405
city	-11406
▁underneath	-11407
▁2016,	-11408
▁ghost	-11409
▁nicot	-11410
▁cultivated	-11411
▁hanging	-11412
▁genealog	-11413
▁sculpture	-11414
▁fans	-11415
▁rs	-11416
▁concuss	-11417
▁smartphone	-11418
▁lgbt	-11419
▁lasts	-11420
ilton	-11421
immune	-11422
▁payments	-11423
▁ko	-11424
▁twin	-11425
▁admitted	-11426
▁daylight	-11427
▁resur	-11428
▁brew	-11429
▁challenged	-11430
▁confront	-11431
▁caves	-11432
▁graphs	-11433
▁installing	-11434
▁editorial	-11435
ikes	-11436
size	-11437
▁url	-11438
▁lowering	-11439
▁timeline	-11440
▁pointing	-11441
inst	-11442
▁picking	-11443
▁briefly	-11444
▁passwords	-11445
▁hotel	-11446
▁duck	-11447
▁intestine	-11448
▁noaa	-11449
▁ponds	-11450
▁pulling	-11451
▁negatively	-11452
▁breastfeeding	-11453
▁limbs	-11454
renheit	-11455
▁lottery	-11456
▁rud	-11457
▁growers	-11458
piece	-11459
▁scattered	-11460
▁inexpensive	-11461
brates	-11462
▁bitco	-11463
2%	-11464
apped	-11465
▁lucky	-11466
▁investors	-11467
▁operates	-11468
▁firms	-11469
▁pools	-11470
▁switzerland	-11471
▁gp	-11472
▁terrestrial	-11473
▁lod	-11474
▁inability	-11475
▁expend	-11476
▁preserving	-11477
chy	-11478
iasis	-11479
▁ebola	-11480
▁offset	-11481
▁15.	-11482
▁snacks	-11483
▁climates	-11484
4).	-11485
▁passenger	-11486
▁religions	-11487
▁gil	-11488
▁conserve	-11489
▁residence	-11490
▁restaurants	-11491
nthesis	-11492
pace	-11493
-17	-11494
▁masks	-11495
▁prehist	-11496
▁5-	-11497
worms	-11498
▁sarah	-11499
▁gib	-11500
threatening	-11501
▁signature	-11502
▁flags	-11503
lihood	-11504
irm	-11505
fc	-11506
iffs	-11507
▁pulmonary	-11508
▁sydney	-11509
▁adulthood	-11510
▁delicious	-11511
▁kilometres	-11512
▁thanksgiving	-11513
ochond	-11514
aning	-11515
▁mint	-11516
▁transist	-11517
▁immense	-11518
law	-11519
erto	-11520
▁anemia	-11521
▁jord	-11522
▁yogurt	-11523
▁lav	-11524
▁commemor	-11525
▁bases	-11526
.:	-11527
,000.	-11528
▁guns	-11529
▁carrier	-11530
▁disagree	-11531
▁unesco	-11532
▁advisory	-11533
▁equil	-11534
▁commissioned	-11535
national	-11536
▁chris	-11537
▁regulated	-11538
odynam	-11539
▁contest	-11540
▁refined	-11541
▁flesh	-11542
▁requests	-11543
vity	-11544
▁susan	-11545
tics	-11546
▁ethiop	-11547
contin	-11548
▁lang	-11549
aceous	-11550
▁livelihood	-11551
▁romantic	-11552
▁coordinate	-11553
▁(17	-11554
▁undertaken	-11555
fires	-11556
▁peas	-11557
▁dye	-11558
▁desktop	-11559
▁mindfulness	-11560
▁provinces	-11561
▁everybody	-11562
▁legislative	-11563
▁bah	-11564
▁blade	-11565
▁tibet	-11566
cap	-11567
8%	-11568
opter	-11569
▁kel	-11570
▁toes	-11571
pay	-11572
carbon	-11573
range	-11574
▁empathy	-11575
▁shrub	-11576
▁patrick	-11577
▁fi	-11578
▁vet	-11579
▁essence	-11580
▁surely	-11581
pot	-11582
▁subur	-11583
▁metric	-11584
otive	-11585
▁dialect	-11586
two	-11587
color	-11588
▁monuments	-11589
▁prophet	-11590
▁coalition	-11591
itives	-11592
uity	-11593
▁fraud	-11594
vereign	-11595
▁educator	-11596
▁electroly	-11597
▁speaks	-11598
▁scout	-11599
▁cylinder	-11600
";	-11601
xx	-11602
▁tourist	-11603
▁symbolic	-11604
▁dolphins	-11605
▁fee	-11606
▁comprised	-11607
▁mason	-11608
▁institutional	-11609
▁letting	-11610
▁acup	-11611
▁damages	-11612
▁computational	-11613
▁pir	-11614
▁lava	-11615
forward	-11616
▁cb	-11617
▁seventh	-11618
supp	-11619
▁praise	-11620
orious	-11621
ato	-11622
▁sweep	-11623
▁foam	-11624
ipation	-11625
▁notably	-11626
▁toddlers	-11627
ograms	-11628
eling	-11629
pop	-11630
reshold	-11631
▁trails	-11632
▁fahrenheit	-11633
▁youd	-11634
▁engra	-11635
▁outlines	-11636
▁slic	-11637
▁upset	-11638
▁sphere	-11639
aser	-11640
▁nevada	-11641
▁inherit	-11642
▁attribute	-11643
▁delayed	-11644
doc	-11645
▁gon	-11646
▁obstacles	-11647
▁gamb	-11648
▁nearest	-11649
▁impul	-11650
due	-11651
▁stool	-11652
▁lent	-11653
▁penn	-11654
ulas	-11655
▁feeds	-11656
▁handy	-11657
plete	-11658
▁nutritious	-11659
▁kal	-11660
▁grad	-11661
▁grapes	-11662
▁initiated	-11663
▁peripheral	-11664
▁sacrific	-11665
jour	-11666
▁tense	-11667
▁parenting	-11668
site	-11669
▁collaps	-11670
▁leather	-11671
▁commerce	-11672
▁sep	-11673
▁crowd	-11674
▁activated	-11675
▁voluntary	-11676
atherine	-11677
▁fails	-11678
▁elastic	-11679
▁positively	-11680
▁damp	-11681
▁grazing	-11682
:30	-11683
fin	-11684
▁trucks	-11685
▁emergence	-11686
▁ignored	-11687
▁lacking	-11688
▁indication	-11689
▁hex	-11690
▁mainstream	-11691
▁30%	-11692
▁ali	-11693
▁tragedy	-11694
▁cels	-11695
▁grasp	-11696
▁interval	-11697
▁recommendation	-11698
▁climb	-11699
▁dissolved	-11700
▁questionna	-11701
▁contaminants	-11702
▁wrap	-11703
▁variability	-11704
▁hits	-11705
▁spiral	-11706
▁enact	-11707
▁linking	-11708
▁inadequate	-11709
▁equator	-11710
backs	-11711
▁artwork	-11712
▁pressing	-11713
▁descriptive	-11714
▁blend	-11715
▁bachel	-11716
illes	-11717
▁singapore	-11718
▁pulp	-11719
▁anton	-11720
87	-11721
▁40%	-11722
ensis	-11723
ulent	-11724
▁maturity	-11725
▁handful	-11726
▁lesions	-11727
▁astronomical	-11728
▁140	-11729
▁individually	-11730
▁diagrams	-11731
▁harass	-11732
▁socially	-11733
▁fisc	-11734
▁gospel	-11735
▁climbing	-11736
▁spawn	-11737
▁acne	-11738
▁entity	-11739
▁visually	-11740
▁sovereign	-11741
▁liquids	-11742
▁milky	-11743
▁scanning	-11744
▁researching	-11745
▁dal	-11746
▁flame	-11747
▁enhancing	-11748
▁sequencing	-11749
▁metropolitan	-11750
four	-11751
som	-11752
▁43	-11753
▁ticks	-11754
▁reactor	-11755
uni	-11756
▁nanop	-11757
onomy	-11758
▁hatch	-11759
▁customs	-11760
▁ki	-11761
cked	-11762
▁strokes	-11763
▁cargo	-11764
▁triple	-11765
▁pursu	-11766
▁gc	-11767
▁sant	-11768
ulative	-11769
▁accumulation	-11770
▁tomato	-11771
▁incorporating	-11772
days	-11773
▁hosted	-11774
controlled	-11775
▁advancement	-11776
▁exit	-11777
▁marking	-11778
▁declining	-11779
▁advocacy	-11780
▁uncomfort	-11781
▁kills	-11782
▁tubercul	-11783
isy	-11784
▁bamb	-11785
▁tablet	-11786
▁bibliography	-11787
▁assault	-11788
▁inputs	-11789
▁columbus	-11790
▁victorian	-11791
▁towers	-11792
amma	-11793
▁marit	-11794
▁pipeline	-11795
ez	-11796
held	-11797
rates	-11798
▁homeless	-11799
▁seam	-11800
▁exotic	-11801
wart	-11802
written	-11803
▁depressed	-11804
▁benj	-11805
▁interrupt	-11806
ijuana	-11807
obacter	-11808
▁buddhist	-11809
▁genu	-11810
▁rhin	-11811
ashing	-11812
▁carved	-11813
▁easiest	-11814
▁confusing	-11815
▁glacier	-11816
▁bloodstream	-11817
style	-11818
▁puzzles	-11819
▁56	-11820
▁wetland	-11821
▁wherever	-11822
▁coupled	-11823
▁toe	-11824
▁philosophical	-11825
▁preferences	-11826
will	-11827
▁fibre	-11828
▁resting	-11829
▁lanc	-11830
▁calorie	-11831
▁presidents	-11832
▁substantially	-11833
▁considerations	-11834
▁sri	-11835
▁switching	-11836
aca	-11837
▁lifel	-11838
▁specimen	-11839
alg	-11840
▁strikes	-11841
bility	-11842
▁fragile	-11843
▁microorganisms	-11844
▁displace	-11845
▁outreach	-11846
aki	-11847
▁jelly	-11848
asis	-11849
▁130	-11850
▁collision	-11851
▁enlight	-11852
five	-11853
▁glad	-11854
sonian	-11855
▁sierra	-11856
▁parking	-11857
▁hong	-11858
▁variant	-11859
41	-11860
▁deficit	-11861
▁douglas	-11862
▁processor	-11863
▁burst	-11864
▁storyt	-11865
▁pioneer	-11866
▁chew	-11867
▁baseline	-11868
▁squares	-11869
▁freeze	-11870
▁exceptional	-11871
cha	-11872
▁celsius	-11873
▁troubles	-11874
▁priorities	-11875
only	-11876
inton	-11877
▁pist	-11878
▁okay	-11879
▁spreads	-11880
▁guitar	-11881
▁lions	-11882
▁profiles	-11883
▁investing	-11884
cost	-11885
star	-11886
athic	-11887
▁hect	-11888
▁chewing	-11889
lay	-11890
▁adhes	-11891
▁plague	-11892
▁hunter	-11893
tar	-11894
▁bid	-11895
▁renow	-11896
▁shouldnt	-11897
icity	-11898
erian	-11899
▁hallow	-11900
▁christopher	-11901
2-	-11902
sim	-11903
brush	-11904
▁poses	-11905
▁aboard	-11906
acher	-11907
▁limestone	-11908
▁threshold	-11909
▁sewage	-11910
▁suppose	-11911
▁depicted	-11912
▁toronto	-11913
▁episodes	-11914
▁approaching	-11915
▁presum	-11916
fed	-11917
▁blindness	-11918
▁awards	-11919
▁respective	-11920
▁(9	-11921
bot	-11922
▁dick	-11923
▁arche	-11924
▁microwave	-11925
▁washed	-11926
▁counterparts	-11927
▁wi	-11928
▁bos	-11929
▁stead	-11930
onn	-11931
▁offshore	-11932
▁deem	-11933
▁chapel	-11934
▁neuroscience	-11935
▁interfere	-11936
▁nobody	-11937
aret	-11938
▁irritation	-11939
▁gor	-11940
onent	-11941
▁measles	-11942
▁eman	-11943
▁antim	-11944
▁affili	-11945
▁wright	-11946
▁walks	-11947
erick	-11948
▁brut	-11949
▁denmark	-11950
▁android	-11951
▁ced	-11952
bling	-11953
ezing	-11954
▁hopkins	-11955
▁sisters	-11956
▁succeeded	-11957
▁iceland	-11958
▁seniors	-11959
unting	-11960
▁modes	-11961
▁behalf	-11962
▁propos	-11963
▁verify	-11964
▁governance	-11965
▁wondering	-11966
▁cortex	-11967
▁listing	-11968
sels	-11969
▁architects	-11970
▁intu	-11971
▁2005,	-11972
▁systemic	-11973
▁illustrates	-11974
▁allen	-11975
▁expense	-11976
▁hunters	-11977
▁theater	-11978
uke	-11979
mass	-11980
▁toxicity	-11981
▁citys	-11982
▁assumption	-11983
.-	-11984
▁stays	-11985
▁rounded	-11986
rosis	-11987
inging	-11988
▁2006,	-11989
▁semicon	-11990
▁cartilage	-11991
▁textbooks	-11992
▁miscon	-11993
▁ale	-11994
▁cone	-11995
▁sinus	-11996
▁extensively	-11997
▁cooper	-11998
▁jurisd	-11999
▁stocks	-12000
▁scler	-12001
uese	-12002
▁pepper	-12003
▁remembered	-12004
▁ads	-12005
▁schiz	-12006
▁mutual	-12007
▁harmony	-12008
▁terrible	-12009
▁caregivers	-12010
▁semiconduct	-12011
▁continually	-12012
▁cf	-12013
▁unity	-12014
ctory	-12015
▁2017.	-12016
▁eliminated	-12017
det	-12018
▁spons	-12019
▁evolve	-12020
cam	-12021
iley	-12022
▁perse	-12023
▁excite	-12024
▁propulsion	-12025
▁abnormalities	-12026
7%	-12027
▁junior	-12028
▁telescopes	-12029
▁gauge	-12030
▁hydraulic	-12031
▁owl	-12032
▁powerpoint	-12033
▁compensation	-12034
▁pyramid	-12035
▁controversy	-12036
▁induced	-12037
▁mitigation	-12038
▁races	-12039
▁citrus	-12040
wich	-12041
▁congest	-12042
▁genuine	-12043
▁beetle	-12044
▁pruning	-12045
▁boun	-12046
▁confined	-12047
▁comprises	-12048
▁uncomfortable	-12049
▁hispanic	-12050
▁alignment	-12051
▁torah	-12052
▁volcanoes	-12053
="	-12054
▁ruling	-12055
▁tide	-12056
▁cultivation	-12057
▁dancing	-12058
▁consensus	-12059
omer	-12060
▁biologists	-12061
▁gad	-12062
black	-12063
▁seals	-12064
pic	-12065
▁175	-12066
▁promoted	-12067
via	-12068
▁dupl	-12069
▁seedlings	-12070
good	-12071
cycle	-12072
▁microscopic	-12073
onyms	-12074
▁nicotine	-12075
▁rent	-12076
lit	-12077
▁ross	-12078
amation	-12079
ollen	-12080
▁athe	-12081
timore	-12082
▁ail	-12083
▁efficacy	-12084
▁therapist	-12085
▁administrators	-12086
vance	-12087
▁peru	-12088
▁limb	-12089
▁investigators	-12090
igo	-12091
cancer	-12092
▁subm	-12093
itting	-12094
▁surveyed	-12095
▁reconstruct	-12096
hl	-12097
anus	-12098
▁simon	-12099
▁crystall	-12100
▁peaceful	-12101
▁commercially	-12102
tem	-12103
▁marijuana	-12104
▁retention	-12105
onald	-12106
▁succ	-12107
▁voters	-12108
▁singular	-12109
▁warnings	-12110
▁welding	-12111
hn	-12112
formed	-12113
▁separately	-12114
▁immers	-12115
▁wip	-12116
▁junk	-12117
▁reflecting	-12118
▁invite	-12119
nutrition	-12120
ilingual	-12121
▁cycling	-12122
▁ruler	-12123
▁benjamin	-12124
▁advertise	-12125
▁dysfunction	-12126
cup	-12127
▁overt	-12128
lib	-12129
▁cleaned	-12130
▁corrosion	-12131
▁entities	-12132
▁producer	-12133
▁receptor	-12134
berts	-12135
mc	-12136
▁catar	-12137
▁restaurant	-12138
▁coping	-12139
▁banking	-12140
▁farther	-12141
▁responded	-12142
hill	-12143
▁curt	-12144
▁entrepreneurs	-12145
▁repos	-12146
children	-12147
▁ibm	-12148
▁tes	-12149
▁vein	-12150
rophys	-12151
▁exclusive	-12152
▁5,000	-12153
esome	-12154
▁lips	-12155
▁preference	-12156
▁boot	-12157
▁kong	-12158
▁strictly	-12159
prot	-12160
rophy	-12161
▁killer	-12162
ho	-12163
▁contrad	-12164
▁critics	-12165
▁partnerships	-12166
▁formerly	-12167
▁introductory	-12168
▁deforestation	-12169
▁nam	-12170
▁linguistic	-12171
▁couples	-12172
▁cracks	-12173
oriented	-12174
▁tuberculosis	-12175
aho	-12176
▁strips	-12177
gression	-12178
▁discovering	-12179
▁constitu	-12180
▁folder	-12181
▁buzz	-12182
▁nelson	-12183
▁chromosome	-12184
▁permanently	-12185
▁accessibility	-12186
▁2017,	-12187
rage	-12188
2:	-12189
onut	-12190
▁prejud	-12191
▁altogether	-12192
axis	-12193
▁swiss	-12194
rt	-12195
▁hart	-12196
▁consort	-12197
▁charging	-12198
dist	-12199
▁coordinates	-12200
▁needles	-12201
ivation	-12202
▁harry	-12203
▁mayor	-12204
▁lem	-12205
▁rebell	-12206
▁annot	-12207
▁appropriately	-12208
▁manure	-12209
▁jordan	-12210
▁remedies	-12211
▁federation	-12212
▁eg	-12213
▁bubble	-12214
▁mating	-12215
▁visitor	-12216
▁parental	-12217
▁shoulders	-12218
▁hurricanes	-12219
▁coordinator	-12220
wid	-12221
lades	-12222
▁avenue	-12223
▁asset	-12224
▁rigid	-12225
▁timely	-12226
building	-12227
▁insist	-12228
▁modest	-12229
▁cables	-12230
▁accommodate	-12231
arks	-12232
▁sid	-12233
▁detecting	-12234
pi	-12235
code	-12236
vens	-12237
general	-12238
▁failing	-12239
▁defeat	-12240
▁retina	-12241
▁flip	-12242
▁soup	-12243
▁aligned	-12244
▁malays	-12245
ifiers	-12246
▁painter	-12247
▁appearing	-12248
69	-12249
▁nect	-12250
▁compressed	-12251
▁sd	-12252
▁ambit	-12253
▁medal	-12254
▁novels	-12255
▁rectang	-12256
----	-12257
▁utilities	-12258
▁actors	-12259
▁2007.	-12260
▁halloween	-12261
cod	-12262
zi	-12263
▁curs	-12264
▁rains	-12265
▁rainbow	-12266
▁adaptive	-12267
▁concludes	-12268
▁bloss	-12269
▁steve	-12270
▁supportive	-12271
▁fog	-12272
uncture	-12273
▁emitted	-12274
▁interference	-12275
▁uterus	-12276
▁fulfill	-12277
imity	-12278
▁adobe	-12279
▁epilepsy	-12280
▁hans	-12281
▁commander	-12282
uters	-12283
▁knock	-12284
especially	-12285
▁flux	-12286
▁dated	-12287
▁sunny	-12288
▁winner	-12289
bin	-12290
anal	-12291
▁crude	-12292
▁darker	-12293
▁packages	-12294
onics	-12295
▁batt	-12296
▁fled	-12297
▁orang	-12298
▁dw	-12299
▁resemble	-12300
▁dive	-12301
▁float	-12302
antine	-12303
▁backyard	-12304
▁valves	-12305
bas	-12306
keeping	-12307
cdc	-12308
oked	-12309
▁bean	-12310
▁interpreted	-12311
▁compelling	-12312
▁monkeys	-12313
▁lac	-12314
▁emphasize	-12315
inence	-12316
▁coconut	-12317
▁celebrations	-12318
▁passages	-12319
kit	-12320
▁priorit	-12321
▁baltimore	-12322
▁permitted	-12323
▁economically	-12324
▁mum	-12325
▁rim	-12326
▁scand	-12327
▁marble	-12328
▁anxious	-12329
▁maritime	-12330
phys	-12331
▁histories	-12332
▁descendants	-12333
▁bamboo	-12334
▁bubbles	-12335
▁daughters	-12336
speed	-12337
▁safeguard	-12338
▁tires	-12339
▁contagious	-12340
▁membranes	-12341
▁ja	-12342
ibrium	-12343
▁considers	-12344
▁humanitarian	-12345
▁detector	-12346
▁eighth	-12347
▁pedagog	-12348
▁alexand	-12349
▁buttons	-12350
▁lifting	-12351
▁afghanistan	-12352
▁inland	-12353
▁matches	-12354
▁autoimmune	-12355
▁seats	-12356
▁withstand	-12357
path	-12358
▁publicly	-12359
▁mitochond	-12360
▁query	-12361
▁mening	-12362
▁49	-12363
angel	-12364
▁factories	-12365
▁ceo	-12366
▁bart	-12367
▁meats	-12368
esthesia	-12369
▁mills	-12370
▁ties	-12371
▁variants	-12372
▁tours	-12373
▁parish	-12374
riptions	-12375
▁administrator	-12376
bled	-12377
▁heights	-12378
▁landfill	-12379
▁reptiles	-12380
▁engineered	-12381
▁acceleration	-12382
▁insufficient	-12383
▁hitler	-12384
▁neighborhoods	-12385
▁seattle	-12386
▁conform	-12387
▁fost	-12388
than	-12389
▁dependence	-12390
▁fas	-12391
▁jama	-12392
▁occasional	-12393
▁kits	-12394
▁howard	-12395
▁overhead	-12396
▁ambitious	-12397
▁tent	-12398
▁joe	-12399
othermal	-12400
▁gardeners	-12401
▁momentum	-12402
▁monetary	-12403
▁banglades	-12404
ccoli	-12405
▁cray	-12406
▁wiring	-12407
▁setup	-12408
▁biologist	-12409
▁crossed	-12410
▁0.5	-12411
▁dams	-12412
fo	-12413
ni	-12414
▁vibr	-12415
▁retired	-12416
▁uncovered	-12417
gram	-12418
▁stur	-12419
▁decent	-12420
▁lifelong	-12421
/200	-12422
▁abbre	-12423
▁hardy	-12424
▁outlook	-12425
▁theyll	-12426
▁decimal	-12427
▁temples	-12428
gro	-12429
▁metap	-12430
uct	-12431
▁ought	-12432
▁spont	-12433
▁tender	-12434
▁$5	-12435
▁dh	-12436
izational	-12437
▁blockchain	-12438
▁asleep	-12439
▁graphe	-12440
▁lasted	-12441
var	-12442
▁hib	-12443
▁sprink	-12444
▁encryption	-12445
▁recognised	-12446
▁arbit	-12447
▁saints	-12448
▁corporations	-12449
van	-12450
▁dens	-12451
▁parasite	-12452
▁necessity	-12453
zech	-12454
▁suspended	-12455
▁mitigate	-12456
▁cardboard	-12457
▁philip	-12458
icultural	-12459
▁constraints	-12460
▁maintains	-12461
verb	-12462
▁cruel	-12463
▁anderson	-12464
▁buffalo	-12465
usts	-12466
▁toothp	-12467
▁backgrounds	-12468
▁sorry	-12469
▁renowned	-12470
.(	-12471
▁guardian	-12472
1-	-12473
▁somehow	-12474
▁coli	-12475
▁swift	-12476
▁marrow	-12477
▁hut	-12478
▁sag	-12479
hoe	-12480
▁friendship	-12481
▁stressful	-12482
▁snap	-12483
▁ure	-12484
▁disput	-12485
▁primitive	-12486
fting	-12487
▁releasing	-12488
▁cuc	-12489
▁mesh	-12490
▁outlined	-12491
driven	-12492
▁maker	-12493
▁intens	-12494
▁revel	-12495
▁differential	-12496
▁proc	-12497
▁portuguese	-12498
▁54	-12499
overs	-12500
▁boiling	-12501
▁afterwards	-12502
▁rope	-12503
▁translations	-12504
▁iod	-12505
caus	-12506
▁synchron	-12507
cro	-12508
eze	-12509
▁newer	-12510
▁remn	-12511
▁struggles	-12512
▁germans	-12513
▁informative	-12514
▁adjusted	-12515
isk	-12516
▁aus	-12517
▁walked	-12518
▁18.	-12519
ucn	-12520
ophren	-12521
▁dwell	-12522
▁investigator	-12523
▁lamb	-12524
▁legislature	-12525
▁4)	-12526
▁clarity	-12527
▁persian	-12528
▁estrogen	-12529
order	-12530
secut	-12531
▁montana	-12532
pit	-12533
▁opio	-12534
▁filed	-12535
▁biomed	-12536
▁galile	-12537
▁rio	-12538
▁gamma	-12539
▁enemies	-12540
▁competing	-12541
induced	-12542
▁ltd	-12543
▁asym	-12544
▁buffer	-12545
▁cornell	-12546
▁commentary	-12547
▁shep	-12548
▁broccoli	-12549
▁excellence	-12550
iler	-12551
▁carrots	-12552
▁ceiling	-12553
ylene	-12554
▁strongest	-12555
▁membership	-12556
▁2000,	-12557
▁plots	-12558
▁syntax	-12559
▁bicycle	-12560
?)	-12561
▁nebr	-12562
▁allies	-12563
▁empir	-12564
▁muscular	-12565
▁31,	-12566
▁2020.	-12567
▁intric	-12568
▁anthropology	-12569
▁110	-12570
▁maximize	-12571
▁consolid	-12572
plants	-12573
▁stunning	-12574
bons	-12575
uns	-12576
▁permits	-12577
find	-12578
▁brig	-12579
▁evapor	-12580
▁michel	-12581
▁austria	-12582
▁smithsonian	-12583
bey	-12584
▁seismic	-12585
▁perceive	-12586
▁greenland	-12587
▁humid	-12588
▁valued	-12589
▁apa	-12590
▁pars	-12591
▁arduino	-12592
oved	-12593
grass	-12594
▁forcing	-12595
dd	-12596
▁dough	-12597
▁einstein	-12598
▁dentistry	-12599
▁pam	-12600
▁monitors	-12601
63	-12602
fund	-12603
mind	-12604
▁elaborate	-12605
▁swollen	-12606
▁forens	-12607
▁disappeared	-12608
hell	-12609
▁pearl	-12610
▁vegg	-12611
▁ankle	-12612
▁traps	-12613
ois	-12614
▁pries	-12615
▁remedy	-12616
cf	-12617
weg	-12618
▁hoped	-12619
▁mall	-12620
▁preview	-12621
▁admit	-12622
▁rated	-12623
.]	-12624
leans	-12625
▁fier	-12626
▁deployed	-12627
ococ	-12628
▁flights	-12629
▁contracts	-12630
▁(15	-12631
depend	-12632
rying	-12633
6).	-12634
years	-12635
▁glauc	-12636
▁drople	-12637
6%	-12638
▁submar	-12639
▁gues	-12640
▁182	-12641
▁cake	-12642
▁botanical	-12643
▁rebuild	-12644
▁advise	-12645
▁nationally	-12646
bat	-12647
osity	-12648
▁graphene	-12649
▁citations	-12650
▁eb	-12651
enna	-12652
imet	-12653
science	-12654
▁expose	-12655
▁attribution	-12656
▁deck	-12657
▁lane	-12658
▁satisfaction	-12659
review	-12660
▁monkey	-12661
akh	-12662
fiction	-12663
▁mike	-12664
▁orthodox	-12665
▁decorative	-12666
▁logging	-12667
▁stresses	-12668
▁scarce	-12669
▁organizational	-12670
▁nepal	-12671
▁slip	-12672
▁integer	-12673
▁holistic	-12674
▁repetitive	-12675
▁shortage	-12676
▁shrim	-12677
▁starch	-12678
▁hiding	-12679
▁incentives	-12680
htm	-12681
▁descent	-12682
▁graders	-12683
▁upt	-12684
▁magnific	-12685
▁vene	-12686
▁packet	-12687
▁schizophren	-12688
▁gur	-12689
▁nag	-12690
eman	-12691
▁piv	-12692
▁subtract	-12693
▁keen	-12694
▁newton	-12695
▁demonstrating	-12696
▁hered	-12697
▁discrimin	-12698
▁epit	-12699
thirds	-12700
▁sanctuary	-12701
▁landed	-12702
headed	-12703
▁babys	-12704
▁loves	-12705
▁sticky	-12706
▁20-	-12707
▁echo	-12708
▁skeleton	-12709
▁assembled	-12710
1),	-12711
2),	-12712
ithm	-12713
▁neighboring	-12714
▁wouldn	-12715
▁intoler	-12716
bound	-12717
ogene	-12718
▁menop	-12719
▁stayed	-12720
birth	-12721
▁rhet	-12722
auth	-12723
▁ranks	-12724
▁monastery	-12725
oglob	-12726
▁donated	-12727
▁fertile	-12728
▁premium	-12729
▁manuscript	-12730
gue	-12731
▁greeks	-12732
▁jung	-12733
▁gloves	-12734
▁playground	-12735
700	-12736
ilty	-12737
veland	-12738
▁marshall	-12739
▁accordance	-12740
hend	-12741
▁internationally	-12742
kyo	-12743
▁cereal	-12744
9).	-12745
ican	-12746
▁caes	-12747
▁buddha	-12748
▁alan	-12749
▁nano	-12750
ocation	-12751
▁settlements	-12752
etheless	-12753
▁malware	-12754
alph	-12755
fram	-12756
▁drow	-12757
▁knife	-12758
maker	-12759
▁congen	-12760
▁embrace	-12761
▁rejected	-12762
aceae	-12763
▁organizing	-12764
reas	-12765
▁mankind	-12766
▁activists	-12767
ports	-12768
▁correction	-12769
▁xml	-12770
boards	-12771
▁jumping	-12772
▁blocking	-12773
▁mandatory	-12774
▁suggestion	-12775
▁acupuncture	-12776
▁wrist	-12777
▁monoxide	-12778
▁homeschool	-12779
▁relaxation	-12780
cho	-12781
▁suns	-12782
▁favourite	-12783
▁tune	-12784
▁allied	-12785
▁interconn	-12786
▁accompanying	-12787
▁divor	-12788
▁assuming	-12789
▁phoen	-12790
electric	-12791
▁decorated	-12792
▁desirable	-12793
mn	-12794
▁yale	-12795
▁helic	-12796
▁woodland	-12797
▁pathogen	-12798
▁prehistoric	-12799
▁scholarship	-12800
itol	-12801
==	-12802
▁bry	-12803
▁sage	-12804
▁vest	-12805
▁monster	-12806
▁hood	-12807
▁belly	-12808
▁ovarian	-12809
▁modifications	-12810
rians	-12811
▁injected	-12812
▁constellation	-12813
▁trout	-12814
▁jazz	-12815
▁retreat	-12816
▁prosperity	-12817
▁nonetheless	-12818
iotics	-12819
public	-12820
▁agreements	-12821
▁cherry	-12822
enues	-12823
▁converting	-12824
▁moore	-12825
▁alberta	-12826
▁uranium	-12827
astically	-12828
▁consisted	-12829
▁wand	-12830
▁simpler	-12831
▁weights	-12832
▁definitive	-12833
▁terminology	-12834
▁glory	-12835
▁amy	-12836
▁legally	-12837
▁yards	-12838
▁laying	-12839
▁extr	-12840
▁flick	-12841
▁screw	-12842
▁heavier	-12843
▁contacts	-12844
▁adjective	-12845
▁supervision	-12846
▁corners	-12847
▁seafood	-12848
▁civic	-12849
▁ruins	-12850
▁reflex	-12851
▁schemes	-12852
▁nonprofit	-12853
▁30-	-12854
▁fern	-12855
▁57	-12856
▁fake	-12857
english	-12858
▁genesis	-12859
▁inverte	-12860
▁blades	-12861
▁sickness	-12862
houses	-12863
cult	-12864
▁fount	-12865
▁ceramic	-12866
▁jewelry	-12867
▁rainforest	-12868
limited	-12869
▁puerto	-12870
▁16.	-12871
species	-12872
▁nectar	-12873
▁illum	-12874
▁rheumat	-12875
chel	-12876
▁1994	-12877
▁interestingly	-12878
▁170	-12879
▁reductions	-12880
▁dors	-12881
▁enjoying	-12882
▁mythology	-12883
ivia	-12884
▁bould	-12885
▁depths	-12886
▁dissert	-12887
▁southeastern	-12888
??	-12889
▁bitcoin	-12890
▁abc	-12891
▁modification	-12892
engine	-12893
▁winters	-12894
▁pleasant	-12895
approx	-12896
▁greet	-12897
▁upward	-12898
▁pancreat	-12899
gence	-12900
▁noting	-12901
dem	-12902
▁(0	-12903
▁usb	-12904
wealth	-12905
▁fifteen	-12906
▁coach	-12907
▁mites	-12908
▁ideally	-12909
▁illumin	-12910
▁chambers	-12911
▁chlorine	-12912
▁resilient	-12913
▁fees	-12914
ql	-12915
▁genre	-12916
▁distribute	-12917
▁judges	-12918
▁alm	-12919
▁heroes	-12920
▁geometric	-12921
▁incub	-12922
▁promised	-12923
▁perceptions	-12924
infect	-12925
▁suffere	-12926
▁digging	-12927
▁communist	-12928
▁shifting	-12929
▁occasions	-12930
▁provisions	-12931
usually	-12932
▁orbital	-12933
▁sooner	-12934
▁loading	-12935
▁expectancy	-12936
50,	-12937
▁frederick	-12938
bab	-12939
▁guests	-12940
▁tragic	-12941
▁targeting	-12942
▁preventable	-12943
pc	-12944
▁educating	-12945
▁peat	-12946
▁augment	-12947
▁chand	-12948
▁profits	-12949
▁technically	-12950
▁specifications	-12951
▁bog	-12952
▁constipation	-12953
▁flee	-12954
▁ware	-12955
mot	-12956
imination	-12957
▁kr	-12958
▁eager	-12959
▁brian	-12960
▁fired	-12961
flu	-12962
▁herd	-12963
charge	-12964
people	-12965
▁fitted	-12966
▁pumpkin	-12967
▁proximity	-12968
father	-12969
▁concert	-12970
▁metaphor	-12971
▁obtaining	-12972
▁parameter	-12973
▁petition	-12974
▁casc	-12975
▁deposit	-12976
▁trusted	-12977
▁graduates	-12978
▁accelerate	-12979
conf	-12980
▁lup	-12981
▁eleg	-12982
▁disse	-12983
▁fork	-12984
▁exterior	-12985
▁improper	-12986
▁wondered	-12987
▁photosynthesis	-12988
▁heel	-12989
▁lett	-12990
▁terr	-12991
▁relevance	-12992
▁reflective	-12993
▁musicians	-12994
▁rabbit	-12995
▁coordinated	-12996
▁equilibrium	-12997
▁visualization	-12998
eur	-12999
▁nebraska	-13000
10,	-13001
▁vivid	-13002
▁deemed	-13003
▁fright	-13004
▁poisonous	-13005
ospace	-13006
▁rigorous	-13007
▁deposited	-13008
▁menstrual	-13009
ardo	-13010
▁vas	-13011
▁generic	-13012
▁orbiting	-13013
▁syria	-13014
dt	-13015
▁stub	-13016
▁iconic	-13017
▁orleans	-13018
▁wounded	-13019
▁witnessed	-13020
space	-13021
▁equals	-13022
ico	-13023
▁curved	-13024
▁defence	-13025
▁endemic	-13026
phy	-13027
obia	-13028
market	-13029
▁knees	-13030
▁unions	-13031
▁wonders	-13032
▁25%	-13033
▁chairman	-13034
▁mentally	-13035
strong	-13036
▁envelop	-13037
▁qualitative	-13038
lies	-13039
▁removes	-13040
ignant	-13041
▁20,000	-13042
▁leap	-13043
▁developer	-13044
▁rf	-13045
image	-13046
width	-13047
▁czech	-13048
▁salad	-13049
opia	-13050
▁thail	-13051
▁failures	-13052
▁alleviate	-13053
▁hamilton	-13054
▁mimic	-13055
▁41	-13056
reading	-13057
orb	-13058
▁manipulate	-13059
▁10:	-13060
acerb	-13061
▁holly	-13062
▁walter	-13063
▁waterways	-13064
vised	-13065
chemical	-13066
▁bmi	-13067
▁europeans	-13068
opt	-13069
▁traced	-13070
▁silence	-13071
onts	-13072
▁votes	-13073
▁inspiring	-13074
▁exert	-13075
▁portfol	-13076
rock	-13077
▁lifespan	-13078
▁promises	-13079
▁dome	-13080
▁58	-13081
▁geothermal	-13082
▁seab	-13083
▁learns	-13084
vic	-13085
▁durable	-13086
▁overnight	-13087
▁nd	-13088
▁scholarly	-13089
ovol	-13090
▁2006.	-13091
▁zh	-13092
▁hitting	-13093
▁melanoma	-13094
▁70%	-13095
bish	-13096
langu	-13097
▁fitting	-13098
▁deciding	-13099
amas	-13100
▁convinced	-13101
▁biomedical	-13102
▁amid	-13103
▁350	-13104
▁iso	-13105
▁differentiate	-13106
▁demographic	-13107
▁nour	-13108
▁tidal	-13109
omnia	-13110
▁exacerb	-13111
▁administer	-13112
▁neb	-13113
▁temporarily	-13114
▁basil	-13115
▁intersection	-13116
▁cc	-13117
▁apt	-13118
▁bangladesh	-13119
▁clause	-13120
▁prophe	-13121
▁elimination	-13122
▁simplest	-13123
▁headquarters	-13124
▁arkansas	-13125
▁loving	-13126
▁evolving	-13127
▁imperative	-13128
quest	-13129
▁potent	-13130
▁proposals	-13131
▁crab	-13132
▁shoe	-13133
▁delaware	-13134
▁tennis	-13135
▁dad	-13136
worthy	-13137
▁fauna	-13138
▁persec	-13139
▁rotating	-13140
▁overseas	-13141
▁centered	-13142
▁lil	-13143
▁antiv	-13144
▁psychologist	-13145
▁defeated	-13146
cards	-13147
▁crimin	-13148
▁kindness	-13149
▁throwing	-13150
▁weakened	-13151
▁gis	-13152
amous	-13153
▁recl	-13154
▁relat	-13155
▁constitute	-13156
▁nod	-13157
▁compromise	-13158
▁uncons	-13159
▁urge	-13160
▁diamonds	-13161
walk	-13162
▁tas	-13163
▁sut	-13164
▁enrolled	-13165
▁psychiatric	-13166
▁orph	-13167
▁spinach	-13168
▁2005.	-13169
▁regards	-13170
▁spirits	-13171
▁northwestern	-13172
east	-13173
▁hoo	-13174
▁iph	-13175
▁tul	-13176
cephal	-13177
▁requested	-13178
▁dear	-13179
introdu	-13180
▁tendon	-13181
▁princet	-13182
▁problematic	-13183
▁southwestern	-13184
3:	-13185
▁thom	-13186
▁fence	-13187
▁capsule	-13188
▁upright	-13189
ographies	-13190
▁airplane	-13191
▁bios	-13192
div	-13193
▁lyn	-13194
▁liked	-13195
▁posters	-13196
▁controller	-13197
watch	-13198
parents	-13199
process	-13200
▁talent	-13201
▁soybean	-13202
▁complementary	-13203
▁condu	-13204
coun	-13205
control	-13206
▁7:	-13207
points	-13208
▁astrophys	-13209
▁aggression	-13210
)?	-13211
▁shops	-13212
▁]	-13213
iary	-13214
entary	-13215
▁tokyo	-13216
▁births	-13217
▁queensland	-13218
▁slopes	-13219
aurus	-13220
▁workout	-13221
heart	-13222
▁72	-13223
▁digits	-13224
▁000	-13225
ometers	-13226
▁disadvantages	-13227
yr	-13228
index	-13229
▁basal	-13230
▁aesthetic	-13231
open	-13232
▁clever	-13233
think	-13234
▁schizophrenia	-13235
▁banana	-13236
▁transparency	-13237
▁respondents	-13238
annah	-13239
growing	-13240
▁handled	-13241
▁rodents	-13242
▁companys	-13243
▁airborne	-13244
▁formally	-13245
▁ns	-13246
▁dialog	-13247
cker	-13248
▁barely	-13249
▁detrim	-13250
▁attachment	-13251
▁travelling	-13252
eous	-13253
ulus	-13254
▁fame	-13255
ados	-13256
▁lengths	-13257
▁randomly	-13258
▁dividing	-13259
▁professors	-13260
▁moss	-13261
▁toddler	-13262
▁maple	-13263
▁venture	-13264
▁dug	-13265
▁trait	-13266
▁integrating	-13267
group	-13268
▁2030	-13269
system	-13270
▁brave	-13271
▁imped	-13272
▁sociology	-13273
▁temporal	-13274
▁(0.	-13275
▁unve	-13276
▁doctrine	-13277
▁attraction	-13278
▁kl	-13279
▁reass	-13280
▁continents	-13281
eb	-13282
phil	-13283
▁secrets	-13284
▁semester	-13285
mile	-13286
your	-13287
▁magazines	-13288
tym	-13289
▁tightly	-13290
yes	-13291
▁homeowners	-13292
▁gravel	-13293
▁retained	-13294
▁voyage	-13295
▁rabbits	-13296
▁representations	-13297
▁unint	-13298
▁tutorials	-13299
izable	-13300
▁valent	-13301
▁smartphones	-13302
▁aver	-13303
▁sixt	-13304
▁thailand	-13305
sol	-13306
▁luke	-13307
▁nets	-13308
▁nouns	-13309
▁drones	-13310
▁subjected	-13311
▁glossary	-13312
▁til	-13313
▁kan	-13314
▁clearing	-13315
▁princeton	-13316
▁chromosomes	-13317
umble	-13318
▁naked	-13319
▁yearly	-13320
▁dedu	-13321
▁formulas	-13322
0000	-13323
▁adhere	-13324
2/	-13325
▁dismiss	-13326
▁warfare	-13327
▁fertilizers	-13328
▁appendix	-13329
▁chickens	-13330
▁gover	-13331
▁aerospace	-13332
▁cleveland	-13333
fil	-13334
▁zoom	-13335
▁aeros	-13336
▁oven	-13337
▁shaping	-13338
▁divisions	-13339
▁backs	-13340
▁clinics	-13341
▁auditory	-13342
gets	-13343
▁60%	-13344
▁highlighting	-13345
▁housed	-13346
oper	-13347
▁serial	-13348
▁dignity	-13349
dose	-13350
usa	-13351
avail	-13352
▁resort	-13353
▁throne	-13354
▁latitude	-13355
▁lone	-13356
▁rasp	-13357
▁beng	-13358
▁overlooked	-13359
▁oceanic	-13360
▁migratory	-13361
▁syrup	-13362
organic	-13363
▁cabinet	-13364
▁rewards	-13365
▁broadly	-13366
ometric	-13367
▁chirop	-13368
aux	-13369
▁buddhism	-13370
▁recognise	-13371
▁straightforward	-13372
▁awesome	-13373
▁margaret	-13374
▁beads	-13375
▁bronch	-13376
▁punctu	-13377
▁corruption	-13378
▁exploitation	-13379
))	-13380
▁bipolar	-13381
▁compatible	-13382
4%	-13383
▁argentina	-13384
▁announcement	-13385
▁avoc	-13386
▁sulph	-13387
▁fundamentals	-13388
▁lank	-13389
▁leuke	-13390
93	-13391
▁couldn	-13392
▁slaugh	-13393
▁carbohydrate	-13394
iy	-13395
▁admission	-13396
▁displaced	-13397
although	-13398
▁pancreas	-13399
▁publishers	-13400
ths	-13401
shine	-13402
▁fishes	-13403
▁donation	-13404
▁onc	-13405
▁fres	-13406
▁ipad	-13407
voc	-13408
▁$3	-13409
▁compuls	-13410
etric	-13411
cond	-13412
▁accountability	-13413
▁etym	-13414
▁brands	-13415
inian	-13416
enc	-13417
▁amate	-13418
▁peters	-13419
gb	-13420
▁2020,	-13421
▁barbara	-13422
▁substrate	-13423
▁97	-13424
orse	-13425
▁celest	-13426
▁execute	-13427
▁orbits	-13428
▁humanities	-13429
▁differs	-13430
▁audiences	-13431
▁resonance	-13432
▁acoustic	-13433
▁oph	-13434
▁tiles	-13435
▁impress	-13436
▁lubric	-13437
▁finland	-13438
▁asteroids	-13439
▁excitement	-13440
▁commonwealth	-13441
▁clubs	-13442
▁ethnicity	-13443
▁followers	-13444
▁concise	-13445
vings	-13446
▁sans	-13447
prints	-13448
▁beth	-13449
▁canon	-13450
▁elbow	-13451
yers	-13452
▁ulcers	-13453
▁belgium	-13454
▁bunch	-13455
pox	-13456
othel	-13457
stones	-13458
▁typing	-13459
▁disappoint	-13460
▁pave	-13461
▁rituals	-13462
▁surgeons	-13463
roit	-13464
▁generators	-13465
▁buds	-13466
▁stigma	-13467
▁prevail	-13468
▁nails	-13469
▁coil	-13470
▁focal	-13471
▁routinely	-13472
doi	-13473
/4	-13474
start	-13475
▁kenn	-13476
▁scripture	-13477
▁une	-13478
▁upl	-13479
brown	-13480
▁austin	-13481
▁pf	-13482
▁saves	-13483
len	-13484
▁patron	-13485
▁accounted	-13486
▁esa	-13487
▁golf	-13488
▁consistency	-13489
rac	-13490
▁consortium	-13491
oct	-13492
dles	-13493
▁fid	-13494
▁unde	-13495
▁sudan	-13496
▁waist	-13497
colored	-13498
▁gord	-13499
▁cabin	-13500
▁endless	-13501
▁walker	-13502
▁vermont	-13503
▁frontier	-13504
▁instinct	-13505
aran	-13506
ogly	-13507
▁europ	-13508
▁mck	-13509
▁unh	-13510
▁testim	-13511
▁destroying	-13512
▁catching	-13513
▁bucket	-13514
irs	-13515
▁blogs	-13516
▁sediments	-13517
▁login	-13518
oop	-13519
▁chol	-13520
▁salmonella	-13521
5).	-13522
ctors	-13523
▁inevitable	-13524
▁brun	-13525
▁quoted	-13526
uels	-13527
▁ramp	-13528
▁revealing	-13529
▁provincial	-13530
report	-13531
▁assass	-13532
▁desper	-13533
▁nigeria	-13534
▁coughing	-13535
▁disturbance	-13536
▁emphasizes	-13537
▁$1.	-13538
▁scrub	-13539
▁colomb	-13540
▁prompted	-13541
hole	-13542
▁len	-13543
▁intriguing	-13544
▁rin	-13545
▁glaucoma	-13546
▁moz	-13547
insons	-13548
▁monte	-13549
▁surrend	-13550
▁spinning	-13551
-16	-13552
▁walnut	-13553
▁lime	-13554
course	-13555
▁teachings	-13556
▁collaborate	-13557
▁norms	-13558
solving	-13559
▁ornamental	-13560
▁acknowledged	-13561
▁12-	-13562
▁goth	-13563
▁radon	-13564
ige	-13565
▁instructors	-13566
fel	-13567
▁crazy	-13568
▁predator	-13569
▁routines	-13570
▁orn	-13571
▁cuba	-13572
▁spores	-13573
▁venom	-13574
▁mobil	-13575
▁degeneration	-13576
renal	-13577
▁donor	-13578
▁pork	-13579
version	-13580
▁gotten	-13581
▁uss	-13582
▁graves	-13583
▁herpes	-13584
▁millennium	-13585
▁brass	-13586
▁demanding	-13587
▁rupt	-13588
▁reply	-13589
▁biopsy	-13590
▁chloride	-13591
▁reflux	-13592
▁crus	-13593
▁harmless	-13594
uting	-13595
▁debates	-13596
-14	-13597
▁martian	-13598
▁shepher	-13599
▁genoc	-13600
▁nickel	-13601
▁inappropriate	-13602
olen	-13603
▁aspirin	-13604
▁insomnia	-13605
▁zika	-13606
olithic	-13607
▁tricks	-13608
▁athletic	-13609
▁paragraphs	-13610
adian	-13611
▁funny	-13612
▁pitts	-13613
nels	-13614
▁2018.	-13615
article	-13616
sd	-13617
▁chiropract	-13618
▁tart	-13619
▁metad	-13620
beat	-13621
▁yarn	-13622
▁appar	-13623
▁erected	-13624
▁northeastern	-13625
▁crashes	-13626
▁fasting	-13627
▁obsess	-13628
▁gand	-13629
▁beams	-13630
▁strive	-13631
▁guaranteed	-13632
rer	-13633
▁hairs	-13634
wer	-13635
▁posed	-13636
▁hosting	-13637
▁stewards	-13638
▁2003,	-13639
▁milit	-13640
▁spike	-13641
▁performs	-13642
bble	-13643
▁kiss	-13644
▁populated	-13645
root	-13646
▁vibrant	-13647
▁composting	-13648
▁repository	-13649
nr	-13650
▁tolerate	-13651
flo	-13652
table	-13653
▁vern	-13654
oscopy	-13655
▁lawyer	-13656
▁automobile	-13657
atl	-13658
▁shrimp	-13659
▁spite	-13660
▁suppliers	-13661
▁vend	-13662
▁fiscal	-13663
▁periodontal	-13664
▁sealed	-13665
▁theor	-13666
▁infinite	-13667
▁recession	-13668
▁denied	-13669
▁8:	-13670
▁deserv	-13671
▁storytelling	-13672
▁josh	-13673
▁compromised	-13674
wave	-13675
▁inventor	-13676
wear	-13677
▁oxidation	-13678
▁behaviours	-13679
ocytes	-13680
▁princip	-13681
generative	-13682
▁retirement	-13683
isite	-13684
▁canvas	-13685
▁instrumental	-13686
ovirus	-13687
▁pursuit	-13688
▁swing	-13689
▁antibody	-13690
▁predicting	-13691
▁opera	-13692
vy	-13693
7).	-13694
▁fluorescent	-13695
▁idi	-13696
▁cents	-13697
arity	-13698
▁corrid	-13699
▁relay	-13700
▁lowered	-13701
▁900	-13702
▁ling	-13703
▁alice	-13704
▁projections	-13705
▁spear	-13706
▁margins	-13707
▁convenience	-13708
ocar	-13709
▁prest	-13710
▁expressing	-13711
iliar	-13712
▁arsenic	-13713
▁cerebral	-13714
icus	-13715
language	-13716
ochemistry	-13717
▁congenital	-13718
▁raj	-13719
ioned	-13720
▁rolls	-13721
▁taiwan	-13722
▁thirst	-13723
▁beloved	-13724
▁explorers	-13725
▁possession	-13726
▁pts	-13727
▁numb	-13728
▁adventures	-13729
itches	-13730
▁soccer	-13731
▁exceptions	-13732
▁arrangements	-13733
▁quarters	-13734
▁magnificent	-13735
pine	-13736
▁jay	-13737
▁selective	-13738
▁cube	-13739
▁attendance	-13740
▁mla	-13741
pshire	-13742
controll	-13743
▁turkish	-13744
▁52	-13745
▁firmly	-13746
▁bou	-13747
▁delhi	-13748
▁wavelengths	-13749
▁lighth	-13750
▁geophys	-13751
▁accelerated	-13752
dec	-13753
▁evap	-13754
▁norweg	-13755
▁phill	-13756
▁gradual	-13757
▁prompts	-13758
▁mistaken	-13759
▁lex	-13760
▁____	-13761
bourne	-13762
▁gifted	-13763
▁pilots	-13764
▁counted	-13765
▁basketball	-13766
▁sacra	-13767
urities	-13768
▁2000.	-13769
▁neat	-13770
▁borne	-13771
▁phonics	-13772
▁sax	-13773
▁armen	-13774
▁fairy	-13775
▁collins	-13776
▁endurance	-13777
lower	-13778
▁shrink	-13779
▁tradem	-13780
▁blessed	-13781
▁reddish	-13782
online	-13783
▁ratios	-13784
ridge	-13785
62	-13786
▁dropping	-13787
ista	-13788
▁peppers	-13789
▁phyl	-13790
▁instantly	-13791
rats	-13792
▁colder	-13793
▁robinson	-13794
▁stimulating	-13795
▁lyme	-13796
▁peaks	-13797
▁vaginal	-13798
▁intersect	-13799
▁regulating	-13800
▁pins	-13801
▁baker	-13802
▁67	-13803
▁anglo	-13804
▁drone	-13805
▁salary	-13806
▁incomplete	-13807
▁idaho	-13808
▁accessing	-13809
▁segregation	-13810
joh	-13811
▁solids	-13812
▁universitys	-13813
▁emergencies	-13814
vey	-13815
▁spur	-13816
▁crest	-13817
▁helmet	-13818
▁mn	-13819
mount	-13820
▁touched	-13821
ew	-13822
▁rut	-13823
▁eyel	-13824
▁practically	-13825
▁2004,	-13826
▁aerobic	-13827
▁interacting	-13828
▁fellows	-13829
▁tricky	-13830
▁dentists	-13831
aro	-13832
▁2018,	-13833
▁orche	-13834
▁grinding	-13835
▁immigrant	-13836
▁temperate	-13837
▁displacement	-13838
▁4,000	-13839
▁rival	-13840
▁supern	-13841
▁adjustments	-13842
▁curves	-13843
aculture	-13844
aturated	-13845
▁atlanta	-13846
▁intim	-13847
irts	-13848
▁pupil	-13849
▁radicals	-13850
rod	-13851
▁alternatively	-13852
▁locked	-13853
iami	-13854
▁db	-13855
▁68	-13856
▁recruit	-13857
▁yor	-13858
▁mosaic	-13859
▁restoring	-13860
▁accumulate	-13861
▁persuasive	-13862
▁prohibited	-13863
▁shale	-13864
▁floors	-13865
▁partition	-13866
▁consultant	-13867
▁roberts	-13868
61	-13869
▁suite	-13870
▁rotate	-13871
▁assisted	-13872
▁hormonal	-13873
▁leukemia	-13874
▁sadly	-13875
▁vinegar	-13876
▁17.	-13877
▁coh	-13878
▁cues	-13879
master	-13880
▁secured	-13881
▁benign	-13882
▁metallic	-13883
▁supervis	-13884
▁wanting	-13885
phot	-13886
▁allah	-13887
▁werent	-13888
▁downloaded	-13889
▁enfor	-13890
▁deputy	-13891
▁portal	-13892
▁clo	-13893
▁fetal	-13894
▁forage	-13895
▁berg	-13896
▁cleans	-13897
▁reforms	-13898
▁menopause	-13899
▁delete	-13900
▁5%	-13901
▁beverage	-13902
▁carriers	-13903
ele	-13904
▁stretches	-13905
esthet	-13906
ithmetic	-13907
▁doubled	-13908
▁unsafe	-13909
pg	-13910
▁donate	-13911
▁methyl	-13912
agram	-13913
▁acet	-13914
▁anymore	-13915
▁nih	-13916
▁cage	-13917
▁propose	-13918
▁interfaces	-13919
lie	-13920
▁bathroom	-13921
▁modelling	-13922
uran	-13923
▁arrested	-13924
▁imprison	-13925
▁exports	-13926
▁respected	-13927
▁plateau	-13928
▁conception	-13929
filled	-13930
▁advancing	-13931
iothe	-13932
▁migrate	-13933
▁condem	-13934
▁collectively	-13935
udi	-13936
▁2.0	-13937
▁astronomer	-13938
▁flaw	-13939
▁spra	-13940
▁pumping	-13941
▁transcript	-13942
zema	-13943
▁sugary	-13944
▁anthony	-13945
▁ancestor	-13946
▁voted	-13947
▁employer	-13948
▁patience	-13949
▁disci	-13950
▁poets	-13951
▁withdrawal	-13952
const	-13953
▁sized	-13954
▁uncover	-13955
▁$100	-13956
▁enhances	-13957
▁beginners	-13958
/.	-13959
bearing	-13960
▁diving	-13961
▁exhibited	-13962
▁diary	-13963
▁risky	-13964
number	-13965
▁capturing	-13966
▁manipulation	-13967
dup	-13968
traction	-13969
▁detectors	-13970
▁recognizes	-13971
bian	-13972
paper	-13973
▁beij	-13974
▁pills	-13975
▁swine	-13976
▁genius	-13977
▁induce	-13978
▁morgan	-13979
8).	-13980
computer	-13981
▁$10	-13982
▁brightness	-13983
tha	-13984
▁null	-13985
▁signing	-13986
▁noticeable	-13987
▁cannabis	-13988
▁athens	-13989
▁embryo	-13990
▁ginger	-13991
▁climatic	-13992
▁schooling	-13993
data	-13994
▁aston	-13995
▁wishes	-13996
▁hemorrh	-13997
▁ignor	-13998
▁hectares	-13999
▁trafficking	-14000
▁rif	-14001
▁dull	-14002
▁flew	-14003
ovolta	-14004
▁pall	-14005
▁calculating	-14006
▁personalized	-14007
owl	-14008
▁20.	-14009
▁kernel	-14010
▁upgrad	-14011
▁genital	-14012
▁mainland	-14013
▁predominantly	-14014
estab	-14015
▁soluble	-14016
▁typh	-14017
ancies	-14018
▁shame	-14019
▁converts	-14020
isol	-14021
▁ounces	-14022
▁biotechnology	-14023
▁loses	-14024
rand	-14025
direct	-14026
ricular	-14027
▁roast	-14028
▁disruption	-14029
/20	-14030
73	-14031
both	-14032
forming	-14033
ifiable	-14034
▁fortune	-14035
din	-14036
▁hackers	-14037
▁squash	-14038
▁enlarge	-14039
▁enlarged	-14040
▁remembering	-14041
▁aden	-14042
▁bacterium	-14043
▁multimedia	-14044
▁//	-14045
tent	-14046
rise	-14047
▁chinas	-14048
▁hammer	-14049
▁juda	-14050
▁realm	-14051
▁receiver	-14052
▁collisions	-14053
▁badly	-14054
▁router	-14055
▁mould	-14056
▁embarr	-14057
▁cartoon	-14058
▁cole	-14059
▁lamps	-14060
▁sunshine	-14061
▁ranked	-14062
▁declines	-14063
▁ethiopia	-14064
▁fireworks	-14065
ui	-14066
▁skies	-14067
▁cassini	-14068
▁societal	-14069
▁psychologists	-14070
dc	-14071
▁delays	-14072
▁fracking	-14073
tit	-14074
ensions	-14075
▁automotive	-14076
oxy	-14077
▁kra	-14078
▁extrem	-14079
▁siblings	-14080
▁philosopher	-14081
elsh	-14082
▁exempl	-14083
▁distracted	-14084
oz	-14085
▁iq	-14086
▁refugee	-14087
▁activation	-14088
▁automation	-14089
▁electrodes	-14090
▁valleys	-14091
▁underway	-14092
▁refrigerator	-14093
▁trium	-14094
▁ammonia	-14095
▁dum	-14096
▁1500	-14097
ropical	-14098
▁gambling	-14099
value	-14100
▁undergoing	-14101
89	-14102
mg	-14103
▁fragr	-14104
▁scary	-14105
▁anchor	-14106
▁rebellion	-14107
▁plantation	-14108
▁translates	-14109
▁catastrophic	-14110
ante	-14111
▁anesthesia	-14112
ben	-14113
▁alarming	-14114
▁mend	-14115
▁rabies	-14116
▁stimulus	-14117
▁malnutrition	-14118
▁kb	-14119
▁honour	-14120
▁eats	-14121
lee	-14122
▁senator	-14123
▁rolled	-14124
▁athlete	-14125
▁mysteries	-14126
▁congo	-14127
▁leafy	-14128
▁optional	-14129
▁regiment	-14130
▁reed	-14131
▁comply	-14132
▁territorial	-14133
retion	-14134
▁warmth	-14135
iph	-14136
▁11:	-14137
▁cocoa	-14138
▁guilty	-14139
▁arithmetic	-14140
▁kath	-14141
▁resembles	-14142
▁emails	-14143
▁satisfy	-14144
▁threads	-14145
▁wrapped	-14146
▁hydrolog	-14147
▁answering	-14148
▁physicist	-14149
▁legitimate	-14150
▁epidemiology	-14151
gging	-14152
▁anna	-14153
▁embarrass	-14154
ophil	-14155
▁gateway	-14156
lav	-14157
▁euro	-14158
▁scrat	-14159
▁reactors	-14160
▁credited	-14161
▁nicholas	-14162
▁buil	-14163
▁eczema	-14164
▁participant	-14165
cir	-14166
▁inaug	-14167
▁lightweight	-14168
story	-14169
▁iucn	-14170
doctor	-14171
▁bodily	-14172
▁arises	-14173
vest	-14174
▁imposed	-14175
▁nanoparticles	-14176
▁malaysia	-14177
hammad	-14178
▁ruth	-14179
▁sake	-14180
▁syllab	-14181
has	-14182
▁crick	-14183
▁portland	-14184
▁processors	-14185
bee	-14186
▁mucus	-14187
si	-14188
wick	-14189
▁lovely	-14190
▁dod	-14191
▁canopy	-14192
▁downward	-14193
-11	-14194
▁physicists	-14195
▁logs	-14196
figure	-14197
▁twins	-14198
▁danish	-14199
▁viewers	-14200
▁transaction	-14201
▁preparedness	-14202
▁hudson	-14203
▁downstream	-14204
▁harassment	-14205
▁comparisons	-14206
leading	-14207
▁tornado	-14208
▁governing	-14209
▁demol	-14210
▁goats	-14211
▁disturbed	-14212
▁retro	-14213
▁bypass	-14214
▁carniv	-14215
▁observer	-14216
/1	-14217
etics	-14218
▁recordings	-14219
▁enjoyable	-14220
kill	-14221
aders	-14222
▁alban	-14223
▁aloud	-14224
nom	-14225
selling	-14226
▁congressional	-14227
▁festivals	-14228
icrob	-14229
corn	-14230
▁yang	-14231
▁youngest	-14232
▁usgs	-14233
▁resin	-14234
▁miami	-14235
▁wore	-14236
▁somebody	-14237
▁vegetarian	-14238
del	-14239
izziness	-14240
▁bruce	-14241
▁ducks	-14242
▁humming	-14243
▁itching	-14244
▁subtraction	-14245
beth	-14246
erting	-14247
▁unple	-14248
▁roofs	-14249
▁sores	-14250
▁manuscripts	-14251
▁3.5	-14252
▁kur	-14253
▁entert	-14254
▁connectivity	-14255
▁dispute	-14256
▁misunder	-14257
▁cognition	-14258
▁disinfect	-14259
▁escaped	-14260
▁psychiatry	-14261
hav	-14262
▁2004.	-14263
▁curator	-14264
▁photovolta	-14265
▁specification	-14266
▁ply	-14267
▁tran	-14268
▁tactics	-14269
▁notebook	-14270
▁steadily	-14271
▁onions	-14272
▁balancing	-14273
▁eruptions	-14274
▁coy	-14275
▁stripes	-14276
▁photographer	-14277
▁pluto	-14278
▁lettuce	-14279
▁mushrooms	-14280
▁contributor	-14281
▁jonathan	-14282
▁sunset	-14283
▁evergreen	-14284
▁intrins	-14285
▁php	-14286
▁garn	-14287
▁whist	-14288
▁clocks	-14289
▁eleven	-14290
▁pend	-14291
▁grate	-14292
▁coloured	-14293
had	-14294
▁gaming	-14295
▁positioned	-14296
▁photographic	-14297
usable	-14298
▁secular	-14299
▁feasible	-14300
▁wildfires	-14301
▁sr	-14302
▁unstable	-14303
▁manages	-14304
cca	-14305
▁meta	-14306
▁grief	-14307
▁prescribe	-14308
roads	-14309
▁peel	-14310
lessness	-14311
▁responds	-14312
▁norwegian	-14313
▁emotionally	-14314
otte	-14315
▁resolved	-14316
deg	-14317
▁candle	-14318
▁infert	-14319
84	-14320
osexual	-14321
▁adopting	-14322
▁bp	-14323
orect	-14324
▁corals	-14325
▁domains	-14326
▁shades	-14327
2.5	-14328
▁propri	-14329
▁threaten	-14330
▁scor	-14331
▁shaft	-14332
▁textile	-14333
▁parkinsons	-14334
ipt	-14335
▁pockets	-14336
^2	-14337
anna	-14338
half	-14339
▁nad	-14340
▁referen	-14341
▁proportions	-14342
▁juan	-14343
▁1,500	-14344
▁hasnt	-14345
▁dizziness	-14346
▁authorized	-14347
▁podcast	-14348
▁deposition	-14349
ea	-14350
consum	-14351
▁salts	-14352
alis	-14353
▁pathology	-14354
▁spo	-14355
erk	-14356
▁ordin	-14357
▁cookie	-14358
▁presid	-14359
▁matched	-14360
▁swallow	-14361
ripp	-14362
▁underm	-14363
▁deserve	-14364
▁backup	-14365
▁coch	-14366
▁pays	-14367
▁migraine	-14368
▁printers	-14369
▁beijing	-14370
▁reminds	-14371
▁mosc	-14372
▁harris	-14373
▁cpu	-14374
omics	-14375
▁simulate	-14376
▁therapists	-14377
▁pollinators	-14378
▁shing	-14379
journal	-14380
▁sauce	-14381
▁determin	-14382
▁township	-14383
neg	-14384
▁66	-14385
▁culp	-14386
▁renov	-14387
▁shake	-14388
▁polio	-14389
▁searches	-14390
▁12:	-14391
▁bump	-14392
▁chalk	-14393
▁refine	-14394
▁ccs	-14395
▁versa	-14396
▁paleont	-14397
▁traject	-14398
▁volatile	-14399
▁abolition	-14400
▁displaying	-14401
▁125	-14402
▁resol	-14403
▁pottery	-14404
▁travelers	-14405
▁pige	-14406
▁virtue	-14407
hc	-14408
erald	-14409
▁atop	-14410
alling	-14411
▁enthusi	-14412
▁weighing	-14413
▁jail	-14414
▁whis	-14415
▁renal	-14416
▁wastes	-14417
▁malicious	-14418
▁disparities	-14419
▁subscription	-14420
▁alfred	-14421
▁harmon	-14422
▁positioning	-14423
imated	-14424
▁buildup	-14425
▁portugal	-14426
▁empirical	-14427
▁53	-14428
▁earning	-14429
▁dash	-14430
holder	-14431
▁risen	-14432
▁authentication	-14433
▁pt	-14434
[...]
