{
  "version": "1.0",
  "truncation": null,
  "padding": null,
  "added_tokens": [
    {
      "id": 0,
      "content": "<s>",
      "single_word": false,
      "lstrip": false,
      "rstrip": false,
      "normalized": false,
      "special": true
    },
    {
      "id": 1,
      "content": "</s>",
      "single_word": false,
      "lstrip": false,
      "rstrip": false,
      "normalized": false,
      "special": true
    },
    {
      "id": 2,
      "content": "<pad>",
      "single_word": false,
      "lstrip": false,
      "rstrip": false,
      "normalized": false,
      "special": true
    },
    {
      "id": 3,
      "content": "<unk>",
      "single_word": false,
      "lstrip": false,
      "rstrip": false,
      "normalized": false,
      "special": true
    }
  ],
  "normalizer": {
    "type": "Sequence",
    "normalizers": [
      {
        "type": "NFC"
      },
      {
        "type": "Replace",
        "pattern": {
          "String": "’"
        },
        "content": "'"
      },
      {
        "type": "Replace",
        "pattern": {
          "String": "‘"
        },
        "content": "'"
      },
      {
        "type": "Replace",
        "pattern": {
          "String": "ʼ"
        },
        "content": "'"
      },
      {
        "type": "Replace",
        "pattern": {
          "String": "＇"
        },
        "content": "'"
      },
      {
        "type": "Replace",
        "pattern": {
          "String": "`"
        },
        "content": "'"
      },
      {
        "type": "Replace",
        "pattern": {
          "String": "´"
        },
        "content": "'"
      },
      {
        "type": "Lowercase"
      },
      {
        "type": "Replace",
        "pattern": {
          "Regex": "\\s+"
        },
        "content": " "
      },
      {
        "type": "Strip",
        "strip_left": true,
        "strip_right": true
      },
      {
        "type": "Prepend",
        "prepend": "▁"
      },
      {
        "type": "Replace",
        "pattern": {
          "String": " "
        },
        "content": "▁"
      }
    ]
  },
  "pre_tokenizer": null,
  "post_processor": {
    "type": "TemplateProcessing",
    "single": [
      {
        "SpecialToken": {
          "id": "<s>",
          "type_id": 0
        }
      },
      {
        "Sequence": {
          "id": "A",
          "type_id": 0
        }
      }
    ],
    "pair": [
      {
        "SpecialToken": {
          "id": "<s>",
          "type_id": 0
        }
      },
      {
        "Sequence": {
          "id": "A",
          "type_id": 0
        }
      },
      {
        "SpecialToken": {
          "id": "<s>",
          "type_id": 1
        }
      },
      {
        "Sequence": {
          "id": "B",
          "type_id": 1
        }
      }
    ],
    "special_tokens": {
      "<s>": {
        "id": "<s>",
        "ids": [
          0
        ],
        "tokens": [
          "<s>"
        ]
      }
    }
  },
  "decoder": {
    "type": "Sequence",
    "decoders": [
      {
        "type": "Replace",
        "pattern": {
          "String": "▁"
        },
        "content": " "
      },
      {
        "type": "ByteFallback"
      },
      {
        "type": "Fuse"
      },
      {
        "type": "Strip",
        "content": " ",
        "start": 1,
        "stop": 0
      }
    ]
  },
  "model": {
    "type": "Unigram",
    "unk_id": 0,
    "vocab": [
      [
        "<s>",
        0.0
      ],
      [
        "</s>",
        0.0
      ],
      [
        "<pad>",
        0.0
      ],
      [
        "<unk>",
        0.0
      ],
      [
        "<0x00>",
        0.0
      ],
      [
        "<0x01>",
        0.0
      ],
      [
        "<0x02>",
        0.0
      ],
      [
        "<0x03>",
        0.0
      ],
      [
        "<0x04>",
        0.0
      ],
      [
        "<0x05>",
        0.0
      ],
      [
        "<0x06>",
        0.0
      ],
      [
        "<0x07>",
        0.0
      ],
      [
        "<0x08>",
        0.0
      ],
      [
        "<0x09>",
        0.0
      ],
      [
        "<0x0A>",
        0.0
      ],
      [
        "<0x0B>",
        0.0
      ],
      [
        "<0x0C>",
        0.0
      ],
      [
        "<0x0D>",
        0.0
      ],
      [
        "<0x0E>",
        0.0
      ],
      [
        "<0x0F>",
        0.0
      ],
      [
        "<0x10>",
        0.0
      ],
      [
        "<0x11>",
        0.0
      ],
      [
        "<0x12>",
        0.0
      ],
      [
        "<0x13>",
        0.0
      ],
      [
        "<0x14>",
        0.0
      ],
      [
        "<0x15>",
        0.0
      ],
      [
        "<0x16>",
        0.0
      ],
      [
        "<0x17>",
        0.0
      ],
      [
        "<0x18>",
        0.0
      ],
      [
        "<0x19>",
        0.0
      ],
      [
        "<0x1A>",
        0.0
      ],
      [
        "<0x1B>",
        0.0
      ],
      [
        "<0x1C>",
        0.0
      ],
      [
        "<0x1D>",
        0.0
      ],
      [
        "<0x1E>",
        0.0
      ],
      [
        "<0x1F>",
        0.0
      ],
      [
        "<0x20>",
        0.0
      ],
      [
        "<0x21>",
        0.0
      ],
      [
        "<0x22>",
        0.0
      ],
      [
        "<0x23>",
        0.0
      ],
      [
        "<0x24>",
        0.0
      ],
      [
        "<0x25>",
        0.0
      ],
      [
        "<0x26>",
        0.0
      ],
      [
        "<0x27>",
        0.0
      ],
      [
        "<0x28>",
        0.0
      ],
      [
        "<0x29>",
        0.0
      ],
      [
        "<0x2A>",
        0.0
      ],
      [
        "<0x2B>",
        0.0
      ],
      [
        "<0x2C>",
        0.0
      ],
      [
        "<0x2D>",
        0.0
      ],
      [
        "<0x2E>",
        0.0
      ],
      [
        "<0x2F>",
        0.0
      ],
      [
        "<0x30>",
        0.0
      ],
      [
        "<0x31>",
        0.0
      ],
      [
        "<0x32>",
        0.0
      ],
      [
        "<0x33>",
        0.0
      ],
      [
        "<0x34>",
        0.0
      ],
      [
        "<0x35>",
        0.0
      ],
      [
        "<0x36>",
        0.0
      ],
      [
        "<0x37>",
        0.0
      ],
      [
        "<0x38>",
        0.0
      ],
      [
        "<0x39>",
        0.0
      ],
      [
        "<0x3A>",
        0.0
      ],
      [
        "<0x3B>",
        0.0
      ],
      [
        "<0x3C>",
        0.0
      ],
      [
        "<0x3D>",
        0.0
      ],
      [
        "<0x3E>",
        0.0
      ],
      [
        "<0x3F>",
        0.0
      ],
      [
        "<0x40>",
        0.0
      ],
      [
        "<0x41>",
        0.0
      ],
      [
        "<0x42>",
        0.0
      ],
      [
        "<0x43>",
        0.0
      ],
      [
        "<0x44>",
        0.0
      ],
      [
        "<0x45>",
        0.0
      ],
      [
        "<0x46>",
        0.0
      ],
      [
        "<0x47>",
        0.0
      ],
      [
        "<0x48>",
        0.0
      ],
      [
        "<0x49>",
        0.0
      ],
      [
        "<0x4A>",
        0.0
      ],
      [
        "<0x4B>",
        0.0
      ],
      [
        "<0x4C>",
        0.0
      ],
      [
        "<0x4D>",
        0.0
      ],
      [
        "<0x4E>",
        0.0
      ],
      [
        "<0x4F>",
        0.0
      ],
      [
        "<0x50>",
        0.0
      ],
      [
        "<0x51>",
        0.0
      ],
      [
        "<0x52>",
        0.0
      ],
      [
        "<0x53>",
        0.0
      ],
      [
        "<0x54>",
        0.0
      ],
      [
        "<0x55>",
        0.0
      ],
      [
        "<0x56>",
        0.0
      ],
      [
        "<0x57>",
        0.0
      ],
      [
        "<0x58>",
        0.0
      ],
      [
        "<0x59>",
        0.0
      ],
      [
        "<0x5A>",
        0.0
      ],
      [
        "<0x5B>",
        0.0
      ],
      [
        "<0x5C>",
        0.0
      ],
      [
        "<0x5D>",
        0.0
      ],
      [
        "<0x5E>",
        0.0
      ],
      [
        "<0x5F>",
        0.0
      ],
      [
        "<0x60>",
        0.0
      ],
      [
        "<0x61>",
        0.0
      ],
      [
        "<0x62>",
        0.0
      ],
      [
        "<0x63>",
        0.0
      ],
      [
        "<0x64>",
        0.0
      ],
      [
        "<0x65>",
        0.0
      ],
      [
        "<0x66>",
        0.0
      ],
      [
        "<0x67>",
        0.0
      ],
      [
        "<0x68>",
        0.0
      ],
      [
        "<0x69>",
        0.0
      ],
      [
        "<0x6A>",
        0.0
      ],
      [
        "<0x6B>",
        0.0
      ],
      [
        "<0x6C>",
        0.0
      ],
      [
        "<0x6D>",
        0.0
      ],
      [
        "<0x6E>",
        0.0
      ],
      [
        "<0x6F>",
        0.0
      ],
      [
        "<0x70>",
        0.0
      ],
      [
        "<0x71>",
        0.0
      ],
      [
        "<0x72>",
        0.0
      ],
      [
        "<0x73>",
        0.0
      ],
      [
        "<0x74>",
        0.0
      ],
      [
        "<0x75>",
        0.0
      ],
      [
        "<0x76>",
        0.0
      ],
      [
        "<0x77>",
        0.0
      ],
      [
        "<0x78>",
        0.0
      ],
      [
        "<0x79>",
        0.0
      ],
      [
        "<0x7A>",
        0.0
      ],
      [
        "<0x7B>",
        0.0
      ],
      [
        "<0x7C>",
        0.0
      ],
      [
        "<0x7D>",
        0.0
      ],
      [
        "<0x7E>",
        0.0
      ],
      [
        "<0x7F>",
        0.0
      ],
      [
        "<0x80>",
        0.0
      ],
      [
        "<0x81>",
        0.0
      ],
      [
        "<0x82>",
        0.0
      ],
      [
        "<0x83>",
        0.0
      ],
      [
        "<0x84>",
        0.0
      ],
      [
        "<0x85>",
        0.0
      ],
      [
        "<0x86>",
        0.0
      ],
      [
        "<0x87>",
        0.0
      ],
      [
        "<0x88>",
        0.0
      ],
      [
        "<0x89>",
        0.0
      ],
      [
        "<0x8A>",
        0.0
      ],
      [
        "<0x8B>",
        0.0
      ],
      [
        "<0x8C>",
        0.0
      ],
      [
        "<0x8D>",
        0.0
      ],
      [
        "<0x8E>",
        0.0
      ],
      [
        "<0x8F>",
        0.0
      ],
      [
        "<0x90>",
        0.0
      ],
      [
        "<0x91>",
        0.0
      ],
      [
        "<0x92>",
        0.0
      ],
      [
        "<0x93>",
        0.0
      ],
      [
        "<0x94>",
        0.0
      ],
      [
        "<0x95>",
        0.0
      ],
      [
        "<0x96>",
        0.0
      ],
      [
        "<0x97>",
        0.0
      ],
      [
        "<0x98>",
        0.0
      ],
      [
        "<0x99>",
        0.0
      ],
      [
        "<0x9A>",
        0.0
      ],
      [
        "<0x9B>",
        0.0
      ],
      [
        "<0x9C>",
        0.0
      ],
      [
        "<0x9D>",
        0.0
      ],
      [
        "<0x9E>",
        0.0
      ],
      [
        "<0x9F>",
        0.0
      ],
      [
        "<0xA0>",
        0.0
      ],
      [
        "<0xA1>",
        0.0
      ],
      [
        "<0xA2>",
        0.0
      ],
      [
        "<0xA3>",
        0.0
      ],
      [
        "<0xA4>",
        0.0
      ],
      [
        "<0xA5>",
        0.0
      ],
      [
        "<0xA6>",
        0.0
      ],
      [
        "<0xA7>",
        0.0
      ],
      [
        "<0xA8>",
        0.0
      ],
      [
        "<0xA9>",
        0.0
      ],
      [
        "<0xAA>",
        0.0
      ],
      [
        "<0xAB>",
        0.0
      ],
      [
        "<0xAC>",
        0.0
      ],
      [
        "<0xAD>",
        0.0
      ],
      [
        "<0xAE>",
        0.0
      ],
      [
        "<0xAF>",
        0.0
      ],
      [
        "<0xB0>",
        0.0
      ],
      [
        "<0xB1>",
        0.0
      ],
      [
        "<0xB2>",
        0.0
      ],
      [
        "<0xB3>",
        0.0
      ],
      [
        "<0xB4>",
        0.0
      ],
      [
        "<0xB5>",
        0.0
      ],
      [
        "<0xB6>",
        0.0
      ],
      [
        "<0xB7>",
        0.0
      ],
      [
        "<0xB8>",
        0.0
      ],
      [
        "<0xB9>",
        0.0
      ],
      [
        "<0xBA>",
        0.0
      ],
      [
        "<0xBB>",
        0.0
      ],
      [
        "<0xBC>",
        0.0
      ],
      [
        "<0xBD>",
        0.0
      ],
      [
        "<0xBE>",
        0.0
      ],
      [
        "<0xBF>",
        0.0
      ],
      [
        "<0xC0>",
        0.0
      ],
      [
        "<0xC1>",
        0.0
      ],
      [
        "<0xC2>",
        0.0
      ],
      [
        "<0xC3>",
        0.0
      ],
      [
        "<0xC4>",
        0.0
      ],
      [
        "<0xC5>",
        0.0
      ],
      [
        "<0xC6>",
        0.0
      ],
      [
        "<0xC7>",
        0.0
      ],
      [
        "<0xC8>",
        0.0
      ],
      [
        "<0xC9>",
        0.0
      ],
      [
        "<0xCA>",
        0.0
      ],
      [
        "<0xCB>",
        0.0
      ],
      [
        "<0xCC>",
        0.0
      ],
      [
        "<0xCD>",
        0.0
      ],
      [
        "<0xCE>",
        0.0
      ],
      [
        "<0xCF>",
        0.0
      ],
      [
        "<0xD0>",
        0.0
      ],
      [
        "<0xD1>",
        0.0
      ],
      [
        "<0xD2>",
        0.0
      ],
      [
        "<0xD3>",
        0.0
      ],
      [
        "<0xD4>",
        0.0
      ],
      [
        "<0xD5>",
        0.0
      ],
      [
        "<0xD6>",
        0.0
      ],
      [
        "<0xD7>",
        0.0
      ],
      [
        "<0xD8>",
        0.0
      ],
      [
        "<0xD9>",
        0.0
      ],
      [
        "<0xDA>",
        0.0
      ],
      [
        "<0xDB>",
        0.0
      ],
      [
        "<0xDC>",
        0.0
      ],
      [
        "<0xDD>",
        0.0
      ],
      [
        "<0xDE>",
        0.0
      ],
      [
        "<0xDF>",
        0.0
      ],
      [
        "<0xE0>",
        0.0
      ],
      [
        "<0xE1>",
        0.0
      ],
      [
        "<0xE2>",
        0.0
      ],
      [
        "<0xE3>",
        0.0
      ],
      [
        "<0xE4>",
        0.0
      ],
      [
        "<0xE5>",
        0.0
      ],
      [
        "<0xE6>",
        0.0
      ],
      [
        "<0xE7>",
        0.0
      ],
      [
        "<0xE8>",
        0.0
      ],
      [
        "<0xE9>",
        0.0
      ],
      [
        "<0xEA>",
        0.0
      ],
      [
        "<0xEB>",
        0.0
      ],
      [
        "<0xEC>",
        0.0
      ],
      [
        "<0xED>",
        0.0
      ],
      [
        "<0xEE>",
        0.0
      ],
      [
        "<0xEF>",
        0.0
      ],
      [
        "<0xF0>",
        0.0
      ],
      [
        "<0xF1>",
        0.0
      ],
      [
        "<0xF2>",
        0.0
      ],
      [
        "<0xF3>",
        0.0
      ],
      [
        "<0xF4>",
        0.0
      ],
      [
        "<0xF5>",
        0.0
      ],
      [
        "<0xF6>",
        0.0
      ],
      [
        "<0xF7>",
        0.0
      ],
      [
        "<0xF8>",
        0.0
      ],
      [
        "<0xF9>",
        0.0
      ],
      [
        "<0xFA>",
        0.0
      ],
      [
        "<0xFB>",
        0.0
      ],
      [
        "<0xFC>",
        0.0
      ],
      [
        "<0xFD>",
        0.0
      ],
      [
        "<0xFE>",
        0.0
      ],
      [
        "<0xFF>",
        0.0
      ],
      [
        "▁de",
        -3.1730380058288574
      ],
      [
        "'",
        -3.35705041885376
      ],
      [
        ",",
        -3.3690693378448486
      ],
      [
        ".",
        -3.466313600540161
      ],
      [
        "▁la",
        -3.927987098693848
      ],
      [
        "▁et",
        -4.016541481018066
      ],
      [
        "▁le",
        -4.118343353271484
      ],
      [
        "▁à",
        -4.2040114402771
      ],
      [
        "▁l",
        -4.288008213043213
      ],
      [
        "▁les",
        -4.296539783477783
      ],
      [
        "▁d",
        -4.410999774932861
      ],
      [
        "▁en",
        -4.488963603973389
      ],
      [
        "▁des",
        -4.515233516693115
      ],
      [
        "s",
        -4.53641414642334
      ],
      [
        "▁pour",
        -4.691598892211914
      ],
      [
        "▁un",
        -4.758860111236572
      ],
      [
        "-",
        -4.832876682281494
      ],
      [
        "▁du",
        -4.892440319061279
      ],
      [
        "▁une",
        -4.9824676513671875
      ],
      [
        "▁dans",
        -5.125971794128418
      ],
      [
        "▁vous",
        -5.143835544586182
      ],
      [
        "▁est",
        -5.175940036773682
      ],
      [
        "▁a",
        -5.191509246826172
      ],
      [
        "▁sur",
        -5.208780288696289
      ],
      [
        "▁que",
        -5.255197048187256
      ],
      [
        "▁qui",
        -5.379232883453369
      ],
      [
        "▁au",
        -5.429452419281006
      ],
      [
        "▁avec",
        -5.522283554077148
      ],
      [
        "▁par",
        -5.540666103363037
      ],
      [
        "▁-",
        -5.548957347869873
      ],
      [
        "▁:",
        -5.549314498901367
      ],
      [
        "▁plus",
        -5.5934624671936035
      ],
      [
        "▁ce",
        -5.618045806884766
      ],
      [
        "▁pas",
        -5.670823097229004
      ],
      [
        "▁il",
        -5.679105758666992
      ],
      [
        "▁ou",
        -5.849697113037109
      ],
      [
        "▁votre",
        -5.8805928230285645
      ],
      [
        "est",
        -5.896173477172852
      ],
      [
        "▁(",
        -5.931692600250244
      ],
      [
        "▁nous",
        -5.95722770690918
      ],
      [
        "e",
        -5.969128131866455
      ],
      [
        "▁s",
        -5.996153831481934
      ],
      [
        "▁se",
        -5.998573303222656
      ],
      [
        "▁sont",
        -6.062173843383789
      ],
      [
        "▁n",
        -6.071215629577637
      ],
      [
        "▁ne",
        -6.093151569366455
      ],
      [
        "▁son",
        -6.126433372497559
      ],
      [
        "▁c",
        -6.133357048034668
      ],
      [
        "▁qu",
        -6.172308921813965
      ],
      [
        "un",
        -6.195507526397705
      ],
      [
        "▁je",
        -6.249809265136719
      ],
      [
        ")",
        -6.259620189666748
      ],
      [
        "▁cette",
        -6.2687859535217285
      ],
      [
        "▁aux",
        -6.299332141876221
      ],
      [
        "a",
        -6.347790241241455
      ],
      [
        "▁",
        -6.357894420623779
      ],
      [
        "▁!",
        -6.410793304443359
      ],
      [
        "▁mais",
        -6.420735836029053
      ],
      [
        "une",
        -6.436639785766602
      ],
      [
        "▁«",
        -6.440080642700195
      ],
      [
        "▁tout",
        -6.472769260406494
      ],
      [
        "▁sa",
        -6.517477512359619
      ],
      [
        "▁si",
        -6.571107387542725
      ],
      [
        "il",
        -6.5743560791015625
      ],
      [
        "▁?",
        -6.592337131500244
      ],
      [
        "▁bien",
        -6.642757415771484
      ],
      [
        ":",
        -6.654305458068848
      ],
      [
        "▁ont",
        -6.6764445304870605
      ],
      [
        "▁j",
        -6.682923316955566
      ],
      [
        "▁comme",
        -6.686727046966553
      ],
      [
        "▁faire",
        -6.693053245544434
      ],
      [
        "▁ses",
        -6.709482192993164
      ],
      [
        "▁notre",
        -6.737523078918457
      ],
      [
        "▁on",
        -6.738452911376953
      ],
      [
        "▁été",
        -6.744779586791992
      ],
      [
        "▁vos",
        -6.755047798156738
      ],
      [
        "▁fait",
        -6.813731670379639
      ],
      [
        "h",
        -6.815973281860352
      ],
      [
        "▁très",
        -6.830760955810547
      ],
      [
        "▁être",
        -6.837874889373779
      ],
      [
        "▁aussi",
        -6.86529541015625
      ],
      [
        "▁leur",
        -6.8689470291137695
      ],
      [
        "▁tous",
        -6.882131576538086
      ],
      [
        "▁peut",
        -6.912038803100586
      ],
      [
        "▁elle",
        -6.919791221618652
      ],
      [
        "▁y",
        -6.930595874786377
      ],
      [
        "▁ces",
        -6.945734977722168
      ],
      [
        "▁\"",
        -6.956170082092285
      ],
      [
        "▁|",
        -6.959325790405273
      ],
      [
        "▁sans",
        -6.983294486999512
      ],
      [
        "▁nos",
        -7.024507999420166
      ],
      [
        "▁deux",
        -7.039597988128662
      ],
      [
        "▁même",
        -7.04877233505249
      ],
      [
        "▁site",
        -7.0564093589782715
      ],
      [
        "ai",
        -7.076559543609619
      ],
      [
        "▁»",
        -7.085048675537109
      ],
      [
        "/",
        -7.102531433105469
      ],
      [
        "en",
        -7.124228000640869
      ],
      [
        "▁m",
        -7.164079189300537
      ],
      [
        "▁ans",
        -7.17031192779541
      ],
      [
        "es",
        -7.173800945281982
      ],
      [
        "▁1",
        -7.177284240722656
      ],
      [
        "▁2",
        -7.184415340423584
      ],
      [
        "on",
        -7.197193622589111
      ],
      [
        "...",
        -7.201985836029053
      ],
      [
        "▁après",
        -7.212954998016357
      ],
      [
        "t",
        -7.224186897277832
      ],
      [
        "▁3",
        -7.245121955871582
      ],
      [
        "▁également",
        -7.248188495635986
      ],
      [
        "▁entre",
        -7.252417087554932
      ],
      [
        "▁depuis",
        -7.26663875579834
      ],
      [
        "▁ainsi",
        -7.275231838226318
      ],
      [
        "r",
        -7.2947001457214355
      ],
      [
        "|",
        -7.295089721679688
      ],
      [
        "▁temps",
        -7.296871185302734
      ],
      [
        "▁–",
        -7.33004903793335
      ],
      [
        "y",
        -7.332425594329834
      ],
      [
        "!",
        -7.393481731414795
      ],
      [
        "▁france",
        -7.406374454498291
      ],
      [
        "▁encore",
        -7.416684150695801
      ],
      [
        "▁sous",
        -7.446737289428711
      ],
      [
        "▁avant",
        -7.465663909912109
      ],
      [
        "▁monde",
        -7.467865467071533
      ],
      [
        "▁me",
        -7.46828556060791
      ],
      [
        "▁lui",
        -7.4684739112854
      ],
      [
        "▁vie",
        -7.470820426940918
      ],
      [
        "▁prix",
        -7.484018325805664
      ],
      [
        "▁où",
        -7.491057395935059
      ],
      [
        "▁mon",
        -7.492448329925537
      ],
      [
        "er",
        -7.500133514404297
      ],
      [
        "▁toutes",
        -7.52653694152832
      ],
      [
        "▁leurs",
        -7.531906127929688
      ],
      [
        "▁pouvez",
        -7.534412384033203
      ],
      [
        "▁ils",
        -7.537766456604004
      ],
      [
        "▁sera",
        -7.54132080078125
      ],
      [
        "\"",
        -7.545247554779053
      ],
      [
        "…",
        -7.548584938049316
      ],
      [
        "vous",
        -7.549185276031494
      ],
      [
        "▁fois",
        -7.557794094085693
      ],
      [
        ").",
        -7.559009552001953
      ],
      [
        "▁donc",
        -7.56066370010376
      ],
      [
        "▁place",
        -7.567123889923096
      ],
      [
        "▁jour",
        -7.56908130645752
      ],
      [
        "▁peu",
        -7.574008941650391
      ],
      [
        "▁maison",
        -7.577822685241699
      ],
      [
        "▁alors",
        -7.584981918334961
      ],
      [
        "?",
        -7.585911750793457
      ],
      [
        "▁4",
        -7.587167739868164
      ],
      [
        "▁rencontre",
        -7.59064245223999
      ],
      [
        "▁cela",
        -7.591469764709473
      ],
      [
        "▁cet",
        -7.598453521728516
      ],
      [
        "d",
        -7.609262466430664
      ],
      [
        "▁chaque",
        -7.60975980758667
      ],
      [
        "▁the",
        -7.6108078956604
      ],
      [
        "▁toute",
        -7.612363815307617
      ],
      [
        "▁quelques",
        -7.612871646881104
      ],
      [
        "▁toujours",
        -7.615724086761475
      ],
      [
        "à",
        -7.620414733886719
      ],
      [
        "▁5",
        -7.620673656463623
      ],
      [
        "▁non",
        -7.636002540588379
      ],
      [
        "▁avoir",
        -7.652713298797607
      ],
      [
        "▁bon",
        -7.654559135437012
      ],
      [
        "||",
        -7.662752628326416
      ],
      [
        "▁grand",
        -7.675743579864502
      ],
      [
        "▁comment",
        -7.681343078613281
      ],
      [
        "le",
        -7.6835503578186035
      ],
      [
        "▁plusieurs",
        -7.6847710609436035
      ],
      [
        "▁ligne",
        -7.698806285858154
      ],
      [
        "▁afin",
        -7.700850009918213
      ],
      [
        "être",
        -7.701003074645996
      ],
      [
        "c",
        -7.708544731140137
      ],
      [
        "z",
        -7.717223167419434
      ],
      [
        "▁dont",
        -7.725300312042236
      ],
      [
        "▁10",
        -7.72814416885376
      ],
      [
        "▁moins",
        -7.738729476928711
      ],
      [
        "▁mois",
        -7.743032455444336
      ],
      [
        "▁personnes",
        -7.74882698059082
      ],
      [
        "▁car",
        -7.759400844573975
      ],
      [
        "▁ma",
        -7.761493682861328
      ],
      [
        "▁travail",
        -7.763960838317871
      ],
      [
        "elle",
        -7.76488208770752
      ],
      [
        "▁contre",
        -7.772000789642334
      ],
      [
        "▁produits",
        -7.775690078735352
      ],
      [
        "▁nouveau",
        -7.777102470397949
      ],
      [
        "▁service",
        -7.786293983459473
      ],
      [
        "▁chez",
        -7.793761730194092
      ],
      [
        "l",
        -7.793986320495605
      ],
      [
        "▁nouvelle",
        -7.807750701904297
      ],
      [
        "▁qualité",
        -7.808013439178467
      ],
      [
        "▁autres",
        -7.813588619232178
      ],
      [
        "▁.",
        -7.817609310150147
      ],
      [
        "▁jours",
        -7.818055629730225
      ],
      [
        "▁lors",
        -7.82075309753418
      ],
      [
        "▁va",
        -7.822510719299316
      ],
      [
        "▁cas",
        -7.826891422271728
      ],
      [
        "▁premier",
        -7.833001136779785
      ],
      [
        "nt",
        -7.834401607513428
      ],
      [
        "▁soit",
        -7.840839862823486
      ],
      [
        "▁voir",
        -7.848912715911865
      ],
      [
        "▁jusqu",
        -7.854850769042969
      ],
      [
        "▁petit",
        -7.860089302062988
      ],
      [
        "),",
        -7.863864421844482
      ],
      [
        "▁était",
        -7.874359607696533
      ],
      [
        "▁suis",
        -7.876372814178467
      ],
      [
        "▁permet",
        -7.881436824798584
      ],
      [
        "▁beaucoup",
        -7.881782531738281
      ],
      [
        "▁selon",
        -7.883030414581299
      ],
      [
        "com",
        -7.883191108703613
      ],
      [
        "▁pays",
        -7.887240409851074
      ],
      [
        "▁savoir",
        -7.8897175788879395
      ],
      [
        "▁peuvent",
        -7.893829345703125
      ],
      [
        "▁ça",
        -7.8972625732421875
      ],
      [
        "m",
        -7.904824256896973
      ],
      [
        "▁avez",
        -7.905300617218018
      ],
      [
        "o",
        -7.922883033752441
      ],
      [
        "▁déjà",
        -7.932619094848633
      ],
      [
        "▁ville",
        -7.934683322906494
      ],
      [
        "▁projet",
        -7.935542106628418
      ],
      [
        "▁jeu",
        -7.947449207305908
      ],
      [
        "▁fin",
        -7.947920799255371
      ],
      [
        "▁compte",
        -7.948685169219971
      ],
      [
        "eau",
        -7.958137035369873
      ],
      [
        "▁première",
        -7.960341930389404
      ],
      [
        "▁quand",
        -7.963205337524414
      ],
      [
        "▁paris",
        -7.965720653533936
      ],
      [
        "▁produit",
        -7.971415042877197
      ],
      [
        "▁grande",
        -7.971547603607178
      ],
      [
        "▁vers",
        -7.972906112670898
      ],
      [
        "▁avait",
        -7.97985315322876
      ],
      [
        "autres",
        -7.981709003448486
      ],
      [
        "▁6",
        -7.982470035552979
      ],
      [
        "▁recherche",
        -7.983133316040039
      ],
      [
        "▁suite",
        -7.99166202545166
      ],
      [
        "▁bonne",
        -7.99281644821167
      ],
      [
        "▁cours",
        -7.994769096374512
      ],
      [
        "▁grâce",
        -7.996934413909912
      ],
      [
        "▁,",
        -8.004048347473145
      ],
      [
        "▁avons",
        -8.01057243347168
      ],
      [
        "▁femme",
        -8.010784149169922
      ],
      [
        "▁services",
        -8.012117385864258
      ],
      [
        "▁moment",
        -8.013875007629395
      ],
      [
        "▁tu",
        -8.01511001586914
      ],
      [
        "▁pendant",
        -8.018598556518555
      ],
      [
        "▁faut",
        -8.023086547851562
      ],
      [
        "▁gratuit",
        -8.026093482971191
      ],
      [
        "hui",
        -8.034863471984863
      ],
      [
        "▁enfants",
        -8.041964530944824
      ],
      [
        "▁mise",
        -8.046517372131348
      ],
      [
        "▁trois",
        -8.047693252563477
      ],
      [
        "▁20",
        -8.050103187561035
      ],
      [
        "▁of",
        -8.05545425415039
      ],
      [
        "▁ici",
        -8.059708595275879
      ],
      [
        "la",
        -8.067550659179688
      ],
      [
        "▁partie",
        -8.068151473999023
      ],
      [
        "00",
        -8.07323932647705
      ],
      [
        "de",
        -8.078361511230469
      ],
      [
        "▁groupe",
        -8.07927417755127
      ],
      [
        "▁/",
        -8.086175918579102
      ],
      [
        "▁dernier",
        -8.092612266540527
      ],
      [
        "u",
        -8.095165252685547
      ],
      [
        "ment",
        -8.09685230255127
      ],
      [
        "▁in",
        -8.09691333770752
      ],
      [
        "▁partir",
        -8.1014986038208
      ],
      [
        "▁trouver",
        -8.113733291625977
      ],
      [
        "▁lieu",
        -8.114960670471191
      ],
      [
        "▁7",
        -8.121042251586914
      ],
      [
        "▁autre",
        -8.121711730957031
      ],
      [
        "▁saint",
        -8.127208709716797
      ],
      [
        "▁forum",
        -8.1401948928833
      ],
      [
        "▁»,",
        -8.148409843444824
      ],
      [
        "▁mettre",
        -8.15068244934082
      ],
      [
        "▁aujourd",
        -8.15300178527832
      ],
      [
        "▁effet",
        -8.155588150024414
      ],
      [
        "▁;",
        -8.15574836730957
      ],
      [
        "▁prendre",
        -8.155959129333496
      ],
      [
        "▁puis",
        -8.159855842590332
      ],
      [
        "▁choix",
        -8.160231590270996
      ],
      [
        "▁15",
        -8.16092586517334
      ],
      [
        "▁centre",
        -8.16246223449707
      ],
      [
        "▁plan",
        -8.165953636169434
      ],
      [
        "▁8",
        -8.180401802062988
      ],
      [
        "▁propose",
        -8.185684204101562
      ],
      [
        "ils",
        -8.187898635864258
      ],
      [
        "▁t",
        -8.18967056274414
      ],
      [
        "▁doit",
        -8.203083038330078
      ],
      [
        "▁français",
        -8.21019458770752
      ],
      [
        "i",
        -8.214776039123535
      ],
      [
        "▁besoin",
        -8.216477394104004
      ],
      [
        "2",
        -8.217790603637695
      ],
      [
        "▁offre",
        -8.22145938873291
      ],
      [
        "▁santé",
        -8.2224702835083
      ],
      [
        "ci",
        -8.222505569458008
      ],
      [
        "▁sécurité",
        -8.224843978881836
      ],
      [
        "▁18",
        -8.228869438171387
      ],
      [
        "▁années",
        -8.230328559875488
      ],
      [
        "▁mes",
        -8.231460571289062
      ],
      [
        "▁clients",
        -8.238354682922363
      ],
      [
        "▁e",
        -8.24011516571045
      ],
      [
        "é",
        -8.241930961608887
      ],
      [
        "▁possible",
        -8.243722915649414
      ],
      [
        "▁formation",
        -8.24887466430664
      ],
      [
        "ont",
        -8.249449729919434
      ],
      [
        "x",
        -8.249725341796875
      ],
      [
        "▁moi",
        -8.256678581237793
      ],
      [
        "▁12",
        -8.257335662841797
      ],
      [
        "▁30",
        -8.262083053588867
      ],
      [
        "▁mieux",
        -8.269058227539062
      ],
      [
        "▁jeux",
        -8.273943901062012
      ],
      [
        "▁to",
        -8.27739143371582
      ],
      [
        "n",
        -8.278946876525879
      ],
      [
        "▁personne",
        -8.27895450592041
      ],
      [
        "▁meilleur",
        -8.280738830566406
      ],
      [
        "▁and",
        -8.28426456451416
      ],
      [
        "▁niveau",
        -8.289430618286133
      ],
      [
        "g",
        -8.302895545959473
      ],
      [
        "▁informations",
        -8.309314727783203
      ],
      [
        "▁salle",
        -8.315415382385254
      ],
      [
        "au",
        -8.31942081451416
      ],
      [
        "▁famille",
        -8.322433471679688
      ],
      [
        "▁société",
        -8.322492599487305
      ],
      [
        "▁notamment",
        -8.32367992401123
      ],
      [
        "ce",
        -8.326016426086426
      ],
      [
        "▁dès",
        -8.327851295471191
      ],
      [
        "▁belle",
        -8.329793930053711
      ],
      [
        "▁êtes",
        -8.331002235412598
      ],
      [
        "les",
        -8.332062721252441
      ],
      [
        "▁merci",
        -8.332351684570312
      ],
      [
        "▁saison",
        -8.334376335144043
      ],
      [
        "▁point",
        -8.335953712463379
      ],
      [
        "▁dit",
        -8.338555335998535
      ],
      [
        "▁femmes",
        -8.344148635864258
      ],
      [
        "▁année",
        -8.346498489379883
      ],
      [
        "▁certains",
        -8.350051879882812
      ],
      [
        "▁nombre",
        -8.353199005126953
      ],
      [
        "▁découvrir",
        -8.354742050170898
      ],
      [
        "▁ceux",
        -8.355595588684082
      ],
      [
        "▁semaine",
        -8.355669021606445
      ],
      [
        "▁vidéo",
        -8.356528282165527
      ],
      [
        "▁lire",
        -8.360269546508789
      ],
      [
        "▁simple",
        -8.361288070678711
      ],
      [
        "▁rien",
        -8.361339569091797
      ],
      [
        "▁nombreux",
        -8.36651611328125
      ],
      [
        "▁trop",
        -8.371816635131836
      ],
      [
        "▁face",
        -8.373156547546387
      ],
      [
        "▁page",
        -8.374384880065918
      ],
      [
        "et",
        -8.374439239501953
      ],
      [
        "▁bois",
        -8.377575874328613
      ],
      [
        "▁seront",
        -8.377578735351562
      ],
      [
        "▁petite",
        -8.3776273727417
      ],
      [
        "▁avis",
        -8.37765884399414
      ],
      [
        "▁cadre",
        -8.380253791809082
      ],
      [
        "▁demande",
        -8.381523132324219
      ],
      [
        "▁x",
        -8.382094383239746
      ],
      [
        "▁jamais",
        -8.382418632507324
      ],
      [
        "▁“",
        -8.382922172546387
      ],
      [
        "▁photos",
        -8.38746452331543
      ],
      [
        "▁cuisine",
        -8.38791561126709
      ],
      [
        "▁film",
        -8.388861656188965
      ],
      [
        "▁système",
        -8.390006065368652
      ],
      [
        "▁part",
        -8.391705513000488
      ],
      [
        "▁développement",
        -8.39396858215332
      ],
      [
        "▁&",
        -8.394054412841797
      ],
      [
        "▁porte",
        -8.395145416259766
      ],
      [
        "▁là",
        -8.400900840759277
      ],
      [
        "▁eu",
        -8.403782844543457
      ],
      [
        "▁reste",
        -8.404147148132324
      ],
      [
        "▁».",
        -8.407692909240723
      ],
      [
        "▁marché",
        -8.412428855895996
      ],
      [
        "▁tant",
        -8.415008544921875
      ],
      [
        "▁web",
        -8.415193557739258
      ],
      [
        "▁données",
        -8.416525840759277
      ],
      [
        "▁président",
        -8.425122261047363
      ],
      [
        "▁h",
        -8.429403305053711
      ],
      [
        "in",
        -8.43002700805664
      ],
      [
        "année",
        -8.435559272766113
      ],
      [
        "▁seulement",
        -8.436548233032227
      ],
      [
        "▁9",
        -8.439611434936523
      ],
      [
        "▁sommes",
        -8.44216251373291
      ],
      [
        "ait",
        -8.442584991455078
      ],
      [
        "▁14",
        -8.444066047668457
      ],
      [
        "▁jeune",
        -8.447086334228516
      ],
      [
        "▁internet",
        -8.447532653808594
      ],
      [
        "▁journée",
        -8.45643138885498
      ],
      [
        "▁pouvoir",
        -8.460402488708496
      ],
      [
        "▁celui",
        -8.46144962310791
      ],
      [
        "▁nom",
        -8.465559005737305
      ],
      [
        "▁public",
        -8.466981887817383
      ],
      [
        "f",
        -8.474963188171387
      ],
      [
        "▁créer",
        -8.475249290466309
      ],
      [
        "▁côté",
        -8.480277061462402
      ],
      [
        "▁heures",
        -8.48029613494873
      ],
      [
        "▁disponible",
        -8.482160568237305
      ],
      [
        "▁mis",
        -8.48289680480957
      ],
      [
        "▁programme",
        -8.483240127563477
      ],
      [
        "▁homme",
        -8.485047340393066
      ],
      [
        "(",
        -8.485435485839844
      ],
      [
        "▁pourquoi",
        -8.492347717285156
      ],
      [
        "▁droit",
        -8.49350643157959
      ],
      [
        "▁région",
        -8.503673553466797
      ],
      [
        "▁différents",
        -8.503734588623047
      ],
      [
        "▁près",
        -8.503755569458008
      ],
      [
        "▁type",
        -8.506738662719727
      ],
      [
        "▁souvent",
        -8.50708293914795
      ],
      [
        "▁article",
        -8.512377738952637
      ],
      [
        "▁marque",
        -8.513579368591309
      ],
      [
        "▁minutes",
        -8.513579368591309
      ],
      [
        "▁maintenant",
        -8.517430305480957
      ],
      [
        "▁elles",
        -8.521408081054688
      ],
      [
        "▁photo",
        -8.521756172180176
      ],
      [
        "▁long",
        -8.522195816040039
      ],
      [
        "▁nouvelles",
        -8.522428512573242
      ],
      [
        "▁jean",
        -8.524877548217773
      ],
      [
        "1",
        -8.52535343170166
      ],
      [
        "▁retour",
        -8.531622886657715
      ],
      [
        "▁forme",
        -8.532958984375
      ],
      [
        "▁dernière",
        -8.533073425292969
      ],
      [
        "▁gestion",
        -8.533668518066406
      ],
      [
        "▁lorsque",
        -8.539478302001953
      ],
      [
        "▁dire",
        -8.540672302246094
      ],
      [
        "fr",
        -8.54141902923584
      ],
      [
        "ing",
        -8.542302131652832
      ],
      [
        "▁vraiment",
        -8.54342269897461
      ],
      [
        "▁livre",
        -8.543802261352539
      ],
      [
        "b",
        -8.545018196105957
      ],
      [
        "▁voici",
        -8.546575546264648
      ],
      [
        "ant",
        -8.546841621398926
      ],
      [
        "▁haut",
        -8.546924591064453
      ],
      [
        "▁g",
        -8.55178451538086
      ],
      [
        "▁17",
        -8.553614616394043
      ],
      [
        "▁16",
        -8.556007385253906
      ],
      [
        "▁base",
        -8.556042671203613
      ],
      [
        "▁chambre",
        -8.557186126708984
      ],
      [
        "▁début",
        -8.558423042297363
      ],
      [
        "▁jeunes",
        -8.558699607849121
      ],
      [
        "▁mars",
        -8.559858322143555
      ],
      [
        "3",
        -8.56191635131836
      ],
      [
        ";",
        -8.562620162963867
      ],
      [
        "▁conseil",
        -8.562861442565918
      ],
      [
        "▁frais",
        -8.563773155212402
      ],
      [
        "▁question",
        -8.570063591003418
      ],
      [
        "▁...",
        -8.571497917175293
      ],
      [
        "▁24",
        -8.572346687316895
      ],
      [
        "▁tour",
        -8.572867393493652
      ],
      [
        "▁€",
        -8.575867652893066
      ],
      [
        "▁entreprise",
        -8.583901405334473
      ],
      [
        "▁carte",
        -8.584250450134277
      ],
      [
        "▁exemple",
        -8.585055351257324
      ],
      [
        "ou",
        -8.587041854858398
      ],
      [
        "▁date",
        -8.587068557739258
      ],
      [
        "▁11",
        -8.587602615356445
      ],
      [
        "▁équipe",
        -8.587947845458984
      ],
      [
        "▁fonction",
        -8.592155456542969
      ],
      [
        "▁surtout",
        -8.593063354492188
      ],
      [
        "p",
        -8.594663619995117
      ],
      [
        "▁vue",
        -8.594796180725098
      ],
      [
        "▁mai",
        -8.599000930786133
      ],
      [
        "▁découvrez",
        -8.600502014160156
      ],
      [
        "▁juin",
        -8.607216835021973
      ],
      [
        "▁expérience",
        -8.608607292175293
      ],
      [
        "▁club",
        -8.610132217407227
      ],
      [
        "▁13",
        -8.610677719116211
      ],
      [
        "équipe",
        -8.611320495605469
      ],
      [
        "▁rencontres",
        -8.612390518188477
      ],
      [
        "▁millions",
        -8.61257553100586
      ],
      [
        "▁vente",
        -8.614331245422363
      ],
      [
        "://",
        -8.621834754943848
      ],
      [
        "ons",
        -8.622626304626465
      ],
      [
        "▁main",
        -8.6227445602417
      ],
      [
        "▁juste",
        -8.623329162597656
      ],
      [
        "▁autour",
        -8.6239652633667
      ],
      [
        "▁travers",
        -8.62434196472168
      ],
      [
        "▁ni",
        -8.624787330627441
      ],
      [
        "entreprise",
        -8.625744819641113
      ],
      [
        "▁ci",
        -8.626487731933594
      ],
      [
        "▁mal",
        -8.627677917480469
      ],
      [
        "▁rapport",
        -8.628389358520508
      ],
      [
        "était",
        -8.629447937011719
      ],
      [
        "▁nouveaux",
        -8.629528045654297
      ],
      [
        "\",",
        -8.63185977935791
      ],
      [
        "▁parce",
        -8.63282299041748
      ],
      [
        "▁septembre",
        -8.633246421813965
      ],
      [
        "▁19",
        -8.633552551269531
      ],
      [
        "▁couleurs",
        -8.637116432189941
      ],
      [
        "▁celle",
        -8.638795852661133
      ],
      [
        "▁entreprises",
        -8.63934326171875
      ],
      [
        "▁série",
        -8.639751434326172
      ],
      [
        "▁an",
        -8.641100883483887
      ],
      [
        "▁manière",
        -8.641946792602539
      ],
      [
        "j",
        -8.647282600402832
      ],
      [
        "▁cm",
        -8.64945125579834
      ],
      [
        "▁000",
        -8.651670455932617
      ],
      [
        "▁livraison",
        -8.652053833007812
      ],
      [
        "▁façon",
        -8.657000541687012
      ],
      [
        "▁mode",
        -8.65744686126709
      ],
      [
        "▁politique",
        -8.657824516296387
      ],
      [
        "▁taille",
        -8.658329963684082
      ],
      [
        "▁b",
        -8.659826278686523
      ],
      [
        "30",
        -8.66314697265625
      ],
      [
        "▁mesure",
        -8.66349983215332
      ],
      [
        "▁passer",
        -8.664212226867676
      ],
      [
        "▁seul",
        -8.664841651916504
      ],
      [
        "ra",
        -8.665299415588379
      ],
      [
        "▁choisir",
        -8.670393943786621
      ],
      [
        "▁raison",
        -8.671061515808105
      ],
      [
        "▁sites",
        -8.673949241638184
      ],
      [
        "▁aucun",
        -8.676003456115723
      ],
      [
        "▁conditions",
        -8.676734924316406
      ],
      [
        "k",
        -8.677855491638184
      ],
      [
        "▁version",
        -8.679946899414062
      ],
      [
        "▁situation",
        -8.68563175201416
      ],
      [
        "9",
        -8.686531066894531
      ],
      [
        "▁corps",
        -8.687058448791504
      ],
      [
        "▁quel",
        -8.690225601196289
      ],
      [
        "avoir",
        -8.7003173828125
      ],
      [
        "▁but",
        -8.70059585571289
      ],
      [
        "▁aider",
        -8.70124626159668
      ],
      [
        "▁font",
        -8.703408241271973
      ],
      [
        "▁travaux",
        -8.703770637512207
      ],
      [
        "▁création",
        -8.705920219421387
      ],
      [
        "or",
        -8.706380844116211
      ],
      [
        "▁re",
        -8.706613540649414
      ],
      [
        "▁facile",
        -8.708392143249512
      ],
      [
        "▁chose",
        -8.709047317504883
      ],
      [
        "ez",
        -8.70962142944336
      ],
      [
        "▁différentes",
        -8.7097806930542
      ],
      [
        "▁25",
        -8.709798812866211
      ],
      [
        "▁trouve",
        -8.711207389831543
      ],
      [
        "▁ensuite",
        -8.71165657043457
      ],
      [
        "▁vendredi",
        -8.713496208190918
      ],
      [
        "▁passe",
        -8.7145414352417
      ],
      [
        "▁design",
        -8.714810371398926
      ],
      [
        "▁charge",
        -8.715420722961426
      ],
      [
        "▁coup",
        -8.716334342956543
      ],
      [
        "▁moyen",
        -8.71824836730957
      ],
      [
        "▁petits",
        -8.719648361206055
      ],
      [
        "▁samedi",
        -8.720466613769531
      ],
      [
        "▁janvier",
        -8.721504211425781
      ],
      [
        "▁donner",
        -8.723487854003906
      ],
      [
        "▁nombreuses",
        -8.731583595275879
      ],
      [
        "▁p",
        -8.73912525177002
      ],
      [
        "▁titre",
        -8.742671012878418
      ],
      [
        "agit",
        -8.743952751159668
      ],
      [
        "▁pu",
        -8.744211196899414
      ],
      [
        "▁enfin",
        -8.744329452514648
      ],
      [
        "▁projets",
        -8.744451522827148
      ],
      [
        "▁important",
        -8.744644165039062
      ],
      [
        "▁vu",
        -8.745992660522461
      ],
      [
        "histoire",
        -8.747809410095215
      ],
      [
        "occasion",
        -8.751197814941406
      ],
      [
        "▁pratique",
        -8.752063751220703
      ],
      [
        "nous",
        -8.752786636352539
      ],
      [
        "▁utiliser",
        -8.753368377685547
      ],
      [
        "an",
        -8.753588676452637
      ],
      [
        "▁unique",
        -8.755119323730469
      ],
      [
        "▁questions",
        -8.75586223602295
      ],
      [
        "▁activités",
        -8.757436752319336
      ],
      [
        "▁parmi",
        -8.758401870727539
      ],
      [
        "ensemble",
        -8.759236335754395
      ],
      [
        "▁devant",
        -8.761170387268066
      ],
      [
        "▁réseau",
        -8.761220932006836
      ],
      [
        "▁pourrait",
        -8.763265609741211
      ],
      [
        "autre",
        -8.763651847839355
      ],
      [
        "▁i",
        -8.763787269592285
      ],
      [
        "▁plaisir",
        -8.76389217376709
      ],
      [
        "▁musique",
        -8.76470947265625
      ],
      [
        "▁%",
        -8.766318321228027
      ],
      [
        "▁disponibles",
        -8.76656436920166
      ],
      [
        "▁sens",
        -8.767087936401367
      ],
      [
        "▁points",
        -8.768108367919922
      ],
      [
        "▁lundi",
        -8.768467903137207
      ],
      [
        "▁besoins",
        -8.771084785461426
      ],
      [
        "aide",
        -8.772459983825684
      ],
      [
        "re",
        -8.777148246765137
      ],
      [
        "art",
        -8.777596473693848
      ],
      [
        "▁rue",
        -8.7776517868042
      ],
      [
        "utilisation",
        -8.777861595153809
      ],
      [
        "▁membres",
        -8.778429985046387
      ],
      [
        "▁couleur",
        -8.780204772949219
      ],
      [
        "▁professionnels",
        -8.785255432128906
      ],
      [
        "▁quoi",
        -8.788775444030762
      ],
      [
        "▁tête",
        -8.788991928100586
      ],
      [
        "▁novembre",
        -8.789196014404297
      ],
      [
        "▁propre",
        -8.789214134216309
      ],
      [
        "▁code",
        -8.789813041687012
      ],
      [
        "▁via",
        -8.792381286621094
      ],
      [
        "▁dimanche",
        -8.792495727539062
      ],
      [
        "▁octobre",
        -8.792535781860352
      ],
      [
        "▁rendez",
        -8.79434585571289
      ],
      [
        "▁table",
        -8.794584274291992
      ],
      [
        "▁haute",
        -8.79515266418457
      ],
      [
        "ne",
        -8.795482635498047
      ],
      [
        "▁liste",
        -8.79615592956543
      ],
      [
        "▁conseils",
        -8.798293113708496
      ],
      [
        "v",
        -8.79854679107666
      ],
      [
        "▁blanc",
        -8.798724174499512
      ],
      [
        "▁pris",
        -8.800536155700684
      ],
      [
        "▁quatre",
        -8.800741195678711
      ],
      [
        "je",
        -8.801422119140625
      ],
      [
        "▁production",
        -8.807516098022461
      ],
      [
        "▁faites",
        -8.809391021728516
      ],
      [
        "▁ensemble",
        -8.811755180358887
      ],
      [
        "▁voiture",
        -8.811933517456055
      ],
      [
        "▁sexe",
        -8.813667297363281
      ],
      [
        "al",
        -8.813749313354492
      ],
      [
        "▁secteur",
        -8.814908981323242
      ],
      [
        "▁21",
        -8.815662384033203
      ],
      [
        "▁sud",
        -8.817974090576172
      ],
      [
        "▁ministre",
        -8.820423126220703
      ],
      [
        "▁hommes",
        -8.821019172668457
      ],
      [
        "▁r",
        -8.821636199951172
      ],
      [
        "▁souhaitez",
        -8.821866989135742
      ],
      [
        "▁sein",
        -8.82396125793457
      ],
      [
        "▁soir",
        -8.82503890991211
      ],
      [
        "▁gamme",
        -8.825414657592773
      ],
      [
        "▁plein",
        -8.826605796813965
      ],
      [
        "▁style",
        -8.830177307128906
      ],
      [
        "▁nuit",
        -8.833189964294434
      ],
      [
        "▁rapide",
        -8.833475112915039
      ],
      [
        "ur",
        -8.833633422851562
      ],
      [
        "▁articles",
        -8.834837913513184
      ],
      [
        "▁général",
        -8.83595085144043
      ],
      [
        "▁rapidement",
        -8.837017059326172
      ],
      [
        "▁grands",
        -8.837449073791504
      ],
      [
        "▁personnel",
        -8.838083267211914
      ],
      [
        "▁décembre",
        -8.838531494140625
      ],
      [
        "▁vient",
        -8.838921546936035
      ],
      [
        "▁donne",
        -8.840365409851074
      ],
      [
        "▁meilleurs",
        -8.841608047485352
      ],
      [
        "▁noir",
        -8.846368789672852
      ],
      [
        "▁protection",
        -8.84663200378418
      ],
      [
        "▁etc",
        -8.847790718078613
      ],
      [
        "▁juillet",
        -8.849413871765137
      ],
      [
        "▁jardin",
        -8.851846694946289
      ],
      [
        "▁voyage",
        -8.853189468383789
      ],
      [
        "▁modèle",
        -8.853987693786621
      ],
      [
        "▁domaine",
        -8.854719161987305
      ],
      [
        "▁50",
        -8.856438636779785
      ],
      [
        "▁meilleure",
        -8.857186317443848
      ],
      [
        "▁contact",
        -8.857792854309082
      ],
      [
        "▁gouvernement",
        -8.858344078063965
      ],
      [
        "ème",
        -8.859130859375
      ],
      [
        "▁problème",
        -8.859363555908203
      ],
      [
        "▁cœur",
        -8.861499786376953
      ],
      [
        "▁particulier",
        -8.861760139465332
      ],
      [
        "▁te",
        -8.862137794494629
      ],
      [
        "▁eux",
        -8.864652633666992
      ],
      [
        "▁assez",
        -8.869268417358398
      ],
      [
        "4",
        -8.872232437133789
      ],
      [
        "▁source",
        -8.873486518859863
      ],
      [
        "▁100",
        -8.87575626373291
      ],
      [
        "▁beau",
        -8.876913070678711
      ],
      [
        "intérieur",
        -8.877321243286133
      ],
      [
        "▁nature",
        -8.87862491607666
      ],
      [
        "▁avril",
        -8.879846572875977
      ],
      [
        "▁client",
        -8.880184173583984
      ],
      [
        "▁auprès",
        -8.881973266601562
      ],
      [
        "▁serait",
        -8.882587432861328
      ],
      [
        "▁solution",
        -8.88474178314209
      ],
      [
        "▁chef",
        -8.884834289550781
      ],
      [
        "▁rendre",
        -8.884868621826172
      ],
      [
        "▁espace",
        -8.885212898254395
      ],
      [
        "▁matière",
        -8.885310173034668
      ],
      [
        "▁jouer",
        -8.88598918914795
      ],
      [
        "▁obtenir",
        -8.892598152160645
      ],
      [
        "▁vacances",
        -8.89268970489502
      ],
      [
        "▁super",
        -8.893811225891113
      ],
      [
        "▁prise",
        -8.893901824951172
      ],
      [
        "▁lien",
        -8.895171165466309
      ],
      [
        "▁for",
        -8.895998001098633
      ],
      [
        "▁fille",
        -8.89626407623291
      ],
      [
        "▁cher",
        -8.896764755249023
      ],
      [
        "▁bas",
        -8.898004531860352
      ],
      [
        "▁sujet",
        -8.89901065826416
      ],
      [
        "▁réaliser",
        -8.902141571044922
      ],
      [
        "▁technique",
        -8.903044700622559
      ],
      [
        "▁pro",
        -8.905064582824707
      ],
      [
        "\".",
        -8.90605640411377
      ],
      [
        "▁dernières",
        -8.909415245056152
      ],
      [
        "▁pièces",
        -8.910810470581055
      ],
      [
        "▁télécharger",
        -8.91559886932373
      ],
      [
        "▁professionnel",
        -8.91814136505127
      ],
      [
        "▁22",
        -8.918356895446777
      ],
      [
        "▁is",
        -8.920178413391113
      ],
      [
        "▁salon",
        -8.921133995056152
      ],
      [
        "▁terre",
        -8.922110557556152
      ],
      [
        "▁pourrez",
        -8.924224853515625
      ],
      [
        "▁commande",
        -8.925909996032715
      ],
      [
        "▁mer",
        -8.9260835647583
      ],
      [
        "▁cependant",
        -8.926349639892578
      ],
      [
        "▁peau",
        -8.926613807678223
      ],
      [
        "▁ayant",
        -8.926905632019043
      ],
      [
        "▁présente",
        -8.928475379943848
      ],
      [
        "▁certaines",
        -8.928484916687012
      ],
      [
        "▁passé",
        -8.930631637573242
      ],
      [
        "▁or",
        -8.931976318359375
      ],
      [
        "▁gens",
        -8.934735298156738
      ],
      [
        "état",
        -8.935190200805664
      ],
      [
        "▁simplement",
        -8.936395645141602
      ],
      [
        "▁co",
        -8.941040992736816
      ],
      [
        "▁cause",
        -8.941983222961426
      ],
      [
        "▁nord",
        -8.94345760345459
      ],
      [
        "▁+",
        -8.945548057556152
      ],
      [
        "▁vivre",
        -8.946735382080078
      ],
      [
        "▁joueurs",
        -8.950316429138184
      ],
      [
        "▁sport",
        -8.95163631439209
      ],
      [
        "▁jeudi",
        -8.956098556518555
      ],
      [
        "▁période",
        -8.95939826965332
      ],
      [
        "▁loi",
        -8.961414337158203
      ],
      [
        "▁gros",
        -8.961639404296875
      ],
      [
        "▁ton",
        -8.961809158325195
      ],
      [
        "argent",
        -8.962173461914062
      ],
      [
        "▁pierre",
        -8.962326049804688
      ],
      [
        ":||",
        -8.963231086730957
      ],
      [
        "▁partager",
        -8.96384048461914
      ],
      [
        "▁mardi",
        -8.966691017150879
      ],
      [
        "▁concernant",
        -8.969806671142578
      ],
      [
        "▁aura",
        -8.969807624816895
      ],
      [
        "▁chambres",
        -8.969882011413574
      ],
      [
        "▁février",
        -8.970489501953125
      ],
      [
        "▁histoire",
        -8.970885276794434
      ],
      [
        "▁résultats",
        -8.97284984588623
      ],
      [
        "▁amis",
        -8.973173141479492
      ],
      [
        "▁devrait",
        -8.973977088928223
      ],
      [
        "▁départ",
        -8.976434707641602
      ],
      [
        "▁solutions",
        -8.977401733398438
      ],
      [
        "▁profiter",
        -8.978048324584961
      ],
      [
        "▁suivre",
        -8.978679656982422
      ],
      [
        "▁répondre",
        -8.980690956115723
      ],
      [
        "▁poste",
        -8.980700492858887
      ],
      [
        "même",
        -8.981731414794922
      ],
      [
        "▁permettre",
        -8.981790542602539
      ],
      [
        "▁sortie",
        -8.985228538513184
      ],
      [
        "▁•",
        -8.985525131225586
      ],
      [
        "▁nationale",
        -8.98633098602295
      ],
      [
        "air",
        -8.98667049407959
      ],
      [
        "▁cul",
        -8.987579345703125
      ],
      [
        "▁française",
        -8.990568161010742
      ],
      [
        "▁bureau",
        -8.994662284851074
      ],
      [
        "▁quelque",
        -8.995458602905273
      ],
      [
        "▁construction",
        -8.995619773864746
      ],
      [
        "▁images",
        -8.995686531066895
      ],
      [
        "▁f",
        -8.995781898498535
      ],
      [
        "▁mercredi",
        -8.997010231018066
      ],
      [
        "▁km",
        -8.998326301574707
      ],
      [
        "▁téléphone",
        -8.998544692993164
      ],
      [
        "▁large",
        -9.001379013061523
      ],
      [
        "▁valeur",
        -9.002385139465332
      ],
      [
        "hôtel",
        -9.003515243530273
      ],
      [
        "▁2020",
        -9.003596305847168
      ],
      [
        "▁désormais",
        -9.004828453063965
      ],
      [
        "▁loin",
        -9.005738258361816
      ],
      [
        "▁techniques",
        -9.006011009216309
      ],
      [
        "▁deuxième",
        -9.006467819213867
      ],
      [
        "▁publié",
        -9.008223533630373
      ],
      [
        "▁aller",
        -9.008437156677246
      ],
      [
        "▁v",
        -9.009753227233888
      ],
      [
        "▁direction",
        -9.012248992919922
      ],
      [
        "▁fil",
        -9.01315975189209
      ],
      [
        "▁situé",
        -9.014528274536133
      ],
      [
        "▁durant",
        -9.01576042175293
      ],
      [
        "▁durée",
        -9.016117095947266
      ],
      [
        "▁choses",
        -9.0166654586792
      ],
      [
        "▁euros",
        -9.017078399658203
      ],
      [
        "▁communication",
        -9.0194673538208
      ],
      [
        "▁veut",
        -9.024861335754396
      ],
      [
        "▁[",
        -9.024994850158691
      ],
      [
        "▁directement",
        -9.025809288024902
      ],
      [
        "”",
        -9.026078224182127
      ],
      [
        "▁visite",
        -9.02638053894043
      ],
      [
        "▁plutôt",
        -9.026389122009276
      ],
      [
        "▁gay",
        -9.026942253112791
      ],
      [
        "▁match",
        -9.02818775177002
      ],
      [
        "▁quelle",
        -9.030121803283691
      ],
      [
        "▁bonjour",
        -9.032546997070312
      ],
      [
        "▁confiance",
        -9.033068656921388
      ],
      [
        "▁oui",
        -9.034295082092283
      ],
      [
        "▁semble",
        -9.035284042358398
      ],
      [
        "]",
        -9.036086082458496
      ],
      [
        "▁description",
        -9.03806495666504
      ],
      [
        "▁réponse",
        -9.040162086486816
      ],
      [
        "▁2019",
        -9.04111099243164
      ],
      [
        "▁déclaré",
        -9.041730880737305
      ],
      [
        "▁23",
        -9.04568862915039
      ],
      [
        "▁offres",
        -9.046216011047363
      ],
      [
        "▁enfant",
        -9.047178268432615
      ],
      [
        "▁national",
        -9.049734115600586
      ],
      [
        "▁doivent",
        -9.051898002624512
      ],
      [
        "▁ta",
        -9.052933692932127
      ],
      [
        "▁étaient",
        -9.05349826812744
      ],
      [
        "▁rôle",
        -9.053506851196287
      ],
      [
        "▁met",
        -9.05507755279541
      ],
      [
        "association",
        -9.05532932281494
      ],
      [
        "▁contenu",
        -9.055466651916504
      ],
      [
        "ed",
        -9.060262680053713
      ],
      [
        "▁culture",
        -9.061701774597168
      ],
      [
        "▁parfois",
        -9.06383991241455
      ],
      [
        "»",
        -9.064393043518066
      ],
      [
        "\\",
        -9.06504726409912
      ],
      [
        "▁aide",
        -9.06829071044922
      ],
      [
        "▁nécessaire",
        -9.069816589355469
      ],
      [
        "▁devez",
        -9.070271492004396
      ],
      [
        "▁sociaux",
        -9.071859359741213
      ],
      [
        "_",
        -9.073183059692385
      ],
      [
        "▁route",
        -9.07439422607422
      ],
      [
        "▁attention",
        -9.074837684631348
      ],
      [
        "▁collection",
        -9.075037002563477
      ],
      [
        "▁facilement",
        -9.075349807739258
      ],
      [
        "▁traitement",
        -9.076573371887209
      ],
      [
        "▁chacun",
        -9.076797485351562
      ],
      [
        "▁accès",
        -9.07726764678955
      ],
      [
        "▁matin",
        -9.080742835998535
      ],
      [
        "▁vont",
        -9.082247734069824
      ],
      [
        "▁possibilité",
        -9.08237075805664
      ],
      [
        "▁seule",
        -9.085421562194824
      ],
      [
        "▁directeur",
        -9.085674285888672
      ],
      [
        "▁pièce",
        -9.087515830993652
      ],
      [
        "▁rouge",
        -9.087820053100586
      ],
      [
        "▁gratuitement",
        -9.089591026306152
      ],
      [
        "▁acheter",
        -9.091726303100586
      ],
      [
        "▁idéal",
        -9.091782569885254
      ],
      [
        "▁quotidien",
        -9.093806266784668
      ],
      [
        "▁fort",
        -9.09392261505127
      ],
      [
        "▁professionnelle",
        -9.095744132995604
      ],
      [
        "▁presse",
        -9.096522331237791
      ],
      [
        "▁existe",
        -9.098727226257324
      ],
      [
        "▁terrain",
        -9.100454330444336
      ],
      [
        "▁laquelle",
        -9.100936889648438
      ],
      [
        "▁aucune",
        -9.101605415344238
      ],
      [
        "▁sélection",
        -9.102079391479492
      ],
      [
        "▁autant",
        -9.103989601135254
      ],
      [
        "▁sol",
        -9.107404708862305
      ],
      [
        "▁*",
        -9.107481956481934
      ],
      [
        "▁mort",
        -9.110915184020996
      ],
      [
        "▁environ",
        -9.113332748413086
      ],
      [
        "▁venir",
        -9.11376953125
      ],
      [
        "▁prochain",
        -9.114541053771973
      ],
      [
        "▁contacter",
        -9.116695404052734
      ],
      [
        "▁cookies",
        -9.117109298706056
      ],
      [
        "▁suivi",
        -9.12289333343506
      ],
      [
        "▁zone",
        -9.123333930969238
      ],
      [
        "▁semaines",
        -9.123784065246582
      ],
      [
        "▁actuellement",
        -9.128856658935549
      ],
      [
        "▁gratuite",
        -9.128911972045898
      ],
      [
        "▁bain",
        -9.129616737365724
      ],
      [
        "▁parler",
        -9.129887580871582
      ],
      [
        "▁contrôle",
        -9.13154125213623
      ],
      [
        "▁location",
        -9.1337308883667
      ],
      [
        "▁sûr",
        -9.133846282958984
      ],
      [
        "▁confort",
        -9.134359359741213
      ],
      [
        "▁…",
        -9.136322021484377
      ],
      [
        "▁anti",
        -9.13654899597168
      ],
      [
        "▁succès",
        -9.137564659118652
      ],
      [
        "▁disposition",
        -9.13827419281006
      ],
      [
        "▁droits",
        -9.13979434967041
      ],
      [
        "unis",
        -9.143518447875977
      ],
      [
        "▁derniers",
        -9.145240783691406
      ],
      [
        "▁réseaux",
        -9.147165298461914
      ],
      [
        "▁2018",
        -9.14848518371582
      ],
      [
        "▁direct",
        -9.14954662322998
      ],
      [
        "▁propos",
        -9.149805068969728
      ],
      [
        "▁vite",
        -9.15057373046875
      ],
      [
        "▁août",
        -9.153797149658203
      ],
      [
        "▁communauté",
        -9.154744148254396
      ],
      [
        "▁scène",
        -9.1549654006958
      ],
      [
        "▁malgré",
        -9.155936241149902
      ],
      [
        "▁numéro",
        -9.15868091583252
      ],
      [
        "▁top",
        -9.158892631530762
      ],
      [
        "co",
        -9.15945053100586
      ],
      [
        "▁fond",
        -9.160627365112305
      ],
      [
        "▁étant",
        -9.161596298217772
      ],
      [
        "▁responsable",
        -9.161920547485352
      ],
      [
        "▁travailler",
        -9.163198471069336
      ],
      [
        "▁relation",
        -9.16324234008789
      ],
      [
        "▁laisser",
        -9.164722442626951
      ],
      [
        "▁grandes",
        -9.166213989257812
      ],
      [
        "▁mot",
        -9.16675853729248
      ],
      [
        "▁google",
        -9.166786193847656
      ],
      [
        "▁présent",
        -9.167207717895508
      ],
      [
        "▁you",
        -9.167887687683104
      ],
      [
        "it",
        -9.167909622192385
      ],
      [
        "▁coupe",
        -9.168013572692873
      ],
      [
        "▁casino",
        -9.16945457458496
      ],
      [
        "▁caractéristique",
        -9.16969871520996
      ],
      [
        "▁permis",
        -9.171124458312988
      ],
      [
        "▁risque",
        -9.171862602233888
      ],
      [
        "▁#",
        -9.172950744628906
      ],
      [
        "▁40",
        -9.173095703125
      ],
      [
        "ent",
        -9.175395011901855
      ],
      [
        "▁libre",
        -9.177290916442873
      ],
      [
        "us",
        -9.177525520324709
      ],
      [
        "▁mission",
        -9.177604675292969
      ],
      [
        "▁cinq",
        -9.178035736083984
      ],
      [
        "▁soutien",
        -9.178098678588867
      ],
      [
        "▁commentaires",
        -9.181144714355469
      ],
      [
        "▁efficace",
        -9.18130588531494
      ],
      [
        "▁séjour",
        -9.18421459197998
      ],
      [
        "▁bar",
        -9.184332847595217
      ],
      [
        "▁logiciel",
        -9.185834884643556
      ],
      [
        "▁processus",
        -9.18626308441162
      ],
      [
        "▁mariage",
        -9.186424255371094
      ],
      [
        "homme",
        -9.187746047973633
      ],
      [
        "▁retrouver",
        -9.188220977783203
      ],
      [
        "▁commune",
        -9.188772201538086
      ],
      [
        "▁éléments",
        -9.188946723937988
      ],
      [
        "origine",
        -9.18995475769043
      ],
      [
        "▁problèmes",
        -9.195870399475098
      ],
      [
        "▁envie",
        -9.196638107299805
      ],
      [
        "▁prend",
        -9.201193809509276
      ],
      [
        "▁meilleures",
        -9.202167510986328
      ],
      [
        "▁lit",
        -9.203218460083008
      ],
      [
        "▁soleil",
        -9.203399658203123
      ],
      [
        "▁parents",
        -9.204827308654783
      ],
      [
        "▁pied",
        -9.205355644226074
      ],
      [
        "▁terme",
        -9.206842422485352
      ],
      [
        "▁utilisé",
        -9.207035064697266
      ],
      [
        "▁état",
        -9.207231521606444
      ],
      [
        "▁2021",
        -9.207746505737305
      ],
      [
        "aient",
        -9.208032608032228
      ],
      [
        "▁gagner",
        -9.209506034851074
      ],
      [
        "▁paiement",
        -9.20977783203125
      ],
      [
        "▁modèles",
        -9.210693359375
      ],
      [
        "école",
        -9.211346626281738
      ],
      [
        "▁new",
        -9.212841987609863
      ],
      [
        "amour",
        -9.212907791137695
      ],
      [
        "▁proposer",
        -9.213176727294922
      ],
      [
        "▁complet",
        -9.214760780334473
      ],
      [
        "▁double",
        -9.21521282196045
      ],
      [
        "▁blog",
        -9.215291976928713
      ],
      [
        "information",
        -9.216355323791504
      ],
      [
        "www",
        -9.216814994812012
      ],
      [
        "espace",
        -9.217477798461914
      ],
      [
        "achat",
        -9.217556953430176
      ],
      [
        "▁outils",
        -9.217586517333984
      ],
      [
        "▁2017",
        -9.218202590942385
      ],
      [
        "▁guide",
        -9.220182418823242
      ],
      [
        "▁soirée",
        -9.220646858215332
      ],
      [
        "ailleurs",
        -9.221062660217283
      ],
      [
        "▁difficile",
        -9.221953392028809
      ],
      [
        "▁devenir",
        -9.222200393676758
      ],
      [
        "▁28",
        -9.222399711608888
      ],
      [
        "emploi",
        -9.223155975341797
      ],
      [
        "▁mots",
        -9.224303245544434
      ],
      [
        "▁force",
        -9.225342750549316
      ],
      [
        "▁détails",
        -9.22565460205078
      ],
      [
        "hésitez",
        -9.22602081298828
      ],
      [
        "te",
        -9.22699737548828
      ],
      [
        "accès",
        -9.227691650390623
      ],
      [
        "▁trouverez",
        -9.228604316711426
      ],
      [
        "▁appel",
        -9.229646682739258
      ],
      [
        "▁26",
        -9.231671333312988
      ],
      [
        "▁annonce",
        -9.232272148132324
      ],
      [
        "▁milieu",
        -9.233160972595217
      ],
      [
        "▁vrai",
        -9.236403465270996
      ],
      [
        "▁contrat",
        -9.236908912658691
      ],
      [
        "après",
        -9.237918853759766
      ],
      [
        "▁voulez",
        -9.238861083984377
      ],
      [
        "▁économique",
        -9.23927116394043
      ],
      [
        "▁comprendre",
        -9.239302635192873
      ],
      [
        "▁cheveux",
        -9.240467071533203
      ],
      [
        "▁changer",
        -9.240884780883787
      ],
      [
        "▁mobile",
        -9.24196434020996
      ],
      [
        "▁petites",
        -9.24244213104248
      ],
      [
        "▁lecture",
        -9.24420166015625
      ],
      [
        "▁restaurant",
        -9.24455451965332
      ],
      [
        "▁présence",
        -9.24467658996582
      ],
      [
        "ticulièrement",
        -9.24545669555664
      ],
      [
        "▁taux",
        -9.246007919311523
      ],
      [
        "▁message",
        -9.246086120605469
      ],
      [
        "▁facebook",
        -9.246349334716797
      ],
      [
        "▁allez",
        -9.246376991271973
      ],
      [
        "▁piscine",
        -9.247230529785156
      ],
      [
        "application",
        -9.247350692749023
      ],
      [
        "▁aurait",
        -9.247900009155272
      ],
      [
        "abord",
        -9.248927116394045
      ],
      [
        "▁parc",
        -9.251395225524902
      ],
      [
        "sur",
        -9.252049446105955
      ],
      [
        "5",
        -9.252296447753906
      ],
      [
        "▁lumière",
        -9.253660202026367
      ],
      [
        "▁développer",
        -9.255941390991213
      ],
      [
        "énergie",
        -9.256148338317873
      ],
      [
        "▁meubles",
        -9.2575101852417
      ],
      [
        "▁27",
        -9.259404182434082
      ],
      [
        "▁idées",
        -9.259598731994627
      ],
      [
        "▁commencer",
        -9.25993537902832
      ],
      [
        "▁guerre",
        -9.26016616821289
      ],
      [
        "▁véritable",
        -9.261046409606934
      ],
      [
        "▁lieux",
        -9.26146411895752
      ],
      [
        "age",
        -9.261625289916992
      ],
      [
        "▁lorsqu",
        -9.262018203735352
      ],
      [
        "▁permettant",
        -9.262530326843262
      ],
      [
        "is",
        -9.262803077697754
      ],
      [
        "▁préparation",
        -9.262990951538086
      ],
      [
        "▁parfait",
        -9.265143394470217
      ],
      [
        "▁genre",
        -9.265547752380373
      ],
      [
        "▁compagnie",
        -9.269332885742188
      ],
      [
        "▁compris",
        -9.26933765411377
      ],
      [
        "▁ajouter",
        -9.269716262817385
      ],
      [
        "▁proximité",
        -9.269783973693848
      ],
      [
        "▁proche",
        -9.269903182983398
      ],
      [
        "▁ouvert",
        -9.270549774169922
      ],
      [
        "end",
        -9.270896911621094
      ],
      [
        "▁décidé",
        -9.271269798278809
      ],
      [
        "été",
        -9.27158260345459
      ],
      [
        "▁social",
        -9.272682189941406
      ],
      [
        "▁air",
        -9.275314331054688
      ],
      [
        "▁pense",
        -9.275378227233888
      ],
      [
        "▁donné",
        -9.27653694152832
      ],
      [
        "▁annoncé",
        -9.277356147766112
      ],
      [
        "▁soins",
        -9.277932167053224
      ],
      [
        "8",
        -9.278036117553713
      ],
      [
        "▁2022",
        -9.278315544128418
      ],
      [
        "as",
        -9.278562545776367
      ],
      [
        "article",
        -9.279837608337402
      ],
      [
        "▁département",
        -9.28144073486328
      ],
      [
        "▁livres",
        -9.28304672241211
      ],
      [
        "▁cliquez",
        -9.283069610595703
      ],
      [
        "▁activité",
        -9.283639907836914
      ],
      [
        "▁vidéos",
        -9.284689903259276
      ],
      [
        "▁poids",
        -9.285614013671877
      ],
      [
        "▁ré",
        -9.285774230957031
      ],
      [
        "▁tard",
        -9.285806655883787
      ],
      [
        "dessous",
        -9.285969734191896
      ],
      [
        "▁bio",
        -9.286319732666016
      ],
      [
        "▁parcours",
        -9.286348342895508
      ],
      [
        "▁compétences",
        -9.28685474395752
      ],
      [
        "▁pourtant",
        -9.287354469299316
      ],
      [
        "ma",
        -9.289568901062012
      ],
      [
        "elles",
        -9.290271759033203
      ],
      [
        "▁partenaires",
        -9.292177200317385
      ],
      [
        "▁international",
        -9.293243408203123
      ],
      [
        "▁windows",
        -9.29344654083252
      ],
      [
        "expérience",
        -9.293965339660645
      ],
      [
        "▁généralement",
        -9.294116020202637
      ],
      [
        "▁offrir",
        -9.294886589050291
      ],
      [
        "▁équipes",
        -9.296045303344728
      ],
      [
        "▁domicile",
        -9.296513557434082
      ],
      [
        "▁types",
        -9.297377586364746
      ],
      [
        "▁noël",
        -9.29769802093506
      ],
      [
        "▁https",
        -9.298545837402344
      ],
      [
        "▁pratiques",
        -9.29919147491455
      ],
      [
        "▁tel",
        -9.299214363098145
      ],
      [
        "▁yeux",
        -9.299586296081545
      ],
      [
        "▁conception",
        -9.301916122436523
      ],
      [
        "▁note",
        -9.30290412902832
      ],
      [
        "▁machine",
        -9.304057121276855
      ],
      [
        "▁améliorer",
        -9.304447174072266
      ],
      [
        "▁capacité",
        -9.304580688476562
      ],
      [
        "▁père",
        -9.305337905883787
      ],
      [
        "▁cherche",
        -9.306730270385742
      ],
      [
        "▁divers",
        -9.306838989257812
      ],
      [
        "▁hors",
        -9.30820655822754
      ],
      [
        "▁prêt",
        -9.30833911895752
      ],
      [
        "▁parti",
        -9.310914039611816
      ],
      [
        "▁réel",
        -9.313925743103027
      ],
      [
        "▁port",
        -9.314085960388184
      ],
      [
        "▁tels",
        -9.317410469055176
      ],
      [
        "▁permettent",
        -9.318127632141112
      ],
      [
        "aime",
        -9.319074630737305
      ],
      [
        "@",
        -9.32038402557373
      ],
      [
        "▁décision",
        -9.320820808410645
      ],
      [
        "▁mesures",
        -9.321542739868164
      ],
      [
        "▁email",
        -9.321951866149902
      ],
      [
        "▁fête",
        -9.324389457702637
      ],
      [
        "▁adresse",
        -9.326976776123049
      ],
      [
        "▁animaux",
        -9.32707691192627
      ],
      [
        "▁décoration",
        -9.327188491821287
      ],
      [
        "▁2023",
        -9.327276229858398
      ],
      [
        "▁bord",
        -9.32868194580078
      ],
      [
        "fi",
        -9.329383850097656
      ],
      [
        "▁dé",
        -9.330785751342772
      ],
      [
        "▁résultat",
        -9.331649780273438
      ],
      [
        "▁commentaire",
        -9.33216667175293
      ],
      [
        "▁édition",
        -9.33271598815918
      ],
      [
        "▁st",
        -9.332735061645508
      ],
      [
        "▁magasin",
        -9.33535861968994
      ],
      [
        "▁ailleurs",
        -9.33543872833252
      ],
      [
        "▁chat",
        -9.33623504638672
      ],
      [
        "7",
        -9.337141036987305
      ],
      [
        "activité",
        -9.337860107421877
      ],
      [
        "▁campagne",
        -9.338180541992188
      ],
      [
        "▁pc",
        -9.339151382446287
      ],
      [
        "aux",
        -9.340261459350586
      ],
      [
        "▁numérique",
        -9.343045234680176
      ],
      [
        "▁boutique",
        -9.343056678771973
      ],
      [
        "6",
        -9.344847679138184
      ],
      [
        "▁avantages",
        -9.348383903503418
      ],
      [
        "▁utilisateurs",
        -9.348623275756836
      ],
      [
        "▁train",
        -9.348699569702148
      ],
      [
        "▁village",
        -9.349464416503906
      ],
      [
        "▁couple",
        -9.34978199005127
      ],
      [
        "ville",
        -9.351083755493164
      ],
      [
        "▁options",
        -9.353424072265623
      ],
      [
        "man",
        -9.35362720489502
      ],
      [
        "▁quartier",
        -9.353899955749512
      ],
      [
        "▁recette",
        -9.35450553894043
      ],
      [
        "▁60",
        -9.355278968811035
      ],
      [
        "▁image",
        -9.35657787322998
      ],
      [
        "w",
        -9.357022285461426
      ],
      [
        "▁by",
        -9.3574857711792
      ],
      [
        "▁marche",
        -9.35980224609375
      ],
      [
        "▁matériel",
        -9.360994338989258
      ],
      [
        "▁outre",
        -9.361994743347168
      ],
      [
        "°",
        -9.362277030944824
      ],
      [
        "ia",
        -9.36257553100586
      ],
      [
        "▁week",
        -9.3626070022583
      ],
      [
        "image",
        -9.362811088562012
      ],
      [
        "▁plateforme",
        -9.363560676574709
      ],
      [
        "▁garde",
        -9.364834785461426
      ],
      [
        "▁longue",
        -9.366744041442873
      ],
      [
        "▁beauté",
        -9.368505477905272
      ],
      [
        "▁transport",
        -9.36924648284912
      ],
      [
        "▁covid",
        -9.369468688964844
      ],
      [
        "▁connaître",
        -9.36980152130127
      ],
      [
        "▁sac",
        -9.370384216308594
      ],
      [
        "▁regard",
        -9.37081241607666
      ],
      [
        "▁ressources",
        -9.37168788909912
      ],
      [
        "▁0",
        -9.371892929077148
      ],
      [
        "▁technologie",
        -9.37227725982666
      ],
      [
        "▁bout",
        -9.372742652893066
      ],
      [
        "▁dossier",
        -9.373079299926758
      ],
      [
        "▁uniquement",
        -9.373642921447754
      ],
      [
        "▁films",
        -9.373748779296877
      ],
      [
        "▁crise",
        -9.37409210205078
      ],
      [
        "▁élèves",
        -9.37416172027588
      ],
      [
        "▁papier",
        -9.376678466796877
      ],
      [
        "▁pose",
        -9.377559661865234
      ],
      [
        "▁générale",
        -9.380615234375
      ],
      [
        "▁plupart",
        -9.381614685058594
      ],
      [
        "▁soin",
        -9.381715774536133
      ],
      [
        "▁profil",
        -9.382420539855955
      ],
      [
        "▁29",
        -9.383039474487305
      ],
      [
        "▁mi",
        -9.383078575134276
      ],
      [
        "action",
        -9.384289741516112
      ],
      [
        "▁coeur",
        -9.3861083984375
      ],
      [
        "▁territoire",
        -9.386517524719238
      ],
      [
        "▁réalisé",
        -9.386747360229492
      ],
      [
        "▁logement",
        -9.38838005065918
      ],
      [
        "▁présentation",
        -9.389568328857422
      ],
      [
        "▁référence",
        -9.39011287689209
      ],
      [
        "na",
        -9.390360832214355
      ],
      [
        "▁concours",
        -9.391074180603027
      ],
      [
        "▁thème",
        -9.391393661499023
      ],
      [
        "▁100%",
        -9.391737937927246
      ],
      [
        "▁retrouvez",
        -9.392547607421877
      ],
      [
        "environnement",
        -9.392687797546388
      ],
      [
        "▁lequel",
        -9.39321994781494
      ],
      [
        "el",
        -9.393392562866213
      ],
      [
        "▁connu",
        -9.393596649169922
      ],
      [
        "▁agréable",
        -9.394486427307127
      ],
      [
        "▁étape",
        -9.396154403686523
      ],
      [
        "▁police",
        -9.398479461669922
      ],
      [
        "▁o",
        -9.398881912231444
      ],
      [
        "heure",
        -9.399368286132812
      ],
      [
        "▁application",
        -9.399822235107422
      ],
      [
        "▁veuillez",
        -9.399922370910645
      ],
      [
        "▁texte",
        -9.400453567504885
      ],
      [
        "▁feu",
        -9.404574394226074
      ],
      [
        "▁android",
        -9.405415534973145
      ],
      [
        "▁format",
        -9.406512260437012
      ],
      [
        "▁festival",
        -9.407197952270508
      ],
      [
        "▁total",
        -9.40748119354248
      ],
      [
        "▁celles",
        -9.408576011657717
      ],
      [
        "esprit",
        -9.409502983093262
      ],
      [
        "▁voilà",
        -9.409882545471191
      ],
      [
        "organisation",
        -9.410425186157228
      ],
      [
        "▁quant",
        -9.410747528076172
      ],
      [
        "du",
        -9.411840438842772
      ],
      [
        "▁pages",
        -9.413119316101074
      ],
      [
        "▁bonnes",
        -9.413362503051758
      ],
      [
        "▁bons",
        -9.413517951965332
      ],
      [
        "▁premiers",
        -9.41543197631836
      ],
      [
        "ca",
        -9.416107177734377
      ],
      [
        "▁états",
        -9.416980743408203
      ],
      [
        "▁hauteur",
        -9.417076110839844
      ],
      [
        "▁devis",
        -9.417351722717283
      ],
      [
        "▁siècle",
        -9.418827056884766
      ],
      [
        "▁al",
        -9.41901969909668
      ],
      [
        "▁propriété",
        -9.41926097869873
      ],
      [
        "▁peux",
        -9.419729232788086
      ],
      [
        "▁bébé",
        -9.423739433288574
      ],
      [
        "▁véhicule",
        -9.424345016479492
      ],
      [
        "▁trouvé",
        -9.424434661865234
      ],
      [
        "▁participer",
        -9.424562454223633
      ],
      [
        "▁changement",
        -9.42573356628418
      ],
      [
        "▁verre",
        -9.426777839660645
      ],
      [
        "▁k",
        -9.4268159866333
      ],
      [
        "▁course",
        -9.427144050598145
      ],
      [
        "▁mouvement",
        -9.428804397583008
      ],
      [
        "▁cartes",
        -9.429254531860352
      ],
      [
        "▁chemin",
        -9.429902076721191
      ],
      [
        "▁explique",
        -9.430179595947266
      ],
      [
        "si",
        -9.43018627166748
      ],
      [
        "▁assurer",
        -9.430215835571287
      ],
      [
        "▁objectif",
        -9.430278778076172
      ],
      [
        "▁repas",
        -9.431697845458984
      ],
      [
        "▁classe",
        -9.432437896728516
      ],
      [
        "▁doute",
        -9.433292388916016
      ],
      [
        "informations",
        -9.434226989746094
      ],
      [
        "▁31",
        -9.434588432312012
      ],
      [
        "▁longtemps",
        -9.434826850891112
      ],
      [
        "▁tv",
        -9.435254096984863
      ],
      [
        "▁locaux",
        -9.4358549118042
      ],
      [
        "▁presque",
        -9.43654441833496
      ],
      [
        "▁prochaine",
        -9.438186645507812
      ],
      [
        "example",
        -9.438424110412598
      ],
      [
        "ly",
        -9.43844985961914
      ],
      [
        "▁hôtel",
        -9.43859577178955
      ],
      [
        "▁mère",
        -9.439101219177246
      ],
      [
        "▁rose",
        -9.439597129821776
      ],
      [
        "▁œuvre",
        -9.44019889831543
      ],
      [
        "▁électrique",
        -9.444074630737305
      ],
      [
        "▁écrit",
        -9.444308280944824
      ],
      [
        "▁parfaitement",
        -9.444440841674805
      ],
      [
        "▁bleu",
        -9.445316314697266
      ],
      [
        "▁actions",
        -9.446978569030762
      ],
      [
        "▁éviter",
        -9.448042869567873
      ],
      [
        "▁fils",
        -9.44820785522461
      ],
      [
        "▁dispose",
        -9.448238372802734
      ],
      [
        "▁montre",
        -9.449356079101562
      ],
      [
        "▁pré",
        -9.449369430541992
      ],
      [
        "▁vol",
        -9.450221061706545
      ],
      [
        "»,",
        -9.45063304901123
      ],
      [
        "▁membre",
        -9.451557159423828
      ],
      [
        "▁2016",
        -9.451956748962402
      ],
      [
        "▁vin",
        -9.45283031463623
      ],
      [
        "▁sociale",
        -9.454705238342283
      ],
      [
        "▁canada",
        -9.45500946044922
      ],
      [
        "▁ca",
        -9.455235481262209
      ],
      [
        "▁mac",
        -9.45543384552002
      ],
      [
        "0",
        -9.455695152282717
      ],
      [
        "▁nouvel",
        -9.457440376281738
      ],
      [
        "▁chance",
        -9.457489967346191
      ],
      [
        "▁soient",
        -9.45795440673828
      ],
      [
        "▁intérieur",
        -9.458398818969728
      ],
      [
        "▁portes",
        -9.459221839904783
      ],
      [
        "▁surface",
        -9.460314750671388
      ],
      [
        "ch",
        -9.4612398147583
      ],
      [
        "▁auto",
        -9.464788436889648
      ],
      [
        "▁permettra",
        -9.464900016784668
      ],
      [
        "▁http",
        -9.465967178344728
      ],
      [
        "▁reçu",
        -9.469176292419434
      ],
      [
        "entre",
        -9.469508171081545
      ],
      [
        "▁manque",
        -9.46976089477539
      ],
      [
        "▁rester",
        -9.470073699951172
      ],
      [
        "▁catégorie",
        -9.47067165374756
      ],
      [
        "▁québec",
        -9.471036911010742
      ],
      [
        "ici",
        -9.471056938171388
      ],
      [
        "▁touche",
        -9.472182273864746
      ],
      [
        "▁continue",
        -9.47348403930664
      ],
      [
        "▁cadeau",
        -9.47359848022461
      ],
      [
        "▁six",
        -9.475207328796388
      ],
      [
        "▁support",
        -9.475747108459473
      ],
      [
        "▁venez",
        -9.476104736328123
      ],
      [
        "▁naturel",
        -9.476908683776855
      ],
      [
        "▁café",
        -9.47926425933838
      ],
      [
        "▁tendance",
        -9.480238914489746
      ],
      [
        "▁parking",
        -9.481203079223633
      ],
      [
        "etat",
        -9.48157024383545
      ],
      [
        "▁parties",
        -9.481945037841797
      ],
      [
        "▁moderne",
        -9.482108116149902
      ],
      [
        "▁réalisation",
        -9.48233127593994
      ],
      [
        "agence",
        -9.483466148376465
      ],
      [
        "▁souhaite",
        -9.484127044677734
      ],
      [
        "▁be",
        -9.484260559082031
      ],
      [
        "▁complète",
        -9.488036155700684
      ],
      [
        "▁bientôt",
        -9.488585472106934
      ],
      [
        "▁art",
        -9.489964485168455
      ],
      [
        "▁partenaire",
        -9.49197769165039
      ],
      [
        "ée",
        -9.492671012878418
      ],
      [
        "▁rencontrer",
        -9.493287086486816
      ],
      [
        "offre",
        -9.493412017822266
      ],
      [
        "▁faisant",
        -9.495502471923828
      ],
      [
        "me",
        -9.495746612548828
      ],
      [
        "▁sait",
        -9.496627807617188
      ],
      [
        "▁moyens",
        -9.497941970825195
      ],
      [
        "▁fonds",
        -9.498247146606444
      ],
      [
        "▁micro",
        -9.498736381530762
      ],
      [
        "ouverture",
        -9.499021530151367
      ],
      [
        "▁respect",
        -9.499789237976074
      ],
      [
        "▁toutefois",
        -9.500123023986816
      ],
      [
        "▁structure",
        -9.50094223022461
      ],
      [
        "▁suisse",
        -9.500948905944824
      ],
      [
        "▁durable",
        -9.501938819885254
      ],
      [
        "▁suivant",
        -9.501958847045898
      ],
      [
        "▁go",
        -9.502750396728516
      ],
      [
        "org",
        -9.50584888458252
      ],
      [
        "▁publique",
        -9.507660865783691
      ],
      [
        "▁voix",
        -9.508034706115724
      ],
      [
        "▁vert",
        -9.50819206237793
      ],
      [
        "▁forte",
        -9.508673667907717
      ],
      [
        "▁commerce",
        -9.509344100952148
      ],
      [
        "▁avaient",
        -9.50936794281006
      ],
      [
        "▁règles",
        -9.509747505187988
      ],
      [
        "▁certain",
        -9.510944366455078
      ],
      [
        "que",
        -9.5120210647583
      ],
      [
        "affaires",
        -9.51284122467041
      ],
      [
        "▁dos",
        -9.512885093688965
      ],
      [
        "▁matériaux",
        -9.51341724395752
      ],
      [
        "▁toi",
        -9.51343822479248
      ],
      [
        "▁lyon",
        -9.514182090759276
      ],
      [
        "▁test",
        -9.514229774475098
      ],
      [
        "▁accessoires",
        -9.515889167785645
      ],
      [
        "▁idée",
        -9.516897201538086
      ],
      [
        "▁hotel",
        -9.51785945892334
      ],
      [
        "▁créé",
        -9.517861366271973
      ],
      [
        "▁marie",
        -9.518013954162598
      ],
      [
        "▁suffit",
        -9.51869010925293
      ],
      [
        "▁recevoir",
        -9.518776893615724
      ],
      [
        "▁moyenne",
        -9.520771026611328
      ],
      [
        "avais",
        -9.520878791809082
      ],
      [
        "▁concerne",
        -9.521024703979492
      ],
      [
        "▁physique",
        -9.52345371246338
      ],
      [
        "▁passage",
        -9.524333000183104
      ],
      [
        "▁heure",
        -9.526267051696776
      ],
      [
        "▁garantie",
        -9.527320861816406
      ],
      [
        "▁sortir",
        -9.527993202209473
      ],
      [
        "▁partage",
        -9.528008460998535
      ],
      [
        "▁troisième",
        -9.52891731262207
      ],
      [
        "▁découverte",
        -9.529963493347168
      ],
      [
        "▁acteurs",
        -9.53119659423828
      ],
      [
        "▁classique",
        -9.531364440917969
      ],
      [
        "▁plage",
        -9.532231330871582
      ],
      [
        "▁soi",
        -9.532320976257324
      ],
      [
        "▁el",
        -9.532480239868164
      ],
      [
        "avez",
        -9.533580780029297
      ],
      [
        "ta",
        -9.534299850463867
      ],
      [
        "ex",
        -9.53600025177002
      ],
      [
        "▁bienvenue",
        -9.536765098571776
      ],
      [
        "▁mm",
        -9.537642478942873
      ],
      [
        "huile",
        -9.538692474365234
      ],
      [
        "▁cuir",
        -9.541117668151855
      ],
      [
        "▁mini",
        -9.541318893432615
      ],
      [
        "▁présenter",
        -9.542718887329102
      ],
      [
        "entrée",
        -9.543219566345217
      ],
      [
        "cm",
        -9.543251991271973
      ],
      [
        "▁fut",
        -9.543963432312012
      ],
      [
        "▁manger",
        -9.54438591003418
      ],
      [
        "▁internationale",
        -9.544754981994627
      ],
      [
        "▁continuer",
        -9.548840522766112
      ],
      [
        "▁crédit",
        -9.550284385681152
      ],
      [
        "ie",
        -9.550517082214355
      ],
      [
        "▁anglais",
        -9.55084991455078
      ],
      [
        "▁européenne",
        -9.550881385803224
      ],
      [
        "▁belles",
        -9.551416397094728
      ],
      [
        "▁pourra",
        -9.55178165435791
      ],
      [
        "▁distance",
        -9.554101943969728
      ],
      [
        "▁ai",
        -9.554729461669922
      ],
      [
        "importe",
        -9.555933952331545
      ],
      [
        "▁ministère",
        -9.556008338928224
      ],
      [
        "▁goût",
        -9.556137084960938
      ],
      [
        "▁moteur",
        -9.556553840637209
      ],
      [
        "installation",
        -9.5575532913208
      ],
      [
        "▁europe",
        -9.558900833129885
      ],
      [
        "▁parle",
        -9.559035301208496
      ],
      [
        "▁objectifs",
        -9.559102058410645
      ],
      [
        "▁fera",
        -9.560175895690918
      ],
      [
        "▁joueur",
        -9.56087589263916
      ],
      [
        "▁entièrement",
        -9.561498641967772
      ],
      [
        "euros",
        -9.561955451965332
      ],
      [
        "▁demander",
        -9.56292724609375
      ],
      [
        "▁protéger",
        -9.563433647155762
      ],
      [
        "▁porter",
        -9.563579559326172
      ],
      [
        "▁fleurs",
        -9.563590049743652
      ],
      [
        "▁it",
        -9.563796043395996
      ],
      [
        "▁stratégie",
        -9.564132690429688
      ],
      [
        "▁environnement",
        -9.565423011779783
      ],
      [
        "▁connaissance",
        -9.565661430358888
      ],
      [
        "accueil",
        -9.565670013427734
      ],
      [
        "+",
        -9.56624984741211
      ],
      [
        "▁réduire",
        -9.56670379638672
      ],
      [
        "▁mains",
        -9.567058563232422
      ],
      [
        "▁consulter",
        -9.567214965820312
      ],
      [
        "▁magnifique",
        -9.56773281097412
      ],
      [
        "▁ordinateur",
        -9.569074630737305
      ],
      [
        "▁maximum",
        -9.570778846740724
      ],
      [
        "▁cour",
        -9.571226119995115
      ],
      [
        "▁filles",
        -9.57133960723877
      ],
      [
        "▁préparer",
        -9.572637557983398
      ],
      [
        "adresse",
        -9.574874877929688
      ],
      [
        "▁immobilier",
        -9.575016975402832
      ],
      [
        "▁star",
        -9.57561206817627
      ],
      [
        "▁terrasse",
        -9.575841903686523
      ],
      [
        "▁endroit",
        -9.57591152191162
      ],
      [
        "▁affaires",
        -9.576281547546388
      ],
      [
        "ar",
        -9.576323509216309
      ],
      [
        "▁réalité",
        -9.576613426208496
      ],
      [
        "▁maire",
        -9.577210426330566
      ],
      [
        "▁fruits",
        -9.57733917236328
      ],
      [
        "▁cinéma",
        -9.57784652709961
      ],
      [
        "▁no",
        -9.578815460205078
      ],
      [
        "▁spectacle",
        -9.57985496520996
      ],
      [
        "▁espaces",
        -9.58054256439209
      ],
      [
        "▁comprend",
        -9.58058261871338
      ],
      [
        "▁fonctionnement",
        -9.581477165222168
      ],
      [
        "▁min",
        -9.582483291625977
      ],
      [
        "▁your",
        -9.582635879516602
      ],
      [
        "âge",
        -9.582950592041016
      ],
      [
        "▁passion",
        -9.583314895629885
      ],
      [
        "▁croissance",
        -9.583967208862305
      ],
      [
        "▁partout",
        -9.58455753326416
      ],
      [
        "▁fabrication",
        -9.585049629211426
      ],
      [
        "to",
        -9.586461067199709
      ],
      [
        "▁carrière",
        -9.586992263793944
      ],
      [
        "os",
        -9.587202072143556
      ],
      [
        "▁république",
        -9.587279319763184
      ],
      [
        "▁pleine",
        -9.588244438171388
      ],
      [
        "▁performance",
        -9.588423728942873
      ],
      [
        "université",
        -9.590204238891602
      ],
      [
        "pour",
        -9.590652465820312
      ],
      [
        "▁meuble",
        -9.590879440307615
      ],
      [
        "▁étudiants",
        -9.591715812683104
      ],
      [
        "▁habitants",
        -9.592048645019531
      ],
      [
        "▁200",
        -9.593175888061523
      ],
      [
        "▁with",
        -9.593528747558594
      ],
      [
        "▁nécessaires",
        -9.593558311462402
      ],
      [
        "▁position",
        -9.594393730163574
      ],
      [
        "ais",
        -9.594420433044434
      ],
      [
        "▁machines",
        -9.594587326049805
      ],
      [
        "▁devient",
        -9.59624481201172
      ],
      [
        "▁réduction",
        -9.59659481048584
      ],
      [
        "ation",
        -9.59903621673584
      ],
      [
        "▁gauche",
        -9.602435111999512
      ],
      [
        "▁plat",
        -9.603110313415527
      ],
      [
        "▁bande",
        -9.604198455810549
      ],
      [
        "▁soyez",
        -9.604329109191896
      ],
      [
        "▁marques",
        -9.604782104492188
      ],
      [
        "▁risques",
        -9.605109214782717
      ],
      [
        "▁utilisation",
        -9.605697631835938
      ],
      [
        "▁population",
        -9.606523513793944
      ],
      [
        "▁langue",
        -9.60677433013916
      ],
      [
        "▁neuf",
        -9.607337951660156
      ],
      [
        "▁budget",
        -9.60787296295166
      ],
      [
        "▁différence",
        -9.608970642089844
      ],
      [
        "▁stock",
        -9.60976505279541
      ],
      [
        "▁puisque",
        -9.60980224609375
      ],
      [
        "▁bâtiment",
        -9.610098838806152
      ],
      [
        "europe",
        -9.6105375289917
      ],
      [
        "▁consommation",
        -9.611263275146484
      ],
      [
        "▁choisi",
        -9.611639976501465
      ],
      [
        "▁droite",
        -9.611894607543944
      ],
      [
        "▁réunion",
        -9.611997604370115
      ],
      [
        "▁contactez",
        -9.612000465393066
      ],
      [
        "▁seconde",
        -9.613995552062988
      ],
      [
        "auteur",
        -9.614465713500977
      ],
      [
        "▁court",
        -9.614750862121582
      ],
      [
        "objectif",
        -9.615032196044922
      ],
      [
        "▁sais",
        -9.617053031921388
      ],
      [
        "▁post",
        -9.618386268615724
      ],
      [
        "▁derrière",
        -9.618855476379396
      ],
      [
        "▁—",
        -9.6192045211792
      ],
      [
        "▁regarder",
        -9.619508743286133
      ],
      [
        "▁commission",
        -9.619965553283691
      ],
      [
        "▁mail",
        -9.622342109680176
      ],
      [
        "be",
        -9.62305736541748
      ],
      [
        "▁premières",
        -9.626596450805664
      ],
      [
        "▁we",
        -9.62707233428955
      ],
      [
        "▁z",
        -9.627781867980955
      ],
      [
        "▁mètres",
        -9.62925148010254
      ],
      [
        "▁retrouve",
        -9.6294527053833
      ],
      [
        "ordre",
        -9.629796981811523
      ],
      [
        "▁profitez",
        -9.630770683288574
      ],
      [
        "▁album",
        -9.631447792053224
      ],
      [
        "ine",
        -9.631775856018066
      ],
      [
        "▁importante",
        -9.6319580078125
      ],
      [
        "▁action",
        -9.632516860961914
      ],
      [
        "▁massage",
        -9.632824897766112
      ],
      [
        "▁minimum",
        -9.633572578430176
      ],
      [
        "▁bel",
        -9.634025573730469
      ],
      [
        "▁rend",
        -9.634403228759766
      ],
      [
        "▁ligue",
        -9.634821891784668
      ],
      [
        "▁www",
        -9.63524055480957
      ],
      [
        "des",
        -9.635395050048828
      ],
      [
        "▁gérer",
        -9.635563850402832
      ],
      [
        "▁zones",
        -9.635835647583008
      ],
      [
        "net",
        -9.636970520019531
      ],
      [
        "▁garder",
        -9.63701057434082
      ],
      [
        "▁dollars",
        -9.637290000915527
      ],
      [
        "▁mondiale",
        -9.637358665466309
      ],
      [
        "▁montant",
        -9.637478828430176
      ],
      [
        "▁vais",
        -9.63893699645996
      ],
      [
        "▁black",
        -9.639972686767578
      ],
      [
        "▁familles",
        -9.640427589416504
      ],
      [
        "▁commence",
        -9.641287803649902
      ],
      [
        "▁gaz",
        -9.641939163208008
      ],
      [
        "▁tandis",
        -9.642247200012209
      ],
      [
        "▁football",
        -9.642576217651367
      ],
      [
        "▁chien",
        -9.642592430114746
      ],
      [
        "▁conférence",
        -9.642773628234863
      ],
      [
        "at",
        -9.643153190612791
      ],
      [
        "▁banque",
        -9.643264770507812
      ],
      [
        "▁500",
        -9.643325805664062
      ],
      [
        "▁méthode",
        -9.643440246582031
      ],
      [
        "▁relations",
        -9.643467903137209
      ],
      [
        "▁fichier",
        -9.6439208984375
      ],
      [
        "▁quels",
        -9.644699096679688
      ],
      [
        "utiliser",
        -9.646944999694824
      ],
      [
        "▁chaleur",
        -9.64958381652832
      ],
      [
        "▁régulièrement",
        -9.649911880493164
      ],
      [
        "▁2015",
        -9.649938583374023
      ],
      [
        "▁finalement",
        -9.65070915222168
      ],
      [
        "▁réservation",
        -9.651591300964355
      ],
      [
        "▁collaboration",
        -9.65173625946045
      ],
      [
        "▁puissance",
        -9.652052879333496
      ],
      [
        "▁célèbre",
        -9.652081489562988
      ],
      [
        "▁aurez",
        -9.652358055114746
      ],
      [
        "▁peinture",
        -9.652690887451172
      ],
      [
        "tu",
        -9.65355396270752
      ],
      [
        "▁bénéficier",
        -9.654479026794434
      ],
      [
        "▁this",
        -9.65589427947998
      ],
      [
        "▁heureux",
        -9.657041549682615
      ],
      [
        "▁video",
        -9.657410621643066
      ],
      [
        "▁musée",
        -9.657999038696287
      ],
      [
        "▁visage",
        -9.658547401428224
      ],
      [
        "▁finale",
        -9.65938949584961
      ],
      [
        "▁marketing",
        -9.659765243530272
      ],
      [
        "▁lancer",
        -9.660059928894045
      ],
      [
        "▁achat",
        -9.660443305969238
      ],
      [
        "▁80",
        -9.661588668823242
      ],
      [
        "▁principal",
        -9.661632537841797
      ],
      [
        "▁documents",
        -9.66202449798584
      ],
      [
        "▁hier",
        -9.662052154541016
      ],
      [
        "▁gratuits",
        -9.662818908691406
      ],
      [
        "▁chaîne",
        -9.663045883178713
      ],
      [
        "▁justice",
        -9.663744926452637
      ],
      [
        "▁politiques",
        -9.66411590576172
      ],
      [
        "se",
        -9.664222717285156
      ],
      [
        "▁chaussures",
        -9.664722442626951
      ],
      [
        "mail",
        -9.66539478302002
      ],
      [
        "▁u",
        -9.66552448272705
      ],
      [
        "▁local",
        -9.665724754333496
      ],
      [
        "établissement",
        -9.666071891784668
      ],
      [
        "▁riche",
        -9.666813850402832
      ],
      [
        "▁accueil",
        -9.66750431060791
      ],
      [
        "exploitation",
        -9.66795253753662
      ],
      [
        "▁laisse",
        -9.668474197387695
      ],
      [
        "▁médias",
        -9.669032096862791
      ],
      [
        "arrivée",
        -9.66904640197754
      ],
      [
        "▁applications",
        -9.670868873596191
      ],
      [
        "▁dix",
        -9.671255111694336
      ],
      [
        "▁communiqué",
        -9.67131519317627
      ],
      [
        "▁journal",
        -9.672014236450195
      ],
      [
        "▁payer",
        -9.672819137573242
      ],
      [
        "▁artistes",
        -9.67310905456543
      ],
      [
        "▁confortable",
        -9.673786163330078
      ],
      [
        "up",
        -9.673954963684082
      ],
      [
        "eur",
        -9.676271438598633
      ],
      [
        "▁dieu",
        -9.676287651062012
      ],
      [
        "▁crème",
        -9.676949501037598
      ],
      [
        "▁groupes",
        -9.677136421203612
      ],
      [
        "▁changements",
        -9.679046630859377
      ],
      [
        "▁publics",
        -9.67944049835205
      ],
      [
        "▁possède",
        -9.68045711517334
      ],
      [
        "▁systèmes",
        -9.680489540100098
      ],
      [
        "▁poser",
        -9.680570602416992
      ],
      [
        "▁laissez",
        -9.68148708343506
      ],
      [
        "▁maladie",
        -9.682373046875
      ],
      [
        "▁w",
        -9.683565139770508
      ],
      [
        "▁fans",
        -9.684350967407228
      ],
      [
        "▁privé",
        -9.684769630432127
      ],
      [
        "▁côte",
        -9.685641288757324
      ],
      [
        "▁robe",
        -9.685790061950684
      ],
      [
        "▁partenariat",
        -9.685812950134276
      ],
      [
        "▁apprendre",
        -9.686312675476074
      ],
      [
        "▁événements",
        -9.686418533325195
      ],
      [
        "▁pieds",
        -9.686458587646484
      ],
      [
        "▁peine",
        -9.68708038330078
      ],
      [
        "▁villes",
        -9.687735557556152
      ],
      [
        "▁choisissez",
        -9.6878023147583
      ],
      [
        "▁agence",
        -9.688033103942873
      ],
      [
        "industrie",
        -9.688952445983888
      ],
      [
        "▁véhicules",
        -9.690703392028809
      ],
      [
        "▁appartement",
        -9.692147254943848
      ],
      [
        "▁liens",
        -9.692452430725098
      ],
      [
        "▁commun",
        -9.692749977111816
      ],
      [
        "▁excellent",
        -9.693198204040527
      ],
      [
        "▁vélo",
        -9.693406105041504
      ],
      [
        "▁coût",
        -9.69423770904541
      ],
      [
        "assurance",
        -9.696155548095703
      ],
      [
        "▁connexion",
        -9.696234703063965
      ],
      [
        "▁inter",
        -9.69693088531494
      ],
      [
        "▁proposons",
        -9.696976661682127
      ],
      [
        "▁liberté",
        -9.697184562683104
      ],
      [
        "▁vitesse",
        -9.69776439666748
      ],
      [
        "▁nettoyage",
        -9.69809913635254
      ],
      [
        "entretien",
        -9.699267387390137
      ],
      [
        "▁roman",
        -9.699469566345217
      ],
      [
        "▁porno",
        -9.699589729309082
      ],
      [
        "▁fournir",
        -9.699813842773438
      ],
      [
        "▁pouvons",
        -9.700233459472656
      ],
      [
        "▁métier",
        -9.700695991516112
      ],
      [
        "▁radio",
        -9.701423645019531
      ],
      [
        "▁outil",
        -9.70350170135498
      ],
      [
        "▁bonheur",
        -9.704520225524902
      ],
      [
        "ancien",
        -9.704545021057127
      ],
      [
        "▁lutte",
        -9.706104278564451
      ],
      [
        "▁annonces",
        -9.706365585327148
      ],
      [
        "▁convient",
        -9.70718002319336
      ],
      [
        "▁ventes",
        -9.708269119262695
      ],
      [
        "▁clé",
        -9.708856582641602
      ],
      [
        "▁information",
        -9.70960521697998
      ],
      [
        "és",
        -9.710063934326172
      ],
      [
        "▁es",
        -9.710511207580566
      ],
      [
        "▁trouvez",
        -9.713508605957031
      ],
      [
        "▁théâtre",
        -9.71448040008545
      ],
      [
        "▁more",
        -9.714483261108398
      ],
      [
        "▁entier",
        -9.714579582214355
      ],
      [
        "▁demi",
        -9.715047836303713
      ],
      [
        "▁rejoindre",
        -9.715409278869627
      ],
      [
        "▁patrimoine",
        -9.716370582580566
      ],
      [
        "▁ceci",
        -9.717116355895996
      ],
      [
        "ac",
        -9.718785285949709
      ],
      [
        "▁plans",
        -9.719488143920898
      ],
      [
        "▁pourront",
        -9.720809936523438
      ],
      [
        "able",
        -9.72129249572754
      ],
      [
        "▁atelier",
        -9.722051620483398
      ],
      [
        "▁su",
        -9.72255802154541
      ],
      [
        "dessus",
        -9.72299575805664
      ],
      [
        "▁pression",
        -9.724902153015137
      ],
      [
        "▁ami",
        -9.725769996643066
      ],
      [
        "▁grosse",
        -9.726139068603516
      ],
      [
        "▁ancien",
        -9.72719383239746
      ],
      [
        "▁formes",
        -9.728154182434082
      ],
      [
        "▁arrive",
        -9.72827434539795
      ],
      [
        "▁bus",
        -9.729475021362305
      ],
      [
        "▁américain",
        -9.7299165725708
      ],
      [
        "▁personnages",
        -9.730134963989258
      ],
      [
        "▁moments",
        -9.731667518615724
      ],
      [
        "▁milliards",
        -9.73252773284912
      ],
      [
        "objet",
        -9.732699394226074
      ],
      [
        "▁valeurs",
        -9.73285675048828
      ],
      [
        "annonce",
        -9.7350492477417
      ],
      [
        "▁totalement",
        -9.73563003540039
      ],
      [
        "▁tenue",
        -9.73582935333252
      ],
      [
        "idée",
        -9.737406730651855
      ],
      [
        "▁accord",
        -9.737631797790527
      ],
      [
        "▁située",
        -9.73827838897705
      ],
      [
        "▁belgique",
        -9.7394437789917
      ],
      [
        "▁victoire",
        -9.73976230621338
      ],
      [
        "▁ex",
        -9.740592956542969
      ],
      [
        "15",
        -9.742173194885254
      ],
      [
        "▁quelqu",
        -9.74220848083496
      ],
      [
        "▁propres",
        -9.743887901306152
      ],
      [
        "▁association",
        -9.744145393371582
      ],
      [
        "▁voit",
        -9.744407653808594
      ],
      [
        "▁promotion",
        -9.744471549987791
      ],
      [
        "10",
        -9.747745513916016
      ],
      [
        "▁objets",
        -9.748713493347168
      ],
      [
        "▁recettes",
        -9.748897552490234
      ],
      [
        "▁sorte",
        -9.74891185760498
      ],
      [
        "▁séance",
        -9.749027252197266
      ],
      [
        "▁événement",
        -9.749165534973145
      ],
      [
        "▁comité",
        -9.75005054473877
      ],
      [
        "▁récemment",
        -9.750824928283691
      ],
      [
        "▁all",
        -9.751510620117188
      ],
      [
        "▁lettre",
        -9.751995086669922
      ],
      [
        "▁tarifs",
        -9.752401351928713
      ],
      [
        "▁équipements",
        -9.75253677368164
      ],
      [
        "▁tarif",
        -9.75268840789795
      ],
      [
        "▁chauffage",
        -9.753826141357422
      ],
      [
        "▁compter",
        -9.754828453063965
      ],
      [
        "enfant",
        -9.755709648132324
      ],
      [
        "▁ouverte",
        -9.756481170654297
      ],
      [
        "▁salles",
        -9.756624221801758
      ],
      [
        "▁chaud",
        -9.75694465637207
      ],
      [
        "▁commencé",
        -9.75730800628662
      ],
      [
        "▁mondial",
        -9.758357048034668
      ],
      [
        "▁proches",
        -9.75889778137207
      ],
      [
        "▁françois",
        -9.760212898254396
      ],
      [
        "▁option",
        -9.76039218902588
      ],
      [
        "intérêt",
        -9.760619163513184
      ],
      [
        "▁participation",
        -9.761006355285645
      ],
      [
        "ard",
        -9.761892318725586
      ],
      [
        "▁études",
        -9.761961936950684
      ],
      [
        "▁utilise",
        -9.762764930725098
      ],
      [
        "▁sentir",
        -9.763032913208008
      ],
      [
        "ni",
        -9.763097763061523
      ],
      [
        "▁blanche",
        -9.763328552246094
      ],
      [
        "▁lancé",
        -9.763358116149902
      ],
      [
        "▁technologies",
        -9.764294624328612
      ],
      [
        "▁calme",
        -9.764366149902344
      ],
      [
        "univers",
        -9.76564598083496
      ],
      [
        "▁indiqué",
        -9.765787124633787
      ],
      [
        "▁tissu",
        -9.765828132629396
      ],
      [
        "▁vêtements",
        -9.766756057739258
      ],
      [
        "▁voie",
        -9.768043518066406
      ],
      [
        "▁tes",
        -9.768553733825684
      ],
      [
        "▁fais",
        -9.768813133239746
      ],
      [
        "▁chocolat",
        -9.769539833068848
      ],
      [
        "-19",
        -9.769762992858888
      ],
      [
        "▁vision",
        -9.769789695739746
      ],
      [
        "▁streaming",
        -9.773455619812012
      ],
      [
        "▁contexte",
        -9.773746490478516
      ],
      [
        "▁conçu",
        -9.773932456970217
      ],
      [
        "▁concept",
        -9.773987770080566
      ],
      [
        "▁raisons",
        -9.774658203125
      ],
      [
        "▁fonctionne",
        -9.774672508239746
      ],
      [
        "▁escort",
        -9.77563190460205
      ],
      [
        "▁accessible",
        -9.776373863220217
      ],
      [
        "▁doux",
        -9.776503562927246
      ],
      [
        "▁publicité",
        -9.777270317077637
      ],
      [
        "▁35",
        -9.779250144958496
      ],
      [
        "▁cap",
        -9.779448509216309
      ],
      [
        "▁chine",
        -9.7805757522583
      ],
      [
        "▁davantage",
        -9.78110694885254
      ],
      [
        "▁2014",
        -9.78156852722168
      ],
      [
        "▁accompagner",
        -9.781764030456545
      ],
      [
        "&",
        -9.781771659851074
      ],
      [
        "▁appareil",
        -9.782434463500977
      ],
      [
        "▁studio",
        -9.782721519470217
      ],
      [
        "▁élevé",
        -9.783041000366213
      ],
      [
        "▁free",
        -9.783061027526855
      ],
      [
        "▁veux",
        -9.7832670211792
      ],
      [
        "▁réussi",
        -9.785870552062988
      ],
      [
        "▁$",
        -9.787598609924316
      ],
      [
        "▁telles",
        -9.78797721862793
      ],
      [
        "▁beaux",
        -9.787996292114258
      ],
      [
        "▁70",
        -9.788650512695312
      ],
      [
        "▁serez",
        -9.788895606994627
      ],
      [
        "▁ingrédients",
        -9.788962364196776
      ],
      [
        "20",
        -9.789502143859863
      ],
      [
        "▁château",
        -9.790149688720703
      ],
      [
        "▁prévu",
        -9.79102611541748
      ],
      [
        "▁marseille",
        -9.791271209716797
      ],
      [
        "▁four",
        -9.791311264038086
      ],
      [
        "▁can",
        -9.791890144348145
      ],
      [
        "▁température",
        -9.792213439941406
      ],
      [
        "▁occasion",
        -9.79241943359375
      ],
      [
        "▁experts",
        -9.793989181518556
      ],
      [
        "▁boîte",
        -9.795248031616213
      ],
      [
        "▁fer",
        -9.795771598815918
      ],
      [
        "▁45",
        -9.795884132385254
      ],
      [
        "mm",
        -9.79818058013916
      ],
      [
        "▁adapté",
        -9.799309730529783
      ],
      [
        "▁remise",
        -9.801250457763672
      ],
      [
        "tte",
        -9.802525520324709
      ],
      [
        "▁formulaire",
        -9.803519248962402
      ],
      [
        "écran",
        -9.803532600402832
      ],
      [
        "▁réception",
        -9.803668022155762
      ],
      [
        "▁quelles",
        -9.803900718688965
      ],
      [
        "▁rendu",
        -9.804738998413086
      ],
      [
        "▁as",
        -9.805399894714355
      ],
      [
        "urs",
        -9.806221961975098
      ],
      [
        "▁ultra",
        -9.806614875793455
      ],
      [
        "▁disponibilité",
        -9.806879043579102
      ],
      [
        "▁missions",
        -9.807134628295898
      ],
      [
        "ter",
        -9.80714225769043
      ],
      [
        "▁second",
        -9.807880401611328
      ],
      [
        "▁utilisant",
        -9.808344841003418
      ],
      [
        "▁proposé",
        -9.808929443359377
      ],
      [
        "▁précise",
        -9.80903434753418
      ],
      [
        "▁connaissances",
        -9.80932331085205
      ],
      [
        "▁aime",
        -9.809632301330566
      ],
      [
        "▁organisation",
        -9.809842109680176
      ],
      [
        "▁at",
        -9.811111450195312
      ],
      [
        "▁>",
        -9.811543464660645
      ],
      [
        "▁my",
        -9.812237739562988
      ],
      [
        "▁perdu",
        -9.812618255615234
      ],
      [
        "union",
        -9.813145637512209
      ],
      [
        "▁peur",
        -9.813159942626951
      ],
      [
        "▁défense",
        -9.813396453857422
      ],
      [
        "▁futur",
        -9.81382179260254
      ],
      [
        "▁présenté",
        -9.81610870361328
      ],
      [
        "▁utilisez",
        -9.816573143005373
      ],
      [
        "▁courant",
        -9.817272186279297
      ],
      [
        "▁télé",
        -9.817721366882324
      ],
      [
        "▁cabinet",
        -9.817819595336914
      ],
      [
        "▁ferme",
        -9.818238258361816
      ],
      [
        "ère",
        -9.818599700927734
      ],
      [
        "▁historique",
        -9.81889533996582
      ],
      [
        "▁termes",
        -9.819856643676758
      ],
      [
        "go",
        -9.820122718811035
      ],
      [
        "avait",
        -9.821099281311035
      ],
      [
        "avenir",
        -9.821615219116213
      ],
      [
        "▁prestations",
        -9.82186794281006
      ],
      [
        "▁télévision",
        -9.823630332946776
      ],
      [
        "▁parfaite",
        -9.824146270751951
      ],
      [
        "▁dessus",
        -9.824213981628418
      ],
      [
        "▁voyageurs",
        -9.824268341064451
      ],
      [
        "▁dynamique",
        -9.824349403381348
      ],
      [
        "▁propriétaire",
        -9.824371337890623
      ],
      [
        "▁spécialiste",
        -9.824430465698242
      ],
      [
        "▁sort",
        -9.824528694152832
      ],
      [
        "▁clés",
        -9.824892044067385
      ],
      [
        "▁conseiller",
        -9.82517147064209
      ],
      [
        "▁chercher",
        -9.825350761413574
      ],
      [
        "▁mémoire",
        -9.825886726379396
      ],
      [
        "▁eau",
        -9.82707691192627
      ],
      [
        "▁etats",
        -9.827460289001465
      ],
      [
        "▁prenez",
        -9.827921867370604
      ],
      [
        "▁mur",
        -9.828518867492676
      ],
      [
        "▁plantes",
        -9.829039573669434
      ],
      [
        "▁dû",
        -9.829045295715332
      ],
      [
        "mer",
        -9.829645156860352
      ],
      [
        "▁publication",
        -9.83022117614746
      ],
      [
        "▁forces",
        -9.830277442932127
      ],
      [
        "actualité",
        -9.830336570739746
      ],
      [
        "▁principalement",
        -9.830892562866213
      ],
      [
        "▁perdre",
        -9.83249568939209
      ],
      [
        "▁destination",
        -9.833699226379396
      ],
      [
        "▁commercial",
        -9.8353853225708
      ],
      [
        "▁mélange",
        -9.835440635681152
      ],
      [
        "▁apporter",
        -9.835527420043944
      ],
      [
        "▁capable",
        -9.835708618164062
      ],
      [
        "▁performances",
        -9.83652114868164
      ],
      [
        "▁résidence",
        -9.83715534210205
      ],
      [
        "mo",
        -9.837302207946776
      ],
      [
        "france",
        -9.837724685668944
      ],
      [
        "▁val",
        -9.839176177978516
      ],
      [
        "▁officiel",
        -9.839666366577148
      ],
      [
        "*",
        -9.83979606628418
      ],
      [
        "no",
        -9.840612411499023
      ],
      [
        "▁michel",
        -9.842048645019531
      ],
      [
        "▁live",
        -9.842129707336426
      ],
      [
        "ner",
        -9.84218406677246
      ],
      [
        "▁entretien",
        -9.84333610534668
      ],
      [
        "▁vieux",
        -9.84469985961914
      ],
      [
        "▁iphone",
        -9.845346450805664
      ],
      [
        "▁douche",
        -9.845815658569336
      ],
      [
        "▁autorités",
        -9.84627628326416
      ],
      [
        "▁quantité",
        -9.846348762512209
      ],
      [
        "▁voyages",
        -9.846661567687988
      ],
      [
        "▁multi",
        -9.849363327026367
      ],
      [
        "▁demandé",
        -9.849653244018556
      ],
      [
        "▁lignes",
        -9.85140895843506
      ],
      [
        "▁sujets",
        -9.851978302001951
      ],
      [
        "▁naturelle",
        -9.852006912231444
      ],
      [
        "par",
        -9.852170944213867
      ],
      [
        "▁sept",
        -9.852441787719728
      ],
      [
        "▁mont",
        -9.852946281433104
      ],
      [
        "▁effectuer",
        -9.853644371032717
      ],
      [
        "▁amour",
        -9.85471248626709
      ],
      [
        "▁formations",
        -9.854896545410156
      ],
      [
        "▁navigation",
        -9.855318069458008
      ],
      [
        "▁sucre",
        -9.85568618774414
      ],
      [
        "▁étapes",
        -9.858089447021484
      ],
      [
        "▁supplémentaires",
        -9.858323097229004
      ],
      [
        "▁vis",
        -9.858393669128418
      ],
      [
        "▁ps",
        -9.85842227935791
      ],
      [
        "▁joue",
        -9.860129356384276
      ],
      [
        "▁naissance",
        -9.860273361206056
      ],
      [
        "▁appareils",
        -9.861455917358398
      ],
      [
        "▁installation",
        -9.861536979675291
      ],
      [
        "▁bac",
        -9.861552238464355
      ],
      [
        "▁90",
        -9.862250328063965
      ],
      [
        "▁pdf",
        -9.862263679504396
      ],
      [
        "avec",
        -9.8631591796875
      ],
      [
        "▁ateliers",
        -9.863615036010742
      ],
      [
        "▁bonus",
        -9.863811492919922
      ],
      [
        "accord",
        -9.864456176757812
      ],
      [
        "▁complètement",
        -9.864703178405762
      ],
      [
        "▁populaire",
        -9.864925384521484
      ],
      [
        "voir",
        -9.864951133728027
      ],
      [
        "qui",
        -9.865852355957031
      ],
      [
        "▁devenu",
        -9.865900993347168
      ],
      [
        "▁stade",
        -9.86598300933838
      ],
      [
        "▁diverses",
        -9.866823196411133
      ],
      [
        "lire",
        -9.86696434020996
      ],
      [
        "▁utile",
        -9.868107795715332
      ],
      [
        "▁capitale",
        -9.868769645690918
      ],
      [
        "▁participants",
        -9.869306564331056
      ],
      [
        "▁délai",
        -9.869638442993164
      ],
      [
        "▁original",
        -9.87057399749756
      ],
      [
        "▁écran",
        -9.870997428894045
      ],
      [
        "▁section",
        -9.871078491210938
      ],
      [
        "▁bras",
        -9.872603416442873
      ],
      [
        "midi",
        -9.8729887008667
      ],
      [
        "dé",
        -9.873278617858888
      ],
      [
        "là",
        -9.873720169067385
      ],
      [
        "▁siège",
        -9.874155044555664
      ],
      [
        "▁visiter",
        -9.874200820922852
      ],
      [
        "ré",
        -9.874515533447266
      ],
      [
        "▁classement",
        -9.874544143676758
      ],
      [
        "▁panier",
        -9.876526832580566
      ],
      [
        "ka",
        -9.876727104187012
      ],
      [
        "▁communes",
        -9.876760482788086
      ],
      [
        "▁détail",
        -9.877429962158203
      ],
      [
        "▁vendre",
        -9.878493309020996
      ],
      [
        "▁coin",
        -9.878952980041504
      ],
      [
        "▁)",
        -9.879106521606444
      ],
      [
        "économie",
        -9.87950038909912
      ],
      [
        "▁faite",
        -9.87950611114502
      ],
      [
        "▁one",
        -9.87951946258545
      ],
      [
        "▁twitter",
        -9.87967300415039
      ],
      [
        "▁document",
        -9.879690170288086
      ],
      [
        "▁ben",
        -9.879708290100098
      ],
      [
        "▁rêve",
        -9.880821228027344
      ],
      [
        "▁sanitaire",
        -9.88232707977295
      ],
      [
        "▁clair",
        -9.882433891296388
      ],
      [
        "▁signifie",
        -9.883986473083496
      ],
      [
        "usage",
        -9.884077072143556
      ],
      [
        "▁tableau",
        -9.884111404418944
      ],
      [
        "▁passant",
        -9.88530731201172
      ],
      [
        "▁perte",
        -9.885313034057615
      ],
      [
        "▁personnage",
        -9.885675430297852
      ],
      [
        "▁inscription",
        -9.886123657226562
      ],
      [
        "▁horaires",
        -9.886260032653809
      ],
      [
        "▁dimensions",
        -9.886676788330078
      ],
      [
        "▁basse",
        -9.887429237365724
      ],
      [
        "▁maroc",
        -9.887869834899902
      ],
      [
        "id",
        -9.888890266418455
      ],
      [
        "▁vent",
        -9.889155387878418
      ],
      [
        "▁contient",
        -9.889184951782228
      ],
      [
        "▁fichiers",
        -9.890338897705078
      ],
      [
        "▁paul",
        -9.890632629394531
      ],
      [
        "▁arrivée",
        -9.890997886657717
      ],
      [
        "▁principaux",
        -9.891111373901367
      ],
      [
        "▁régime",
        -9.891226768493652
      ],
      [
        "▁effets",
        -9.891438484191896
      ],
      [
        "île",
        -9.891708374023438
      ],
      [
        "▁printemps",
        -9.892352104187012
      ],
      [
        "▁coton",
        -9.892775535583496
      ],
      [
        "▁faible",
        -9.89315700531006
      ],
      [
        "▁mises",
        -9.89409637451172
      ],
      [
        "▁organisé",
        -9.894475936889648
      ],
      [
        "▁responsabilité",
        -9.89505100250244
      ],
      [
        "▁volonté",
        -9.896062850952148
      ],
      [
        "▁salariés",
        -9.896992683410645
      ],
      [
        "▁visiteurs",
        -9.897031784057615
      ],
      [
        "▁preuve",
        -9.897366523742676
      ],
      [
        "ier",
        -9.897486686706545
      ],
      [
        "▁luxe",
        -9.898881912231444
      ],
      [
        "▁menu",
        -9.89938259124756
      ],
      [
        "▁construire",
        -9.900285720825195
      ],
      [
        "▁auteur",
        -9.90042209625244
      ],
      [
        "▁tourisme",
        -9.901044845581056
      ],
      [
        "▁bouton",
        -9.901188850402832
      ],
      [
        "ton",
        -9.90198802947998
      ],
      [
        "▁étoiles",
        -9.902832984924316
      ],
      [
        "hiver",
        -9.902894020080566
      ],
      [
        "▁06",
        -9.904620170593262
      ],
      [
        "▁maisons",
        -9.905556678771973
      ],
      [
        "▁privée",
        -9.905912399291992
      ],
      [
        "▁démarche",
        -9.906248092651367
      ],
      [
        "▁servir",
        -9.906505584716797
      ],
      [
        "▁milliers",
        -9.906831741333008
      ],
      [
        "▁représente",
        -9.906940460205078
      ],
      [
        "▁programmes",
        -9.907559394836426
      ],
      [
        "▁renforcer",
        -9.909377098083496
      ],
      [
        "▁final",
        -9.909809112548828
      ],
      [
        "▁assure",
        -9.910255432128906
      ],
      [
        "▁liés",
        -9.910272598266602
      ],
      [
        "▁variété",
        -9.910738945007324
      ],
      [
        "▁électronique",
        -9.911700248718262
      ],
      [
        "▁tenu",
        -9.91183853149414
      ],
      [
        "▁vérifier",
        -9.91288948059082
      ],
      [
        "▁limite",
        -9.913090705871582
      ],
      [
        "▁adultes",
        -9.913156509399414
      ],
      [
        "▁ya",
        -9.91322898864746
      ],
      [
        "▁noter",
        -9.91359043121338
      ],
      [
        "▁étude",
        -9.913649559020996
      ],
      [
        "▁demain",
        -9.914073944091797
      ],
      [
        "▁dis",
        -9.914084434509276
      ],
      [
        "▁places",
        -9.914313316345217
      ],
      [
        "▁rénovation",
        -9.915225982666016
      ],
      [
        "▁essayer",
        -9.915243148803713
      ],
      [
        "▁téléchargement",
        -9.915414810180664
      ],
      [
        "▁pourraient",
        -9.916003227233888
      ],
      [
        "▁2012",
        -9.916101455688477
      ],
      [
        "▁composé",
        -9.916200637817385
      ],
      [
        "▁bref",
        -9.919849395751951
      ],
      [
        "²",
        -9.921252250671388
      ],
      [
        "▁installer",
        -9.922439575195312
      ],
      [
        "ouest",
        -9.922767639160156
      ],
      [
        "▁2013",
        -9.922843933105469
      ],
      [
        "▁notes",
        -9.923150062561035
      ],
      [
        "da",
        -9.923151016235352
      ],
      [
        "ro",
        -9.923397064208984
      ],
      [
        "▁combat",
        -9.92342758178711
      ],
      [
        "▁accéder",
        -9.92412281036377
      ],
      [
        "▁réponses",
        -9.924423217773438
      ],
      [
        "faire",
        -9.92531394958496
      ],
      [
        "▁viennent",
        -9.925348281860352
      ],
      [
        "▁informatique",
        -9.926008224487305
      ],
      [
        "éducation",
        -9.926043510437012
      ],
      [
        "▁couverture",
        -9.927143096923828
      ],
      [
        "▁paix",
        -9.927216529846191
      ],
      [
        "▁fonctionnalités",
        -9.927539825439451
      ],
      [
        "▁rédaction",
        -9.927743911743164
      ],
      [
        "▁sports",
        -9.928110122680664
      ],
      [
        "extérieur",
        -9.928114891052246
      ],
      [
        "▁ajouté",
        -9.92813491821289
      ],
      [
        "▁candidats",
        -9.92888641357422
      ],
      [
        "▁gris",
        -9.92948055267334
      ],
      [
        "».",
        -9.92973804473877
      ],
      [
        "ad",
        -9.930129051208496
      ],
      [
        "▁froid",
        -9.931347846984863
      ],
      [
        "▁déco",
        -9.931462287902832
      ],
      [
        "▁établissement",
        -9.931930541992188
      ],
      [
        "▁consultez",
        -9.932476043701172
      ],
      [
        "▁pensez",
        -9.933520317077637
      ],
      [
        "ir",
        -9.93360710144043
      ],
      [
        "▁distribution",
        -9.934664726257324
      ],
      [
        "▁entrée",
        -9.935239791870115
      ],
      [
        "▁soutenir",
        -9.936017990112305
      ],
      [
        "▁puisse",
        -9.936812400817873
      ],
      [
        "use",
        -9.937644004821776
      ],
      [
        "impression",
        -9.938045501708984
      ],
      [
        "®",
        -9.93809986114502
      ],
      [
        "▁ios",
        -9.93821620941162
      ],
      [
        "▁scolaire",
        -9.939000129699709
      ],
      [
        "▁jeunesse",
        -9.93909740447998
      ],
      [
        "▁montrer",
        -9.939658164978027
      ],
      [
        "q",
        -9.941970825195312
      ],
      [
        "▁lait",
        -9.942193031311035
      ],
      [
        "rie",
        -9.94267463684082
      ],
      [
        "▁01",
        -9.944049835205078
      ],
      [
        "▁bordeaux",
        -9.944146156311035
      ],
      [
        "▁apple",
        -9.944608688354492
      ],
      [
        "▁fiche",
        -9.945110321044922
      ],
      [
        "▁engagement",
        -9.945231437683104
      ],
      [
        "ot",
        -9.945444107055664
      ],
      [
        "▁@",
        -9.945517539978027
      ],
      [
        "▁look",
        -9.94806957244873
      ],
      [
        "▁douce",
        -9.949627876281738
      ],
      [
        "avis",
        -9.949727058410645
      ],
      [
        "▁di",
        -9.94974136352539
      ],
      [
        "▁fr",
        -9.949931144714355
      ],
      [
        "▁bains",
        -9.950047492980955
      ],
      [
        "▁majorité",
        -9.951128959655762
      ],
      [
        "▁domaines",
        -9.951166152954102
      ],
      [
        "▁voitures",
        -9.951652526855469
      ],
      [
        "▁messages",
        -9.952418327331545
      ],
      [
        "▁wi",
        -9.953131675720217
      ],
      [
        "▁concert",
        -9.953423500061035
      ],
      [
        "▁garantir",
        -9.953636169433594
      ],
      [
        "administration",
        -9.953999519348145
      ],
      [
        "▁travaille",
        -9.954144477844238
      ],
      [
        "▁are",
        -9.954225540161133
      ],
      [
        "▁atteindre",
        -9.954483032226562
      ],
      [
        "▁ambiance",
        -9.954861640930176
      ],
      [
        "eux",
        -9.955820083618164
      ],
      [
        "▁jolie",
        -9.957013130187988
      ],
      [
        "▁logiciels",
        -9.958383560180664
      ],
      [
        "▁david",
        -9.958466529846191
      ],
      [
        "▁dispositif",
        -9.958833694458008
      ],
      [
        "▁tellement",
        -9.959088325500488
      ],
      [
        "▁station",
        -9.959223747253418
      ],
      [
        "▁instagram",
        -9.959900856018066
      ],
      [
        "▁lancement",
        -9.960013389587402
      ],
      [
        "▁telle",
        -9.960132598876951
      ],
      [
        "avant",
        -9.960247993469238
      ],
      [
        "aéroport",
        -9.96130084991455
      ],
      [
        "▁mari",
        -9.961512565612791
      ],
      [
        "▁longueur",
        -9.96165943145752
      ],
      [
        "ue",
        -9.962235450744627
      ],
      [
        ".\"",
        -9.962347030639648
      ],
      [
        "▁financement",
        -9.962632179260254
      ],
      [
        "▁bilan",
        -9.962861061096191
      ],
      [
        "▁offrant",
        -9.963526725769045
      ],
      [
        "▁né",
        -9.963541030883787
      ],
      [
        "▁maître",
        -9.963677406311035
      ],
      [
        "▁niveaux",
        -9.964476585388184
      ],
      [
        "▁côtés",
        -9.964852333068848
      ],
      [
        "▁recherches",
        -9.96692180633545
      ],
      [
        "▁signe",
        -9.967031478881836
      ],
      [
        "▁300",
        -9.967052459716797
      ],
      [
        "▁allons",
        -9.967228889465332
      ],
      [
        "▁phase",
        -9.967355728149414
      ],
      [
        "▁home",
        -9.967616081237791
      ],
      [
        "▁modifier",
        -9.967921257019045
      ],
      [
        "▁certainement",
        -9.968461990356444
      ],
      [
        "▁particuliers",
        -9.968643188476562
      ],
      [
        "▁approche",
        -9.969276428222656
      ],
      [
        "ront",
        -9.971308708190918
      ],
      [
        "▁tenir",
        -9.97335720062256
      ],
      [
        "▁effectivement",
        -9.973639488220217
      ],
      [
        "▁faudra",
        -9.974010467529297
      ],
      [
        "▁génération",
        -9.974167823791504
      ],
      [
        "▁smartphone",
        -9.97425651550293
      ],
      [
        "=",
        -9.974370956420898
      ],
      [
        "▁[…]",
        -9.975977897644045
      ],
      [
        "▁marchés",
        -9.975980758666992
      ],
      [
        "▁univers",
        -9.976614952087402
      ],
      [
        "di",
        -9.976630210876465
      ],
      [
        "▁surprise",
        -9.97706699371338
      ],
      [
        "▁cadeaux",
        -9.977455139160156
      ],
      [
        "▁penser",
        -9.977837562561035
      ],
      [
        "▁défi",
        -9.978450775146484
      ],
      [
        "▁fonctions",
        -9.97898006439209
      ],
      [
        "▁revenir",
        -9.979214668273926
      ],
      [
        "▁plastique",
        -9.979615211486816
      ],
      [
        "▁tri",
        -9.980113983154297
      ],
      [
        "▁critique",
        -9.980961799621582
      ],
      [
        "▁pâte",
        -9.981537818908691
      ],
      [
        "▁promo",
        -9.9815673828125
      ],
      [
        "▁principale",
        -9.982681274414062
      ],
      [
        "▁patients",
        -9.984426498413086
      ],
      [
        "do",
        -9.98521327972412
      ],
      [
        "▁amazon",
        -9.985322952270508
      ],
      [
        "▁déjeuner",
        -9.9854097366333
      ],
      [
        "▁plats",
        -9.986102104187012
      ],
      [
        "um",
        -9.988543510437012
      ],
      [
        "▁emploi",
        -9.988555908203123
      ],
      [
        "▁tapis",
        -9.989425659179688
      ],
      [
        "▁change",
        -9.98965835571289
      ],
      [
        "▁fermeture",
        -9.989702224731444
      ],
      [
        "iste",
        -9.990280151367188
      ],
      [
        "▁caractère",
        -9.990560531616213
      ],
      [
        "▁baisse",
        -9.99167823791504
      ],
      [
        "▁dés",
        -9.991809844970703
      ],
      [
        "▁veulent",
        -9.992008209228516
      ],
      [
        "▁lance",
        -9.992010116577148
      ],
      [
        "▁navigateur",
        -9.992653846740724
      ],
      [
        "delà",
        -9.993599891662598
      ],
      [
        "▁rythme",
        -9.994142532348633
      ],
      [
        "▁offrent",
        -9.994646072387695
      ],
      [
        "▁attendre",
        -9.99470329284668
      ],
      [
        "▁champ",
        -9.995585441589355
      ],
      [
        "assurer",
        -9.996435165405272
      ],
      [
        "▁bi",
        -9.996471405029297
      ],
      [
        "▁mar",
        -9.99736785888672
      ],
      [
        "isme",
        -9.997663497924805
      ],
      [
        "▁maman",
        -9.998384475708008
      ],
      [
        "▁sel",
        -9.999011039733888
      ],
      [
        "▁dédié",
        -9.99965763092041
      ],
      [
        "th",
        -9.999759674072266
      ],
      [
        "non",
        -9.999921798706056
      ],
      [
        "▁interne",
        -10.00123119354248
      ],
      [
        "▁centres",
        -10.002320289611816
      ],
      [
        "▁pointe",
        -10.003418922424316
      ],
      [
        "▁tient",
        -10.00401782989502
      ],
      [
        "nom",
        -10.004387855529783
      ],
      [
        "▁supérieur",
        -10.004438400268556
      ],
      [
        "▁métiers",
        -10.005650520324709
      ],
      [
        "▁argent",
        -10.00566291809082
      ],
      [
        "▁immédiatement",
        -10.00621223449707
      ],
      [
        "▁lu",
        -10.00643825531006
      ],
      [
        "▁envoyer",
        -10.006601333618164
      ],
      [
        "son",
        -10.00711154937744
      ],
      [
        "▁anniversaire",
        -10.00719165802002
      ],
      [
        "▁associations",
        -10.010526657104492
      ],
      [
        "▁difficultés",
        -10.010577201843262
      ],
      [
        "▁news",
        -10.01071834564209
      ],
      [
        "▁extérieur",
        -10.01258659362793
      ],
      [
        "▁douceur",
        -10.01259994506836
      ],
      [
        "aller",
        -10.012809753417969
      ],
      [
        "▁ski",
        -10.013508796691896
      ],
      [
        "sa",
        -10.014832496643066
      ],
      [
        "▁portable",
        -10.015107154846191
      ],
      [
        "▁critères",
        -10.015216827392578
      ],
      [
        "▁locale",
        -10.015983581542969
      ],
      [
        "▁philippe",
        -10.018043518066406
      ],
      [
        "▁moto",
        -10.019848823547363
      ],
      [
        "▁professeur",
        -10.02030086517334
      ],
      [
        "▁centrale",
        -10.021041870117188
      ],
      [
        "▁légumes",
        -10.021641731262209
      ],
      [
        "▁kit",
        -10.022010803222656
      ],
      [
        "▁volume",
        -10.022570610046388
      ],
      [
        "▁restauration",
        -10.02363109588623
      ],
      [
        "▁européen",
        -10.023709297180176
      ],
      [
        "▁utilisés",
        -10.023883819580078
      ],
      [
        "▁multiples",
        -10.02398681640625
      ],
      [
        "▁écoles",
        -10.02401638031006
      ],
      [
        "▁standard",
        -10.024335861206056
      ],
      [
        "▁attentes",
        -10.02515697479248
      ],
      [
        "▁©",
        -10.025201797485352
      ],
      [
        "▁ait",
        -10.025651931762695
      ],
      [
        "obtenir",
        -10.02566909790039
      ],
      [
        "▁commandes",
        -10.026355743408203
      ],
      [
        "min",
        -10.027525901794434
      ],
      [
        "▁royaume",
        -10.027632713317873
      ],
      [
        "▁tôt",
        -10.028741836547852
      ],
      [
        "▁associé",
        -10.028871536254885
      ],
      [
        "▁compétition",
        -10.029796600341797
      ],
      [
        "▁apporte",
        -10.029983520507812
      ],
      [
        "évolution",
        -10.030485153198242
      ],
      [
        "▁youtube",
        -10.030492782592772
      ],
      [
        "▁prises",
        -10.030997276306152
      ],
      [
        "▁faits",
        -10.03125286102295
      ],
      [
        "▁médecin",
        -10.031566619873049
      ],
      [
        "étude",
        -10.031585693359377
      ],
      [
        "▁résistance",
        -10.03164291381836
      ],
      [
        "▁mairie",
        -10.031737327575684
      ],
      [
        "▁connecter",
        -10.032185554504396
      ],
      [
        "▁maintenir",
        -10.03237533569336
      ],
      [
        "▁sources",
        -10.032469749450684
      ],
      [
        "ti",
        -10.032655715942385
      ],
      [
        "▁indispensable",
        -10.033785820007324
      ],
      [
        "▁batterie",
        -10.033980369567873
      ],
      [
        "avance",
        -10.034180641174316
      ],
      [
        "▁camping",
        -10.034520149230955
      ],
      [
        "plus",
        -10.034704208374023
      ],
      [
        "▁formule",
        -10.03500270843506
      ],
      [
        "▁thé",
        -10.035130500793455
      ],
      [
        "▁âge",
        -10.03536891937256
      ],
      [
        "▁demandes",
        -10.035443305969238
      ],
      [
        "▁diffusion",
        -10.035637855529783
      ],
      [
        "▁noire",
        -10.035696029663086
      ],
      [
        "▁sauf",
        -10.03644561767578
      ],
      [
        "▁toulouse",
        -10.036866188049316
      ],
      [
        "▁supérieure",
        -10.037257194519045
      ],
      [
        "▁analyse",
        -10.038604736328123
      ],
      [
        "▁pouvant",
        -10.039916038513184
      ],
      [
        "▁pont",
        -10.040346145629885
      ],
      [
        "▁opérations",
        -10.040488243103027
      ],
      [
        "▁net",
        -10.041186332702637
      ],
      [
        "▁arrière",
        -10.042211532592772
      ],
      [
        "▁championnat",
        -10.042214393615724
      ],
      [
        "▁respecter",
        -10.04328727722168
      ],
      [
        "époque",
        -10.043527603149414
      ],
      [
        "li",
        -10.043539047241213
      ],
      [
        "▁spécifiques",
        -10.04378890991211
      ],
      [
        "am",
        -10.044767379760742
      ],
      [
        "▁normes",
        -10.044827461242676
      ],
      [
        "▁sexy",
        -10.045307159423828
      ],
      [
        "▁montréal",
        -10.045379638671877
      ],
      [
        "▁business",
        -10.045897483825684
      ],
      [
        "▁magazine",
        -10.046098709106444
      ],
      [
        "▁américaine",
        -10.046309471130373
      ],
      [
        "▁retraite",
        -10.047237396240234
      ],
      [
        "▁hausse",
        -10.047292709350586
      ],
      [
        "▁principe",
        -10.047404289245604
      ],
      [
        "▁fêtes",
        -10.048075675964355
      ],
      [
        "▁revient",
        -10.048526763916016
      ],
      [
        "▁monsieur",
        -10.048799514770508
      ],
      [
        "▁actualités",
        -10.049112319946287
      ],
      [
        "45",
        -10.050337791442873
      ],
      [
        "▁sociétés",
        -10.051044464111328
      ],
      [
        "▁supplémentaire",
        -10.051797866821287
      ],
      [
        "▁artistique",
        -10.052289009094238
      ],
      [
        "▁don",
        -10.053200721740724
      ],
      [
        "▁réparation",
        -10.053282737731934
      ],
      [
        "étais",
        -10.053633689880373
      ],
      [
        "▁principales",
        -10.053712844848633
      ],
      [
        "▁leader",
        -10.05402660369873
      ],
      [
        "appel",
        -10.05477523803711
      ],
      [
        "▁sciences",
        -10.05505084991455
      ],
      [
        "▁assurance",
        -10.055201530456545
      ],
      [
        "▁évidemment",
        -10.05527687072754
      ],
      [
        "ri",
        -10.055636405944824
      ],
      [
        "▁essentiel",
        -10.056117057800291
      ],
      [
        "▁infos",
        -10.056398391723633
      ],
      [
        "▁from",
        -10.056716918945312
      ],
      [
        "▁idéale",
        -10.057150840759276
      ],
      [
        "▁invités",
        -10.05726432800293
      ],
      [
        "▁bouche",
        -10.057443618774414
      ],
      [
        "▁rentrée",
        -10.05772304534912
      ],
      [
        "▁méthodes",
        -10.058613777160645
      ],
      [
        "▁titres",
        -10.060379981994627
      ],
      [
        "▁simples",
        -10.06064510345459
      ],
      [
        "▁kg",
        -10.061407089233398
      ],
      [
        "▁salope",
        -10.061408996582031
      ],
      [
        "enseignement",
        -10.06333827972412
      ],
      [
        "▁collectif",
        -10.063366889953612
      ],
      [
        "▁sérieux",
        -10.064000129699709
      ],
      [
        "▁portée",
        -10.06503677368164
      ],
      [
        "▁bijoux",
        -10.06522274017334
      ],
      [
        "▁amateurs",
        -10.0653076171875
      ],
      [
        "inscription",
        -10.06590747833252
      ],
      [
        "▁présents",
        -10.066356658935549
      ],
      [
        "urgence",
        -10.066364288330078
      ],
      [
        "▁ciel",
        -10.06651782989502
      ],
      [
        "▁sang",
        -10.066668510437012
      ],
      [
        "▁faciliter",
        -10.068084716796877
      ],
      [
        "▁excellente",
        -10.068750381469728
      ],
      [
        "▁secret",
        -10.071152687072754
      ],
      [
        "50",
        -10.072565078735352
      ],
      [
        "▁chargé",
        -10.073062896728516
      ],
      [
        "▁régions",
        -10.073845863342283
      ],
      [
        "▁vit",
        -10.074661254882812
      ],
      [
        "▁somme",
        -10.074792861938477
      ],
      [
        "▁vide",
        -10.075974464416504
      ],
      [
        "▁alimentaire",
        -10.076011657714844
      ],
      [
        "▁plateau",
        -10.07641887664795
      ],
      [
        "▁mp",
        -10.077775955200195
      ],
      [
        "▁circulation",
        -10.078079223632812
      ],
      [
        "analyse",
        -10.07845687866211
      ],
      [
        "▁midi",
        -10.078858375549316
      ],
      [
        "▁roi",
        -10.07899284362793
      ],
      [
        "▁charme",
        -10.07941436767578
      ],
      [
        "▁fini",
        -10.080322265625
      ],
      [
        "▁responsables",
        -10.080706596374512
      ],
      [
        "ry",
        -10.08074188232422
      ],
      [
        "▁stage",
        -10.080782890319824
      ],
      [
        "▁lot",
        -10.080894470214844
      ],
      [
        "▁malheureusement",
        -10.0816068649292
      ],
      [
        "té",
        -10.08242130279541
      ],
      [
        "▁école",
        -10.08370876312256
      ],
      [
        "”,",
        -10.083739280700684
      ],
      [
        "▁gare",
        -10.084203720092772
      ],
      [
        "▁délais",
        -10.08446216583252
      ],
      [
        "▁savez",
        -10.085137367248535
      ],
      [
        "▁cuisson",
        -10.08542537689209
      ],
      [
        "ite",
        -10.08561897277832
      ],
      [
        "▁réussite",
        -10.08595085144043
      ],
      [
        "▁150",
        -10.086161613464355
      ],
      [
        "pa",
        -10.086503028869627
      ],
      [
        "écoute",
        -10.086950302124023
      ],
      [
        "▁dessin",
        -10.087164878845217
      ],
      [
        "▁aventure",
        -10.087616920471191
      ],
      [
        "▁com",
        -10.087639808654783
      ],
      [
        "▁col",
        -10.08814811706543
      ],
      [
        "▁appelé",
        -10.088544845581056
      ],
      [
        "▁établissements",
        -10.088848114013672
      ],
      [
        "▁york",
        -10.08993911743164
      ],
      [
        "▁énergétique",
        -10.090700149536133
      ],
      [
        "▁stress",
        -10.090867042541504
      ],
      [
        "▁esprit",
        -10.091299057006836
      ],
      [
        "exposition",
        -10.09176540374756
      ],
      [
        "▁per",
        -10.091812133789062
      ],
      [
        "▁invite",
        -10.09202480316162
      ],
      [
        "▁microsoft",
        -10.09203815460205
      ],
      [
        "▁q",
        -10.092143058776855
      ],
      [
        "▁acier",
        -10.092185974121094
      ],
      [
        "▁victimes",
        -10.092629432678224
      ],
      [
        "▁stockage",
        -10.093300819396973
      ],
      [
        "honneur",
        -10.094012260437012
      ],
      [
        "▁us",
        -10.09410572052002
      ],
      [
        "▁loisirs",
        -10.094670295715332
      ],
      [
        "▁cherchez",
        -10.094717025756836
      ],
      [
        "▁intéressant",
        -10.09508991241455
      ],
      [
        "▁combien",
        -10.095693588256836
      ],
      [
        "ux",
        -10.095837593078612
      ],
      [
        "▁chiffre",
        -10.096083641052246
      ],
      [
        "▁arts",
        -10.097264289855955
      ],
      [
        "▁complexe",
        -10.097350120544434
      ],
      [
        "▁enquête",
        -10.097646713256836
      ],
      [
        "▁magasins",
        -10.098077774047852
      ],
      [
        "▁consiste",
        -10.09831714630127
      ],
      [
        "▁fan",
        -10.098319053649902
      ],
      [
        "▁restaurants",
        -10.098640441894531
      ],
      [
        "▁réserve",
        -10.09928035736084
      ],
      [
        "▁veille",
        -10.099717140197754
      ],
      [
        "▁anciens",
        -10.100207328796388
      ],
      [
        "▁nicolas",
        -10.100211143493652
      ],
      [
        "ga",
        -10.100797653198242
      ],
      [
        "▁contenus",
        -10.10081672668457
      ],
      [
        "▁!!",
        -10.10248851776123
      ],
      [
        "▁jaune",
        -10.103614807128906
      ],
      [
        "▁louis",
        -10.10384750366211
      ],
      [
        "pro",
        -10.104788780212402
      ],
      [
        "▁déclaration",
        -10.105096817016602
      ],
      [
        "12",
        -10.10544490814209
      ],
      [
        "▁composition",
        -10.107011795043944
      ],
      [
        "▁reprise",
        -10.108139038085938
      ],
      [
        "▁red",
        -10.108830451965332
      ],
      [
        "▁tests",
        -10.109807968139648
      ],
      [
        "▁48",
        -10.110227584838867
      ],
      [
        "▁superbe",
        -10.110526084899902
      ],
      [
        "ve",
        -10.110681533813477
      ],
      [
        "▁possibilités",
        -10.11102294921875
      ],
      [
        "▁accueillir",
        -10.111063957214355
      ],
      [
        "▁van",
        -10.112672805786133
      ],
      [
        "▁montagne",
        -10.11323356628418
      ],
      [
        "afrique",
        -10.113733291625977
      ],
      [
        "ées",
        -10.11449146270752
      ],
      [
        "▁audio",
        -10.1146821975708
      ],
      [
        "▁entendu",
        -10.115132331848145
      ],
      [
        "▁moitié",
        -10.116092681884766
      ],
      [
        "▁indique",
        -10.116535186767578
      ],
      [
        "▁impossible",
        -10.11711883544922
      ],
      [
        "▁vaut",
        -10.11737060546875
      ],
      [
        "car",
        -10.11837673187256
      ],
      [
        "▁spécialisée",
        -10.118623733520508
      ],
      [
        "ic",
        -10.118924140930176
      ],
      [
        "▁joli",
        -10.119721412658691
      ],
      [
        "ler",
        -10.120104789733888
      ],
      [
        "▁rock",
        -10.12146282196045
      ],
      [
        "▁déchets",
        -10.12160301208496
      ],
      [
        "▁suivez",
        -10.123198509216309
      ],
      [
        "▁capital",
        -10.123600006103516
      ],
      [
        "▁métal",
        -10.124157905578612
      ],
      [
        "▁climat",
        -10.12419605255127
      ],
      [
        "▁léger",
        -10.124626159667969
      ],
      [
        "▁spa",
        -10.124675750732422
      ],
      [
        "▁amoureux",
        -10.125470161437988
      ],
      [
        "im",
        -10.125834465026855
      ],
      [
        "the",
        -10.125900268554688
      ],
      [
        "▁max",
        -10.126336097717283
      ],
      [
        "▁cité",
        -10.12671947479248
      ],
      [
        "▁dépôt",
        -10.127042770385742
      ],
      [
        "▁procédure",
        -10.127382278442385
      ],
      [
        "▁automatique",
        -10.128108024597168
      ],
      [
        "ana",
        -10.129133224487305
      ],
      [
        "▁feuilles",
        -10.129291534423828
      ],
      [
        "▁peuple",
        -10.129738807678224
      ],
      [
        "ko",
        -10.13010597229004
      ],
      [
        "▁serveur",
        -10.130294799804688
      ],
      [
        "▁employés",
        -10.131174087524414
      ],
      [
        "▁pr",
        -10.131278038024902
      ],
      [
        "▁team",
        -10.131659507751465
      ],
      [
        "▁mêmes",
        -10.13174819946289
      ],
      [
        "▁secrétaire",
        -10.131814002990724
      ],
      [
        "▁planète",
        -10.131874084472656
      ],
      [
        "▁expert",
        -10.132104873657228
      ],
      [
        "▁dehors",
        -10.132129669189451
      ],
      [
        "environ",
        -10.132854461669922
      ],
      [
        "▁trans",
        -10.134332656860352
      ],
      [
        "lastname",
        -10.134869575500488
      ],
      [
        "▁premium",
        -10.135251998901367
      ],
      [
        "▁conscience",
        -10.136067390441896
      ],
      [
        "▁chaude",
        -10.137136459350586
      ],
      [
        "ba",
        -10.137445449829102
      ],
      [
        "▁astuces",
        -10.138160705566406
      ],
      [
        "▁spécial",
        -10.138537406921388
      ],
      [
        "▁voire",
        -10.138911247253418
      ],
      [
        "▁probablement",
        -10.138934135437012
      ],
      [
        "émission",
        -10.139327049255373
      ],
      [
        "€",
        -10.139446258544922
      ],
      [
        "▁affaire",
        -10.140303611755373
      ],
      [
        "▁basé",
        -10.140702247619627
      ],
      [
        "ers",
        -10.140953063964844
      ],
      [
        "artiste",
        -10.141469955444336
      ],
      [
        "▁joie",
        -10.141925811767578
      ],
      [
        "▁bite",
        -10.142210960388184
      ],
      [
        "▁puisqu",
        -10.142501831054688
      ],
      [
        "▁totale",
        -10.143234252929688
      ],
      [
        "▁con",
        -10.1437349319458
      ],
      [
        "▁collaborateurs",
        -10.143792152404783
      ],
      [
        "▁candidat",
        -10.143795013427734
      ],
      [
        "▁discussion",
        -10.14419174194336
      ],
      [
        "▁sinon",
        -10.144288063049316
      ],
      [
        "▁dur",
        -10.144490242004396
      ],
      [
        "▁tester",
        -10.144645690917969
      ],
      [
        "▁recommande",
        -10.1448335647583
      ],
      [
        "▁correspond",
        -10.14542293548584
      ],
      [
        "▁digital",
        -10.145597457885742
      ],
      [
        "▁suivants",
        -10.14586067199707
      ],
      [
        "per",
        -10.146400451660156
      ],
      [
        "▁proposés",
        -10.147992134094238
      ],
      [
        "▁é",
        -10.1482572555542
      ],
      [
        "▁coups",
        -10.148371696472168
      ],
      [
        "▁chiffres",
        -10.148832321166992
      ],
      [
        "st",
        -10.15005874633789
      ],
      [
        "▁financière",
        -10.150398254394531
      ],
      [
        "▁ch",
        -10.150651931762695
      ],
      [
        "▁32",
        -10.151226997375488
      ],
      [
        "▁produire",
        -10.151745796203612
      ],
      [
        "▁vins",
        -10.151909828186035
      ],
      [
        "▁personnelles",
        -10.152180671691896
      ],
      [
        "▁augmenter",
        -10.152697563171388
      ],
      [
        "▁forêt",
        -10.153239250183104
      ],
      [
        "bas",
        -10.153704643249512
      ],
      [
        "▁résumé",
        -10.15392780303955
      ],
      [
        "▁so",
        -10.154484748840332
      ],
      [
        "▁matières",
        -10.15453815460205
      ],
      [
        "▁actuelle",
        -10.154840469360352
      ],
      [
        "rait",
        -10.154998779296877
      ],
      [
        "▁clientèle",
        -10.15504550933838
      ],
      [
        "▁impact",
        -10.15590476989746
      ],
      [
        "▁09",
        -10.156744003295898
      ],
      [
        "▁02",
        -10.157132148742676
      ],
      [
        "▁fédération",
        -10.157193183898926
      ],
      [
        "▁énergie",
        -10.158416748046877
      ],
      [
        "▁néanmoins",
        -10.158464431762695
      ],
      [
        "▁obligatoire",
        -10.158733367919922
      ],
      [
        "mi",
        -10.15927505493164
      ],
      [
        "▁automatiquement",
        -10.159339904785156
      ],
      [
        "▁parfum",
        -10.159817695617676
      ],
      [
        "▁conduite",
        -10.16053295135498
      ],
      [
        "▁mobilier",
        -10.16064739227295
      ],
      [
        "▁atteint",
        -10.161126136779783
      ],
      [
        "mon",
        -10.16169261932373
      ],
      [
        "▁lecteur",
        -10.162571907043455
      ],
      [
        "▁pop",
        -10.163204193115234
      ],
      [
        "ion",
        -10.163708686828612
      ],
      [
        "▁!!!",
        -10.163716316223145
      ],
      [
        "ha",
        -10.164278984069824
      ],
      [
        "▁originale",
        -10.16467571258545
      ],
      [
        "▁objet",
        -10.164748191833496
      ],
      [
        "▁expliqué",
        -10.165475845336914
      ],
      [
        "▁world",
        -10.166324615478516
      ],
      [
        "▁·",
        -10.166419982910156
      ],
      [
        "▁inclus",
        -10.166653633117676
      ],
      [
        "▁rappelle",
        -10.16738986968994
      ],
      [
        "▁chanson",
        -10.167847633361816
      ],
      [
        "▁vise",
        -10.168289184570312
      ],
      [
        "▁répond",
        -10.168511390686035
      ],
      [
        "▁comptes",
        -10.168660163879396
      ],
      [
        "▁exposition",
        -10.168789863586426
      ],
      [
        "innovation",
        -10.169572830200195
      ],
      [
        "▁opération",
        -10.169727325439451
      ],
      [
        "▁vaste",
        -10.17068099975586
      ],
      [
        "▁oublier",
        -10.17068576812744
      ],
      [
        "avons",
        -10.17080307006836
      ],
      [
        "▁martin",
        -10.17088794708252
      ],
      [
        "va",
        -10.17141819000244
      ],
      [
        "▁proposent",
        -10.171463966369627
      ],
      [
        "▁beurre",
        -10.171660423278809
      ],
      [
        "▁utilisée",
        -10.17182445526123
      ],
      [
        "▁central",
        -10.172972679138184
      ],
      [
        "▁transition",
        -10.173347473144531
      ],
      [
        "▁décor",
        -10.174299240112305
      ],
      [
        "ge",
        -10.17448616027832
      ],
      [
        "▁murs",
        -10.174749374389648
      ],
      [
        "▁vice",
        -10.174932479858398
      ],
      [
        "▁citoyens",
        -10.176085472106934
      ],
      [
        "▁lettres",
        -10.176451683044434
      ],
      [
        "▁2011",
        -10.176657676696776
      ],
      [
        "▁condition",
        -10.17703914642334
      ],
      [
        "▁usage",
        -10.177878379821776
      ],
      [
        "espère",
        -10.179895401000977
      ],
      [
        "▁neige",
        -10.180252075195312
      ],
      [
        "▁mme",
        -10.181146621704102
      ],
      [
        "▁monter",
        -10.181264877319336
      ],
      [
        "▁transports",
        -10.181382179260254
      ],
      [
        "▁cérémonie",
        -10.1815824508667
      ],
      [
        "▁man",
        -10.182727813720703
      ],
      [
        "▁graphique",
        -10.182839393615724
      ],
      [
        "▁san",
        -10.182912826538086
      ],
      [
        "▁fondation",
        -10.183514595031738
      ],
      [
        "▁populaires",
        -10.183521270751951
      ],
      [
        "▁sportif",
        -10.183782577514648
      ],
      [
        "▁firstname",
        -10.18557357788086
      ],
      [
        "▁city",
        -10.186315536499023
      ],
      [
        "▁locales",
        -10.186620712280272
      ],
      [
        "▁masque",
        -10.1867036819458
      ],
      [
        "▁arriver",
        -10.187238693237305
      ],
      [
        "▁adulte",
        -10.187990188598633
      ],
      [
        "▁conserver",
        -10.188623428344728
      ],
      [
        "▁orange",
        -10.18906021118164
      ],
      [
        "▁victime",
        -10.189227104187012
      ],
      [
        "▁revenus",
        -10.18924617767334
      ],
      [
        "▁suivantes",
        -10.189603805541992
      ],
      [
        "▁déplacement",
        -10.190192222595217
      ],
      [
        "▁marc",
        -10.190587043762209
      ],
      [
        "▁villa",
        -10.190799713134766
      ],
      [
        "▁épisode",
        -10.191105842590332
      ],
      [
        "▁humain",
        -10.191261291503906
      ],
      [
        "▁incroyable",
        -10.191280364990234
      ],
      [
        "▁toile",
        -10.192012786865234
      ],
      [
        "importance",
        -10.19229507446289
      ],
      [
        "▁sex",
        -10.19245719909668
      ],
      [
        "né",
        -10.192472457885742
      ],
      [
        "▁joué",
        -10.192520141601562
      ],
      [
        "▁agents",
        -10.192702293395996
      ],
      [
        "▁réserver",
        -10.192900657653809
      ],
      [
        "▁huit",
        -10.1940336227417
      ],
      [
        "▁profondeur",
        -10.195131301879885
      ],
      [
        "▁camp",
        -10.195748329162598
      ],
      [
        "▁expériences",
        -10.19609832763672
      ],
      [
        "▁pilote",
        -10.196610450744627
      ],
      [
        "▁électriques",
        -10.19726276397705
      ],
      [
        "▁licence",
        -10.197752952575684
      ],
      [
        "▁largement",
        -10.19805908203125
      ],
      [
        "ol",
        -10.198631286621094
      ],
      [
        "▁up",
        -10.198737144470217
      ],
      [
        "▁huile",
        -10.1989164352417
      ],
      [
        "▁tours",
        -10.198923110961914
      ],
      [
        "▁sert",
        -10.199313163757324
      ],
      [
        "▁potentiel",
        -10.199471473693848
      ],
      [
        "▁reconnu",
        -10.200479507446287
      ],
      [
        "▁palais",
        -10.200840950012209
      ],
      [
        "▁remplacement",
        -10.20146656036377
      ],
      [
        "▁obtenu",
        -10.202373504638672
      ],
      [
        "▁crée",
        -10.202913284301758
      ],
      [
        "▁pêche",
        -10.203633308410645
      ],
      [
        "▁04",
        -10.20368194580078
      ],
      [
        "▁garage",
        -10.20405101776123
      ],
      [
        "▁textes",
        -10.204771041870115
      ],
      [
        "▁solide",
        -10.20525360107422
      ],
      [
        "▁prime",
        -10.206043243408203
      ],
      [
        "po",
        -10.206297874450684
      ],
      [
        "▁management",
        -10.206376075744627
      ],
      [
        "▁ajoutez",
        -10.20644760131836
      ],
      [
        "▁débat",
        -10.206947326660156
      ],
      [
        "apprentissage",
        -10.207242012023926
      ],
      [
        "▁réussir",
        -10.207300186157228
      ],
      [
        "événement",
        -10.207468032836914
      ],
      [
        "▁facteurs",
        -10.208473205566406
      ],
      [
        "▁that",
        -10.209463119506836
      ],
      [
        "moi",
        -10.209474563598633
      ],
      [
        "▁montage",
        -10.209932327270508
      ],
      [
        "if",
        -10.210506439208984
      ],
      [
        "▁minute",
        -10.210800170898438
      ],
      [
        "▁sorti",
        -10.21102809906006
      ],
      [
        "▁nice",
        -10.211321830749512
      ],
      [
        "▁recrutement",
        -10.21168613433838
      ],
      [
        "▁logo",
        -10.211750030517578
      ],
      [
        "▁scientifique",
        -10.21180820465088
      ],
      [
        "▁exigences",
        -10.2122220993042
      ],
      [
        "▁signé",
        -10.212438583374023
      ],
      [
        "18",
        -10.212522506713867
      ],
      [
        "▁finir",
        -10.21355152130127
      ],
      [
        "prix",
        -10.213567733764648
      ],
      [
        "19",
        -10.21430206298828
      ],
      [
        "▁ouvrir",
        -10.21475887298584
      ],
      [
        "▁75",
        -10.21522045135498
      ],
      [
        "▁mauvais",
        -10.21523380279541
      ],
      [
        "lo",
        -10.215667724609377
      ],
      [
        "institut",
        -10.215861320495604
      ],
      [
        "pi",
        -10.216069221496582
      ],
      [
        "13",
        -10.216875076293944
      ],
      [
        "▁flux",
        -10.217944145202637
      ],
      [
        "▁lac",
        -10.218472480773926
      ],
      [
        "è",
        -10.218502044677734
      ],
      [
        "▁barre",
        -10.219152450561523
      ],
      [
        "▁laurent",
        -10.219415664672852
      ],
      [
        "▁calendrier",
        -10.219861030578612
      ],
      [
        "▁installé",
        -10.220130920410156
      ],
      [
        "ique",
        -10.220173835754396
      ],
      [
        "▁offert",
        -10.220568656921388
      ],
      [
        "▁japon",
        -10.2211332321167
      ],
      [
        "▁fenêtre",
        -10.22192096710205
      ],
      [
        "▁gr",
        -10.222557067871094
      ],
      [
        "▁légèrement",
        -10.222735404968262
      ],
      [
        "▁dr",
        -10.222761154174805
      ],
      [
        "mont",
        -10.222992897033691
      ],
      [
        "▁développé",
        -10.223490715026855
      ],
      [
        "▁russie",
        -10.223886489868164
      ],
      [
        "assemblée",
        -10.224214553833008
      ],
      [
        "▁prévention",
        -10.224275588989258
      ],
      [
        "▁galerie",
        -10.2257719039917
      ],
      [
        "▁absolument",
        -10.226278305053713
      ],
      [
        "▁personnalisé",
        -10.22638702392578
      ],
      [
        "▁hommage",
        -10.226527214050291
      ],
      [
        "enquête",
        -10.22662353515625
      ],
      [
        "▁online",
        -10.226766586303713
      ],
      [
        "▁macron",
        -10.227581024169922
      ],
      [
        "▁constitue",
        -10.227937698364258
      ],
      [
        "▁hd",
        -10.228466033935549
      ],
      [
        "▁importants",
        -10.228811264038086
      ],
      [
        "▁accueille",
        -10.229535102844238
      ],
      [
        "▁dessins",
        -10.229644775390623
      ],
      [
        "▁chaise",
        -10.230335235595703
      ],
      [
        "▁enjeux",
        -10.230844497680664
      ],
      [
        "▁liées",
        -10.231093406677246
      ],
      [
        "▁pain",
        -10.231245994567873
      ],
      [
        "▁expertise",
        -10.231618881225586
      ],
      [
        "▁souvenir",
        -10.231860160827637
      ],
      [
        "▁jus",
        -10.231928825378418
      ],
      [
        "▁forcément",
        -10.232107162475586
      ],
      [
        "▁os",
        -10.23443603515625
      ],
      [
        "▁élections",
        -10.234580993652344
      ],
      [
        "▁journaliste",
        -10.23458480834961
      ],
      [
        "ement",
        -10.23474407196045
      ],
      [
        "▁chantier",
        -10.235025405883787
      ],
      [
        "▁2010",
        -10.23521327972412
      ],
      [
        "11",
        -10.23562717437744
      ],
      [
        "▁devraient",
        -10.23606777191162
      ],
      [
        "affaire",
        -10.23653507232666
      ],
      [
        "▁transformer",
        -10.238306999206545
      ],
      [
        "▁maîtrise",
        -10.23861026763916
      ],
      [
        "▁particulière",
        -10.239224433898926
      ],
      [
        "▁secondes",
        -10.23965835571289
      ],
      [
        "améliorer",
        -10.23984718322754
      ],
      [
        "▁décès",
        -10.24028491973877
      ],
      [
        "▁contraire",
        -10.240503311157228
      ],
      [
        "▁poursuivre",
        -10.240660667419434
      ],
      [
        "▁possibles",
        -10.240715980529783
      ],
      [
        "em",
        -10.240928649902344
      ],
      [
        "▁russe",
        -10.242046356201172
      ],
      [
        "▁spécifique",
        -10.242453575134276
      ],
      [
        "40",
        -10.242791175842283
      ],
      [
        "▁auteurs",
        -10.242877960205078
      ],
      [
        "▁économiques",
        -10.243437767028809
      ],
      [
        "aventure",
        -10.243563652038574
      ],
      [
        "▁gratuites",
        -10.244548797607422
      ],
      [
        "attention",
        -10.24495792388916
      ],
      [
        "▁newsletter",
        -10.245274543762209
      ],
      [
        "▁traditionnelle",
        -10.245388984680176
      ],
      [
        "▁installations",
        -10.245750427246094
      ],
      [
        "acheter",
        -10.24605941772461
      ],
      [
        "iez",
        -10.246169090270996
      ],
      [
        "▁spéciale",
        -10.246439933776855
      ],
      [
        "▁ii",
        -10.246685981750488
      ],
      [
        "▁nécessite",
        -10.247368812561035
      ],
      [
        "▁humaine",
        -10.2477388381958
      ],
      [
        "▁tiers",
        -10.248129844665527
      ],
      [
        "▁faveur",
        -10.248201370239258
      ],
      [
        "▁parole",
        -10.248844146728516
      ],
      [
        "▁ha",
        -10.250167846679688
      ],
      [
        "▁marine",
        -10.250712394714355
      ],
      [
        "atelier",
        -10.251198768615724
      ],
      [
        "▁aperçu",
        -10.25135326385498
      ],
      [
        "▁400",
        -10.252121925354004
      ],
      [
        "▁rangement",
        -10.25228500366211
      ],
      [
        "▁spécialisé",
        -10.252677917480469
      ],
      [
        "hôpital",
        -10.252716064453123
      ],
      [
        "▁intérieure",
        -10.252796173095703
      ],
      [
        "▁devra",
        -10.253068923950195
      ],
      [
        "▁londres",
        -10.253158569335938
      ],
      [
        "▁lendemain",
        -10.253676414489746
      ],
      [
        "land",
        -10.25416660308838
      ],
      [
        "▁croire",
        -10.25430393218994
      ],
      [
        "▁réalisée",
        -10.254498481750488
      ],
      [
        "▁aimé",
        -10.254974365234377
      ],
      [
        "▁coronavirus",
        -10.255498886108398
      ],
      [
        "▁box",
        -10.255849838256836
      ],
      [
        "▁eaux",
        -10.255936622619627
      ],
      [
        "▁mo",
        -10.256138801574709
      ],
      [
        "église",
        -10.256182670593262
      ],
      [
        "▁renseignements",
        -10.256366729736328
      ],
      [
        "▁dossiers",
        -10.256467819213867
      ],
      [
        "▁précédent",
        -10.256686210632324
      ],
      [
        "▁best",
        -10.25680923461914
      ],
      [
        "val",
        -10.25743579864502
      ],
      [
        "▁envoyé",
        -10.257451057434082
      ],
      [
        "▁circuit",
        -10.25767421722412
      ],
      [
        "▁prison",
        -10.259183883666992
      ],
      [
        "▁restent",
        -10.259370803833008
      ],
      [
        "▁transformation",
        -10.260173797607422
      ],
      [
        "▁trouvent",
        -10.26032257080078
      ],
      [
        "lin",
        -10.260841369628906
      ],
      [
        "▁visites",
        -10.260884284973145
      ],
      [
        "▁exceptionnelle",
        -10.261122703552246
      ],
      [
        "▁arrivé",
        -10.261380195617676
      ],
      [
        "▁seuls",
        -10.261800765991213
      ],
      [
        "▁défis",
        -10.262017250061035
      ],
      [
        "▁extrêmement",
        -10.262518882751465
      ],
      [
        "▁claire",
        -10.26272678375244
      ],
      [
        "▁réflexion",
        -10.262736320495604
      ],
      [
        "▁am",
        -10.263389587402344
      ],
      [
        "fa",
        -10.263508796691896
      ],
      [
        "ins",
        -10.264481544494627
      ],
      [
        "▁prestation",
        -10.26464557647705
      ],
      [
        "▁auront",
        -10.264772415161133
      ],
      [
        "▁catégories",
        -10.2648344039917
      ],
      [
        "▁do",
        -10.265573501586914
      ],
      [
        "▁propriétaires",
        -10.26589298248291
      ],
      [
        "▁naturels",
        -10.265993118286133
      ],
      [
        "▁acheté",
        -10.266077041625977
      ],
      [
        "▁statut",
        -10.266684532165527
      ],
      [
        "▁secteurs",
        -10.266735076904297
      ],
      [
        "▁raconte",
        -10.266745567321776
      ],
      [
        "▁séances",
        -10.267386436462402
      ],
      [
        "auto",
        -10.267488479614258
      ],
      [
        "▁figure",
        -10.267760276794434
      ],
      [
        "▁adaptée",
        -10.267897605895996
      ],
      [
        "▁séries",
        -10.268197059631348
      ],
      [
        "▁girl",
        -10.268348693847656
      ],
      [
        "▁tribunal",
        -10.268449783325195
      ],
      [
        "▁cycle",
        -10.269124031066896
      ],
      [
        "▁codes",
        -10.269230842590332
      ],
      [
        "▁chinois",
        -10.26935863494873
      ],
      [
        "▁afrique",
        -10.269570350646973
      ],
      [
        "▁ouverture",
        -10.270522117614746
      ],
      [
        "bo",
        -10.270651817321776
      ],
      [
        "▁découvert",
        -10.270666122436523
      ],
      [
        "▁vote",
        -10.271551132202148
      ],
      [
        "▁sorties",
        -10.271638870239258
      ],
      [
        "▁08",
        -10.27192211151123
      ],
      [
        "▁consommateurs",
        -10.271950721740724
      ],
      [
        "▁organiser",
        -10.272506713867188
      ],
      [
        "▁revue",
        -10.273056030273438
      ],
      [
        "▁suivante",
        -10.273286819458008
      ],
      [
        "▁capacités",
        -10.274066925048828
      ],
      [
        "▁vraie",
        -10.274524688720703
      ],
      [
        "▁militaire",
        -10.274675369262695
      ],
      [
        "investissement",
        -10.27486515045166
      ],
      [
        "▁dates",
        -10.275029182434082
      ],
      [
        "▁sainte",
        -10.275521278381348
      ],
      [
        "▁histoires",
        -10.275907516479492
      ],
      [
        "▁science",
        -10.276078224182127
      ],
      [
        "▁baise",
        -10.276591300964355
      ],
      [
        "▁réduit",
        -10.276617050170898
      ],
      [
        "▁créée",
        -10.276811599731444
      ],
      [
        "▁actif",
        -10.276981353759766
      ],
      [
        "uni",
        -10.27712059020996
      ],
      [
        "▁fleur",
        -10.277542114257812
      ],
      [
        "▁accompagné",
        -10.277878761291504
      ],
      [
        "▁écologique",
        -10.278539657592772
      ],
      [
        "▁mobilité",
        -10.278620719909668
      ],
      [
        "▁échanges",
        -10.280562400817873
      ],
      [
        "▁disque",
        -10.280584335327148
      ],
      [
        "▁allant",
        -10.2811279296875
      ],
      [
        "▁lesquels",
        -10.281416893005373
      ],
      [
        "▁fabriqué",
        -10.281472206115724
      ],
      [
        "▁bruxelles",
        -10.281532287597656
      ],
      [
        "▁discuter",
        -10.28165054321289
      ],
      [
        "▁virus",
        -10.282017707824709
      ],
      [
        "▁samsung",
        -10.282026290893556
      ],
      [
        "▁porté",
        -10.282227516174316
      ],
      [
        "▁info",
        -10.28236198425293
      ],
      [
        "▁animal",
        -10.282943725585938
      ],
      [
        "pas",
        -10.283294677734377
      ],
      [
        "▁cheval",
        -10.28339672088623
      ],
      [
        "▁similaires",
        -10.284080505371094
      ],
      [
        "▁nantes",
        -10.284167289733888
      ],
      [
        "▁coûts",
        -10.284196853637695
      ],
      [
        "taille",
        -10.284255027770996
      ],
      [
        "▁devoir",
        -10.28474235534668
      ],
      [
        "pe",
        -10.285730361938477
      ],
      [
        "▁utiles",
        -10.286221504211426
      ],
      [
        "▁sociales",
        -10.286636352539062
      ],
      [
        "16",
        -10.286680221557615
      ],
      [
        "œuvre",
        -10.28750705718994
      ],
      [
        "▁difficulté",
        -10.28799057006836
      ],
      [
        "▁piste",
        -10.288866996765137
      ],
      [
        "▁rappel",
        -10.289566040039062
      ],
      [
        "▁adaptés",
        -10.289984703063965
      ],
      [
        "25",
        -10.290034294128418
      ],
      [
        "▁canal",
        -10.290430068969728
      ],
      [
        "▁modification",
        -10.290514945983888
      ],
      [
        "▁avance",
        -10.290557861328123
      ],
      [
        "▁store",
        -10.291926383972168
      ],
      [
        "nes",
        -10.292253494262695
      ],
      [
        "▁langues",
        -10.292988777160645
      ],
      [
        "▁paramètres",
        -10.293184280395508
      ],
      [
        "che",
        -10.29405117034912
      ],
      [
        "▁énorme",
        -10.294964790344238
      ],
      [
        "▁pandémie",
        -10.29500675201416
      ],
      [
        "▁tâches",
        -10.29539966583252
      ],
      [
        "▁fortement",
        -10.29547882080078
      ],
      [
        "▁bateau",
        -10.29598903656006
      ],
      [
        "▁chasse",
        -10.29616355895996
      ],
      [
        "▁défaut",
        -10.296512603759766
      ],
      [
        "▁fc",
        -10.296990394592283
      ],
      [
        "▁gel",
        -10.298187255859377
      ],
      [
        "▁serrurier",
        -10.298262596130373
      ],
      [
        "▁assurez",
        -10.298739433288574
      ],
      [
        "info",
        -10.299457550048828
      ],
      [
        "▁1.",
        -10.299527168273926
      ],
      [
        "17",
        -10.299638748168944
      ],
      [
        "aider",
        -10.299660682678224
      ],
      [
        "▁publiée",
        -10.299811363220217
      ],
      [
        "▁ajoute",
        -10.300268173217772
      ],
      [
        "▁financier",
        -10.300487518310549
      ],
      [
        "▁sécurisé",
        -10.301313400268556
      ],
      [
        "▁proposition",
        -10.301344871520996
      ],
      [
        "▁33",
        -10.301434516906738
      ],
      [
        "▁remplacer",
        -10.301438331604004
      ],
      [
        "▁jacques",
        -10.301648139953612
      ],
      [
        "aire",
        -10.302465438842772
      ],
      [
        "▁champs",
        -10.302526473999023
      ],
      [
        "▁prévue",
        -10.302928924560549
      ],
      [
        "▁game",
        -10.303714752197266
      ],
      [
        "▁transfert",
        -10.304025650024414
      ],
      [
        "▁signaler",
        -10.304895401000977
      ],
      [
        "où",
        -10.30498218536377
      ],
      [
        "▁détente",
        -10.305058479309082
      ],
      [
        "▁pouvait",
        -10.30538272857666
      ],
      [
        "▁récupérer",
        -10.30589485168457
      ],
      [
        "▁lycée",
        -10.306326866149902
      ],
      [
        "▁voulu",
        -10.306374549865724
      ],
      [
        "▁revanche",
        -10.30655288696289
      ],
      [
        "▁sec",
        -10.30710220336914
      ],
      [
        "▁tenter",
        -10.307490348815918
      ],
      [
        "édition",
        -10.307573318481444
      ],
      [
        "▁efforts",
        -10.308242797851562
      ],
      [
        "▁conséquences",
        -10.308648109436035
      ],
      [
        "impact",
        -10.309093475341797
      ],
      [
        "▁maintenance",
        -10.309310913085938
      ],
      [
        "▁cliquant",
        -10.30945873260498
      ],
      [
        "▁correctement",
        -10.309874534606934
      ],
      [
        "▁catalogue",
        -10.310115814208984
      ],
      [
        "▁attend",
        -10.310684204101562
      ],
      [
        "▁commerciale",
        -10.31220245361328
      ],
      [
        "étranger",
        -10.312268257141112
      ],
      [
        "▁05",
        -10.312579154968262
      ],
      [
        "▁sèche",
        -10.312995910644531
      ],
      [
        "▁recherchez",
        -10.313255310058594
      ],
      [
        "▁afficher",
        -10.313504219055176
      ],
      [
        "▁faisait",
        -10.3136568069458
      ],
      [
        "▁ancienne",
        -10.31405258178711
      ],
      [
        "▁actuel",
        -10.314291000366213
      ],
      [
        "▁collège",
        -10.314640045166016
      ],
      [
        "▁cancer",
        -10.31484317779541
      ],
      [
        "▁précision",
        -10.315424919128418
      ],
      [
        "▁colis",
        -10.31558895111084
      ],
      [
        "▁crois",
        -10.315820693969728
      ],
      [
        "▁bancaire",
        -10.316319465637209
      ],
      [
        "▁certaine",
        -10.31653881072998
      ],
      [
        "▁will",
        -10.317197799682615
      ],
      [
        "▁longues",
        -10.317280769348145
      ],
      [
        "▁familiale",
        -10.317858695983888
      ],
      [
        "▁hôtels",
        -10.317999839782717
      ],
      [
        "▁remettre",
        -10.318241119384766
      ],
      [
        "▁précis",
        -10.31862735748291
      ],
      [
        "instant",
        -10.318650245666504
      ],
      [
        "▁danse",
        -10.31865119934082
      ],
      [
        "▁satisfaction",
        -10.318792343139648
      ],
      [
        "▁remplir",
        -10.319825172424316
      ],
      [
        "▁thomas",
        -10.32009220123291
      ],
      [
        "▁laissé",
        -10.32024383544922
      ],
      [
        "▁situations",
        -10.320509910583496
      ],
      [
        "▁charges",
        -10.320623397827148
      ],
      [
        "▁règlement",
        -10.320646286010742
      ],
      [
        "▁dois",
        -10.321321487426758
      ],
      [
        "armée",
        -10.32211971282959
      ],
      [
        "▁pot",
        -10.32244110107422
      ],
      [
        "▁chacune",
        -10.322839736938477
      ],
      [
        "▁vols",
        -10.32372760772705
      ],
      [
        "▁inscrivez",
        -10.323945045471191
      ],
      [
        "alimentation",
        -10.323980331420898
      ],
      [
        "▁sentiment",
        -10.32470989227295
      ],
      [
        "▁mauvaise",
        -10.32504653930664
      ],
      [
        "qu",
        -10.325178146362305
      ],
      [
        "▁solaire",
        -10.325905799865724
      ],
      [
        "”.",
        -10.32602596282959
      ],
      [
        "▁achats",
        -10.326990127563477
      ],
      [
        "▁suit",
        -10.327205657958984
      ],
      [
        "intervention",
        -10.32738971710205
      ],
      [
        "▁rare",
        -10.329100608825684
      ],
      [
        "▁tomber",
        -10.3294038772583
      ],
      [
        "tre",
        -10.329585075378418
      ],
      [
        "▁planification",
        -10.329649925231934
      ],
      [
        "▁déterminer",
        -10.329858779907228
      ],
      [
        "▁faux",
        -10.330506324768066
      ],
      [
        "▁styles",
        -10.331002235412598
      ],
      [
        "▁régional",
        -10.331528663635254
      ],
      [
        "▁chiens",
        -10.33167552947998
      ],
      [
        "▁propriétés",
        -10.332502365112305
      ],
      [
        "▁nouveautés",
        -10.33267307281494
      ],
      [
        "électricité",
        -10.333191871643066
      ],
      [
        "▁hiver",
        -10.333230018615724
      ],
      [
        "▁bibliothèque",
        -10.333948135375977
      ],
      [
        "▁big",
        -10.335481643676758
      ],
      [
        "▁spécialement",
        -10.336176872253418
      ],
      [
        "▁dirigeants",
        -10.33704948425293
      ],
      [
        "▁loire",
        -10.337971687316896
      ],
      [
        "ions",
        -10.338007926940918
      ],
      [
        "▁billets",
        -10.338157653808594
      ],
      [
        "▁intervention",
        -10.338337898254396
      ],
      [
        "con",
        -10.338539123535156
      ],
      [
        "▁centaines",
        -10.33930778503418
      ],
      [
        "▁nettoyer",
        -10.339695930480955
      ],
      [
        "opération",
        -10.34010124206543
      ],
      [
        "▁traiter",
        -10.340659141540527
      ],
      [
        "▁motifs",
        -10.34080982208252
      ],
      [
        "▁aimez",
        -10.340937614440918
      ],
      [
        "agriculture",
        -10.341772079467772
      ],
      [
        "▁mec",
        -10.342071533203123
      ],
      [
        "▁frère",
        -10.343226432800291
      ],
      [
        "▁tendances",
        -10.343505859375
      ],
      [
        "▁kilomètres",
        -10.344121932983398
      ],
      [
        "▁viande",
        -10.34425926208496
      ],
      [
        "▁charles",
        -10.344383239746094
      ],
      [
        "▁nu",
        -10.344529151916504
      ],
      [
        "▁trafic",
        -10.34460163116455
      ],
      [
        "▁vivant",
        -10.344837188720703
      ],
      [
        "▁matchs",
        -10.345059394836426
      ],
      [
        "▁souhaitent",
        -10.345244407653809
      ],
      [
        "▁maladies",
        -10.345327377319336
      ],
      [
        "▁reprendre",
        -10.345864295959473
      ],
      [
        "▁demeure",
        -10.3461332321167
      ],
      [
        "▁recommandé",
        -10.34617042541504
      ],
      [
        "▁compréhension",
        -10.34737491607666
      ],
      [
        "24",
        -10.34758472442627
      ],
      [
        "pierre",
        -10.347685813903809
      ],
      [
        "▁prêts",
        -10.34772777557373
      ],
      [
        "▁bureaux",
        -10.347862243652344
      ],
      [
        "ette",
        -10.348383903503418
      ],
      [
        "▁euro",
        -10.348551750183104
      ],
      [
        "▁placé",
        -10.348934173583984
      ],
      [
        "identité",
        -10.349231719970703
      ],
      [
        "autant",
        -10.349602699279783
      ],
      [
        "▁augmentation",
        -10.3496675491333
[...]
