<unk>	0
<s>	0
</s>	0
<pad>	0
<0x00>	0
<0x01>	0
<0x02>	0
<0x03>	0
<0x04>	0
<0x05>	0
<0x06>	0
<0x07>	0
<0x08>	0
<0x09>	0
<0x0A>	0
<0x0B>	0
<0x0C>	0
<0x0D>	0
<0x0E>	0
<0x0F>	0
<0x10>	0
<0x11>	0
<0x12>	0
<0x13>	0
<0x14>	0
<0x15>	0
<0x16>	0
<0x17>	0
<0x18>	0
<0x19>	0
<0x1A>	0
<0x1B>	0
<0x1C>	0
<0x1D>	0
<0x1E>	0
<0x1F>	0
<0x20>	0
<0x21>	0
<0x22>	0
<0x23>	0
<0x24>	0
<0x25>	0
<0x26>	0
<0x27>	0
<0x28>	0
<0x29>	0
<0x2A>	0
<0x2B>	0
<0x2C>	0
<0x2D>	0
<0x2E>	0
<0x2F>	0
<0x30>	0
<0x31>	0
<0x32>	0
<0x33>	0
<0x34>	0
<0x35>	0
<0x36>	0
<0x37>	0
<0x38>	0
<0x39>	0
<0x3A>	0
<0x3B>	0
<0x3C>	0
<0x3D>	0
<0x3E>	0
<0x3F>	0
<0x40>	0
<0x41>	0
<0x42>	0
<0x43>	0
<0x44>	0
<0x45>	0
<0x46>	0
<0x47>	0
<0x48>	0
<0x49>	0
<0x4A>	0
<0x4B>	0
<0x4C>	0
<0x4D>	0
<0x4E>	0
<0x4F>	0
<0x50>	0
<0x51>	0
<0x52>	0
<0x53>	0
<0x54>	0
<0x55>	0
<0x56>	0
<0x57>	0
<0x58>	0
<0x59>	0
<0x5A>	0
<0x5B>	0
<0x5C>	0
<0x5D>	0
<0x5E>	0
<0x5F>	0
<0x60>	0
<0x61>	0
<0x62>	0
<0x63>	0
<0x64>	0
<0x65>	0
<0x66>	0
<0x67>	0
<0x68>	0
<0x69>	0
<0x6A>	0
<0x6B>	0
<0x6C>	0
<0x6D>	0
<0x6E>	0
<0x6F>	0
<0x70>	0
<0x71>	0
<0x72>	0
<0x73>	0
<0x74>	0
<0x75>	0
<0x76>	0
<0x77>	0
<0x78>	0
<0x79>	0
<0x7A>	0
<0x7B>	0
<0x7C>	0
<0x7D>	0
<0x7E>	0
<0x7F>	0
<0x80>	0
<0x81>	0
<0x82>	0
<0x83>	0
<0x84>	0
<0x85>	0
<0x86>	0
<0x87>	0
<0x88>	0
<0x89>	0
<0x8A>	0
<0x8B>	0
<0x8C>	0
<0x8D>	0
<0x8E>	0
<0x8F>	0
<0x90>	0
<0x91>	0
<0x92>	0
<0x93>	0
<0x94>	0
<0x95>	0
<0x96>	0
<0x97>	0
<0x98>	0
<0x99>	0
<0x9A>	0
<0x9B>	0
<0x9C>	0
<0x9D>	0
<0x9E>	0
<0x9F>	0
<0xA0>	0
<0xA1>	0
<0xA2>	0
<0xA3>	0
<0xA4>	0
<0xA5>	0
<0xA6>	0
<0xA7>	0
<0xA8>	0
<0xA9>	0
<0xAA>	0
<0xAB>	0
<0xAC>	0
<0xAD>	0
<0xAE>	0
<0xAF>	0
<0xB0>	0
<0xB1>	0
<0xB2>	0
<0xB3>	0
<0xB4>	0
<0xB5>	0
<0xB6>	0
<0xB7>	0
<0xB8>	0
<0xB9>	0
<0xBA>	0
<0xBB>	0
<0xBC>	0
<0xBD>	0
<0xBE>	0
<0xBF>	0
<0xC0>	0
<0xC1>	0
<0xC2>	0
<0xC3>	0
<0xC4>	0
<0xC5>	0
<0xC6>	0
<0xC7>	0
<0xC8>	0
<0xC9>	0
<0xCA>	0
<0xCB>	0
<0xCC>	0
<0xCD>	0
<0xCE>	0
<0xCF>	0
<0xD0>	0
<0xD1>	0
<0xD2>	0
<0xD3>	0
<0xD4>	0
<0xD5>	0
<0xD6>	0
<0xD7>	0
<0xD8>	0
<0xD9>	0
<0xDA>	0
<0xDB>	0
<0xDC>	0
<0xDD>	0
<0xDE>	0
<0xDF>	0
<0xE0>	0
<0xE1>	0
<0xE2>	0
<0xE3>	0
<0xE4>	0
<0xE5>	0
<0xE6>	0
<0xE7>	0
<0xE8>	0
<0xE9>	0
<0xEA>	0
<0xEB>	0
<0xEC>	0
<0xED>	0
<0xEE>	0
<0xEF>	0
<0xF0>	0
<0xF1>	0
<0xF2>	0
<0xF3>	0
<0xF4>	0
<0xF5>	0
<0xF6>	0
<0xF7>	0
<0xF8>	0
<0xF9>	0
<0xFA>	0
<0xFB>	0
<0xFC>	0
<0xFD>	0
<0xFE>	0
<0xFF>	0
▁t	-0
▁a	-1
he	-2
in	-3
re	-4
▁the	-5
▁s	-6
▁o	-7
er	-8
▁c	-9
at	-10
on	-11
▁w	-12
en	-13
▁p	-14
es	-15
▁b	-16
is	-17
it	-18
▁f	-19
nd	-20
or	-21
▁m	-22
al	-23
▁in	-24
an	-25
ed	-26
ing	-27
▁of	-28
▁d	-29
ou	-30
ar	-31
▁to	-32
▁and	-33
ic	-34
ion	-35
le	-36
ro	-37
▁h	-38
▁th	-39
as	-40
▁e	-41
ent	-42
▁l	-43
▁n	-44
▁re	-45
ct	-46
il	-47
▁g	-48
ve	-49
om	-50
us	-51
▁is	-52
▁be	-53
ly	-54
ol	-55
▁st	-56
st	-57
▁y	-58
id	-59
im	-60
et	-61
ation	-62
ra	-63
▁for	-64
ow	-65
ut	-66
ch	-67
ur	-68
▁on	-69
ce	-70
ot	-71
ig	-72
▁that	-73
ver	-74
se	-75
ir	-76
▁you	-77
▁it	-78
ay	-79
▁as	-80
▁pro	-81
ul	-82
▁an	-83
▁he	-84
▁are	-85
am	-86
▁wh	-87
▁con	-88
if	-89
un	-90
ith	-91
▁al	-92
el	-93
ad	-94
▁with	-95
▁or	-96
her	-97
▁mo	-98
ter	-99
▁de	-100
th	-101
ge	-102
▁v	-103
▁we	-104
▁ch	-105
ill	-106
op	-107
ment	-108
▁com	-109
▁ex	-110
ts	-111
ers	-112
ate	-113
▁ha	-114
▁1	-115
ess	-116
ies	-117
od	-118
▁r	-119
▁(	-120
ect	-121
ke	-122
▁this	-123
um	-124
▁can	-125
▁ne	-126
ab	-127
res	-128
▁us	-129
rom	-130
▁at	-131
ive	-132
ac	-133
ity	-134
▁by	-135
▁su	-136
qu	-137
▁se	-138
est	-139
ud	-140
ist	-141
ld	-142
▁-	-143
os	-144
▁le	-145
▁from	-146
igh	-147
iv	-148
▁en	-149
ain	-150
pp	-151
▁sp	-152
em	-153
▁j	-154
ci	-155
▁k	-156
and	-157
ren	-158
▁sh	-159
▁was	-160
▁u	-161
▁wor	-162
▁2	-163
ure	-164
ant	-165
▁have	-166
ort	-167
▁ab	-168
ical	-169
▁pl	-170
▁not	-171
og	-172
ri	-173
art	-174
▁im	-175
▁your	-176
rou	-177
red	-178
▁un	-179
all	-180
▁whe	-181
▁they	-182
out	-183
ap	-184
▁so	-185
ions	-186
ine	-187
our	-188
ome	-189
gh	-190
ide	-191
▁ad	-192
ag	-193
ich	-194
ight	-195
ated	-196
ust	-197
▁their	-198
ould	-199
ard	-200
00	-201
▁will	-202
ell	-203
act	-204
▁int	-205
▁te	-206
ther	-207
oc	-208
age	-209
▁comp	-210
▁more	-211
▁dis	-212
so	-213
▁all	-214
du	-215
ast	-216
▁cl	-217
▁ac	-218
ood	-219
ak	-220
▁cont	-221
ff	-222
▁inc	-223
ans	-224
per	-225
pl	-226
ally	-227
▁but	-228
▁res	-229
ild	-230
pt	-231
▁do	-232
▁which	-233
▁man	-234
ater	-235
vel	-236
▁stud	-237
▁has	-238
ib	-239
iz	-240
ous	-241
ear	-242
ru	-243
▁ar	-244
ks	-245
end	-246
▁how	-247
orm	-248
ia	-249
ie	-250
ents	-251
▁one	-252
▁me	-253
ations	-254
▁other	-255
ip	-256
ong	-257
ary	-258
▁per	-259
ind	-260
oun	-261
ore	-262
▁imp	-263
oo	-264
▁also	-265
able	-266
ult	-267
▁about	-268
ake	-269
▁if	-270
ach	-271
ry	-272
ial	-273
▁am	-274
ase	-275
▁pe	-276
ence	-277
▁when	-278
reat	-279
▁inf	-280
▁out	-281
▁new	-282
ass	-283
▁comm	-284
▁ro	-285
▁i	-286
▁sy	-287
▁tim	-288
ign	-289
▁sa	-290
▁col	-291
▁its	-292
▁app	-293
▁ev	-294
▁co	-295
aus	-296
▁di	-297
▁there	-298
ace	-299
ice	-300
▁"	-301
▁these	-302
ance	-303
very	-304
▁qu	-305
▁pre	-306
cess	-307
ction	-308
one	-309
fe	-310
▁some	-311
ress	-312
▁what	-313
ition	-314
▁fe	-315
▁were	-316
ber	-317
▁who	-318
ory	-319
ite	-320
▁may	-321
ens	-322
▁ind	-323
ces	-324
ound	-325
▁year	-326
▁bl	-327
ors	-328
ack	-329
are	-330
ord	-331
▁part	-332
ike	-333
▁spe	-334
▁up	-335
now	-336
▁ra	-337
▁fl	-338
ish	-339
av	-340
▁than	-341
ays	-342
olog	-343
ang	-344
ree	-345
▁ph	-346
▁po	-347
ame	-348
ep	-349
▁bec	-350
▁rec	-351
▁them	-352
ub	-353
ric	-354
▁child	-355
▁our	-356
▁use	-357
ount	-358
▁peop	-359
▁go	-360
ue	-361
▁tra	-362
ose	-363
▁hel	-364
ile	-365
▁people	-366
vers	-367
▁work	-368
▁ag	-369
rent	-370
▁over	-371
alth	-372
▁most	-373
▁act	-374
ings	-375
ph	-376
arn	-377
▁19	-378
te	-379
ail	-380
ys	-381
▁time	-382
ates	-383
lud	-384
rit	-385
▁help	-386
▁und	-387
▁20	-388
pe	-389
ook	-390
▁into	-391
▁like	-392
▁des	-393
▁rese	-394
▁know	-395
ms	-396
▁3	-397
▁dif	-398
▁sc	-399
▁his	-400
▁cons	-401
rough	-402
▁tw	-403
▁been	-404
▁em	-405
▁no	-406
▁resear	-407
erv	-408
▁inter	-409
▁health	-410
les	-411
row	-412
▁fir	-413
ough	-414
▁gen	-415
▁tr	-416
▁af	-417
ject	-418
▁under	-419
▁bet	-420
als	-421
ause	-422
we	-423
▁many	-424
velop	-425
uc	-426
▁need	-427
▁includ	-428
lect	-429
▁pr	-430
▁develop	-431
low	-432
ian	-433
▁rep	-434
▁first	-435
ond	-436
ific	-437
ities	-438
▁water	-439
ons	-440
▁used	-441
▁mar	-442
lic	-443
ments	-444
stem	-445
▁eff	-446
▁through	-447
▁produ	-448
▁such	-449
▁any	-450
).	-451
▁prov	-452
ational	-453
▁ed	-454
round	-455
ple	-456
ating	-457
▁sur	-458
▁add	-459
▁rel	-460
▁acc	-461
▁sm	-462
hed	-463
▁ear	-464
▁learn	-465
ics	-466
▁cent	-467
▁sci	-468
ink	-469
▁off	-470
ular	-471
▁system	-472
▁two	-473
▁reg	-474
▁ob	-475
ire	-476
ative	-477
▁med	-478
▁sch	-479
cial	-480
▁only	-481
▁inst	-482
▁diffe	-483
▁would	-484
ool	-485
ced	-486
eth	-487
▁car	-488
ble	-489
▁world	-490
▁get	-491
ath	-492
ious	-493
uring	-494
▁exp	-495
erg	-496
int	-497
▁high	-498
ick	-499
▁well	-500
▁make	-501
ual	-502
▁pres	-503
▁dec	-504
iss	-505
ram	-506
▁bu	-507
ange	-508
ful	-509
▁years	-510
oss	-511
ures	-512
▁rem	-513
▁plan	-514
▁after	-515
▁had	-516
ower	-517
oth	-518
▁found	-519
▁ke	-520
ten	-521
▁children	-522
ise	-523
ased	-524
▁students	-525
ife	-526
ds	-527
▁form	-528
▁201	-529
own	-530
ck	-531
rib	-532
ting	-533
▁said	-534
▁gra	-535
▁ty	-536
▁4	-537
▁inform	-538
ible	-539
▁supp	-540
▁should	-541
▁att	-542
▁inv	-543
▁read	-544
▁sub	-545
hes	-546
chn	-547
▁par	-548
ract	-549
▁prog	-550
erm	-551
▁school	-552
▁eng	-553
ility	-554
ology	-555
▁where	-556
▁pub	-557
▁num	-558
▁spec	-559
ll	-560
its	-561
▁could	-562
wn	-563
▁mon	-564
eric	-565
▁sim	-566
ob	-567
▁research	-568
▁5	-569
▁import	-570
▁trans	-571
▁count	-572
cy	-573
▁uni	-574
▁she	-575
▁just	-576
▁exam	-577
▁techn	-578
▁study	-579
ween	-580
▁che	-581
ne	-582
ps	-583
▁mod	-584
▁see	-585
▁food	-586
▁between	-587
▁each	-588
ists	-589
▁sol	-590
▁dr	-591
urn	-592
▁pol	-593
ert	-594
fore	-595
▁art	-596
ade	-597
▁because	-598
ins	-599
▁exper	-600
),	-601
▁sk	-602
▁dep	-603
▁then	-604
▁pers	-605
▁disc	-606
▁even	-607
▁hum	-608
gan	-609
▁long	-610
ily	-611
▁gl	-612
xt	-613
ural	-614
▁every	-615
▁lar	-616
▁hist	-617
ines	-618
▁information	-619
▁fol	-620
▁dat	-621
▁different	-622
ident	-623
▁her	-624
▁det	-625
ied	-626
ost	-627
▁while	-628
hers	-629
▁find	-630
▁pat	-631
ont	-632
▁during	-633
get	-634
▁way	-635
▁effect	-636
ution	-637
ved	-638
ict	-639
ually	-640
▁americ	-641
▁gener	-642
▁cre	-643
iron	-644
▁incre	-645
ft	-646
▁loc	-647
cer	-648
land	-649
▁day	-650
▁using	-651
▁call	-652
▁cur	-653
▁sec	-654
▁var	-655
aking	-656
ited	-657
▁sign	-658
▁br	-659
▁ass	-660
▁commun	-661
▁dise	-662
▁very	-663
▁min	-664
vent	-665
arm	-666
▁ext	-667
sel	-668
uch	-669
▁av	-670
ature	-671
▁those	-672
▁fam	-673
ety	-674
▁life	-675
ove	-676
ages	-677
..	-678
▁expl	-679
tern	-680
iew	-681
▁important	-682
cent	-683
ives	-684
▁grow	-685
▁aut	-686
ases	-687
ving	-688
▁cor	-689
▁la	-690
▁process	-691
▁resp	-692
▁now	-693
▁data	-694
▁set	-695
▁fact	-696
ues	-697
▁200	-698
the	-699
▁partic	-700
ically	-701
▁my	-702
versity	-703
▁proble	-704
▁bod	-705
▁mus	-706
ros	-707
day	-708
▁state	-709
▁dist	-710
▁show	-711
▁level	-712
form	-713
▁env	-714
▁ma	-715
▁vis	-716
rect	-717
▁prot	-718
cc	-719
▁lead	-720
▁educ	-721
▁follow	-722
▁much	-723
▁back	-724
▁18	-725
▁being	-726
▁ins	-727
▁less	-728
▁good	-729
▁treat	-730
ruct	-731
▁does	-732
▁|	-733
▁environ	-734
gg	-735
ever	-736
tle	-737
▁pop	-738
▁6	-739
▁small	-740
▁str	-741
▁ris	-742
▁class	-743
▁ent	-744
led	-745
▁take	-746
▁requ	-747
▁def	-748
io	-749
ergy	-750
▁design	-751
▁gu	-752
▁gre	-753
▁lit	-754
ize	-755
ness	-756
▁before	-757
▁ec	-758
old	-759
ices	-760
▁fun	-761
▁both	-762
▁grou	-763
▁end	-764
▁val	-765
▁char	-766
▁cal	-767
ning	-768
other	-769
▁down	-770
▁activ	-771
read	-772
▁look	-773
▁pa	-774
▁common	-775
▁comple	-776
▁serv	-777
▁around	-778
ection	-779
ene	-780
ted	-781
ward	-782
stand	-783
▁elect	-784
▁made	-785
▁own	-786
▁environment	-787
▁however	-788
▁often	-789
▁main	-790
ids	-791
ism	-792
▁cell	-793
oy	-794
▁bra	-795
ale	-796
akes	-797
▁cap	-798
▁organ	-799
▁ref	-800
▁project	-801
▁number	-802
▁provid	-803
ves	-804
▁person	-805
▁test	-806
imate	-807
▁cle	-808
▁here	-809
▁great	-810
▁energy	-811
ger	-812
▁inte	-813
ected	-814
000	-815
und	-816
▁wom	-817
▁redu	-818
▁same	-819
▁mem	-820
ather	-821
iel	-822
▁university	-823
▁hand	-824
▁body	-825
▁disease	-826
▁three	-827
▁appro	-828
ized	-829
▁human	-830
ty	-831
▁writ	-832
▁contro	-833
▁national	-834
▁eas	-835
ality	-836
▁care	-837
cept	-838
ork	-839
▁prof	-840
▁power	-841
▁build	-842
▁cour	-843
▁ser	-844
ute	-845
▁land	-846
ets	-847
ished	-848
com	-849
▁som	-850
▁z	-851
▁public	-852
▁program	-853
▁met	-854
▁bo	-855
▁cond	-856
▁occ	-857
ix	-858
ters	-859
▁mat	-860
▁jo	-861
▁understand	-862
▁10	-863
ants	-864
▁start	-865
ient	-866
▁too	-867
onom	-868
▁ve	-869
▁history	-870
▁scient	-871
ince	-872
▁quest	-873
▁bel	-874
der	-875
▁air	-876
▁op	-877
▁mater	-878
▁fin	-879
▁phys	-880
▁poss	-881
iving	-882
▁intern	-883
de	-884
ains	-885
ined	-886
hip	-887
▁aff	-888
▁adv	-889
▁bi	-890
▁including	-891
ivid	-892
▁7	-893
ury	-894
▁mill	-895
▁states	-896
ral	-897
ier	-898
vern	-899
▁fr	-900
▁tem	-901
rest	-902
ull	-903
▁equ	-904
▁bre	-905
▁material	-906
▁typ	-907
▁think	-908
▁known	-909
▁pract	-910
▁home	-911
▁est	-912
cl	-913
up	-914
▁sym	-915
▁nat	-916
▁aw	-917
king	-918
▁large	-919
▁development	-920
▁caus	-921
acter	-922
▁const	-923
ults	-924
ross	-925
▁play	-926
▁change	-927
▁stand	-928
oms	-929
ources	-930
nt	-931
▁learning	-932
ital	-933
▁8	-934
▁contin	-935
ency	-936
▁called	-937
▁allow	-938
▁science	-939
▁bas	-940
ulation	-941
▁ant	-942
ars	-943
▁anim	-944
▁researc	-945
▁again	-946
ording	-947
orn	-948
▁report	-949
▁beh	-950
▁though	-951
▁keep	-952
outh	-953
▁blood	-954
▁impro	-955
line	-956
▁support	-957
▁top	-958
▁sl	-959
▁risk	-960
▁hy	-961
ouse	-962
,000	-963
▁example	-964
▁old	-965
▁light	-966
▁place	-967
▁pain	-968
▁direct	-969
▁chang	-970
uss	-971
▁pot	-972
▁govern	-973
▁area	-974
raph	-975
itions	-976
."	-977
▁ret	-978
els	-979
▁another	-980
▁still	-981
▁rev	-982
▁conf	-983
▁few	-984
bs	-985
▁ge	-986
ional	-987
▁tre	-988
▁plant	-989
▁did	-990
▁since	-991
▁el	-992
me	-993
▁experi	-994
▁meth	-995
▁ide	-996
▁product	-997
ock	-998
ared	-999
eng	-1000
agn	-1001
▁sw	-1002
▁right	-1003
angu	-1004
▁ident	-1005
ium	-1006
▁last	-1007
▁ess	-1008
▁according	-1009
▁want	-1010
▁nor	-1011
ering	-1012
lish	-1013
,"	-1014
▁species	-1015
▁iss	-1016
▁early	-1017
▁present	-1018
▁prevent	-1019
▁must	-1020
▁war	-1021
▁include	-1022
▁anal	-1023
▁9	-1024
▁pur	-1025
orts	-1026
▁meas	-1027
ron	-1028
ource	-1029
▁women	-1030
▁earth	-1031
▁wee	-1032
▁langu	-1033
▁why	-1034
▁education	-1035
soci	-1036
▁american	-1037
▁bir	-1038
ential	-1039
▁percent	-1040
▁best	-1041
20	-1042
▁mil	-1043
▁book	-1044
▁lab	-1045
▁space	-1046
▁dem	-1047
ights	-1048
ills	-1049
▁control	-1050
itive	-1051
▁sit	-1052
ired	-1053
▁es	-1054
gin	-1055
ries	-1056
▁low	-1057
▁might	-1058
▁researchers	-1059
rop	-1060
▁second	-1061
rence	-1062
▁imm	-1063
▁social	-1064
air	-1065
▁within	-1066
-1	-1067
▁without	-1068
▁vir	-1069
▁vari	-1070
ark	-1071
▁associ	-1072
||	-1073
▁fore	-1074
▁colle	-1075
▁pap	-1076
▁cancer	-1077
▁pass	-1078
pr	-1079
osed	-1080
▁current	-1081
co	-1082
▁better	-1083
▁ele	-1084
▁cause	-1085
▁post	-1086
bers	-1087
▁individ	-1088
rodu	-1089
▁mark	-1090
▁near	-1091
▁family	-1092
▁sever	-1093
▁free	-1094
▁group	-1095
ats	-1096
▁cr	-1097
▁avail	-1098
ption	-1099
▁comput	-1100
▁dra	-1101
▁press	-1102
▁method	-1103
▁desc	-1104
▁profess	-1105
▁addition	-1106
br	-1107
iven	-1108
ining	-1109
▁result	-1110
ination	-1111
cing	-1112
▁interest	-1113
▁technology	-1114
ave	-1115
ner	-1116
▁provide	-1117
▁dev	-1118
▁gr	-1119
lished	-1120
▁bene	-1121
iqu	-1122
▁cult	-1123
ns	-1124
▁proper	-1125
▁list	-1126
ason	-1127
ental	-1128
inal	-1129
▁says	-1130
ton	-1131
be	-1132
iver	-1133
ield	-1134
▁creat	-1135
ify	-1136
ax	-1137
▁auth	-1138
ograph	-1139
▁natural	-1140
uro	-1141
▁orig	-1142
▁cam	-1143
▁type	-1144
▁let	-1145
self	-1146
▁pos	-1147
ior	-1148
▁age	-1149
▁leg	-1150
▁maj	-1151
▁access	-1152
▁rest	-1153
▁become	-1154
▁today	-1155
▁mean	-1156
▁open	-1157
▁move	-1158
au	-1159
▁times	-1160
hing	-1161
▁month	-1162
▁youn	-1163
▁vol	-1164
ov	-1165
▁several	-1166
▁teac	-1167
ense	-1168
▁treatment	-1169
▁artic	-1170
▁areas	-1171
▁cert	-1172
ah	-1173
▁(1	-1174
ients	-1175
▁bus	-1176
▁head	-1177
▁available	-1178
▁occur	-1179
ator	-1180
ards	-1181
▁four	-1182
▁able	-1183
ological	-1184
▁sun	-1185
work	-1186
ots	-1187
▁del	-1188
ways	-1189
▁medic	-1190
man	-1191
▁econom	-1192
▁united	-1193
ently	-1194
▁major	-1195
▁him	-1196
▁benef	-1197
ization	-1198
▁name	-1199
iod	-1200
▁happ	-1201
▁say	-1202
ified	-1203
▁hig	-1204
▁ill	-1205
▁heart	-1206
▁works	-1207
ences	-1208
▁law	-1209
ration	-1210
▁point	-1211
▁opp	-1212
▁ter	-1213
▁oper	-1214
oid	-1215
iness	-1216
▁real	-1217
▁belie	-1218
▁perform	-1219
▁turn	-1220
▁rad	-1221
▁conn	-1222
▁means	-1223
osp	-1224
▁object	-1225
ived	-1226
▁phot	-1227
ones	-1228
▁following	-1229
▁problems	-1230
less	-1231
gen	-1232
▁based	-1233
▁impact	-1234
ories	-1235
▁unt	-1236
▁period	-1237
▁create	-1238
▁language	-1239
▁possible	-1240
▁compan	-1241
ability	-1242
▁things	-1243
▁run	-1244
▁order	-1245
▁non	-1246
cle	-1247
▁lim	-1248
ples	-1249
▁cost	-1250
▁view	-1251
ission	-1252
▁fre	-1253
▁plants	-1254
▁hard	-1255
▁infl	-1256
ex	-1257
▁bro	-1258
▁suc	-1259
▁among	-1260
ug	-1261
▁15	-1262
▁chem	-1263
sc	-1264
▁foc	-1265
▁feel	-1266
▁invol	-1267
▁problem	-1268
ern	-1269
▁cells	-1270
0.	-1271
▁ey	-1272
▁fac	-1273
▁step	-1274
▁dam	-1275
▁making	-1276
atic	-1277
▁north	-1278
▁prom	-1279
ides	-1280
▁put	-1281
▁mult	-1282
▁team	-1283
▁little	-1284
▁diff	-1285
▁levels	-1286
▁brain	-1287
▁mic	-1288
par	-1289
▁sum	-1290
▁government	-1291
ames	-1292
▁struct	-1293
▁soci	-1294
na	-1295
▁green	-1296
▁glob	-1297
▁others	-1298
to	-1299
ained	-1300
ooks	-1301
▁wind	-1302
▁x	-1303
▁city	-1304
▁next	-1305
ik	-1306
▁words	-1307
▁particular	-1308
ank	-1309
▁local	-1310
▁sal	-1311
▁south	-1312
__	-1313
▁focus	-1314
▁men	-1315
ians	-1316
▁mot	-1317
ends	-1318
▁ste	-1319
▁short	-1320
ered	-1321
▁special	-1322
▁million	-1323
▁young	-1324
▁key	-1325
▁course	-1326
▁community	-1327
▁wr	-1328
▁signific	-1329
▁sympt	-1330
▁er	-1331
▁country	-1332
ash	-1333
ider	-1334
ling	-1335
.,	-1336
▁temper	-1337
▁net	-1338
▁red	-1339
▁lo	-1340
ime	-1341
ests	-1342
▁cir	-1343
▁medical	-1344
▁tool	-1345
▁fil	-1346
▁rele	-1347
▁cy	-1348
face	-1349
ane	-1350
▁try	-1351
▁once	-1352
▁come	-1353
ision	-1354
▁indust	-1355
▁results	-1356
▁systems	-1357
▁ce	-1358
bit	-1359
ogn	-1360
erc	-1361
▁tri	-1362
une	-1363
▁manage	-1364
▁usually	-1365
▁paper	-1366
▁sugg	-1367
▁fut	-1368
▁consum	-1369
▁along	-1370
ina	-1371
ateg	-1372
here	-1373
▁black	-1374
▁cat	-1375
rap	-1376
ope	-1377
▁past	-1378
▁mid	-1379
az	-1380
▁fur	-1381
ething	-1382
▁big	-1383
▁due	-1384
▁house	-1385
▁record	-1386
▁climate	-1387
sw	-1388
ww	-1389
▁days	-1390
▁resources	-1391
▁12	-1392
cially	-1393
▁word	-1394
ised	-1395
▁sing	-1396
▁enc	-1397
▁center	-1398
▁nut	-1399
ilar	-1400
alk	-1401
▁studies	-1402
▁trad	-1403
▁behav	-1404
ention	-1405
tt	-1406
▁instit	-1407
▁until	-1408
▁dig	-1409
ended	-1410
▁against	-1411
▁something	-1412
▁likely	-1413
atory	-1414
▁function	-1415
▁obs	-1416
▁comb	-1417
▁working	-1418
▁certain	-1419
▁determ	-1420
▁future	-1421
▁symptoms	-1422
pect	-1423
▁success	-1424
▁full	-1425
▁engine	-1426
▁give	-1427
▁rece	-1428
▁across	-1429
▁arch	-1430
▁news	-1431
idence	-1432
▁death	-1433
▁flow	-1434
▁ann	-1435
▁far	-1436
▁teach	-1437
▁protect	-1438
etic	-1439
▁white	-1440
▁toget	-1441
▁similar	-1442
▁together	-1443
▁increase	-1444
ances	-1445
▁week	-1446
▁scientists	-1447
▁patients	-1448
▁prev	-1449
▁improve	-1450
▁begin	-1451
▁prop	-1452
▁author	-1453
icult	-1454
▁general	-1455
▁ur	-1456
▁stre	-1457
though	-1458
▁discuss	-1459
ape	-1460
▁jour	-1461
▁skills	-1462
▁given	-1463
▁invest	-1464
▁color	-1465
▁case	-1466
▁summ	-1467
▁cop	-1468
▁text	-1469
ote	-1470
▁'	-1471
urope	-1472
▁significant	-1473
▁english	-1474
ven	-1475
▁don	-1476
▁line	-1477
▁story	-1478
▁17	-1479
▁below	-1480
▁source	-1481
▁always	-1482
▁ways	-1483
▁wild	-1484
▁conditions	-1485
▁effective	-1486
▁later	-1487
...	-1488
ortun	-1489
▁types	-1490
▁dont	-1491
ators	-1492
arch	-1493
▁199	-1494
rents	-1495
ured	-1496
▁repres	-1497
▁appear	-1498
▁changes	-1499
▁applic	-1500
cul	-1501
▁norm	-1502
▁healthy	-1503
▁century	-1504
▁although	-1505
str	-1506
aring	-1507
omm	-1508
▁questions	-1509
ably	-1510
ours	-1511
▁ple	-1512
aves	-1513
ems	-1514
▁activities	-1515
▁wat	-1516
▁bat	-1517
▁specific	-1518
ode	-1519
hy	-1520
▁lib	-1521
▁sens	-1522
▁complete	-1523
▁flu	-1524
aps	-1525
eral	-1526
ately	-1527
▁europe	-1528
▁physical	-1529
▁further	-1530
▁soil	-1531
▁activity	-1532
ression	-1533
▁site	-1534
▁mass	-1535
▁needs	-1536
▁population	-1537
ox	-1538
gs	-1539
ledge	-1540
imes	-1541
aw	-1542
▁introdu	-1543
aut	-1544
▁reading	-1545
▁sure	-1546
▁higher	-1547
▁kind	-1548
▁opt	-1549
▁bar	-1550
▁afric	-1551
▁published	-1552
▁environmental	-1553
lo	-1554
▁sam	-1555
aken	-1556
▁ver	-1557
pecially	-1558
▁global	-1559
▁difficult	-1560
▁histor	-1561
que	-1562
▁visit	-1563
▁live	-1564
elf	-1565
ring	-1566
▁experience	-1567
▁crit	-1568
▁side	-1569
▁article	-1570
▁lower	-1571
▁answ	-1572
ending	-1573
ember	-1574
▁having	-1575
▁et	-1576
▁away	-1577
▁fall	-1578
▁carb	-1579
▁check	-1580
▁online	-1581
▁whether	-1582
aces	-1583
▁various	-1584
▁har	-1585
▁prim	-1586
▁strong	-1587
▁1.	-1588
▁god	-1589
▁hal	-1590
▁effects	-1591
▁kids	-1592
▁character	-1593
▁.	-1594
▁enough	-1595
▁materials	-1596
▁chall	-1597
▁describ	-1598
▁ground	-1599
pa	-1600
▁fish	-1601
atures	-1602
ips	-1603
asing	-1604
▁saf	-1605
▁writing	-1606
ables	-1607
aining	-1608
▁range	-1609
▁cut	-1610
▁dru	-1611
▁least	-1612
ae	-1613
▁vide	-1614
olution	-1615
rist	-1616
▁ask	-1617
▁animals	-1618
▁computer	-1619
▁affect	-1620
▁building	-1621
▁above	-1622
▁win	-1623
▁stat	-1624
▁five	-1625
aster	-1626
▁quality	-1627
▁port	-1628
▁field	-1629
por	-1630
hern	-1631
ruction	-1632
▁16	-1633
eds	-1634
▁business	-1635
▁lot	-1636
▁reduce	-1637
ploy	-1638
min	-1639
▁skin	-1640
▁international	-1641
▁fat	-1642
▁communic	-1643
▁never	-1644
amm	-1645
ither	-1646
▁particip	-1647
▁surface	-1648
▁hol	-1649
▁especially	-1650
let	-1651
▁term	-1652
▁countries	-1653
▁vi	-1654
▁left	-1655
ribut	-1656
ening	-1657
nal	-1658
▁sat	-1659
▁fund	-1660
omes	-1661
▁lat	-1662
sh	-1663
▁makes	-1664
sy	-1665
▁doct	-1666
ires	-1667
ches	-1668
▁fri	-1669
▁respons	-1670
▁sound	-1671
▁knowledge	-1672
▁loss	-1673
▁diet	-1674
▁analys	-1675
▁clear	-1676
ument	-1677
▁parents	-1678
▁understanding	-1679
hen	-1680
most	-1681
▁products	-1682
▁student	-1683
▁amount	-1684
ilt	-1685
▁require	-1686
▁going	-1687
▁pred	-1688
▁simple	-1689
▁collect	-1690
verage	-1691
▁developed	-1692
of	-1693
oot	-1694
▁11	-1695
▁event	-1696
▁sle	-1697
▁tru	-1698
▁page	-1699
▁ir	-1700
▁exerc	-1701
ints	-1702
▁sea	-1703
ray	-1704
▁je	-1705
▁question	-1706
ilities	-1707
▁depart	-1708
hem	-1709
▁model	-1710
ler	-1711
▁brit	-1712
▁coll	-1713
▁gas	-1714
▁suff	-1715
▁management	-1716
▁clean	-1717
▁subject	-1718
▁tell	-1719
▁doc	-1720
oney	-1721
rams	-1722
ored	-1723
▁link	-1724
▁role	-1725
▁recomm	-1726
oura	-1727
▁size	-1728
ipp	-1729
▁chemical	-1730
▁really	-1731
▁nature	-1732
ott	-1733
▁cases	-1734
▁detail	-1735
▁farm	-1736
ites	-1737
▁oil	-1738
▁ens	-1739
▁indic	-1740
edi	-1741
▁society	-1742
▁web	-1743
▁related	-1744
▁avoid	-1745
▁growth	-1746
▁created	-1747
▁consider	-1748
▁production	-1749
gest	-1750
▁safe	-1751
▁mor	-1752
▁joh	-1753
▁pressure	-1754
not	-1755
mit	-1756
▁mind	-1757
▁close	-1758
over	-1759
▁30	-1760
▁ach	-1761
duct	-1762
itor	-1763
▁circ	-1764
▁observ	-1765
▁contact	-1766
▁dog	-1767
ially	-1768
▁exist	-1769
by	-1770
▁assess	-1771
▁provides	-1772
thing	-1773
▁christ	-1774
▁gard	-1775
▁deg	-1776
ands	-1777
▁liter	-1778
▁image	-1779
▁practice	-1780
▁potential	-1781
▁vac	-1782
ison	-1783
▁living	-1784
▁germ	-1785
▁service	-1786
▁weight	-1787
▁wide	-1788
▁init	-1789
wh	-1790
▁fire	-1791
▁coun	-1792
▁review	-1793
amin	-1794
▁self	-1795
▁rights	-1796
ready	-1797
▁poll	-1798
▁ut	-1799
▁forest	-1800
▁tradition	-1801
side	-1802
▁polic	-1803
▁prin	-1804
▁represent	-1805
▁value	-1806
▁concer	-1807
▁offic	-1808
▁necess	-1809
▁ap	-1810
etimes	-1811
▁seen	-1812
▁mal	-1813
ged	-1814
▁influ	-1815
▁stress	-1816
ley	-1817
▁famil	-1818
▁polit	-1819
ned	-1820
▁done	-1821
▁bill	-1822
osis	-1823
▁sleep	-1824
ware	-1825
ising	-1826
▁lay	-1827
▁already	-1828
▁island	-1829
▁estab	-1830
▁stra	-1831
//	-1832
▁techniqu	-1833
▁issues	-1834
▁prob	-1835
▁suggest	-1836
▁groups	-1837
▁quick	-1838
▁river	-1839
50	-1840
▁super	-1841
▁individual	-1842
▁cho	-1843
▁address	-1844
▁micro	-1845
▁fru	-1846
▁--	-1847
▁opportun	-1848
▁recogn	-1849
▁solar	-1850
▁safety	-1851
eter	-1852
iting	-1853
▁bab	-1854
▁return	-1855
▁schools	-1856
verse	-1857
▁relations	-1858
for	-1859
lement	-1860
▁aust	-1861
▁single	-1862
▁modern	-1863
▁rate	-1864
▁wood	-1865
▁condition	-1866
ma	-1867
▁tot	-1868
▁heat	-1869
▁achie	-1870
▁soft	-1871
▁2.	-1872
▁actually	-1873
▁parts	-1874
rel	-1875
▁services	-1876
▁carbon	-1877
2.	-1878
selves	-1879
▁sometimes	-1880
uals	-1881
ster	-1882
▁sent	-1883
▁bal	-1884
▁associated	-1885
org	-1886
▁meet	-1887
port	-1888
▁recent	-1889
▁measure	-1890
▁analysis	-1891
▁inj	-1892
▁feed	-1893
▁throughout	-1894
▁yet	-1895
▁eat	-1896
▁shows	-1897
▁diagn	-1898
▁pict	-1899
▁14	-1900
ret	-1901
▁star	-1902
▁arm	-1903
▁neg	-1904
▁teachers	-1905
▁webs	-1906
▁smo	-1907
dle	-1908
▁either	-1909
aging	-1910
▁frequ	-1911
▁increased	-1912
af	-1913
▁ju	-1914
▁comes	-1915
▁king	-1916
put	-1917
xic	-1918
▁fig	-1919
ead	-1920
fact	-1921
▁bacter	-1922
▁face	-1923
▁fed	-1924
ask	-1925
go	-1926
▁half	-1927
▁journal	-1928
▁toward	-1929
▁causes	-1930
▁department	-1931
▁reason	-1932
://	-1933
ival	-1934
▁repl	-1935
icient	-1936
▁content	-1937
▁print	-1938
▁rather	-1939
▁taken	-1940
▁ox	-1941
▁abs	-1942
▁vers	-1943
▁dom	-1944
abet	-1945
▁warm	-1946
istic	-1947
ze	-1948
▁months	-1949
▁america	-1950
ference	-1951
▁produce	-1952
▁became	-1953
▁100	-1954
▁needed	-1955
▁pie	-1956
▁stop	-1957
▁foods	-1958
▁electric	-1959
▁designed	-1960
▁ability	-1961
▁whole	-1962
▁disord	-1963
▁taking	-1964
ges	-1965
▁easy	-1966
▁fu	-1967
▁almost	-1968
▁please	-1969
▁six	-1970
ching	-1971
▁ang	-1972
▁includes	-1973
ump	-1974
▁spread	-1975
▁ep	-1976
▁prote	-1977
▁strateg	-1978
way	-1979
1.	-1980
▁miss	-1981
ification	-1982
▁video	-1983
▁ever	-1984
mber	-1985
▁situ	-1986
gar	-1987
▁oce	-1988
ird	-1989
▁13	-1990
like	-1991
▁evidence	-1992
▁mount	-1993
utes	-1994
acy	-1995
▁interact	-1996
▁experim	-1997
yl	-1998
urs	-1999
▁path	-2000
▁travel	-2001
▁music	-2002
gr	-2003
▁psy	-2004
lying	-2005
erve	-2006
▁employ	-2007
▁identify	-2008
▁pay	-2009
▁origin	-2010
▁pattern	-2011
▁previous	-2012
▁react	-2013
▁tree	-2014
▁mach	-2015
▁temperature	-2016
ibility	-2017
▁draw	-2018
▁subst	-2019
▁contain	-2020
▁books	-2021
▁pen	-2022
▁cra	-2023
▁tar	-2024
▁factors	-2025
reme	-2026
▁break	-2027
▁lives	-2028
▁instead	-2029
▁helps	-2030
▁vit	-2031
▁civ	-2032
astic	-2033
▁conduct	-2034
▁job	-2035
▁click	-2036
▁complex	-2037
mon	-2038
▁regular	-2039
▁idea	-2040
▁write	-2041
iction	-2042
▁region	-2043
based	-2044
▁virus	-2045
▁training	-2046
▁popular	-2047
▁encoura	-2048
▁maint	-2049
▁pan	-2050
idered	-2051
▁approach	-2052
▁hours	-2053
▁caused	-2054
▁thought	-2055
▁basic	-2056
▁lif	-2057
yle	-2058
▁htt	-2059
▁eye	-2060
▁libr	-2061
ections	-2062
hib	-2063
ming	-2064
rict	-2065
▁benefits	-2066
▁company	-2067
▁uses	-2068
▁park	-2069
▁trees	-2070
▁sust	-2071
▁considered	-2072
ched	-2073
▁required	-2074
ened	-2075
▁surv	-2076
app	-2077
▁psych	-2078
▁programs	-2079
ronic	-2080
hol	-2081
use	-2082
ensive	-2083
▁personal	-2084
▁action	-2085
▁animal	-2086
▁german	-2087
1,	-2088
▁veget	-2089
▁pri	-2090
aily	-2091
▁surve	-2092
▁brow	-2093
▁average	-2094
2,	-2095
ued	-2096
▁variety	-2097
▁canad	-2098
▁damage	-2099
fer	-2100
illed	-2101
▁vacc	-2102
▁entire	-2103
▁defin	-2104
ec	-2105
ney	-2106
ann	-2107
ils	-2108
▁purp	-2109
acks	-2110
▁emerg	-2111
▁west	-2112
▁fail	-2113
ese	-2114
▁members	-2115
▁built	-2116
ows	-2117
▁conserv	-2118
▁essay	-2119
▁select	-2120
aff	-2121
▁structure	-2122
▁network	-2123
▁standard	-2124
augh	-2125
▁hyd	-2126
▁magn	-2127
▁sil	-2128
▁account	-2129
ls	-2130
▁behavior	-2131
▁dest	-2132
▁diseases	-2133
aged	-2134
▁getting	-2135
▁economic	-2136
▁market	-2137
▁professor	-2138
ivity	-2139
▁developing	-2140
aced	-2141
room	-2142
uck	-2143
▁answer	-2144
▁total	-2145
ises	-2146
▁share	-2147
▁money	-2148
▁led	-2149
▁images	-2150
oose	-2151
▁deep	-2152
▁individuals	-2153
ym	-2154
▁rom	-2155
▁50	-2156
▁lin	-2157
▁sources	-2158
ores	-2159
▁meaning	-2160
▁daily	-2161
▁central	-2162
▁increasing	-2163
▁labor	-2164
itud	-2165
▁conc	-2166
▁college	-2167
▁industry	-2168
ricult	-2169
▁relationship	-2170
aim	-2171
▁numbers	-2172
urity	-2173
ush	-2174
▁muse	-2175
▁fem	-2176
erous	-2177
▁bur	-2178
iation	-2179
pts	-2180
▁growing	-2181
▁agricult	-2182
▁methods	-2183
nam	-2184
▁civil	-2185
▁hun	-2186
chan	-2187
▁series	-2188
cient	-2189
▁looking	-2190
▁feet	-2191
vere	-2192
alu	-2193
▁displ	-2194
▁sn	-2195
ef	-2196
▁bring	-2197
▁card	-2198
10	-2199
▁arg	-2200
▁austral	-2201
▁0	-2202
anced	-2203
▁squ	-2204
▁written	-2205
▁normal	-2206
5.	-2207
oph	-2208
▁waste	-2209
▁drink	-2210
▁slow	-2211
▁search	-2212
▁rob	-2213
new	-2214
▁middle	-2215
▁scre	-2216
▁museum	-2217
▁note	-2218
ried	-2219
adem	-2220
▁scientific	-2221
▁habit	-2222
▁active	-2223
▁themselves	-2224
▁multip	-2225
▁wall	-2226
iam	-2227
rences	-2228
▁john	-2229
▁positive	-2230
▁teaching	-2231
▁president	-2232
▁medicine	-2233
▁log	-2234
▁longer	-2235
▁tur	-2236
▁therefore	-2237
▁cit	-2238
3.	-2239
▁calif	-2240
overed	-2241
▁institute	-2242
▁road	-2243
▁princi	-2244
ply	-2245
▁inside	-2246
▁chur	-2247
▁exc	-2248
▁dry	-2249
▁came	-2250
▁threat	-2251
▁pet	-2252
▁love	-2253
light	-2254
▁rock	-2255
▁lun	-2256
▁rich	-2257
umb	-2258
.)	-2259
▁tools	-2260
▁diabet	-2261
▁exercise	-2262
utions	-2263
ners	-2264
epend	-2265
▁therap	-2266
▁sout	-2267
▁events	-2268
▁nas	-2269
▁3.	-2270
▁arr	-2271
▁cannot	-2272
ength	-2273
▁phil	-2274
▁academ	-2275
▁clin	-2276
▁issue	-2277
▁ago	-2278
▁summer	-2279
▁heav	-2280
▁ice	-2281
▁sex	-2282
istics	-2283
▁continue	-2284
hood	-2285
▁teeth	-2286
ume	-2287
ery	-2288
▁prep	-2289
▁york	-2290
▁provided	-2291
▁county	-2292
estern	-2293
▁separ	-2294
▁media	-2295
ok	-2296
▁dou	-2297
▁humans	-2298
30	-2299
▁hold	-2300
den	-2301
fully	-2302
▁necessary	-2303
ulations	-2304
ales	-2305
▁assist	-2306
▁thus	-2307
▁relig	-2308
▁doing	-2309
izing	-2310
▁cover	-2311
reng	-2312
▁capt	-2313
▁matter	-2314
▁californ	-2315
▁dy	-2316
ai	-2317
▁late	-2318
▁mess	-2319
▁cross	-2320
inary	-2321
▁website	-2322
▁diabetes	-2323
▁thing	-2324
▁,	-2325
▁mechan	-2326
▁ensure	-2327
▁demon	-2328
▁manu	-2329
▁culture	-2330
▁correct	-2331
▁math	-2332
▁etc	-2333
▁admin	-2334
▁ideas	-2335
▁reach	-2336
▁rul	-2337
▁added	-2338
▁extreme	-2339
▁guide	-2340
▁simply	-2341
▁determine	-2342
▁took	-2343
▁began	-2344
▁challeng	-2345
▁investig	-2346
▁outside	-2347
▁198	-2348
▁weather	-2349
▁night	-2350
▁priv	-2351
▁ocean	-2352
rs	-2353
oration	-2354
4.	-2355
▁serious	-2356
▁sustain	-2357
▁harm	-2358
▁adults	-2359
▁appl	-2360
▁shown	-2361
▁target	-2362
▁nort	-2363
▁fa	-2364
ici	-2365
▁coast	-2366
▁hot	-2367
onse	-2368
5,	-2369
▁/	-2370
load	-2371
aches	-2372
▁produced	-2373
▁internet	-2374
ography	-2375
▁streng	-2376
▁essential	-2377
▁primary	-2378
▁jap	-2379
▁sense	-2380
▁document	-2381
▁regard	-2382
▁dang	-2383
▁chap	-2384
▁eating	-2385
pro	-2386
asc	-2387
imately	-2388
▁terms	-2389
ule	-2390
▁itself	-2391
▁colon	-2392
▁native	-2393
▁expos	-2394
▁copy	-2395
▁manufact	-2396
▁doctor	-2397
▁greater	-2398
▁div	-2399
▁takes	-2400
▁protection	-2401
che	-2402
▁movement	-2403
ellow	-2404
▁believe	-2405
▁burn	-2406
▁date	-2407
▁poor	-2408
bo	-2409
sequ	-2410
wor	-2411
▁san	-2412
▁bad	-2413
ades	-2414
▁bul	-2415
▁guid	-2416
▁involved	-2417
▁compon	-2418
rought	-2419
▁forms	-2420
▁true	-2421
▁egg	-2422
▁reported	-2423
elling	-2424
▁mental	-2425
▁foot	-2426
lex	-2427
▁stay	-2428
▁upon	-2429
usion	-2430
▁analy	-2431
hic	-2432
▁original	-2433
▁someone	-2434
▁ancient	-2435
▁eth	-2436
▁game	-2437
cies	-2438
reg	-2439
▁town	-2440
▁altern	-2441
▁british	-2442
▁evalu	-2443
▁birth	-2444
▁infection	-2445
life	-2446
▁ones	-2447
▁generally	-2448
▁bacteria	-2449
apt	-2450
▁garden	-2451
▁aud	-2452
ground	-2453
bol	-2454
▁digital	-2455
▁tiss	-2456
▁attention	-2457
▁response	-2458
▁bit	-2459
3,	-2460
▁unique	-2461
▁resist	-2462
▁estim	-2463
▁leaves	-2464
▁federal	-2465
▁independ	-2466
▁table	-2467
▁commit	-2468
▁california	-2469
▁ten	-2470
▁additional	-2471
▁code	-2472
▁planet	-2473
▁winter	-2474
▁inn	-2475
overy	-2476
▁cold	-2477
▁communities	-2478
▁cele	-2479
▁emot	-2480
▁examples	-2481
▁earl	-2482
▁cool	-2483
▁position	-2484
amed	-2485
▁japan	-2486
▁ast	-2487
▁tit	-2488
▁easily	-2489
▁implement	-2490
water	-2491
▁map	-2492
▁enj	-2493
▁exce	-2494
ban	-2495
▁jew	-2496
▁hor	-2497
▁included	-2498
sect	-2499
▁deb	-2500
▁talk	-2501
oles	-2502
▁east	-2503
oses	-2504
▁political	-2505
▁dark	-2506
▁birds	-2507
ging	-2508
▁nearly	-2509
▁critical	-2510
▁jan	-2511
▁church	-2512
▁difference	-2513
uge	-2514
▁pack	-2515
▁rain	-2516
▁ho	-2517
▁allows	-2518
▁hosp	-2519
oring	-2520
▁probably	-2521
▁force	-2522
▁thous	-2523
▁contains	-2524
▁season	-2525
aries	-2526
book	-2527
mb	-2528
▁traditional	-2529
▁vehic	-2530
▁pal	-2531
▁aug	-2532
ee	-2533
▁compared	-2534
▁teacher	-2535
▁tend	-2536
▁(2	-2537
▁third	-2538
▁celebr	-2539
▁library	-2540
▁collection	-2541
▁relative	-2542
▁front	-2543
know	-2544
6.	-2545
▁:	-2546
▁oct	-2547
dom	-2548
▁particularly	-2549
▁minutes	-2550
view	-2551
▁compet	-2552
▁sus	-2553
▁administ	-2554
▁blue	-2555
▁currently	-2556
▁viol	-2557
▁multiple	-2558
▁severe	-2559
▁families	-2560
▁197	-2561
▁remember	-2562
▁aim	-2563
ino	-2564
▁tax	-2565
▁vict	-2566
▁explore	-2567
9.	-2568
▁section	-2569
▁lack	-2570
4,	-2571
▁started	-2572
aling	-2573
▁sugar	-2574
▁behind	-2575
cks	-2576
▁rout	-2577
▁tex	-2578
▁refer	-2579
-2	-2580
▁ban	-2581
itary	-2582
▁transport	-2583
▁reve	-2584
▁connect	-2585
rench	-2586
▁196	-2587
ancy	-2588
eding	-2589
▁progress	-2590
▁fast	-2591
▁enjoy	-2592
8.	-2593
ister	-2594
▁cust	-2595
▁march	-2596
▁spring	-2597
▁emb	-2598
issions	-2599
▁extra	-2600
▁projects	-2601
omet	-2602
idge	-2603
▁policy	-2604
▁gold	-2605
▁hands	-2606
▁monitor	-2607
pri	-2608
▁larger	-2609
▁creating	-2610
▁security	-2611
oor	-2612
con	-2613
▁software	-2614
▁washing	-2615
▁hope	-2616
▁http	-2617
▁fib	-2618
▁acid	-2619
▁quickly	-2620
▁mole	-2621
▁sites	-2622
▁features	-2623
ctions	-2624
bre	-2625
▁recently	-2626
▁seem	-2627
ucle	-2628
▁official	-2629
▁conservation	-2630
▁file	-2631
7.	-2632
▁ult	-2633
▁25	-2634
▁points	-2635
▁tests	-2636
▁performance	-2637
gn	-2638
▁ii	-2639
resh	-2640
▁40	-2641
▁largest	-2642
▁offer	-2643
rition	-2644
▁minim	-2645
▁mel	-2646
▁breat	-2647
▁survey	-2648
ties	-2649
▁broad	-2650
▁base	-2651
▁cred	-2652
▁achieve	-2653
ops	-2654
▁decre	-2655
▁weeks	-2656
8,	-2657
oes	-2658
▁reflect	-2659
itis	-2660
▁cook	-2661
▁thinking	-2662
____	-2663
▁miles	-2664
▁concent	-2665
▁choose	-2666
uries	-2667
6,	-2668
▁wa	-2669
▁devices	-2670
ounds	-2671
iot	-2672
9,	-2673
▁memory	-2674
▁length	-2675
▁drug	-2676
▁concept	-2677
▁rare	-2678
▁theory	-2679
▁apr	-2680
rial	-2681
▁sept	-2682
▁speak	-2683
▁leading	-2684
▁office	-2685
▁demonstr	-2686
▁nation	-2687
▁wal	-2688
▁fram	-2689
▁located	-2690
arily	-2691
▁fit	-2692
▁soon	-2693
▁western	-2694
201	-2695
▁standards	-2696
▁useful	-2697
▁born	-2698
ension	-2699
▁appropri	-2700
▁proced	-2701
▁finan	-2702
▁india	-2703
inc	-2704
▁nar	-2705
▁fuel	-2706
ached	-2707
year	-2708
itation	-2709
▁install	-2710
oint	-2711
▁european	-2712
▁bott	-2713
▁express	-2714
▁testing	-2715
▁classroom	-2716
▁prior	-2717
▁imag	-2718
▁eyes	-2719
▁claim	-2720
▁speed	-2721
oll	-2722
▁typically	-2723
▁techniques	-2724
ounts	-2725
▁ball	-2726
where	-2727
▁engineering	-2728
▁atm	-2729
pan	-2730
▁contribut	-2731
7,	-2732
▁objects	-2733
▁quite	-2734
fect	-2735
▁association	-2736
enced	-2737
▁older	-2738
▁interesting	-2739
ript	-2740
▁quant	-2741
▁rap	-2742
▁beaut	-2743
rast	-2744
▁protein	-2745
▁attack	-2746
uary	-2747
▁calcul	-2748
asons	-2749
iciency	-2750
▁visual	-2751
▁communication	-2752
▁tal	-2753
atives	-2754
osing	-2755
▁friends	-2756
▁highly	-2757
▁beginning	-2758
▁goal	-2759
▁consist	-2760
rad	-2761
▁applications	-2762
bor	-2763
right	-2764
ribution	-2765
istry	-2766
▁lesson	-2767
nes	-2768
▁historical	-2769
▁supply	-2770
imin	-2771
▁places	-2772
ana	-2773
▁discovered	-2774
idents	-2775
▁bud	-2776
▁moon	-2777
▁african	-2778
▁negative	-2779
▁electr	-2780
tic	-2781
▁fav	-2782
ses	-2783
can	-2784
▁nucle	-2785
▁fruit	-2786
▁hydro	-2787
▁findings	-2788
▁atmosp	-2789
▁africa	-2790
▁board	-2791
▁court	-2792
ura	-2793
▁patient	-2794
▁fair	-2795
▁immedi	-2796
ender	-2797
▁importance	-2798
▁host	-2799
▁194	-2800
▁pregn	-2801
ief	-2802
▁respect	-2803
▁grade	-2804
▁elements	-2805
▁swe	-2806
eration	-2807
itude	-2808
▁device	-2809
▁china	-2810
▁cro	-2811
ields	-2812
▁americans	-2813
▁leaders	-2814
▁sand	-2815
▁youre	-2816
▁educational	-2817
▁southern	-2818
▁gir	-2819
▁expect	-2820
▁box	-2821
▁dead	-2822
▁june	-2823
▁mathem	-2824
▁thats	-2825
▁insp	-2826
▁1,	-2827
undred	-2828
▁got	-2829
▁french	-2830
gress	-2831
fl	-2832
isions	-2833
▁unit	-2834
▁fra	-2835
▁companies	-2836
▁exact	-2837
▁mix	-2838
▁ful	-2839
▁shape	-2840
▁4.	-2841
▁directly	-2842
ription	-2843
▁application	-2844
▁mag	-2845
cohol	-2846
▁jud	-2847
▁stri	-2848
▁resource	-2849
ustr	-2850
ille	-2851
▁everyone	-2852
ulate	-2853
▁surround	-2854
▁accept	-2855
term	-2856
▁decl	-2857
▁remo	-2858
▁professional	-2859
ivers	-2860
▁insect	-2861
cra	-2862
▁vitamin	-2863
▁april	-2864
▁lines	-2865
▁nutrition	-2866
pper	-2867
--	-2868
oming	-2869
▁organization	-2870
▁spir	-2871
▁impl	-2872
▁nasa	-2873
▁poly	-2874
▁hundred	-2875
▁location	-2876
▁construction	-2877
▁exposure	-2878
▁equip	-2879
edia	-2880
▁lost	-2881
www	-2882
ias	-2883
▁transl	-2884
▁fight	-2885
ologies	-2886
▁rates	-2887
▁carry	-2888
▁milk	-2889
head	-2890
▁display	-2891
val	-2892
▁northern	-2893
▁graph	-2894
▁symbol	-2895
▁overall	-2896
▁therapy	-2897
cil	-2898
▁indian	-2899
▁alcohol	-2900
▁solution	-2901
▁upd	-2902
▁plastic	-2903
▁foundation	-2904
▁values	-2905
▁signs	-2906
▁span	-2907
▁mouth	-2908
▁max	-2909
ift	-2910
▁room	-2911
▁commer	-2912
cles	-2913
▁purpose	-2914
ha	-2915
▁laun	-2916
▁wildlife	-2917
▁mom	-2918
▁cultural	-2919
▁attem	-2920
▁track	-2921
▁mission	-2922
▁emp	-2923
▁element	-2924
hens	-2925
▁custom	-2926
hel	-2927
▁gradu	-2928
bert	-2929
▁sold	-2930
▁stories	-2931
▁baby	-2932
▁nations	-2933
▁gives	-2934
ams	-2935
isms	-2936
▁instru	-2937
oud	-2938
▁director	-2939
ively	-2940
fort	-2941
osition	-2942
▁steps	-2943
▁genetic	-2944
▁fort	-2945
▁nav	-2946
▁wond	-2947
▁mac	-2948
▁aspect	-2949
▁hen	-2950
▁july	-2951
▁uk	-2952
▁users	-2953
▁picture	-2954
▁desp	-2955
wide	-2956
estic	-2957
iers	-2958
▁dav	-2959
▁providing	-2960
▁opportunity	-2961
▁drugs	-2962
▁autom	-2963
▁rapid	-2964
▁sen	-2965
▁requires	-2966
▁save	-2967
uff	-2968
▁approx	-2969
▁yourself	-2970
▁gal	-2971
▁told	-2972
itect	-2973
▁emissions	-2974
amp	-2975
▁billion	-2976
▁recommend	-2977
▁financial	-2978
▁reports	-2979
▁efforts	-2980
▁processes	-2981
▁download	-2982
▁equipment	-2983
▁illness	-2984
▁affected	-2985
ius	-2986
▁tou	-2987
▁exhib	-2988
▁games	-2989
▁tooth	-2990
▁mis	-2991
▁block	-2992
▁den	-2993
▁behavi	-2994
▁topic	-2995
▁cou	-2996
time	-2997
ula	-2998
▁receive	-2999
▁mig	-3000
▁smaller	-3001
▁held	-3002
▁prec	-3003
▁email	-3004
▁established	-3005
ror	-3006
▁canada	-3007
▁commonly	-3008
▁breast	-3009
▁architect	-3010
aren	-3011
▁innov	-3012
tery	-3013
▁stage	-3014
▁buy	-3015
med	-3016
▁appropriate	-3017
▁conce	-3018
▁respond	-3019
▁24	-3020
▁explain	-3021
▁glass	-3022
▁prevention	-3023
col	-3024
▁fresh	-3025
▁else	-3026
▁responsible	-3027
▁everything	-3028
▁adj	-3029
▁remains	-3030
entially	-3031
▁nutri	-3032
reek	-3033
▁mob	-3034
haps	-3035
▁collab	-3036
▁hon	-3037
▁limited	-3038
izes	-3039
encies	-3040
▁workers	-3041
▁version	-3042
▁enh	-3043
▁august	-3044
▁(19	-3045
▁costs	-3046
▁named	-3047
11	-3048
inct	-3049
▁yellow	-3050
▁towards	-3051
▁experts	-3052
▁occurs	-3053
▁practices	-3054
osy	-3055
▁expected	-3056
▁unf	-3057
▁0.	-3058
▁kid	-3059
izations	-3060
▁tips	-3061
▁washington	-3062
▁died	-3063
▁via	-3064
▁feb	-3065
ody	-3066
see	-3067
▁bey	-3068
▁enter	-3069
ech	-3070
▁mathemat	-3071
dr	-3072
▁lake	-3073
▁cru	-3074
▁hair	-3075
set	-3076
▁purch	-3077
ober	-3078
▁brown	-3079
▁england	-3080
▁scale	-3081
wise	-3082
ribute	-3083
▁benefit	-3084
▁eight	-3085
▁antib	-3086
▁mother	-3087
mar	-3088
aught	-3089
craft	-3090
▁integr	-3091
▁leave	-3092
▁constit	-3093
▁detect	-3094
▁interp	-3095
▁syn	-3096
▁obt	-3097
anc	-3098
back	-3099
0,	-3100
enge	-3101
▁beyond	-3102
▁camp	-3103
▁assessment	-3104
▁figure	-3105
▁dece	-3106
▁whose	-3107
▁bird	-3108
▁perhaps	-3109
▁cry	-3110
▁bone	-3111
▁goes	-3112
▁hous	-3113
▁vo	-3114
▁seems	-3115
▁anything	-3116
▁der	-3117
▁properties	-3118
▁hospital	-3119
▁capac	-3120
▁disp	-3121
▁planning	-3122
▁models	-3123
▁assign	-3124
▁gene	-3125
▁kill	-3126
uments	-3127
▁military	-3128
▁immune	-3129
▁dogs	-3130
▁son	-3131
▁electricity	-3132
▁walk	-3133
rection	-3134
▁release	-3135
▁user	-3136
▁reserv	-3137
▁tissue	-3138
▁final	-3139
▁depression	-3140
▁member	-3141
mission	-3142
▁continu	-3143
come	-3144
▁categ	-3145
▁trying	-3146
▁initi	-3147
▁chronic	-3148
▁frame	-3149
▁machine	-3150
▁moving	-3151
▁offers	-3152
▁root	-3153
rees	-3154
oon	-3155
▁william	-3156
▁names	-3157
▁rise	-3158
▁becomes	-3159
iar	-3160
▁predict	-3161
▁iron	-3162
▁accom	-3163
hold	-3164
▁deal	-3165
▁vision	-3166
▁despite	-3167
▁stru	-3168
bl	-3169
ulum	-3170
▁applied	-3171
▁pages	-3172
▁september	-3173
▁thousands	-3174
▁citiz	-3175
▁pick	-3176
▁surger	-3177
▁patterns	-3178
cop	-3179
aly	-3180
iles	-3181
▁mexic	-3182
▁perfect	-3183
▁controll	-3184
▁chapter	-3185
▁plans	-3186
▁remain	-3187
▁staff	-3188
▁anti	-3189
▁style	-3190
▁pow	-3191
▁curric	-3192
▁dna	-3193
▁temperatures	-3194
▁earlier	-3195
▁piece	-3196
▁items	-3197
▁situation	-3198
▁details	-3199
):	-3200
▁exec	-3201
▁illustr	-3202
▁virt	-3203
▁beg	-3204
▁except	-3205
vant	-3206
▁stem	-3207
▁harv	-3208
▁received	-3209
▁oxy	-3210
▁sequ	-3211
ext	-3212
▁constant	-3213
▁q	-3214
▁rot	-3215
▁reasons	-3216
▁conver	-3217
▁21	-3218
▁rules	-3219
iny	-3220
▁asked	-3221
gy	-3222
▁compre	-3223
▁property	-3224
▁urban	-3225
▁decision	-3226
▁notes	-3227
▁advant	-3228
▁organic	-3229
▁pu	-3230
▁successful	-3231
▁tele	-3232
▁hear	-3233
▁october	-3234
▁january	-3235
▁private	-3236
▁female	-3237
ama	-3238
▁trade	-3239
ously	-3240
ios	-3241
▁agree	-3242
▁partners	-3243
ided	-3244
▁disorder	-3245
hest	-3246
▁sett	-3247
▁adop	-3248
▁60	-3249
▁remove	-3250
▁die	-3251
▁went	-3252
▁core	-3253
df	-3254
▁maintain	-3255
▁flood	-3256
▁clinical	-3257
▁watch	-3258
▁finally	-3259
▁fert	-3260
▁...	-3261
▁instruct	-3262
▁spect	-3263
rick	-3264
vi	-3265
▁pollution	-3266
inese	-3267
▁efficient	-3268
areness	-3269
▁showed	-3270
▁liqu	-3271
ologist	-3272
▁recy	-3273
▁demand	-3274
ica	-3275
▁chance	-3276
▁influence	-3277
▁rat	-3278
▁facts	-3279
▁challenges	-3280
word	-3281
▁strength	-3282
▁incor	-3283
▁parent	-3284
▁bed	-3285
▁measures	-3286
▁letter	-3287
era	-3288
▁strategies	-3289
▁flor	-3290
▁consequ	-3291
▁russ	-3292
related	-3293
-19	-3294
".	-3295
▁homes	-3296
bur	-3297
▁warn	-3298
rote	-3299
▁feature	-3300
▁evolution	-3301
▁store	-3302
▁technologies	-3303
▁doesnt	-3304
▁hyp	-3305
▁participants	-3306
▁cities	-3307
itch	-3308
ocks	-3309
▁effort	-3310
▁task	-3311
▁australia	-3312
▁flowers	-3313
▁functions	-3314
▁encourage	-3315
house	-3316
▁mos	-3317
ensity	-3318
12	-3319
aled	-3320
pped	-3321
iest	-3322
▁coming	-3323
▁consumption	-3324
▁ca	-3325
▁laws	-3326
▁surgery	-3327
mat	-3328
▁completely	-3329
▁establish	-3330
▁convent	-3331
▁identified	-3332
▁topics	-3333
▁differences	-3334
orial	-3335
▁storm	-3336
▁shap	-3337
▁brought	-3338
▁seven	-3339
sp	-3340
▁radio	-3341
▁definition	-3342
▁dri	-3343
▁discover	-3344
▁distance	-3345
▁command	-3346
ste	-3347
▁neigh	-3348
▁options	-3349
▁adult	-3350
▁sustainable	-3351
▁landsc	-3352
▁released	-3353
▁basis	-3354
▁reduced	-3355
uth	-3356
▁hur	-3357
▁apply	-3358
▁finding	-3359
▁reference	-3360
▁muscle	-3361
▁grass	-3362
cont	-3363
itable	-3364
zz	-3365
ford	-3366
▁advanced	-3367
▁metal	-3368
▁running	-3369
▁challenge	-3370
▁chinese	-3371
▁nan	-3372
▁cast	-3373
▁approximately	-3374
lands	-3375
▁capital	-3376
▁mich	-3377
▁increases	-3378
▁opportunities	-3379
▁introduction	-3380
ida	-3381
▁seeds	-3382
▁saw	-3383
▁formed	-3384
▁experiment	-3385
iful	-3386
▁pul	-3387
▁eventually	-3388
▁disorders	-3389
▁awareness	-3390
▁limit	-3391
▁oxygen	-3392
gra	-3393
-3	-3394
▁tour	-3395
▁station	-3396
▁repe	-3397
▁suggests	-3398
▁articles	-3399
ulated	-3400
▁union	-3401
▁authors	-3402
oma	-3403
▁wet	-3404
▁powerful	-3405
▁convers	-3406
equ	-3407
▁huge	-3408
▁spot	-3409
▁economy	-3410
▁degree	-3411
▁eggs	-3412
▁expand	-3413
▁alternative	-3414
▁dro	-3415
used	-3416
ream	-3417
▁placed	-3418
▁bran	-3419
roy	-3420
▁radiation	-3421
▁vill	-3422
▁agency	-3423
ml	-3424
▁dental	-3425
ience	-3426
▁seed	-3427
▁surpr	-3428
▁starting	-3429
rome	-3430
▁hom	-3431
▁annual	-3432
▁regions	-3433
▁snow	-3434
▁marine	-3435
▁curriculum	-3436
mitted	-3437
son	-3438
▁injury	-3439
▁cand	-3440
▁gall	-3441
pping	-3442
▁giving	-3443
known	-3444
▁depend	-3445
▁followed	-3446
▁sample	-3447
▁helping	-3448
▁industrial	-3449
▁compar	-3450
▁generation	-3451
uk	-3452
▁5.	-3453
▁thin	-3454
▁transform	-3455
▁construct	-3456
▁excess	-3457
▁laboratory	-3458
▁upper	-3459
▁goals	-3460
▁components	-3461
▁absor	-3462
▁hit	-3463
▁comprehens	-3464
▁fear	-3465
▁vegetables	-3466
ographic	-3467
▁statement	-3468
▁alone	-3469
▁nove	-3470
▁alg	-3471
▁emergency	-3472
▁physic	-3473
▁agriculture	-3474
▁depending	-3475
▁volume	-3476
▁legal	-3477
▁bottom	-3478
▁load	-3479
▁jes	-3480
▁choice	-3481
▁records	-3482
▁ic	-3483
pes	-3484
▁datab	-3485
iant	-3486
▁hop	-3487
▁november	-3488
▁infections	-3489
▁accur	-3490
▁nothing	-3491
aving	-3492
ube	-3493
▁corn	-3494
▁anx	-3495
▁conflic	-3496
▁changed	-3497
▁maxim	-3498
▁habitat	-3499
▁plat	-3500
▁buildings	-3501
▁structures	-3502
▁balance	-3503
▁grand	-3504
▁december	-3505
▁battle	-3506
▁fill	-3507
olic	-3508
roll	-3509
▁occup	-3510
▁drive	-3511
▁described	-3512
▁speech	-3513
do	-3514
lim	-3515
▁price	-3516
▁easier	-3517
▁drinking	-3518
▁degrees	-3519
▁heavy	-3520
ologists	-3521
ocol	-3522
hab	-3523
▁recommended	-3524
▁friend	-3525
▁famous	-3526
uit	-3527
ondon	-3528
ruary	-3529
▁changing	-3530
▁rule	-3531
▁treated	-3532
▁promot	-3533
works	-3534
enty	-3535
▁smart	-3536
▁literature	-3537
▁square	-3538
▁solutions	-3539
▁forward	-3540
▁reducing	-3541
▁bri	-3542
▁appe	-3543
▁du	-3544
▁waters	-3545
▁male	-3546
arian	-3547
▁appears	-3548
▁gain	-3549
ony	-3550
▁worked	-3551
▁photo	-3552
iday	-3553
▁ages	-3554
▁anyone	-3555
▁kn	-3556
▁context	-3557
▁equal	-3558
▁mer	-3559
▁causing	-3560
▁peace	-3561
▁commercial	-3562
▁mit	-3563
▁fields	-3564
rig	-3565
ham	-3566
▁blog	-3567
▁shar	-3568
da	-3569
▁youth	-3570
▁cove	-3571
fs	-3572
enn	-3573
▁happen	-3574
care	-3575
▁conducted	-3576
▁wrote	-3577
isc	-3578
▁cycle	-3579
▁crow	-3580
▁extremely	-3581
erate	-3582
▁woman	-3583
odes	-3584
▁factor	-3585
des	-3586
▁learned	-3587
▁credit	-3588
ta	-3589
lin	-3590
▁spirit	-3591
▁tum	-3592
▁stim	-3593
▁status	-3594
▁nuclear	-3595
▁voc	-3596
▁cant	-3597
▁song	-3598
erson	-3599
▁father	-3600
▁novel	-3601
▁fro	-3602
lection	-3603
▁2012	-3604
▁vaccine	-3605
▁existing	-3606
ibly	-3607
▁fully	-3608
▁mi	-3609
▁coal	-3610
ero	-3611
▁hearing	-3612
60	-3613
▁gar	-3614
▁bank	-3615
▁py	-3616
▁salt	-3617
▁191	-3618
▁concepts	-3619
▁ready	-3620
▁que	-3621
▁links	-3622
▁texas	-3623
▁complic	-3624
cs	-3625
▁revolution	-3626
more	-3627
▁attract	-3628
▁layer	-3629
▁motor	-3630
▁haz	-3631
▁attempt	-3632
▁risks	-3633
▁electrical	-3634
▁gets	-3635
tical	-3636
▁linked	-3637
▁technique	-3638
bits	-3639
▁ves	-3640
▁amaz	-3641
▁bright	-3642
▁letters	-3643
▁populations	-3644
80	-3645
▁satell	-3646
▁util	-3647
▁academic	-3648
ding	-3649
▁dangerous	-3650
cers	-3651
▁mart	-3652
▁estimated	-3653
▁chemicals	-3654
▁london	-3655
▁freed	-3656
▁religious	-3657
▁prepar	-3658
▁describe	-3659
osystem	-3660
▁latest	-3661
▁trig	-3662
this	-3663
▁highest	-3664
orage	-3665
▁decades	-3666
▁rub	-3667
▁joint	-3668
▁copyright	-3669
▁film	-3670
▁trust	-3671
ogle	-3672
▁secret	-3673
▁acqu	-3674
▁adapt	-3675
▁presented	-3676
▁suppl	-3677
sec	-3678
▁clos	-3679
▁resistance	-3680
wards	-3681
▁volun	-3682
▁february	-3683
name	-3684
abilities	-3685
▁background	-3686
▁cogn	-3687
▁foss	-3688
▁worth	-3689
▁expert	-3690
▁format	-3691
▁atmosphere	-3692
▁ly	-3693
▁mary	-3694
mer	-3695
bed	-3696
▁vul	-3697
eles	-3698
ellig	-3699
▁thanks	-3700
▁favor	-3701
▁discovery	-3702
▁reprodu	-3703
▁setting	-3704
▁las	-3705
▁weak	-3706
▁lessons	-3707
▁genes	-3708
▁invent	-3709
inated	-3710
▁commission	-3711
▁multi	-3712
▁round	-3713
▁district	-3714
elines	-3715
▁capacity	-3716
ingu	-3717
▁stars	-3718
▁univers	-3719
▁synd	-3720
▁ber	-3721
▁aqu	-3722
edic	-3723
▁becoming	-3724
ws	-3725
▁allowed	-3726
iety	-3727
▁oral	-3728
);	-3729
lor	-3730
▁mut	-3731
▁creative	-3732
▁relatively	-3733
▁bay	-3734
▁actions	-3735
ublic	-3736
log	-3737
▁transfer	-3738
▁sac	-3739
▁eastern	-3740
▁experiences	-3741
ping	-3742
dule	-3743
ogen	-3744
▁qual	-3745
ux	-3746
▁congress	-3747
▁organizations	-3748
▁mars	-3749
▁significantly	-3750
▁od	-3751
▁beautiful	-3752
▁ecosystem	-3753
▁direction	-3754
▁neuro	-3755
▁optim	-3756
▁kil	-3757
▁roman	-3758
imens	-3759
▁strugg	-3760
▁covered	-3761
▁inflamm	-3762
▁mention	-3763
▁perspect	-3764
▁replace	-3765
▁sciences	-3766
▁stro	-3767
ara	-3768
ifically	-3769
▁forces	-3770
▁army	-3771
▁confir	-3772
▁id	-3773
off	-3774
▁fine	-3775
▁farmers	-3776
▁centre	-3777
▁former	-3778
oe	-3779
▁pun	-3780
▁stone	-3781
▁happens	-3782
key	-3783
paign	-3784
40	-3785
gi	-3786
▁moment	-3787
bi	-3788
▁hall	-3789
met	-3790
▁thick	-3791
▁looks	-3792
▁lic	-3793
▁renew	-3794
▁spanish	-3795
▁trou	-3796
▁divid	-3797
▁thr	-3798
▁classes	-3799
▁slight	-3800
▁wrong	-3801
orge	-3802
isl	-3803
▁sem	-3804
▁council	-3805
▁horm	-3806
▁pip	-3807
ares	-3808
▁languages	-3809
▁intellig	-3810
ris	-3811
▁interested	-3812
▁windows	-3813
▁presence	-3814
aur	-3815
gl	-3816
▁rang	-3817
antic	-3818
▁introduced	-3819
▁immediately	-3820
▁gender	-3821
▁excell	-3822
mal	-3823
▁mountain	-3824
▁schol	-3825
▁hiv	-3826
asks	-3827
▁discussion	-3828
▁storage	-3829
ken	-3830
▁pac	-3831
▁fruits	-3832
▁wel	-3833
▁index	-3834
phas	-3835
▁majority	-3836
▁meat	-3837
▁bodies	-3838
▁astr	-3839
char	-3840
board	-3841
▁80	-3842
▁coord	-3843
▁workshe	-3844
▁agricultural	-3845
▁trend	-3846
▁unlike	-3847
▁dram	-3848
▁diction	-3849
▁properly	-3850
▁vary	-3851
▁ther	-3852
▁hour	-3853
▁philos	-3854
▁destroy	-3855
▁believed	-3856
▁engage	-3857
▁solid	-3858
▁preserv	-3859
bal	-3860
▁exactly	-3861
cious	-3862
▁numerous	-3863
▁worlds	-3864
▁pair	-3865
▁keeping	-3866
▁citizens	-3867
▁girls	-3868
▁david	-3869
▁defined	-3870
▁193	-3871
▁income	-3872
ii	-3873
▁frequently	-3874
▁characteristics	-3875
▁distribution	-3876
▁jesus	-3877
▁ben	-3878
▁fix	-3879
▁consult	-3880
▁incorpor	-3881
▁separate	-3882
▁allerg	-3883
▁campaign	-3884
▁paint	-3885
▁diam	-3886
▁profession	-3887
▁diagnosis	-3888
▁google	-3889
▁exposed	-3890
▁pieces	-3891
▁roll	-3892
25	-3893
▁toxic	-3894
▁bound	-3895
▁doctors	-3896
▁2013	-3897
▁combination	-3898
▁arts	-3899
▁treatments	-3900
▁aid	-3901
▁concentr	-3902
▁flower	-3903
19	-3904
urally	-3905
▁pret	-3906
ager	-3907
▁master	-3908
cular	-3909
▁technical	-3910
▁widely	-3911
▁astronom	-3912
▁virgin	-3913
▁theres	-3914
▁passed	-3915
▁vessel	-3916
▁requirements	-3917
▁sounds	-3918
▁phone	-3919
ags	-3920
▁promote	-3921
▁christian	-3922
▁sect	-3923
▁sexual	-3924
ulf	-3925
▁monitoring	-3926
▁aware	-3927
▁asse	-3928
▁wonder	-3929
▁bow	-3930
force	-3931
oxide	-3932
▁ip	-3933
▁message	-3934
▁grant	-3935
▁contract	-3936
▁biological	-3937
ought	-3938
▁kit	-3939
▁street	-3940
▁connected	-3941
▁serve	-3942
iter	-3943
▁meeting	-3944
▁anxiety	-3945
▁mostly	-3946
▁sess	-3947
▁bot	-3948
▁moist	-3949
▁sky	-3950
ung	-3951
▁vehicle	-3952
▁liquid	-3953
▁dan	-3954
▁screen	-3955
▁observed	-3956
▁removed	-3957
▁atl	-3958
▁operations	-3959
▁yes	-3960
spe	-3961
▁boo	-3962
▁syndrome	-3963
umn	-3964
▁muscles	-3965
▁previously	-3966
▁liver	-3967
rim	-3968
▁phen	-3969
▁notice	-3970
▁carried	-3971
▁scen	-3972
▁aspects	-3973
▁germany	-3974
▁independent	-3975
▁nit	-3976
zing	-3977
▁helped	-3978
▁impacts	-3979
▁title	-3980
▁principles	-3981
▁height	-3982
▁dent	-3983
west	-3984
▁sports	-3985
iring	-3986
▁hyper	-3987
▁pictures	-3988
▁fing	-3989
▁continued	-3990
▁send	-3991
▁feeling	-3992
onds	-3993
▁violence	-3994
▁output	-3995
▁intervent	-3996
▁practical	-3997
ole	-3998
▁sche	-3999
▁decisions	-4000
▁failure	-4001
ball	-4002
▁samples	-4003
▁administration	-4004
▁esc	-4005
▁physics	-4006
▁affects	-4007
isher	-4008
▁comment	-4009
li	-4010
▁nutrients	-4011
▁involves	-4012
▁connection	-4013
▁emphas	-4014
▁ship	-4015
▁traff	-4016
▁unc	-4017
▁france	-4018
▁explains	-4019
iling	-4020
▁internal	-4021
▁shel	-4022
▁processing	-4023
▁initial	-4024
▁ing	-4025
cipl	-4026
▁tast	-4027
▁trib	-4028
▁rand	-4029
▁japanese	-4030
▁efficiency	-4031
▁centers	-4032
15	-4033
▁2010	-4034
▁james	-4035
▁tod	-4036
▁inches	-4037
▁showing	-4038
▁elimin	-4039
▁mexico	-4040
▁deaths	-4041
chool	-4042
icial	-4043
omas	-4044
▁input	-4045
▁emotional	-4046
ky	-4047
▁instruction	-4048
▁roy	-4049
resp	-4050
▁bord	-4051
▁actual	-4052
▁vulner	-4053
▁amounts	-4054
cast	-4055
▁biology	-4056
▁improved	-4057
▁prepared	-4058
ca	-4059
▁persons	-4060
▁gave	-4061
▁fundam	-4062
▁race	-4063
▁earn	-4064
▁legisl	-4065
▁resulting	-4066
▁adding	-4067
▁wear	-4068
▁herit	-4069
▁foreign	-4070
▁shall	-4071
▁rid	-4072
amb	-4073
▁performed	-4074
▁gum	-4075
▁advice	-4076
▁195	-4077
▁units	-4078
▁rail	-4079
▁2011	-4080
▁sud	-4081
oty	-4082
▁originally	-4083
▁instance	-4084
▁pig	-4085
mark	-4086
▁aer	-4087
▁mobile	-4088
▁presc	-4089
▁answers	-4090
▁bio	-4091
▁manufacture	-4092
▁lived	-4093
acters	-4094
▁isnt	-4095
▁phase	-4096
▁particles	-4097
▁join	-4098
att	-4099
▁ord	-4100
▁mamm	-4101
mp	-4102
igen	-4103
▁greek	-4104
▁option	-4105
▁cere	-4106
▁90	-4107
▁computers	-4108
▁minor	-4109
▁clim	-4110
▁sed	-4111
▁tor	-4112
cope	-4113
▁robot	-4114
vious	-4115
ees	-4116
▁files	-4117
",	-4118
esity	-4119
▁characters	-4120
gypt	-4121
ga	-4122
▁democ	-4123
atric	-4124
omen	-4125
▁coop	-4126
▁jewish	-4127
▁faster	-4128
▁detailed	-4129
▁dut	-4130
▁2,	-4131
▁flat	-4132
▁relationships	-4133
▁flex	-4134
▁party	-4135
▁pregnancy	-4136
eties	-4137
▁colors	-4138
▁brief	-4139
▁ham	-4140
▁contribute	-4141
▁tow	-4142
▁electronic	-4143
▁fel	-4144
▁pil	-4145
▁dynam	-4146
▁dictionary	-4147
▁career	-4148
▁morning	-4149
▁begins	-4150
▁22	-4151
▁islands	-4152
▁apart	-4153
▁double	-4154
▁roots	-4155
ss	-4156
emic	-4157
▁database	-4158
▁lou	-4159
▁completed	-4160
▁ign	-4161
ata	-4162
▁digest	-4163
▁driving	-4164
▁announ	-4165
▁reaction	-4166
▁guidelines	-4167
▁tested	-4168
▁quar	-4169
▁wire	-4170
▁vital	-4171
▁playing	-4172
▁reality	-4173
▁creation	-4174
▁heritage	-4175
atically	-4176
▁experienced	-4177
▁procedure	-4178
▁moved	-4179
▁obesity	-4180
▁freedom	-4181
▁leaf	-4182
othes	-4183
▁execut	-4184
▁crops	-4185
▁collected	-4186
▁prefer	-4187
▁cognitive	-4188
▁infected	-4189
▁specifically	-4190
▁oh	-4191
rael	-4192
▁mist	-4193
▁heard	-4194
▁injuries	-4195
▁ze	-4196
bra	-4197
rupt	-4198
▁concl	-4199
▁adjust	-4200
▁sort	-4201
▁lord	-4202
▁opin	-4203
ads	-4204
▁effectively	-4205
eff	-4206
▁george	-4207
▁spend	-4208
▁latin	-4209
▁recorded	-4210
▁distinct	-4211
▁ara	-4212
▁tun	-4213
▁70	-4214
▁straight	-4215
▁clearly	-4216
▁harvest	-4217
ternal	-4218
▁tiny	-4219
▁continues	-4220
▁jobs	-4221
▁cloud	-4222
▁assemb	-4223
▁programming	-4224
iff	-4225
▁historic	-4226
▁din	-4227
▁prepare	-4228
▁allowing	-4229
▁republic	-4230
▁186	-4231
▁tail	-4232
▁assum	-4233
cling	-4234
▁asia	-4235
eed	-4236
▁territ	-4237
▁photos	-4238
▁pacific	-4239
▁pump	-4240
▁carol	-4241
▁leads	-4242
▁flight	-4243
▁hundreds	-4244
▁lets	-4245
▁egypt	-4246
▁comfort	-4247
porary	-4248
▁victim	-4249
▁insects	-4250
ago	-4251
asion	-4252
▁cm	-4253
rogen	-4254
verty	-4255
▁pric	-4256
▁surrounding	-4257
change	-4258
▁counter	-4259
▁nurs	-4260
▁poverty	-4261
za	-4262
▁childhood	-4263
▁6.	-4264
▁killed	-4265
▁grown	-4266
▁190	-4267
▁chief	-4268
▁landscape	-4269
▁concerns	-4270
▁fif	-4271
▁stick	-4272
tes	-4273
▁readers	-4274
ado	-4275
gal	-4276
▁nerv	-4277
▁sod	-4278
▁mort	-4279
tered	-4280
▁cris	-4281
▁2014	-4282
▁antibiot	-4283
▁formation	-4284
mas	-4285
▁coff	-4286
▁spent	-4287
▁mr	-4288
▁warming	-4289
▁mc	-4290
▁veter	-4291
what	-4292
▁fluid	-4293
▁millions	-4294
▁visible	-4295
▁flo	-4296
70	-4297
▁wed	-4298
▁isol	-4299
▁dust	-4300
wood	-4301
ceed	-4302
▁archae	-4303
ded	-4304
▁publication	-4305
▁comments	-4306
▁regarding	-4307
▁reduction	-4308
▁description	-4309
▁onto	-4310
▁maps	-4311
isation	-4312
▁strategy	-4313
▁motion	-4314
▁orbit	-4315
▁concern	-4316
▁voice	-4317
▁wanted	-4318
pal	-4319
iable	-4320
▁residents	-4321
▁potentially	-4322
▁operation	-4323
ishing	-4324
▁km	-4325
▁policies	-4326
▁trop	-4327
▁pin	-4328
▁smoking	-4329
▁subjects	-4330
▁medications	-4331
▁truth	-4332
roph	-4333
sa	-4334
▁worldwide	-4335
▁drop	-4336
▁edition	-4337
▁theyre	-4338
▁volunte	-4339
ctic	-4340
▁owners	-4341
▁officials	-4342
akers	-4343
▁photograph	-4344
pap	-4345
▁signal	-4346
encing	-4347
▁referred	-4348
▁operating	-4349
▁himself	-4350
▁israel	-4351
aint	-4352
onic	-4353
▁cars	-4354
▁rough	-4355
omb	-4356
pat	-4357
▁valu	-4358
▁vehicles	-4359
▁fertil	-4360
▁protected	-4361
▁taught	-4362
▁focused	-4363
▁justice	-4364
▁contrast	-4365
▁shared	-4366
▁studied	-4367
▁florida	-4368
▁bones	-4369
▁relevant	-4370
▁forests	-4371
teries	-4372
▁turned	-4373
▁constitution	-4374
▁involve	-4375
men	-4376
▁immun	-4377
▁division	-4378
▁noted	-4379
▁excellent	-4380
▁combined	-4381
▁extensive	-4382
▁perman	-4383
olved	-4384
▁chann	-4385
▁dedic	-4386
▁diversity	-4387
▁doll	-4388
ilit	-4389
▁23	-4390
▁helpful	-4391
▁served	-4392
▁sin	-4393
▁seek	-4394
▁fle	-4395
▁kinds	-4396
16	-4397
asts	-4398
▁statistics	-4399
▁ble	-4400
▁colleag	-4401
▁typical	-4402
bt	-4403
▁instrument	-4404
▁189	-4405
▁saying	-4406
▁ven	-4407
▁cd	-4408
umin	-4409
enth	-4410
▁indicate	-4411
▁sweet	-4412
▁valley	-4413
▁platform	-4414
▁obvious	-4415
▁comprehensive	-4416
▁phr	-4417
▁belong	-4418
▁wik	-4419
▁stret	-4420
▁royal	-4421
▁band	-4422
▁vent	-4423
▁advance	-4424
▁familiar	-4425
▁normally	-4426
▁accurate	-4427
cip	-4428
▁collabor	-4429
▁cloth	-4430
▁sick	-4431
▁fab	-4432
▁mainly	-4433
▁train	-4434
▁ok	-4435
icks	-4436
▁plate	-4437
▁rh	-4438
▁lifest	-4439
su	-4440
rie	-4441
▁spl	-4442
oul	-4443
▁intended	-4444
▁tasks	-4445
▁courses	-4446
free	-4447
asive	-4448
▁cart	-4449
▁conflict	-4450
▁explained	-4451
rete	-4452
▁documents	-4453
▁touch	-4454
▁stream	-4455
▁youll	-4456
▁conclud	-4457
▁otherwise	-4458
5%	-4459
ped	-4460
▁fly	-4461
▁crop	-4462
osite	-4463
▁metab	-4464
urance	-4465
▁frequency	-4466
▁pra	-4467
21	-4468
▁studying	-4469
▁shell	-4470
▁solve	-4471
iveness	-4472
unk	-4473
▁columb	-4474
▁universe	-4475
▁advantage	-4476
▁ideal	-4477
▁lose	-4478
▁tut	-4479
▁volcan	-4480
rum	-4481
▁recovery	-4482
▁stroke	-4483
▁governments	-4484
net	-4485
▁situations	-4486
-4	-4487
car	-4488
▁motiv	-4489
uration	-4490
▁interpret	-4491
▁drawing	-4492
▁cath	-4493
▁expression	-4494
▁mathematics	-4495
gu	-4496
▁regional	-4497
acing	-4498
▁explan	-4499
▁reb	-4500
▁rural	-4501
▁myth	-4502
▁regularly	-4503
going	-4504
▁blo	-4505
ressed	-4506
down	-4507
▁walking	-4508
▁faith	-4509
ributed	-4510
▁periods	-4511
ophy	-4512
▁butter	-4513
gment	-4514
▁cats	-4515
▁stock	-4516
▁leader	-4517
▁looked	-4518
▁determined	-4519
▁diss	-4520
norm	-4521
▁abuse	-4522
▁lots	-4523
place	-4524
▁improving	-4525
▁naturally	-4526
▁bridge	-4527
▁award	-4528
▁ol	-4529
ht	-4530
▁haw	-4531
ferences	-4532
▁measured	-4533
▁depth	-4534
▁label	-4535
▁inflammation	-4536
olester	-4537
zy	-4538
ava	-4539
▁colour	-4540
▁ran	-4541
▁artific	-4542
▁slightly	-4543
▁unfortun	-4544
▁dial	-4545
▁attacks	-4546
aks	-4547
▁kept	-4548
▁meant	-4549
▁talking	-4550
▁alt	-4551
comes	-4552
vert	-4553
▁jer	-4554
▁charge	-4555
lers	-4556
▁teen	-4557
▁doesn	-4558
▁grav	-4559
▁vot	-4560
▁purposes	-4561
▁ingred	-4562
▁papers	-4563
▁mur	-4564
▁harmful	-4565
▁domestic	-4566
▁paul	-4567
▁fossil	-4568
▁traffic	-4569
▁sheet	-4570
▁proteins	-4571
▁primarily	-4572
▁tall	-4573
▁consists	-4574
▁pull	-4575
▁(3	-4576
iled	-4577
ota	-4578
olesterol	-4579
cium	-4580
ipped	-4581
▁sav	-4582
▁fer	-4583
▁random	-4584
▁neut	-4585
▁elev	-4586
▁cos	-4587
▁floor	-4588
ascular	-4589
▁centuries	-4590
▁electron	-4591
la	-4592
▁pretty	-4593
▁presentation	-4594
▁containing	-4595
▁consequences	-4596
▁galax	-4597
▁childs	-4598
▁eu	-4599
▁steel	-4600
▁camera	-4601
▁experiments	-4602
▁raise	-4603
▁maximum	-4604
ny	-4605
▁poet	-4606
kes	-4607
▁babies	-4608
▁valuable	-4609
▁literacy	-4610
exam	-4611
cules	-4612
▁cards	-4613
/2	-4614
iment	-4615
fall	-4616
ael	-4617
▁acce	-4618
▁magnetic	-4619
▁happy	-4620
▁supported	-4621
▁survival	-4622
▁www	-4623
▁phenomen	-4624
▁greenhouse	-4625
ception	-4626
▁cholesterol	-4627
▁won	-4628
▁battery	-4629
▁decided	-4630
▁listen	-4631
▁enhance	-4632
13	-4633
18	-4634
bing	-4635
▁component	-4636
▁selected	-4637
reci	-4638
▁waves	-4639
▁window	-4640
▁satellite	-4641
▁arth	-4642
itors	-4643
▁sentence	-4644
ication	-4645
▁scientist	-4646
▁chemistry	-4647
hma	-4648
flow	-4649
▁swim	-4650
▁thomas	-4651
tion	-4652
▁religion	-4653
▁walls	-4654
anes	-4655
ishes	-4656
▁rivers	-4657
▁sets	-4658
▁remind	-4659
▁conference	-4660
▁tom	-4661
vid	-4662
ira	-4663
▁decrease	-4664
eria	-4665
▁surf	-4666
pre	-4667
▁coffee	-4668
▁childrens	-4669
▁gram	-4670
14	-4671
▁worksh	-4672
▁starts	-4673
▁stom	-4674
▁suggested	-4675
long	-4676
▁manufacturing	-4677
▁fract	-4678
▁healthcare	-4679
▁2009	-4680
▁crucial	-4681
rich	-4682
▁refers	-4683
▁wealth	-4684
▁perspective	-4685
▁nest	-4686
rant	-4687
well	-4688
▁played	-4689
▁boost	-4690
win	-4691
▁rein	-4692
▁medication	-4693
fered	-4694
ertain	-4695
▁deliver	-4696
icip	-4697
ructure	-4698
▁fiber	-4699
ville	-4700
▁intake	-4701
ij	-4702
▁pup	-4703
▁suffer	-4704
▁mad	-4705
▁calcium	-4706
▁reached	-4707
lam	-4708
body	-4709
▁lect	-4710
▁ath	-4711
▁vast	-4712
▁remote	-4713
▁professionals	-4714
eline	-4715
▁fever	-4716
▁committe	-4717
▁speaking	-4718
▁twice	-4719
▁fal	-4720
▁secondary	-4721
▁susp	-4722
▁hem	-4723
▁habits	-4724
▁facilities	-4725
▁virginia	-4726
▁earthqu	-4727
▁peoples	-4728
500	-4729
22	-4730
▁recognize	-4731
▁closely	-4732
▁corpor	-4733
▁shut	-4734
heim	-4735
▁funding	-4736
▁mand	-4737
▁smoke	-4738
ya	-4739
▁wit	-4740
▁cub	-4741
airs	-4742
▁interview	-4743
point	-4744
▁corresp	-4745
▁hole	-4746
▁prem	-4747
▁occurred	-4748
▁barri	-4749
ortion	-4750
▁throw	-4751
-0	-4752
arr	-4753
▁thor	-4754
▁tro	-4755
▁cutting	-4756
▁certainly	-4757
▁edge	-4758
▁massive	-4759
▁medium	-4760
▁transportation	-4761
▁renewable	-4762
▁domin	-4763
▁behaviour	-4764
▁breathing	-4765
▁outcomes	-4766
▁routine	-4767
nic	-4768
▁hydrogen	-4769
iced	-4770
▁figures	-4771
▁generate	-4772
▁thoughts	-4773
▁mov	-4774
▁raised	-4775
▁robert	-4776
▁colleagues	-4777
▁responsibility	-4778
▁nine	-4779
▁teles	-4780
▁britain	-4781
▁string	-4782
▁proposed	-4783
▁procedures	-4784
▁greatest	-4785
▁tea	-4786
▁sensitive	-4787
erals	-4788
rew	-4789
▁rapidly	-4790
▁external	-4791
▁virtual	-4792
▁describes	-4793
enses	-4794
▁brother	-4795
▁rhy	-4796
▁minimum	-4797
mic	-4798
atch	-4799
▁dioxide	-4800
▁reader	-4801
▁represents	-4802
aker	-4803
▁lung	-4804
▁artificial	-4805
nel	-4806
va	-4807
▁pros	-4808
▁environments	-4809
▁abst	-4810
▁leaving	-4811
▁offered	-4812
▁immig	-4813
▁sides	-4814
ady	-4815
▁horse	-4816
▁diverse	-4817
▁lifestyle	-4818
▁appearance	-4819
▁circum	-4820
▁lik	-4821
▁pron	-4822
▁listed	-4823
▁substance	-4824
berg	-4825
▁survive	-4826
▁approaches	-4827
▁crisis	-4828
unction	-4829
▁poison	-4830
▁respir	-4831
▁couple	-4832
ules	-4833
▁consumers	-4834
▁compare	-4835
agers	-4836
▁strengthe	-4837
▁highlight	-4838
alled	-4839
omy	-4840
▁26	-4841
▁7.	-4842
▁coastal	-4843
▁2020	-4844
▁choices	-4845
▁flav	-4846
▁ru	-4847
reen	-4848
▁da	-4849
▁updated	-4850
▁bor	-4851
▁producing	-4852
▁plus	-4853
▁28	-4854
▁seeing	-4855
▁fo	-4856
▁wave	-4857
▁infrast	-4858
abul	-4859
▁era	-4860
▁younger	-4861
▁divided	-4862
greg	-4863
▁integ	-4864
▁increasingly	-4865
▁framework	-4866
▁anth	-4867
▁identity	-4868
▁pit	-4869
▁journey	-4870
▁views	-4871
▁bear	-4872
ifying	-4873
▁raw	-4874
▁asthma	-4875
▁horiz	-4876
het	-4877
roid	-4878
▁diagnosed	-4879
▁simpl	-4880
ander	-4881
ona	-4882
▁architecture	-4883
inations	-4884
▁institutions	-4885
▁kidney	-4886
▁stomach	-4887
▁paral	-4888
▁controlled	-4889
▁australian	-4890
▁neck	-4891
▁didnt	-4892
ania	-4893
▁narr	-4894
▁calories	-4895
▁mice	-4896
▁academy	-4897
▁acceler	-4898
▁circuit	-4899
▁sudden	-4900
▁extract	-4901
▁molecules	-4902
▁recon	-4903
▁request	-4904
▁appoint	-4905
▁advoc	-4906
▁mild	-4907
▁interactive	-4908
▁ax	-4909
▁fundamental	-4910
▁settle	-4911
odi	-4912
▁genet	-4913
▁franc	-4914
▁stored	-4915
ensus	-4916
▁gro	-4917
▁hid	-4918
▁revealed	-4919
▁unfortunately	-4920
▁conv	-4921
▁businesses	-4922
▁zone	-4923
▁indeed	-4924
▁plays	-4925
▁prices	-4926
arent	-4927
▁biggest	-4928
▁inject	-4929
▁secure	-4930
last	-4931
onal	-4932
▁intelligence	-4933
▁anc	-4934
my	-4935
riage	-4936
▁narrow	-4937
▁posted	-4938
▁locations	-4939
uls	-4940
ushing	-4941
▁contem	-4942
being	-4943
▁epid	-4944
▁supplement	-4945
▁regul	-4946
▁feelings	-4947
▁disapp	-4948
▁happened	-4949
state	-4950
tra	-4951
wing	-4952
▁mont	-4953
▁essays	-4954
▁expensive	-4955
▁depends	-4956
▁27	-4957
▁suffering	-4958
asp	-4959
▁bible	-4960
▁portion	-4961
▁manner	-4962
▁tropical	-4963
▁van	-4964
-8	-4965
tr	-4966
irus	-4967
▁gather	-4968
▁skill	-4969
-5	-4970
▁300	-4971
▁village	-4972
health	-4973
▁insul	-4974
▁stages	-4975
▁household	-4976
▁nerve	-4977
igenous	-4978
▁engineers	-4979
▁hero	-4980
▁(18	-4981
▁maybe	-4982
▁sight	-4983
how	-4984
▁decline	-4985
▁feeding	-4986
no	-4987
▁outl	-4988
isp	-4989
▁192	-4990
▁concentration	-4991
▁networks	-4992
▁rab	-4993
abulary	-4994
example	-4995
▁myster	-4996
▁diag	-4997
▁electro	-4998
hor	-4999
▁appreci	-5000
▁scan	-5001
lets	-5002
▁concerned	-5003
▁server	-5004
▁hill	-5005
▁produces	-5006
field	-5007
▁creates	-5008
▁navig	-5009
▁trial	-5010
▁smith	-5011
exp	-5012
uel	-5013
fish	-5014
vision	-5015
orith	-5016
▁cup	-5017
90	-5018
▁traum	-5019
▁chick	-5020
▁louis	-5021
▁tan	-5022
▁instructions	-5023
:||	-5024
▁unknown	-5025
▁fewer	-5026
▁ring	-5027
▁editor	-5028
▁ken	-5029
▁mountains	-5030
ediatric	-5031
▁legs	-5032
▁consid	-5033
mes	-5034
▁contamin	-5035
▁worse	-5036
▁largely	-5037
▁incl	-5038
▁authority	-5039
▁machines	-5040
▁signals	-5041
▁sharing	-5042
▁algorith	-5043
▁tells	-5044
▁dedicated	-5045
▁lands	-5046
▁unus	-5047
cal	-5048
▁vocabulary	-5049
▁apparent	-5050
▁covers	-5051
athy	-5052
▁purchase	-5053
▁frank	-5054
▁sector	-5055
▁everyday	-5056
▁infrastructure	-5057
▁videos	-5058
quit	-5059
cycl	-5060
▁closed	-5061
▁reform	-5062
▁distingu	-5063
▁roof	-5064
▁calls	-5065
▁leadership	-5066
▁imper	-5067
▁capable	-5068
▁ms	-5069
▁suitable	-5070
▁forced	-5071
▁autism	-5072
▁planets	-5073
▁ped	-5074
weight	-5075
▁slowly	-5076
usive	-5077
▁ash	-5078
▁accompl	-5079
▁exercises	-5080
▁shop	-5081
▁wid	-5082
iet	-5083
▁gun	-5084
▁abnorm	-5085
▁zero	-5086
▁temple	-5087
▁thir	-5088
▁beneficial	-5089
▁density	-5090
▁movements	-5091
▁turns	-5092
▁implic	-5093
burg	-5094
▁independence	-5095
ault	-5096
▁alph	-5097
▁accompan	-5098
▁500	-5099
▁iv	-5100
▁committee	-5101
▁fabric	-5102
oh	-5103
▁broken	-5104
▁chart	-5105
▁recognized	-5106
▁wol	-5107
▁amb	-5108
▁filled	-5109
▁painting	-5110
▁indigenous	-5111
ario	-5112
tenance	-5113
▁unless	-5114
tering	-5115
▁circle	-5116
▁enable	-5117
ria	-5118
▁composition	-5119
▁evaluation	-5120
▁ib	-5121
▁pool	-5122
▁abund	-5123
▁initiative	-5124
▁ancest	-5125
▁ultimately	-5126
▁infect	-5127
nthes	-5128
▁possibly	-5129
▁visitors	-5130
▁bees	-5131
▁permanent	-5132
▁cryst	-5133
▁selection	-5134
▁drought	-5135
ka	-5136
▁vulnerable	-5137
eters	-5138
▁neighb	-5139
▁instruments	-5140
active	-5141
stream	-5142
▁examine	-5143
▁noise	-5144
▁whats	-5145
▁cav	-5146
▁extent	-5147
▁kore	-5148
othe	-5149
war	-5150
▁rice	-5151
17	-5152
▁shapes	-5153
▁employees	-5154
▁chain	-5155
▁subsequ	-5156
▁afford	-5157
▁partnership	-5158
▁2008	-5159
▁budget	-5160
▁canadian	-5161
▁supports	-5162
▁opening	-5163
▁depos	-5164
▁equival	-5165
▁conventional	-5166
▁regist	-5167
▁mes	-5168
▁agencies	-5169
-6	-5170
▁2015	-5171
▁sad	-5172
▁imagine	-5173
with	-5174
▁mentioned	-5175
▁amazing	-5176
▁boy	-5177
▁falls	-5178
izer	-5179
inent	-5180
angered	-5181
▁rising	-5182
▁transition	-5183
orter	-5184
▁mun	-5185
▁trip	-5186
▁3,	-5187
hist	-5188
▁communicate	-5189
▁follows	-5190
▁eld	-5191
▁outbre	-5192
rate	-5193
▁arms	-5194
▁successfully	-5195
▁launched	-5196
hand	-5197
▁chic	-5198
▁brand	-5199
inating	-5200
▁giant	-5201
▁fasc	-5202
▁catch	-5203
▁188	-5204
▁charles	-5205
▁discipl	-5206
▁toler	-5207
gans	-5208
▁uns	-5209
▁magaz	-5210
▁goods	-5211
▁houses	-5212
▁cultiv	-5213
▁senior	-5214
▁felt	-5215
▁launch	-5216
▁maintenance	-5217
▁adoles	-5218
▁rocks	-5219
▁decade	-5220
▁acts	-5221
▁vessels	-5222
▁item	-5223
▁closer	-5224
▁difficulty	-5225
▁valid	-5226
zen	-5227
▁aircraft	-5228
▁pdf	-5229
▁honey	-5230
▁appeared	-5231
pass	-5232
▁breath	-5233
▁artists	-5234
▁learners	-5235
▁carefully	-5236
▁newspap	-5237
▁facilit	-5238
▁nearby	-5239
▁police	-5240
erative	-5241
▁programme	-5242
▁carolina	-5243
▁lakes	-5244
▁endangered	-5245
bac	-5246
▁taste	-5247
eper	-5248
▁mosquit	-5249
▁soldiers	-5250
▁kingdom	-5251
▁arab	-5252
▁alle	-5253
born	-5254
phone	-5255
▁generated	-5256
asters	-5257
zed	-5258
▁usage	-5259
▁35	-5260
▁param	-5261
▁consumer	-5262
2)	-5263
▁covid	-5264
▁molecular	-5265
▁fest	-5266
▁supporting	-5267
▁exchange	-5268
och	-5269
▁meters	-5270
bel	-5271
▁supplies	-5272
▁wants	-5273
▁administr	-5274
▁biom	-5275
▁henry	-5276
▁pray	-5277
▁bes	-5278
▁rose	-5279
▁gluc	-5280
dy	-5281
▁organisms	-5282
▁micros	-5283
▁bath	-5284
▁https	-5285
top	-5286
which	-5287
▁firm	-5288
illing	-5289
▁putting	-5290
▁handle	-5291
▁seat	-5292
aped	-5293
rep	-5294
▁silver	-5295
itz	-5296
ctor	-5297
▁demonstrate	-5298
▁extension	-5299
▁pharm	-5300
▁viruses	-5301
▁argument	-5302
▁daugh	-5303
▁possess	-5304
▁correspond	-5305
▁observations	-5306
▁elementary	-5307
osa	-5308
▁mm	-5309
▁concrete	-5310
kin	-5311
▁transmission	-5312
▁jose	-5313
▁assistance	-5314
▁substant	-5315
olute	-5316
▁sufficient	-5317
ifies	-5318
▁cham	-5319
▁(200	-5320
▁inner	-5321
▁georg	-5322
▁investment	-5323
▁decide	-5324
▁cultures	-5325
▁yog	-5326
▁panel	-5327
level	-5328
▁meal	-5329
▁psychology	-5330
ups	-5331
rors	-5332
part	-5333
▁compounds	-5334
▁protocol	-5335
▁acids	-5336
iov	-5337
▁volt	-5338
▁mixed	-5339
▁breeding	-5340
▁preventing	-5341
▁pediatric	-5342
ament	-5343
▁precise	-5344
▁boys	-5345
▁tried	-5346
▁warning	-5347
▁layers	-5348
▁intel	-5349
▁whom	-5350
▁ital	-5351
umps	-5352
▁entry	-5353
▁flag	-5354
▁merc	-5355
▁error	-5356
but	-5357
icide	-5358
ugh	-5359
▁knowing	-5360
tles	-5361
▁clus	-5362
▁variable	-5363
▁minerals	-5364
▁francis	-5365
▁1:	-5366
▁accident	-5367
▁gap	-5368
▁alex	-5369
▁researcher	-5370
.|	-5371
▁christmas	-5372
▁participate	-5373
▁lights	-5374
umes	-5375
▁formal	-5376
▁discussed	-5377
osen	-5378
▁obst	-5379
▁guard	-5380
▁reserved	-5381
osion	-5382
▁bib	-5383
▁resolution	-5384
▁returned	-5385
heast	-5386
▁10.	-5387
▁thank	-5388
▁nose	-5389
▁cab	-5390
▁fisher	-5391
▁attached	-5392
hydr	-5393
▁spok	-5394
▁extended	-5395
▁players	-5396
▁md	-5397
▁recycling	-5398
▁attend	-5399
▁gh	-5400
fit	-5401
▁summary	-5402
iance	-5403
▁pounds	-5404
▁spin	-5405
▁sequence	-5406
75	-5407
cr	-5408
▁moisture	-5409
▁satur	-5410
▁mete	-5411
▁jump	-5412
▁bread	-5413
alog	-5414
▁brows	-5415
▁category	-5416
▁worksheets	-5417
sm	-5418
▁favorite	-5419
▁burning	-5420
▁mir	-5421
sen	-5422
orous	-5423
gers	-5424
▁estimates	-5425
▁planting	-5426
▁stands	-5427
▁fourth	-5428
▁orange	-5429
▁remained	-5430
▁persist	-5431
▁hence	-5432
▁scar	-5433
▁missing	-5434
▁fell	-5435
▁institution	-5436
ritis	-5437
▁8.	-5438
americ	-5439
▁theme	-5440
▁scot	-5441
osph	-5442
▁tub	-5443
▁accounts	-5444
▁adequ	-5445
▁mechanical	-5446
band	-5447
ek	-5448
▁pure	-5449
▁integrated	-5450
▁obtained	-5451
▁sund	-5452
inate	-5453
▁substances	-5454
▁cooking	-5455
▁pregnant	-5456
▁pestic	-5457
________	-5458
istan	-5459
▁define	-5460
▁scholars	-5461
bc	-5462
oke	-5463
▁mond	-5464
igan	-5465
▁johns	-5466
bles	-5467
▁opposite	-5468
▁standing	-5469
▁collaboration	-5470
▁evaluate	-5471
▁door	-5472
▁relax	-5473
zheim	-5474
ibilities	-5475
▁damaged	-5476
iac	-5477
▁2016	-5478
otic	-5479
atever	-5480
▁implementation	-5481
▁aims	-5482
icate	-5483
ipping	-5484
▁angle	-5485
▁empire	-5486
▁psychological	-5487
▁russian	-5488
stone	-5489
▁polar	-5490
fr	-5491
▁hazard	-5492
▁blind	-5493
▁blocks	-5494
▁tu	-5495
▁repeated	-5496
▁regulations	-5497
▁peak	-5498
▁absolute	-5499
▁chest	-5500
▁forget	-5501
stood	-5502
ba	-5503
▁feedback	-5504
▁ov	-5505
▁coc	-5506
▁tons	-5507
▁repair	-5508
▁abstract	-5509
ache	-5510
▁comparison	-5511
▁indicates	-5512
▁atom	-5513
▁encycl	-5514
▁crime	-5515
▁derived	-5516
ras	-5517
▁cheap	-5518
▁compost	-5519
▁wheel	-5520
▁honor	-5521
hi	-5522
sis	-5523
▁password	-5524
▁2007	-5525
▁respiratory	-5526
▁chrom	-5527
▁agreement	-5528
▁flash	-5529
▁victor	-5530
45	-5531
▁spr	-5532
ipedia	-5533
▁alzheim	-5534
▁ire	-5535
▁remaining	-5536
▁writer	-5537
osal	-5538
▁cord	-5539
▁sharp	-5540
▁yield	-5541
▁match	-5542
▁wait	-5543
road	-5544
▁audience	-5545
▁heating	-5546
▁kilomet	-5547
▁improvement	-5548
▁males	-5549
▁measurements	-5550
▁stimul	-5551
iology	-5552
▁pand	-5553
▁adap	-5554
itter	-5555
▁educators	-5556
ada	-5557
▁weap	-5558
▁neighbor	-5559
▁connections	-5560
▁ahead	-5561
aria	-5562
▁screening	-5563
▁opened	-5564
99	-5565
▁reactions	-5566
ev	-5567
ki	-5568
▁candid	-5569
orses	-5570
▁2000	-5571
▁michael	-5572
cience	-5573
▁holiday	-5574
kins	-5575
▁capture	-5576
▁measurement	-5577
▁whatever	-5578
▁catholic	-5579
▁dar	-5580
▁script	-5581
▁marked	-5582
▁imaging	-5583
▁females	-5584
▁cleaning	-5585
▁ends	-5586
▁plenty	-5587
▁parks	-5588
▁smooth	-5589
etime	-5590
ship	-5591
▁encyclop	-5592
▁pets	-5593
▁truly	-5594
▁frequent	-5595
▁artist	-5596
▁accessible	-5597
▁imposs	-5598
▁behaviors	-5599
▁exploration	-5600
▁sport	-5601
78	-5602
▁existence	-5603
▁desert	-5604
▁focuses	-5605
▁surfaces	-5606
▁generations	-5607
▁apple	-5608
▁associate	-5609
▁nic	-5610
organ	-5611
▁kne	-5612
▁jews	-5613
▁settings	-5614
▁maintaining	-5615
▁bee	-5616
▁satis	-5617
▁printed	-5618
▁facility	-5619
▁disaster	-5620
▁aids	-5621
▁grades	-5622
▁equivalent	-5623
▁holy	-5624
▁nitrogen	-5625
▁cod	-5626
▁tip	-5627
▁laser	-5628
▁45	-5629
▁quot	-5630
▁obtain	-5631
▁bag	-5632
▁mothers	-5633
▁managed	-5634
▁paras	-5635
▁claims	-5636
▁opinion	-5637
▁session	-5638
▁interaction	-5639
▁emotions	-5640
▁insulin	-5641
▁refuge	-5642
▁advent	-5643
ili	-5644
▁compr	-5645
▁sunlight	-5646
▁overview	-5647
cell	-5648
▁holes	-5649
▁noun	-5650
▁entirely	-5651
▁cot	-5652
▁sty	-5653
▁mechanism	-5654
▁paris	-5655
▁achieved	-5656
▁percentage	-5657
▁teens	-5658
▁innovation	-5659
rooms	-5660
hered	-5661
▁restrict	-5662
alities	-5663
▁array	-5664
▁budd	-5665
▁drag	-5666
plant	-5667
▁decor	-5668
▁copper	-5669
▁185	-5670
▁intervention	-5671
▁founded	-5672
sey	-5673
▁sections	-5674
ivery	-5675
▁recommendations	-5676
rd	-5677
▁2017	-5678
gov	-5679
▁arent	-5680
▁seconds	-5681
heric	-5682
▁sar	-5683
▁teams	-5684
▁columbia	-5685
▁tube	-5686
▁bell	-5687
▁shift	-5688
▁possibility	-5689
▁measuring	-5690
▁organized	-5691
23	-5692
pet	-5693
▁sell	-5694
▁turb	-5695
▁announced	-5696
▁wont	-5697
▁atlantic	-5698
odiversity	-5699
eless	-5700
▁marks	-5701
▁column	-5702
▁club	-5703
writ	-5704
▁additionally	-5705
▁wash	-5706
▁paralle	-5707
▁biodiversity	-5708
▁wish	-5709
aska	-5710
amins	-5711
▁preval	-5712
▁paid	-5713
▁tobac	-5714
ashion	-5715
▁ske	-5716
anta	-5717
▁organs	-5718
iform	-5719
▁turning	-5720
ented	-5721
▁trained	-5722
▁adopted	-5723
▁schedule	-5724
▁grid	-5725
▁arctic	-5726
▁overl	-5727
▁challenging	-5728
▁tissues	-5729
▁printing	-5730
ella	-5731
▁tobacco	-5732
▁hurric	-5733
▁les	-5734
▁drain	-5735
▁distur	-5736
▁philosophy	-5737
▁treating	-5738
▁antibiotics	-5739
▁isn	-5740
▁immediate	-5741
▁worry	-5742
ione	-5743
▁inhab	-5744
urt	-5745
▁150	-5746
▁border	-5747
aching	-5748
▁sup	-5749
ua	-5750
▁dys	-5751
▁spacecraft	-5752
olve	-5753
▁installed	-5754
▁housing	-5755
▁clinic	-5756
▁reduces	-5757
▁pm	-5758
▁spaces	-5759
▁principle	-5760
she	-5761
▁theore	-5762
han	-5763
▁facebook	-5764
inet	-5765
▁modified	-5766
▁explanation	-5767
▁tank	-5768
▁scott	-5769
▁rig	-5770
▁ment	-5771
▁glucose	-5772
▁impossible	-5773
▁pollut	-5774
▁insurance	-5775
dis	-5776
▁partner	-5777
▁switch	-5778
▁prison	-5779
▁clar	-5780
▁listening	-5781
▁remov	-5782
rapy	-5783
ratic	-5784
onia	-5785
▁ratio	-5786
▁marriage	-5787
▁beauty	-5788
▁chicago	-5789
▁greatly	-5790
▁accum	-5791
▁varieties	-5792
▁consistent	-5793
▁brings	-5794
▁subsc	-5795
▁twenty	-5796
▁shot	-5797
▁debate	-5798
▁reci	-5799
▁protecting	-5800
▁excl	-5801
inks	-5802
▁trials	-5803
▁formula	-5804
▁drivers	-5805
▁gut	-5806
▁recognition	-5807
▁mining	-5808
▁orient	-5809
▁occasion	-5810
▁athlet	-5811
icon	-5812
1)	-5813
▁ongoing	-5814
▁zeal	-5815
▁confidence	-5816
bon	-5817
▁remark	-5818
▁tv	-5819
▁objective	-5820
angle	-5821
irect	-5822
▁usa	-5823
▁responses	-5824
▁competition	-5825
▁preparation	-5826
▁ireland	-5827
▁innovative	-5828
▁(201	-5829
▁ba	-5830
▁hang	-5831
▁delivery	-5832
hal	-5833
▁irrit	-5834
▁replaced	-5835
▁knew	-5836
▁exciting	-5837
rency	-5838
4)	-5839
▁incred	-5840
▁ohio	-5841
▁horses	-5842
dra	-5843
▁assembly	-5844
▁interests	-5845
▁hat	-5846
ighter	-5847
▁russia	-5848
▁computing	-5849
▁gardens	-5850
▁gone	-5851
▁trouble	-5852
▁tap	-5853
▁lie	-5854
▁ger	-5855
airy	-5856
▁push	-5857
▁outer	-5858
inction	-5859
▁chlor	-5860
▁lies	-5861
▁excessive	-5862
▁cancers	-5863
▁bond	-5864
oster	-5865
ague	-5866
▁mood	-5867
fts	-5868
▁defense	-5869
▁gods	-5870
▁whereas	-5871
▁none	-5872
itudes	-5873
▁industries	-5874
▁guidance	-5875
▁outd	-5876
▁button	-5877
▁resident	-5878
▁expans	-5879
▁reef	-5880
▁shad	-5881
▁wife	-5882
▁potat	-5883
▁channel	-5884
▁runs	-5885
▁mineral	-5886
▁ethnic	-5887
▁minute	-5888
▁29	-5889
▁sentences	-5890
rants	-5891
▁territory	-5892
▁farming	-5893
ey	-5894
▁grows	-5895
▁decay	-5896
▁tight	-5897
▁physician	-5898
▁chosen	-5899
▁false	-5900
▁identifying	-5901
icit	-5902
lements	-5903
▁knows	-5904
▁detection	-5905
▁orth	-5906
▁publish	-5907
▁telescope	-5908
▁fighting	-5909
nut	-5910
▁fishing	-5911
▁verb	-5912
ston	-5913
▁scene	-5914
▁branches	-5915
100	-5916
▁contained	-5917
▁ton	-5918
▁monday	-5919
ulty	-5920
rid	-5921
▁beach	-5922
▁estimate	-5923
▁manager	-5924
▁clothing	-5925
▁unusual	-5926
▁surprising	-5927
ribed	-5928
▁poem	-5929
▁187	-5930
rays	-5931
▁todays	-5932
▁mathematical	-5933
▁weve	-5934
▁danger	-5935
vis	-5936
▁meteor	-5937
▁queen	-5938
bu	-5939
▁herb	-5940
▁unable	-5941
▁ingredients	-5942
▁facing	-5943
books	-5944
▁sensors	-5945
▁bc	-5946
▁thorough	-5947
▁conversation	-5948
▁limits	-5949
ails	-5950
▁4,	-5951
pread	-5952
ontal	-5953
▁communications	-5954
▁conclusion	-5955
▁roads	-5956
▁braz	-5957
▁disabilities	-5958
ini	-5959
▁neu	-5960
▁michigan	-5961
ancing	-5962
▁vib	-5963
hs	-5964
▁spending	-5965
▁jun	-5966
▁bigger	-5967
▁diameter	-5968
▁feat	-5969
▁peter	-5970
▁asking	-5971
iovascular	-5972
▁cyber	-5973
▁underlying	-5974
▁relief	-5975
▁presents	-5976
produ	-5977
▁aster	-5978
▁examination	-5979
▁wides	-5980
▁designs	-5981
▁involving	-5982
ymph	-5983
▁nervous	-5984
▁fixed	-5985
▁roughly	-5986
▁ye	-5987
▁dates	-5988
▁salmon	-5989
▁stable	-5990
▁executive	-5991
▁celebrate	-5992
▁prove	-5993
▁bind	-5994
▁vitamins	-5995
▁pp	-5996
uous	-5997
cking	-5998
▁route	-5999
▁richard	-6000
▁conve	-6001
sts	-6002
▁ships	-6003
▁cardiovascular	-6004
▁struggle	-6005
▁categories	-6006
▁lu	-6007
▁functional	-6008
▁widespread	-6009
▁dietary	-6010
▁surge	-6011
▁circumst	-6012
▁friday	-6013
▁geomet	-6014
print	-6015
▁destroyed	-6016
▁vs	-6017
▁branch	-6018
▁delay	-6019
35	-6020
▁mode	-6021
▁wheat	-6022
▁islam	-6023
▁advert	-6024
▁align	-6025
▁steam	-6026
ola	-6027
▁thousand	-6028
▁furn	-6029
outs	-6030
▁puzz	-6031
cher	-6032
▁moves	-6033
cd	-6034
▁membr	-6035
po	-6036
igare	-6037
using	-6038
▁advis	-6039
gical	-6040
▁politics	-6041
▁spiritual	-6042
▁minister	-6043
▁understood	-6044
▁thy	-6045
▁dir	-6046
▁dairy	-6047
ari	-6048
▁photographs	-6049
▁census	-6050
▁stuff	-6051
▁martin	-6052
▁exhibit	-6053
▁manip	-6054
icious	-6055
200	-6056
▁retrie	-6057
▁italy	-6058
ying	-6059
▁thro	-6060
▁glac	-6061
▁parag	-6062
▁cough	-6063
▁regardless	-6064
under	-6065
▁considering	-6066
raction	-6067
▁voltage	-6068
▁interactions	-6069
▁neur	-6070
▁texts	-6071
ifications	-6072
lar	-6073
▁victims	-6074
▁complications	-6075
▁serving	-6076
▁witness	-6077
▁holds	-6078
rian	-6079
▁jul	-6080
▁intest	-6081
▁hus	-6082
▁inspired	-6083
▁vel	-6084
▁mortality	-6085
▁rome	-6086
▁audio	-6087
▁grew	-6088
▁2006	-6089
▁chair	-6090
▁anywhere	-6091
▁cel	-6092
▁websites	-6093
▁meals	-6094
uracy	-6095
▁compound	-6096
▁stated	-6097
scale	-6098
24	-6099
▁coron	-6100
ien	-6101
▁tract	-6102
▁dol	-6103
▁infant	-6104
▁hormone	-6105
isters	-6106
edu	-6107
▁pale	-6108
▁row	-6109
▁pel	-6110
▁defect	-6111
▁collections	-6112
▁employment	-6113
▁accepted	-6114
▁implications	-6115
rain	-6116
▁removal	-6117
mm	-6118
▁batteries	-6119
▁vote	-6120
▁eru	-6121
▁cotton	-6122
▁plot	-6123
▁lungs	-6124
▁proven	-6125
▁provider	-6126
▁recre	-6127
▁chocol	-6128
itely	-6129
▁reliable	-6130
inity	-6131
▁enab	-6132
▁authorities	-6133
▁sensor	-6134
▁smell	-6135
▁trends	-6136
▁gast	-6137
▁consume	-6138
▁holding	-6139
aked	-6140
stein	-6141
▁guar	-6142
▁loved	-6143
▁ow	-6144
▁thermal	-6145
▁joseph	-6146
▁bringing	-6147
▁messages	-6148
luding	-6149
▁phrase	-6150
▁variables	-6151
▁customers	-6152
▁ecosystems	-6153
▁epis	-6154
▁moral	-6155
▁controls	-6156
itative	-6157
▁gases	-6158
▁wine	-6159
▁proof	-6160
▁bron	-6161
▁fashion	-6162
▁prime	-6163
▁400	-6164
▁spain	-6165
▁indu	-6166
▁score	-6167
uses	-6168
▁contents	-6169
▁intense	-6170
▁analyze	-6171
▁mechanisms	-6172
ctive	-6173
▁flying	-6174
▁36	-6175
▁participation	-6176
▁spectrum	-6177
▁metabol	-6178
▁finger	-6179
▁quarter	-6180
▁module	-6181
▁os	-6182
▁pupils	-6183
▁luck	-6184
▁constructed	-6185
▁plane	-6186
▁hunting	-6187
▁italian	-6188
▁aged	-6189
ih	-6190
▁vaccines	-6191
▁abdom	-6192
called	-6193
▁prompt	-6194
▁mere	-6195
rene	-6196
▁issued	-6197
▁newly	-6198
▁magazine	-6199
▁microb	-6200
▁identification	-6201
▁offering	-6202
▁mixt	-6203
▁youve	-6204
▁empt	-6205
▁buff	-6206
▁wikipedia	-6207
▁fires	-6208
▁covering	-6209
while	-6210
▁accuracy	-6211
▁stronger	-6212
▁managing	-6213
▁workshop	-6214
▁solving	-6215
▁detected	-6216
▁joined	-6217
▁dollars	-6218
▁tong	-6219
▁manual	-6220
▁rect	-6221
▁finds	-6222
▁rarely	-6223
▁intellect	-6224
▁cure	-6225
▁tab	-6226
▁sustainability	-6227
▁craft	-6228
▁liv	-6229
▁tables	-6230
▁examined	-6231
▁hygi	-6232
itals	-6233
lig	-6234
▁nice	-6235
ograp	-6236
▁breed	-6237
▁colorado	-6238
▁ari	-6239
▁observe	-6240
▁descript	-6241
▁jack	-6242
▁phosph	-6243
▁experimental	-6244
▁insert	-6245
unt	-6246
▁ell	-6247
▁confirmed	-6248
▁tech	-6249
▁chances	-6250
▁oldest	-6251
▁exploring	-6252
▁hypothes	-6253
▁assistant	-6254
▁mol	-6255
▁contemporary	-6256
▁perce	-6257
▁brazil	-6258
▁irish	-6259
▁pc	-6260
▁acute	-6261
▁trail	-6262
▁memorial	-6263
▁corner	-6264
▁introduce	-6265
▁operate	-6266
▁antio	-6267
▁exists	-6268
▁config	-6269
ribe	-6270
▁finished	-6271
▁2018	-6272
usions	-6273
▁domain	-6274
▁writers	-6275
▁represented	-6276
itivity	-6277
▁grain	-6278
▁infants	-6279
▁eliminate	-6280
▁wars	-6281
▁watching	-6282
▁saving	-6283
▁ram	-6284
▁necessarily	-6285
▁bacterial	-6286
▁dream	-6287
▁significance	-6288
▁filter	-6289
▁preserve	-6290
▁graduate	-6291
▁happening	-6292
▁habitats	-6293
▁belief	-6294
oids	-6295
▁careful	-6296
▁tick	-6297
▁tox	-6298
▁atmospheric	-6299
▁cooling	-6300
▁television	-6301
▁musical	-6302
▁mercury	-6303
▁assignment	-6304
▁banks	-6305
▁distributed	-6306
▁fuels	-6307
▁2:	-6308
▁universal	-6309
▁rely	-6310
aph	-6311
▁parties	-6312
▁continuous	-6313
▁dance	-6314
you	-6315
▁panels	-6316
▁drawn	-6317
▁initially	-6318
▁quantum	-6319
▁guarant	-6320
▁references	-6321
ansas	-6322
▁advantages	-6323
berry	-6324
▁captured	-6325
▁trigger	-6326
▁register	-6327
▁adds	-6328
▁protective	-6329
gments	-6330
▁golden	-6331
rimination	-6332
▁9.	-6333
▁principal	-6334
aa	-6335
▁girl	-6336
▁drinks	-6337
▁processed	-6338
▁debt	-6339
▁soy	-6340
▁substit	-6341
▁matters	-6342
▁sitting	-6343
▁moderate	-6344
▁sla	-6345
▁engaging	-6346
3)	-6347
▁inhib	-6348
▁elder	-6349
▁spray	-6350
▁receiving	-6351
▁arrange	-6352
iration	-6353
▁approved	-6354
▁li	-6355
▁zealand	-6356
▁hidden	-6357
▁demonstrated	-6358
lights	-6359
▁zo	-6360
▁disability	-6361
▁184	-6362
▁carrying	-6363
▁acknow	-6364
▁recover	-6365
▁32	-6366
▁container	-6367
▁ourselves	-6368
▁scul	-6369
▁eleph	-6370
▁asian	-6371
▁invasive	-6372
▁cas	-6373
▁poetry	-6374
▁subs	-6375
▁los	-6376
ressive	-6377
adder	-6378
▁passage	-6379
▁ecological	-6380
▁passing	-6381
▁tutorial	-6382
▁encouraged	-6383
▁specialist	-6384
asure	-6385
▁mine	-6386
rine	-6387
▁mold	-6388
fri	-6389
▁realize	-6390
ald	-6391
▁parallel	-6392
▁encyclopedia	-6393
rol	-6394
▁lecture	-6395
▁swed	-6396
▁farms	-6397
▁grains	-6398
▁lock	-6399
▁didn	-6400
▁clay	-6401
soft	-6402
hetic	-6403
▁purs	-6404
▁tues	-6405
aming	-6406
▁legislation	-6407
▁earthquake	-6408
▁dischar	-6409
▁threatened	-6410
▁oceans	-6411
▁bure	-6412
▁lens	-6413
▁gree	-6414
▁composed	-6415
▁complicated	-6416
coming	-6417
mia	-6418
▁sodium	-6419
▁welcome	-6420
▁aging	-6421
▁threats	-6422
▁shif	-6423
▁phenomenon	-6424
▁heres	-6425
ita	-6426
▁healing	-6427
ushed	-6428
▁asp	-6429
▁conscious	-6430
▁interior	-6431
▁compl	-6432
▁chocolate	-6433
▁gravity	-6434
▁correctly	-6435
▁essentially	-6436
▁translation	-6437
▁saint	-6438
▁directions	-6439
▁statist	-6440
▁heads	-6441
▁?	-6442
▁equation	-6443
ylv	-6444
mo	-6445
▁creatures	-6446
chen	-6447
▁conj	-6448
▁neighborhood	-6449
▁theories	-6450
▁split	-6451
▁publ	-6452
▁thurs	-6453
▁bull	-6454
▁rod	-6455
▁comfortable	-6456
▁acres	-6457
dered	-6458
teen	-6459
igue	-6460
▁sculpt	-6461
▁gray	-6462
▁failed	-6463
▁slavery	-6464
▁1,000	-6465
ocy	-6466
chang	-6467
▁cort	-6468
▁wednes	-6469
▁constantly	-6470
▁flows	-6471
▁strain	-6472
▁expressed	-6473
▁basically	-6474
▁stations	-6475
▁daughter	-6476
oir	-6477
▁bost	-6478
▁transc	-6479
▁hawai	-6480
xid	-6481
▁cow	-6482
▁bon	-6483
▁winds	-6484
hd	-6485
36	-6486
▁adequate	-6487
elled	-6488
▁grammar	-6489
▁oste	-6490
▁pink	-6491
▁lighting	-6492
▁cattle	-6493
▁vegetable	-6494
▁arrived	-6495
▁player	-6496
iding	-6497
▁muslim	-6498
▁tag	-6499
▁decreased	-6500
▁deeper	-6501
ette	-6502
▁literary	-6503
ohydr	-6504
▁georgia	-6505
▁scr	-6506
▁driver	-6507
▁dynamic	-6508
▁beliefs	-6509
▁expansion	-6510
▁manufacturers	-6511
making	-6512
▁caught	-6513
▁canal	-6514
▁recept	-6515
▁pyth	-6516
▁interface	-6517
▁objectives	-6518
▁resulted	-6519
26	-6520
▁reveal	-6521
▁fatty	-6522
▁conven	-6523
▁paragraph	-6524
▁ille	-6525
▁effectiveness	-6526
▁fats	-6527
▁sunday	-6528
ouds	-6529
▁nutrient	-6530
idity	-6531
▁sales	-6532
etts	-6533
▁vegetation	-6534
▁volunteers	-6535
▁affecting	-6536
▁fairly	-6537
▁synthes	-6538
▁calculate	-6539
▁brains	-6540
▁structural	-6541
box	-6542
▁enem	-6543
from	-6544
▁focusing	-6545
▁ps	-6546
ivered	-6547
▁outdoor	-6548
▁dele	-6549
▁combat	-6550
▁circumstances	-6551
▁jeff	-6552
▁migration	-6553
▁exhibition	-6554
▁2005	-6555
▁dim	-6556
▁pear	-6557
▁pine	-6558
▁radi	-6559
▁carbohydr	-6560
▁globe	-6561
hea	-6562
▁bol	-6563
▁undert	-6564
lings	-6565
▁stores	-6566
▁earliest	-6567
▁investigation	-6568
▁homework	-6569
▁controvers	-6570
▁quiz	-6571
▁escape	-6572
▁wis	-6573
odies	-6574
ora	-6575
▁encoun	-6576
▁calend	-6577
▁stones	-6578
bridge	-6579
▁planned	-6580
▁funds	-6581
anda	-6582
such	-6583
▁oz	-6584
▁||	-6585
▁supposed	-6586
reed	-6587
▁dealing	-6588
▁parl	-6589
list	-6590
▁cash	-6591
▁restoration	-6592
▁spinal	-6593
▁weigh	-6594
▁seeking	-6595
▁rend	-6596
▁tower	-6597
▁reserve	-6598
▁accessed	-6599
▁hardware	-6600
▁serves	-6601
▁discrimination	-6602
▁adolesc	-6603
neys	-6604
▁safely	-6605
▁1990	-6606
▁investigate	-6607
▁strongly	-6608
▁tuesday	-6609
▁pad	-6610
eenth	-6611
▁bullying	-6612
▁behavioral	-6613
▁lists	-6614
▁occurring	-6615
indu	-6616
▁willing	-6617
▁antioxid	-6618
zes	-6619
▁targets	-6620
▁peer	-6621
▁doubt	-6622
28	-6623
def	-6624
▁spots	-6625
▁dement	-6626
inf	-6627
▁linear	-6628
-18	-6629
▁underground	-6630
▁delivered	-6631
▁wonderful	-6632
▁clock	-6633
▁trick	-6634
▁urine	-6635
▁beat	-6636
▁suscept	-6637
▁)	-6638
▁hybr	-6639
▁achievement	-6640
▁brush	-6641
racy	-6642
erior	-6643
▁worst	-6644
▁pione	-6645
▁dentist	-6646
▁experiencing	-6647
▁hub	-6648
▁thursday	-6649
▁wednesday	-6650
▁mu	-6651
▁flexible	-6652
▁ts	-6653
▁5,	-6654
▁geographic	-6655
▁boston	-6656
33	-6657
▁forg	-6658
▁lymph	-6659
▁shed	-6660
class	-6661
▁province	-6662
▁explo	-6663
▁beet	-6664
▁roles	-6665
▁penns	-6666
▁insight	-6667
▁plain	-6668
har	-6669
▁gradually	-6670
▁sched	-6671
▁markets	-6672
▁mouse	-6673
▁coverage	-6674
-7	-6675
▁inher	-6676
▁neither	-6677
▁supplements	-6678
▁forming	-6679
▁vertical	-6680
▁pla	-6681
▁evolved	-6682
▁reaching	-6683
▁clouds	-6684
▁thread	-6685
▁married	-6686
▁rhyth	-6687
▁tomat	-6688
cur	-6689
▁observation	-6690
achus	-6691
▁economics	-6692
▁origins	-6693
▁fellow	-6694
▁wearing	-6695
▁camer	-6696
▁prize	-6697
ylvania	-6698
▁prey	-6699
▁crim	-6700
bean	-6701
▁convention	-6702
orph	-6703
▁creek	-6704
▁extend	-6705
▁styles	-6706
▁nov	-6707
▁funded	-6708
▁irrig	-6709
▁antar	-6710
▁medicines	-6711
▁shru	-6712
▁metals	-6713
▁guess	-6714
▁optical	-6715
▁pronoun	-6716
▁usual	-6717
▁update	-6718
▁soils	-6719
▁earths	-6720
▁tack	-6721
▁dies	-6722
rane	-6723
▁flour	-6724
95	-6725
pdf	-6726
there	-6727
▁tumor	-6728
▁wound	-6729
rated	-6730
▁spat	-6731
american	-6732
▁allergy	-6733
▁lip	-6734
▁errors	-6735
▁signed	-6736
▁aggress	-6737
holds	-6738
oned	-6739
▁galaxy	-6740
▁gat	-6741
▁ric	-6742
hent	-6743
▁mammals	-6744
▁bears	-6745
▁keeps	-6746
▁committed	-6747
▁dose	-6748
▁shore	-6749
▁neurolog	-6750
▁removing	-6751
▁implemented	-6752
▁convert	-6753
▁faculty	-6754
copy	-6755
▁allergies	-6756
pm	-6757
▁hind	-6758
▁exped	-6759
▁calling	-6760
▁sole	-6761
▁adm	-6762
▁deer	-6763
nat	-6764
▁lob	-6765
▁phones	-6766
▁ended	-6767
▁dementia	-6768
ude	-6769
▁celebrated	-6770
▁critic	-6771
▁abilities	-6772
ocking	-6773
oli	-6774
bris	-6775
▁java	-6776
▁classical	-6777
▁atoms	-6778
rous	-6779
▁ul	-6780
▁movie	-6781
ricts	-6782
▁falling	-6783
▁lincol	-6784
▁resc	-6785
enue	-6786
▁reporting	-6787
worm	-6788
hire	-6789
standing	-6790
▁definitions	-6791
▁gulf	-6792
▁180	-6793
▁beans	-6794
▁arthritis	-6795
▁planted	-6796
▁diagnost	-6797
▁reward	-6798
▁si	-6799
▁coral	-6800
ogue	-6801
oral	-6802
▁dress	-6803
▁latter	-6804
olving	-6805
▁sizes	-6806
▁relation	-6807
▁destruction	-6808
▁furthermore	-6809
▁automatically	-6810
▁choosing	-6811
▁sheets	-6812
▁dense	-6813
▁kings	-6814
▁illnesses	-6815
estock	-6816
▁consumed	-6817
▁intensity	-6818
▁strict	-6819
▁succeed	-6820
apor	-6821
▁influenced	-6822
bar	-6823
umber	-6824
wa	-6825
▁trauma	-6826
▁hung	-6827
▁fascinating	-6828
▁jaw	-6829
apse	-6830
▁parliam	-6831
▁sir	-6832
▁towns	-6833
▁dimens	-6834
▁aband	-6835
abeth	-6836
press	-6837
▁twitter	-6838
▁epa	-6839
forest	-6840
▁amend	-6841
▁reviewed	-6842
▁proceed	-6843
▁worksheet	-6844
enza	-6845
▁versions	-6846
▁dramatic	-6847
▁fifth	-6848
▁fatigue	-6849
▁cul	-6850
▁owner	-6851
▁colonial	-6852
achusetts	-6853
▁characterized	-6854
38	-6855
▁crew	-6856
▁eliz	-6857
irds	-6858
-12	-6859
▁debris	-6860
▁powers	-6861
▁indicated	-6862
▁(5	-6863
▁uncom	-6864
▁diarr	-6865
ishment	-6866
▁65	-6867
▁nuts	-6868
▁criteria	-6869
▁iii	-6870
ieval	-6871
▁applying	-6872
▁statements	-6873
owing	-6874
▁buried	-6875
▁faces	-6876
▁counsel	-6877
▁nutritional	-6878
▁mixture	-6879
▁ai	-6880
▁engaged	-6881
ami	-6882
▁31	-6883
▁scotland	-6884
▁confident	-6885
%.	-6886
....	-6887
▁sovi	-6888
▁pest	-6889
▁joints	-6890
▁mini	-6891
▁stan	-6892
▁somewhat	-6893
usc	-6894
▁sou	-6895
inois	-6896
▁resil	-6897
▁healthier	-6898
▁dating	-6899
including	-6900
borne	-6901
▁enables	-6902
▁juice	-6903
▁reverse	-6904
▁anat	-6905
▁deploy	-6906
▁officer	-6907
▁(4	-6908
ders	-6909
▁spelling	-6910
▁womens	-6911
▁creativity	-6912
▁preparing	-6913
otype	-6914
▁performing	-6915
▁massachusetts	-6916
▁ion	-6917
▁harder	-6918
▁pilot	-6919
foot	-6920
icing	-6921
▁swit	-6922
▁throat	-6923
▁outbreak	-6924
▁desire	-6925
▁infectious	-6926
▁symbols	-6927
▁geography	-6928
fast	-6929
▁hygiene	-6930
itory	-6931
▁variation	-6932
▁shock	-6933
cel	-6934
antly	-6935
▁relie	-6936
dep	-6937
▁transmitted	-6938
▁pennsylvania	-6939
ctu	-6940
▁rib	-6941
▁cdc	-6942
learn	-6943
▁posts	-6944
ometer	-6945
▁bleeding	-6946
▁gri	-6947
▁archives	-6948
▁harvard	-6949
▁difficulties	-6950
ano	-6951
▁permission	-6952
▁inch	-6953
world	-6954
ique	-6955
▁traditions	-6956
▁entered	-6957
cin	-6958
▁songs	-6959
▁preschool	-6960
▁mitig	-6961
imm	-6962
century	-6963
▁gate	-6964
▁assume	-6965
shaped	-6966
▁aimed	-6967
▁racial	-6968
▁ears	-6969
▁rank	-6970
that	-6971
▁emerging	-6972
▁ensuring	-6973
▁devast	-6974
▁friendly	-6975
▁livestock	-6976
▁alter	-6977
▁alive	-6978
▁castle	-6979
▁robots	-6980
▁confirm	-6981
▁ta	-6982
▁wings	-6983
▁functioning	-6984
▁commons	-6985
▁soph	-6986
▁medieval	-6987
▁informed	-6988
sl	-6989
▁ranging	-6990
▁1960	-6991
arium	-6992
▁ariz	-6993
acts	-6994
▁authent	-6995
▁variations	-6996
▁technological	-6997
▁shaped	-6998
▁ceremon	-6999
uing	-7000
grow	-7001
pling	-7002
ashes	-7003
▁shoot	-7004
▁moreover	-7005
▁positions	-7006
vin	-7007
▁mail	-7008
▁basin	-7009
effect	-7010
▁thesis	-7011
▁troops	-7012
▁develops	-7013
lines	-7014
▁oak	-7015
ials	-7016
▁oxford	-7017
▁deficiency	-7018
icy	-7019
▁viewed	-7020
friend	-7021
ading	-7022
▁parliament	-7023
ographical	-7024
▁reviews	-7025
▁interpre	-7026
▁hay	-7027
▁uncertain	-7028
▁bang	-7029
▁naz	-7030
▁bomb	-7031
iana	-7032
▁desired	-7033
▁lam	-7034
▁employed	-7035
/201	-7036
▁buck	-7037
▁providers	-7038
▁chicken	-7039
▁concentrations	-7040
ilation	-7041
▁painful	-7042
▁sensitivity	-7043
cm	-7044
▁promoting	-7045
▁declared	-7046
▁ultra	-7047
▁digestive	-7048
▁tens	-7049
▁kar	-7050
green	-7051
▁75	-7052
▁engines	-7053
▁swimming	-7054
▁illinois	-7055
haust	-7056
nas	-7057
▁streams	-7058
cons	-7059
▁writes	-7060
▁raising	-7061
▁trace	-7062
lymp	-7063
▁hospitals	-7064
▁electronics	-7065
▁nick	-7066
▁1970	-7067
▁anthrop	-7068
▁cycl	-7069
▁license	-7070
rh	-7071
▁empty	-7072
▁secretary	-7073
▁municip	-7074
▁regulation	-7075
▁election	-7076
▁adapted	-7077
▁forum	-7078
▁judge	-7079
▁sevent	-7080
sell	-7081
▁engineer	-7082
▁outcome	-7083
▁ft	-7084
cut	-7085
mod	-7086
▁rays	-7087
onomic	-7088
▁horn	-7089
rape	-7090
▁cave	-7091
▁margin	-7092
▁scores	-7093
▁enorm	-7094
▁transmit	-7095
▁logic	-7096
▁suggestions	-7097
▁joy	-7098
acent	-7099
▁uv	-7100
▁sug	-7101
▁astron	-7102
▁forth	-7103
▁bush	-7104
▁plas	-7105
▁viet	-7106
▁paintings	-7107
▁1)	-7108
▁dependent	-7109
▁boat	-7110
illion	-7111
▁jac	-7112
abil	-7113
▁gif	-7114
▁besides	-7115
▁faced	-7116
▁enforce	-7117
html	-7118
▁attach	-7119
thal	-7120
▁sel	-7121
▁surgical	-7122
▁pesticides	-7123
▁auto	-7124
▁clothes	-7125
▁fet	-7126
▁wing	-7127
▁contributed	-7128
▁pairs	-7129
▁prominent	-7130
▁balanced	-7131
-10	-7132
▁defe	-7133
▁marsh	-7134
▁weakness	-7135
▁pace	-7136
▁resistant	-7137
▁6,	-7138
▁diagram	-7139
▁ease	-7140
▁oreg	-7141
▁emit	-7142
western	-7143
▁lifetime	-7144
▁universities	-7145
27	-7146
▁genome	-7147
▁newspaper	-7148
▁losing	-7149
▁bub	-7150
▁cigare	-7151
▁coat	-7152
rey	-7153
▁contribution	-7154
ouri	-7155
▁agents	-7156
▁commitment	-7157
▁annually	-7158
▁physically	-7159
▁sor	-7160
▁olymp	-7161
▁subsequent	-7162
▁influenza	-7163
▁correl	-7164
iva	-7165
▁repeat	-7166
▁alert	-7167
▁criminal	-7168
ester	-7169
▁elizabeth	-7170
▁pill	-7171
▁equally	-7172
▁concluded	-7173
uits	-7174
▁genetics	-7175
▁attempts	-7176
▁savings	-7177
▁narrative	-7178
▁evening	-7179
▁proportion	-7180
▁maintained	-7181
▁astronaut	-7182
▁emphasis	-7183
enger	-7184
▁swelling	-7185
▁inqu	-7186
▁whenever	-7187
▁hormones	-7188
ala	-7189
oured	-7190
▁microsoft	-7191
▁lunar	-7192
▁licens	-7193
▁loose	-7194
▁hurricane	-7195
-9	-7196
ergart	-7197
oric	-7198
▁disrupt	-7199
▁telling	-7200
▁bac	-7201
▁shorter	-7202
▁ministry	-7203
▁mature	-7204
▁isolated	-7205
▁embed	-7206
▁slave	-7207
ysis	-7208
otherapy	-7209
▁browser	-7210
▁classic	-7211
▁driven	-7212
▁reconst	-7213
▁transplant	-7214
▁carn	-7215
▁campus	-7216
▁1980	-7217
▁acquired	-7218
▁disk	-7219
▁pond	-7220
▁mg	-7221
▁monument	-7222
rus	-7223
▁determining	-7224
▁wireless	-7225
▁emper	-7226
▁tumors	-7227
▁ive	-7228
▁viral	-7229
▁calendar	-7230
▁lowest	-7231
ett	-7232
▁resid	-7233
▁johnson	-7234
▁alumin	-7235
▁improvements	-7236
▁tig	-7237
▁reject	-7238
▁sediment	-7239
▁collaborative	-7240
▁advances	-7241
▁prohib	-7242
▁libraries	-7243
▁lee	-7244
'.	-7245
▁handling	-7246
▁ht	-7247
▁indians	-7248
ochem	-7249
▁definitely	-7250
mi	-7251
▁districts	-7252
▁exhaust	-7253
▁believes	-7254
▁weekly	-7255
▁suffered	-7256
iture	-7257
▁gained	-7258
▁reveals	-7259
!!	-7260
▁lawn	-7261
▁excav	-7262
▁developmental	-7263
▁americas	-7264
▁gent	-7265
▁gran	-7266
di	-7267
▁breaking	-7268
any	-7269
▁themes	-7270
grad	-7271
osh	-7272
48	-7273
▁intellectual	-7274
▁productivity	-7275
▁ecology	-7276
▁minnes	-7277
▁alarm	-7278
▁continuing	-7279
▁wil	-7280
▁zones	-7281
▁beneath	-7282
▁assigned	-7283
▁governor	-7284
▁supreme	-7285
▁highlights	-7286
▁priority	-7287
',	-7288
▁sacr	-7289
author	-7290
▁manif	-7291
▁sulf	-7292
▁3:	-7293
rary	-7294
▁colonies	-7295
▁therm	-7296
▁bottle	-7297
▁soviet	-7298
▁seal	-7299
▁fitness	-7300
lind	-7301
uted	-7302
▁caps	-7303
▁quantity	-7304
▁todd	-7305
▁visiting	-7306
page	-7307
hyd	-7308
amination	-7309
▁abnormal	-7310
▁particle	-7311
▁brid	-7312
▁equality	-7313
▁templ	-7314
▁basics	-7315
▁oregon	-7316
illa	-7317
▁festival	-7318
tw	-7319
▁inequ	-7320
32	-7321
▁households	-7322
▁blank	-7323
▁bags	-7324
65	-7325
▁kent	-7326
▁similarly	-7327
▁exception	-7328
▁mas	-7329
▁workplace	-7330
▁electrons	-7331
▁sessions	-7332
inter	-7333
thetic	-7334
cled	-7335
▁adverse	-7336
▁gear	-7337
▁spoken	-7338
▁info	-7339
eries	-7340
▁temporary	-7341
neum	-7342
▁heavily	-7343
▁analyzed	-7344
▁transpa	-7345
▁wise	-7346
▁recording	-7347
▁outline	-7348
▁controlling	-7349
▁pod	-7350
▁lith	-7351
▁availability	-7352
▁ot	-7353
▁restore	-7354
ranean	-7355
▁arizona	-7356
▁alaska	-7357
▁gly	-7358
ourage	-7359
▁respectively	-7360
▁tongue	-7361
▁shade	-7362
fill	-7363
▁visited	-7364
▁protest	-7365
37	-7366
▁rocket	-7367
▁rainfall	-7368
▁contributions	-7369
▁waiting	-7370
mers	-7371
▁ga	-7372
▁marketing	-7373
▁ny	-7374
made	-7375
▁substantial	-7376
▁mapping	-7377
▁uniform	-7378
reated	-7379
▁wisdom	-7380
▁rit	-7381
▁cream	-7382
▁containers	-7383
▁overcome	-7384
▁absorb	-7385
?"	-7386
▁breaks	-7387
▁colored	-7388
▁inhabit	-7389
eland	-7390
-201	-7391
▁stake	-7392
▁representation	-7393
▁streets	-7394
sters	-7395
▁albert	-7396
▁por	-7397
rows	-7398
▁perception	-7399
▁publications	-7400
▁hopes	-7401
▁desk	-7402
▁1/	-7403
▁barrier	-7404
▁reaches	-7405
▁tape	-7406
hus	-7407
onym	-7408
▁recall	-7409
-20	-7410
▁returns	-7411
▁separated	-7412
▁expanded	-7413
▁na	-7414
▁2019	-7415
▁dun	-7416
▁laid	-7417
▁entering	-7418
▁interventions	-7419
comm	-7420
▁fluor	-7421
▁addiction	-7422
▁remed	-7423
▁shakes	-7424
10.	-7425
▁crown	-7426
▁stability	-7427
adel	-7428
▁bureau	-7429
▁weapons	-7430
▁remarkable	-7431
▁mud	-7432
worth	-7433
orig	-7434
▁dutch	-7435
▁straw	-7436
▁storms	-7437
▁agreed	-7438
omp	-7439
▁kilometers	-7440
▁perm	-7441
▁2004	-7442
▁3-	-7443
▁apps	-7444
▁phd	-7445
▁algae	-7446
▁accidents	-7447
▁sleeping	-7448
▁scholar	-7449
▁hills	-7450
▁saved	-7451
▁colony	-7452
bow	-7453
▁pandemic	-7454
▁sheep	-7455
▁portra	-7456
▁killing	-7457
rog	-7458
▁featured	-7459
▁fortun	-7460
▁powder	-7461
▁hazards	-7462
▁neutral	-7463
bn	-7464
▁lincoln	-7465
▁bru	-7466
▁illegal	-7467
▁bite	-7468
▁physicians	-7469
ommod	-7470
▁48	-7471
fly	-7472
ipe	-7473
▁2)	-7474
▁diets	-7475
▁mississ	-7476
rin	-7477
▁hi	-7478
▁differently	-7479
▁accommod	-7480
oa	-7481
▁agent	-7482
artic	-7483
omin	-7484
▁democratic	-7485
▁minds	-7486
▁geological	-7487
34	-7488
▁7,	-7489
▁toys	-7490
▁embry	-7491
▁spreading	-7492
▁settlement	-7493
▁athletes	-7494
▁strengthen	-7495
▁1950	-7496
▁confed	-7497
ena	-7498
▁navy	-7499
▁cheese	-7500
▁accounting	-7501
▁profile	-7502
▁overw	-7503
▁classified	-7504
▁hes	-7505
▁sq	-7506
▁encouraging	-7507
▁unw	-7508
▁disappear	-7509
▁kitchen	-7510
psy	-7511
ket	-7512
▁toile	-7513
▁cer	-7514
▁registered	-7515
ker	-7516
▁gift	-7517
▁addresses	-7518
een	-7519
▁legend	-7520
ima	-7521
▁sew	-7522
▁circulation	-7523
▁bloom	-7524
ptions	-7525
▁sib	-7526
▁personality	-7527
▁cann	-7528
rot	-7529
olar	-7530
fa	-7531
through	-7532
▁ordinary	-7533
▁graphic	-7534
erated	-7535
▁devot	-7536
wal	-7537
▁dub	-7538
▁multipl	-7539
▁radical	-7540
ergarten	-7541
▁hepat	-7542
▁expertise	-7543
▁contaminated	-7544
▁erosion	-7545
osaur	-7546
trans	-7547
inson	-7548
plo	-7549
▁displayed	-7550
▁seasonal	-7551
▁targeted	-7552
▁expectations	-7553
:00	-7554
affe	-7555
▁genus	-7556
▁spine	-7557
aneously	-7558
▁trem	-7559
▁surveys	-7560
▁reproductive	-7561
▁minnesota	-7562
▁az	-7563
▁ont	-7564
▁cooperation	-7565
▁contributing	-7566
▁bun	-7567
▁allergic	-7568
▁integration	-7569
▁losses	-7570
▁scat	-7571
▁ster	-7572
ippi	-7573
▁boundaries	-7574
▁astronomers	-7575
77	-7576
assium	-7577
▁divide	-7578
▁;	-7579
yn	-7580
▁opposed	-7581
▁certific	-7582
▁pak	-7583
▁noticed	-7584
▁nursing	-7585
▁proved	-7586
▁quiet	-7587
▁metabolism	-7588
▁cher	-7589
astern	-7590
/0	-7591
▁elected	-7592
▁wider	-7593
▁parameters	-7594
▁taxes	-7595
▁francisco	-7596
▁package	-7597
▁slaves	-7598
▁diagnostic	-7599
▁negot	-7600
▁alphabet	-7601
▁mul	-7602
▁suicide	-7603
anth	-7604
▁concerning	-7605
▁guides	-7606
▁duration	-7607
▁vom	-7608
▁python	-7609
▁passion	-7610
▁statistical	-7611
▁replacement	-7612
▁indoor	-7613
▁10,	-7614
▁restaur	-7615
▁probability	-7616
▁compens	-7617
▁aside	-7618
grade	-7619
berries	-7620
uten	-7621
▁apparently	-7622
29	-7623
aded	-7624
▁ans	-7625
▁predators	-7626
▁coordin	-7627
▁phon	-7628
rapeut	-7629
▁pose	-7630
▁bare	-7631
▁gums	-7632
▁celebration	-7633
▁wake	-7634
elly	-7635
▁cerv	-7636
▁psychi	-7637
▁precip	-7638
▁shr	-7639
mail	-7640
▁literally	-7641
pled	-7642
profit	-7643
▁turkey	-7644
▁traits	-7645
food	-7646
astics	-7647
apes	-7648
▁spatial	-7649
▁annivers	-7650
▁overweight	-7651
▁finish	-7652
▁gest	-7653
▁flooding	-7654
▁emotion	-7655
py	-7656
6)	-7657
icians	-7658
▁bark	-7659
▁tam	-7660
flies	-7661
▁stems	-7662
bage	-7663
▁folk	-7664
▁simult	-7665
▁specialized	-7666
▁dc	-7667
ref	-7668
holders	-7669
▁wooden	-7670
▁lady	-7671
▁jup	-7672
▁pneum	-7673
▁stopped	-7674
▁enormous	-7675
▁torn	-7676
▁ren	-7677
39	-7678
▁citation	-7679
▁tang	-7680
opl	-7681
▁rac	-7682
▁northwest	-7683
esh	-7684
▁zoo	-7685
▁vice	-7686
▁comprom	-7687
erts	-7688
gent	-7689
▁charged	-7690
▁yoga	-7691
▁chromos	-7692
▁degrad	-7693
▁gathered	-7694
▁aggressive	-7695
▁insights	-7696
▁interpretation	-7697
▁crack	-7698
▁palm	-7699
avirus	-7700
section	-7701
▁transact	-7702
medi	-7703
▁sought	-7704
friendly	-7705
▁pipe	-7706
.;	-7707
▁democracy	-7708
izers	-7709
▁veloc	-7710
▁scales	-7711
eness	-7712
▁illustrated	-7713
asant	-7714
▁superior	-7715
▁overwhel	-7716
▁algorithm	-7717
▁compos	-7718
▁discussions	-7719
▁incident	-7720
htt	-7721
▁equations	-7722
child	-7723
ema	-7724
▁ome	-7725
▁potassium	-7726
▁invented	-7727
▁pests	-7728
▁mcc	-7729
rolled	-7730
▁classification	-7731
anted	-7732
▁barriers	-7733
▁mrs	-7734
▁safer	-7735
▁modeling	-7736
▁satisf	-7737
burn	-7738
wan	-7739
ogenic	-7740
▁privacy	-7741
▁verte	-7742
▁compass	-7743
lu	-7744
step	-7745
▁characteristic	-7746
▁preservation	-7747
▁panc	-7748
▁hybrid	-7749
▁tracking	-7750
▁declar	-7751
▁practition	-7752
▁deadly	-7753
▁hip	-7754
▁publishing	-7755
▁fingers	-7756
▁shoes	-7757
▁gallery	-7758
iated	-7759
▁jet	-7760
hum	-7761
▁capabilities	-7762
▁absence	-7763
▁commem	-7764
they	-7765
44	-7766
usal	-7767
▁eag	-7768
▁mile	-7769
▁beings	-7770
▁fred	-7771
▁visits	-7772
▁susceptible	-7773
▁dil	-7774
▁subt	-7775
▁addressed	-7776
▁evolutionary	-7777
▁fiction	-7778
roud	-7779
▁santa	-7780
▁chip	-7781
▁2012,	-7782
▁knee	-7783
▁irrigation	-7784
▁2003	-7785
oons	-7786
▁lingu	-7787
▁conqu	-7788
▁combine	-7789
idal	-7790
icted	-7791
▁loop	-7792
bered	-7793
▁dimensions	-7794
rob	-7795
▁pointed	-7796
olit	-7797
▁fox	-7798
▁addressing	-7799
▁indo	-7800
▁alzheimers	-7801
▁engagement	-7802
elect	-7803
asty	-7804
▁html	-7805
▁ethical	-7806
▁accurately	-7807
▁intent	-7808
▁mississippi	-7809
▁considerable	-7810
iate	-7811
▁jacks	-7812
▁purchased	-7813
spec	-7814
▁aren	-7815
▁submitted	-7816
▁curios	-7817
▁carri	-7818
▁buying	-7819
▁cylind	-7820
▁landing	-7821
▁tourism	-7822
▁occasionally	-7823
emia	-7824
▁virtually	-7825
▁satellites	-7826
▁malaria	-7827
▁ech	-7828
▁libert	-7829
▁stere	-7830
▁catalog	-7831
▁reservoir	-7832
▁complement	-7833
▁elsewhere	-7834
imal	-7835
▁strange	-7836
▁humanity	-7837
▁fung	-7838
▁managers	-7839
opher	-7840
▁recycled	-7841
▁parad	-7842
▁shakespe	-7843
▁consideration	-7844
aust	-7845
▁feels	-7846
▁ampl	-7847
ori	-7848
▁speaker	-7849
▁dre	-7850
▁corresponding	-7851
▁lunch	-7852
▁amazon	-7853
▁dropped	-7854
▁displays	-7855
▁everywhere	-7856
▁improves	-7857
▁designing	-7858
▁fertilizer	-7859
▁acting	-7860
▁oblig	-7861
▁defend	-7862
▁illustrations	-7863
▁husband	-7864
kind	-7865
nea	-7866
mble	-7867
▁painted	-7868
▁scope	-7869
▁grams	-7870
▁anniversary	-7871
▁sket	-7872
▁directed	-7873
▁enterpr	-7874
▁counties	-7875
▁attribut	-7876
▁thyroid	-7877
iterranean	-7878
fol	-7879
▁(1)	-7880
▁korea	-7881
una	-7882
▁crypt	-7883
iders	-7884
▁southeast	-7885
▁dried	-7886
▁chamber	-7887
▁demands	-7888
▁hack	-7889
▁bless	-7890
advant	-7891
cule	-7892
▁arrest	-7893
▁magnet	-7894
▁stretch	-7895
▁contamination	-7896
▁purple	-7897
▁expanding	-7898
ran	-7899
▁anne	-7900
rared	-7901
▁aquatic	-7902
▁boxes	-7903
▁consuming	-7904
▁elderly	-7905
hips	-7906
▁excel	-7907
▁swall	-7908
▁sensory	-7909
gged	-7910
▁assessments	-7911
▁obese	-7912
▁default	-7913
▁oxid	-7914
▁vaccination	-7915
▁jr	-7916
▁surprise	-7917
▁conversion	-7918
▁entr	-7919
▁belt	-7920
▁neurons	-7921
▁mystery	-7922
▁assets	-7923
▁38	-7924
▁vig	-7925
▁traditionally	-7926
zym	-7927
▁arc	-7928
▁submit	-7929
▁cem	-7930
▁uncle	-7931
▁converted	-7932
▁fan	-7933
▁meaningful	-7934
▁producers	-7935
▁collecting	-7936
▁impair	-7937
▁incorporate	-7938
▁33	-7939
▁bugs	-7940
▁granted	-7941
▁missouri	-7942
ricks	-7943
▁tough	-7944
▁membrane	-7945
doors	-7946
▁galaxies	-7947
▁scheme	-7948
healthy	-7949
▁codes	-7950
▁rehab	-7951
bour	-7952
▁passes	-7953
▁archaeological	-7954
urable	-7955
▁kindergarten	-7956
▁tribes	-7957
68	-7958
▁fant	-7959
herent	-7960
imp	-7961
elfare	-7962
▁bin	-7963
ighth	-7964
▁diarrhea	-7965
▁mediterranean	-7966
▁wolf	-7967
ogens	-7968
▁hazardous	-7969
▁pock	-7970
▁designated	-7971
copic	-7972
stic	-7973
school	-7974
▁8,	-7975
unct	-7976
▁injured	-7977
▁facilitate	-7978
▁emperor	-7979
▁nap	-7980
▁propag	-7981
▁fraction	-7982
pres	-7983
▁tone	-7984
▁calculated	-7985
requ	-7986
function	-7987
kal	-7988
▁installation	-7989
▁asc	-7990
▁11,	-7991
▁magnitude	-7992
▁dynamics	-7993
▁preserved	-7994
▁sending	-7995
▁avoiding	-7996
▁eaten	-7997
agon	-7998
▁predicted	-7999
▁varied	-8000
▁affairs	-8001
▁dish	-8002
▁treaty	-8003
▁owned	-8004
▁cass	-8005
▁missions	-8006
▁extinction	-8007
▁energ	-8008
▁edward	-8009
▁arguments	-8010
ela	-8011
▁spark	-8012
▁autonom	-8013
▁schedul	-8014
▁kh	-8015
▁pic	-8016
▁linux	-8017
▁restric	-8018
▁classrooms	-8019
▁atomic	-8020
ested	-8021
▁indones	-8022
▁marg	-8023
▁suspect	-8024
▁fda	-8025
▁analog	-8026
▁provin	-8027
▁remem	-8028
▁explores	-8029
▁omega	-8030
▁gardening	-8031
)|	-8032
▁width	-8033
▁varies	-8034
aneous	-8035
▁seemed	-8036
storm	-8037
ere	-8038
▁tempor	-8039
▁minimize	-8040
▁250	-8041
adelph	-8042
▁welfare	-8043
▁watershed	-8044
rix	-8045
▁cable	-8046
▁shelter	-8047
▁prospect	-8048
▁prescribed	-8049
▁promise	-8050
▁cuts	-8051
rison	-8052
▁client	-8053
▁therapeut	-8054
▁plates	-8055
▁ranges	-8056
▁refrig	-8057
▁curve	-8058
▁ending	-8059
▁incorporated	-8060
▁hepatitis	-8061
▁cameras	-8062
ng	-8063
▁cosm	-8064
▁mask	-8065
▁vine	-8066
▁recommends	-8067
ja	-8068
cat	-8069
night	-8070
▁preferred	-8071
▁incidence	-8072
▁numer	-8073
▁teaches	-8074
keep	-8075
▁till	-8076
▁hebre	-8077
▁prevalence	-8078
▁rubber	-8079
▁monthly	-8080
▁adolescents	-8081
▁carib	-8082
▁disadvant	-8083
▁34	-8084
▁paying	-8085
▁peers	-8086
▁dramatically	-8087
fir	-8088
▁keys	-8089
▁attitudes	-8090
eli	-8091
▁fought	-8092
▁curiosity	-8093
▁oils	-8094
▁maryland	-8095
▁discipline	-8096
gebra	-8097
▁labels	-8098
also	-8099
▁cambridge	-8100
▁beam	-8101
▁horizontal	-8102
iop	-8103
▁grounds	-8104
bec	-8105
▁embra	-8106
▁fatal	-8107
▁terror	-8108
▁angeles	-8109
▁yard	-8110
▁obama	-8111
▁synthetic	-8112
▁quad	-8113
ruption	-8114
▁202	-8115
ustration	-8116
▁puts	-8117
▁partial	-8118
▁circul	-8119
▁snake	-8120
ructive	-8121
words	-8122
regular	-8123
icts	-8124
▁120	-8125
▁wasnt	-8126
▁outdoors	-8127
▁traveling	-8128
▁societies	-8129
▁sale	-8130
▁encourages	-8131
▁accomplish	-8132
▁soap	-8133
sex	-8134
oto	-8135
iscons	-8136
▁enthus	-8137
▁efficiently	-8138
▁55	-8139
conn	-8140
▁excited	-8141
▁alongside	-8142
lastname	-8143
▁slide	-8144
▁violent	-8145
▁severity	-8146
dl	-8147
▁methane	-8148
▁actively	-8149
▁cluster	-8150
▁cellular	-8151
▁cemeter	-8152
▁quantities	-8153
▁whales	-8154
orus	-8155
▁initiatives	-8156
anium	-8157
▁whit	-8158
▁copies	-8159
98	-8160
aired	-8161
▁chose	-8162
▁officers	-8163
▁10,000	-8164
▁sacred	-8165
orted	-8166
▁optimal	-8167
▁mosquito	-8168
▁hunt	-8169
.'	-8170
▁specified	-8171
▁loud	-8172
▁seriously	-8173
amine	-8174
▁enzym	-8175
zyme	-8176
▁1930	-8177
▁artif	-8178
▁shoulder	-8179
▁hurt	-8180
▁photography	-8181
▁wales	-8182
▁prevents	-8183
issance	-8184
▁fluids	-8185
▁opinions	-8186
▁residential	-8187
▁representing	-8188
▁cu	-8189
▁hypothesis	-8190
jo	-8191
▁circular	-8192
phal	-8193
▁600	-8194
orate	-8195
▁daniel	-8196
▁happiness	-8197
▁accompanied	-8198
dp	-8199
▁differ	-8200
▁museums	-8201
fulness	-8202
▁theoretical	-8203
%)	-8204
esium	-8205
▁memor	-8206
inking	-8207
kers	-8208
olds	-8209
▁suit	-8210
▁utility	-8211
▁deeply	-8212
▁bats	-8213
▁1.5	-8214
▁developments	-8215
▁philadelph	-8216
▁derm	-8217
▁2012.	-8218
▁caffe	-8219
▁plaque	-8220
▁profit	-8221
▁warmer	-8222
ums	-8223
▁kansas	-8224
▁evil	-8225
▁meter	-8226
eg	-8227
▁imperial	-8228
▁strategic	-8229
▁gy	-8230
▁affordable	-8231
▁legacy	-8232
▁shallow	-8233
zo	-8234
▁tension	-8235
▁searching	-8236
▁nom	-8237
▁suddenly	-8238
▁chips	-8239
▁educate	-8240
real	-8241
▁repet	-8242
▁anticip	-8243
▁wetlands	-8244
▁representative	-8245
▁2013.	-8246
ulating	-8247
▁hemisp	-8248
▁12,	-8249
▁surviv	-8250
uther	-8251
▁pert	-8252
▁grey	-8253
▁imagination	-8254
▁citizen	-8255
▁claimed	-8256
▁alternatives	-8257
▁strike	-8258
▁relate	-8259
▁scenario	-8260
▁customer	-8261
iological	-8262
ji	-8263
▁edges	-8264
▁saturday	-8265
employ	-8266
▁melan	-8267
▁15,	-8268
▁barn	-8269
▁wiscons	-8270
▁pollen	-8271
▁pi	-8272
type	-8273
▁seiz	-8274
▁doub	-8275
▁forecast	-8276
▁continent	-8277
▁theat	-8278
▁prox	-8279
▁distant	-8280
▁enjoyed	-8281
▁enhanced	-8282
▁requirement	-8283
▁thereby	-8284
▁powered	-8285
▁attractive	-8286
ugs	-8287
ifier	-8288
▁menu	-8289
▁ride	-8290
▁valve	-8291
▁occas	-8292
oves	-8293
▁mexican	-8294
▁settled	-8295
▁speakers	-8296
inn	-8297
loc	-8298
oline	-8299
▁begun	-8300
▁jupiter	-8301
66	-8302
▁sperm	-8303
▁astronomy	-8304
▁rooms	-8305
▁comparing	-8306
▁flexibility	-8307
▁antibiotic	-8308
text	-8309
7)	-8310
▁reflection	-8311
▁anger	-8312
fig	-8313
▁symptom	-8314
▁segment	-8315
▁busy	-8316
▁abundant	-8317
▁possibilities	-8318
chem	-8319
▁doses	-8320
▁hunger	-8321
▁asteroid	-8322
vol	-8323
tons	-8324
ika	-8325
ologically	-8326
▁ancestors	-8327
▁metabolic	-8328
▁larv	-8329
cia	-8330
▁speeds	-8331
▁finance	-8332
▁gastro	-8333
▁carbohydrates	-8334
yard	-8335
▁neuros	-8336
▁dominant	-8337
▁reinforce	-8338
naissance	-8339
▁draft	-8340
▁counting	-8341
▁expedition	-8342
about	-8343
▁calc	-8344
best	-8345
▁prescription	-8346
▁pakistan	-8347
▁1920	-8348
estone	-8349
▁argue	-8350
▁foster	-8351
▁arrang	-8352
▁participating	-8353
▁molecule	-8354
▁distract	-8355
▁readily	-8356
▁railroad	-8357
▁dying	-8358
▁prolong	-8359
▁flavor	-8360
▁minimal	-8361
▁ozone	-8362
rem	-8363
▁tort	-8364
fat	-8365
ilst	-8366
▁regulate	-8367
▁kg	-8368
▁jur	-8369
▁cite	-8370
▁calm	-8371
▁connecting	-8372
▁2001	-8373
▁nerves	-8374
osaurs	-8375
▁compact	-8376
▁persu	-8377
▁varying	-8378
▁rings	-8379
▁bish	-8380
▁relating	-8381
esy	-8382
arsh	-8383
▁courts	-8384
▁encounter	-8385
▁sons	-8386
▁deposits	-8387
▁observatory	-8388
▁proud	-8389
▁velocity	-8390
▁chapters	-8391
▁complexity	-8392
▁summar	-8393
▁philipp	-8394
▁motivation	-8395
▁films	-8396
▁nig	-8397
▁wisconsin	-8398
▁versus	-8399
▁epidem	-8400
▁retrieved	-8401
▁highway	-8402
▁ww	-8403
▁appointment	-8404
chnology	-8405
▁flies	-8406
▁disturb	-8407
▁tends	-8408
()	-8409
yer	-8410
▁silicon	-8411
when	-8412
▁chim	-8413
▁elevated	-8414
▁volcanic	-8415
▁cycles	-8416
▁documented	-8417
▁philadelphia	-8418
▁intr	-8419
▁prostate	-8420
▁labour	-8421
▁dangers	-8422
▁influences	-8423
efficient	-8424
▁emer	-8425
owa	-8426
▁poems	-8427
▁burned	-8428
▁currency	-8429
▁neural	-8430
▁immigrants	-8431
▁lew	-8432
▁logical	-8433
▁factory	-8434
▁awarded	-8435
▁triangle	-8436
▁worship	-8437
▁abundance	-8438
expected	-8439
▁37	-8440
▁pole	-8441
▁9,	-8442
▁describing	-8443
▁encry	-8444
▁comprehension	-8445
▁discharge	-8446
iano	-8447
▁axis	-8448
▁meanwhile	-8449
▁rational	-8450
source	-8451
imensional	-8452
▁vomiting	-8453
▁memories	-8454
rical	-8455
▁revers	-8456
▁qualities	-8457
▁ordered	-8458
▁achieving	-8459
▁rou	-8460
▁toxins	-8461
nis	-8462
▁1000	-8463
pos	-8464
▁opens	-8465
▁thrive	-8466
▁countrys	-8467
ols	-8468
try	-8469
▁12.	-8470
▁diagnose	-8471
▁vector	-8472
▁hypert	-8473
▁attitude	-8474
ifer	-8475
▁dipl	-8476
▁frozen	-8477
▁productive	-8478
▁vag	-8479
▁alexander	-8480
88	-8481
▁popularity	-8482
▁algorithms	-8483
▁merely	-8484
▁tunnel	-8485
▁mim	-8486
▁lig	-8487
▁resemb	-8488
▁appreciate	-8489
▁larvae	-8490
▁mistakes	-8491
▁2002	-8492
▁placing	-8493
▁perspectives	-8494
▁clients	-8495
▁graphics	-8496
mental	-8497
▁pope	-8498
quality	-8499
clic	-8500
ani	-8501
▁emission	-8502
▁equipped	-8503
▁convey	-8504
▁jackson	-8505
bell	-8506
verages	-8507
▁discl	-8508
▁packaging	-8509
▁prince	-8510
atus	-8511
▁declaration	-8512
▁marker	-8513
▁seasons	-8514
▁bills	-8515
▁implementing	-8516
▁spell	-8517
▁usda	-8518
▁obviously	-8519
wall	-8520
▁regarded	-8521
▁invention	-8522
▁competitive	-8523
▁hu	-8524
▁representatives	-8525
▁whilst	-8526
osphere	-8527
ttes	-8528
▁chin	-8529
▁encl	-8530
▁kick	-8531
▁prayer	-8532
▁reasoning	-8533
▁simulation	-8534
▁penet	-8535
▁extraord	-8536
▁sho	-8537
▁rats	-8538
▁migr	-8539
itzer	-8540
▁bladder	-8541
rics	-8542
▁cape	-8543
▁defects	-8544
▁southwest	-8545
▁2010,	-8546
velength	-8547
case	-8548
▁nur	-8549
▁algebra	-8550
▁recur	-8551
▁irregular	-8552
▁volunteer	-8553
▁patent	-8554
▁doors	-8555
▁identical	-8556
55	-8557
▁pupp	-8558
▁geometry	-8559
pow	-8560
▁adaptation	-8561
▁courtesy	-8562
renn	-8563
▁portug	-8564
▁doi	-8565
mont	-8566
▁archive	-8567
mann	-8568
▁hawaii	-8569
▁bulbs	-8570
▁skull	-8571
▁organis	-8572
▁preced	-8573
▁firstname	-8574
▁genetically	-8575
▁coins	-8576
hr	-8577
fire	-8578
▁glue	-8579
64	-8580
▁organisation	-8581
▁andrew	-8582
▁embedded	-8583
▁unlikely	-8584
▁thirty	-8585
▁requiring	-8586
▁digit	-8587
▁wells	-8588
▁enzymes	-8589
▁(2)	-8590
▁stabil	-8591
▁conclusions	-8592
▁tel	-8593
▁tet	-8594
ripts	-8595
")	-8596
▁inver	-8597
▁adopt	-8598
▁burns	-8599
▁duty	-8600
▁disasters	-8601
▁orders	-8602
▁channels	-8603
▁godd	-8604
▁muc	-8605
▁crust	-8606
ingly	-8607
ologic	-8608
▁greece	-8609
gregation	-8610
▁epidemic	-8611
▁inspiration	-8612
▁certified	-8613
▁surrounded	-8614
▁drops	-8615
▁borrow	-8616
▁discoveries	-8617
▁sees	-8618
▁brothers	-8619
▁drainage	-8620
▁infrared	-8621
▁carp	-8622
uce	-8623
▁drawings	-8624
▁hebrew	-8625
▁ethics	-8626
phones	-8627
▁2010.	-8628
▁burden	-8629
▁demonstrates	-8630
▁limitations	-8631
agen	-8632
▁cad	-8633
aware	-8634
▁weaken	-8635
▁cardiac	-8636
▁viewing	-8637
▁phy	-8638
▁headaches	-8639
▁ultimate	-8640
▁absorption	-8641
▁frost	-8642
▁4:	-8643
▁50%	-8644
▁adhd	-8645
▁markers	-8646
heastern	-8647
iolet	-8648
▁worker	-8649
▁unexpected	-8650
elve	-8651
▁beta	-8652
▁expressions	-8653
▁pas	-8654
▁sophistic	-8655
▁suggesting	-8656
▁officially	-8657
▁distinguish	-8658
▁wra	-8659
▁mutations	-8660
▁lapt	-8661
▁photograp	-8662
sized	-8663
▁jim	-8664
▁entit	-8665
▁dolph	-8666
▁specialists	-8667
▁withdra	-8668
etary	-8669
▁discusses	-8670
▁intensive	-8671
▁luc	-8672
▁chi	-8673
▁groundwater	-8674
ucky	-8675
▁sister	-8676
itarian	-8677
▁humidity	-8678
erness	-8679
▁perfectly	-8680
▁reput	-8681
oly	-8682
▁semi	-8683
▁fisheries	-8684
▁shares	-8685
▁heal	-8686
▁recru	-8687
aints	-8688
▁hob	-8689
▁alloc	-8690
▁charl	-8691
▁plasma	-8692
▁strains	-8693
iry	-8694
▁dwar	-8695
▁magic	-8696
bul	-8697
▁vietnam	-8698
▁hide	-8699
▁bonds	-8700
pv	-8701
aka	-8702
▁boards	-8703
aste	-8704
imen	-8705
▁syll	-8706
pie	-8707
arios	-8708
aping	-8709
▁emerged	-8710
▁edit	-8711
▁amendment	-8712
▁holoc	-8713
▁williams	-8714
▁applies	-8715
▁prone	-8716
▁lift	-8717
agnetic	-8718
▁globally	-8719
▁realized	-8720
▁worn	-8721
wered	-8722
power	-8723
▁jersey	-8724
▁poisoning	-8725
▁shark	-8726
▁protects	-8727
▁reflected	-8728
actic	-8729
▁beer	-8730
▁bob	-8731
▁dyn	-8732
▁aluminum	-8733
▁therapies	-8734
▁impressive	-8735
▁bodys	-8736
▁pollutants	-8737
▁inspect	-8738
▁mirror	-8739
▁survived	-8740
▁shakespeare	-8741
eem	-8742
▁han	-8743
▁persistent	-8744
isa	-8745
▁2011,	-8746
▁fault	-8747
▁specimens	-8748
▁penins	-8749
▁somewhere	-8750
opes	-8751
▁involvement	-8752
▁analyses	-8753
▁struggling	-8754
▁developers	-8755
▁potatoes	-8756
▁updates	-8757
▁enzyme	-8758
▁founder	-8759
inger	-8760
▁neglect	-8761
▁11.	-8762
▁vacu	-8763
▁ontario	-8764
▁ecl	-8765
▁sail	-8766
▁monarch	-8767
▁bits	-8768
▁morph	-8769
▁reasonable	-8770
▁empower	-8771
▁magnesium	-8772
31	-8773
▁enlar	-8774
acles	-8775
▁facial	-8776
▁evaluated	-8777
▁indicators	-8778
ethe	-8779
▁alb	-8780
▁personnel	-8781
obic	-8782
▁appet	-8783
▁surprised	-8784
resist	-8785
▁victory	-8786
tte	-8787
rend	-8788
▁historically	-8789
▁intermedi	-8790
▁schem	-8791
▁twelve	-8792
▁fibers	-8793
▁testament	-8794
▁generating	-8795
▁termin	-8796
▁soda	-8797
▁amino	-8798
was	-8799
▁anch	-8800
▁completion	-8801
!)	-8802
▁lean	-8803
iances	-8804
▁discom	-8805
infl	-8806
▁regen	-8807
▁importantly	-8808
ourse	-8809
▁profound	-8810
anut	-8811
anol	-8812
▁caffeine	-8813
▁phrases	-8814
▁wool	-8815
▁enforcement	-8816
▁pier	-8817
▁dimin	-8818
▁whale	-8819
theless	-8820
▁incent	-8821
▁onset	-8822
▁drives	-8823
▁makers	-8824
▁800	-8825
▁mira	-8826
ila	-8827
▁wavelength	-8828
▁anten	-8829
▁rhythm	-8830
▁kin	-8831
quar	-8832
▁breathe	-8833
▁eco	-8834
▁blow	-8835
▁strand	-8836
▁courage	-8837
▁incredible	-8838
▁revolutionary	-8839
▁spar	-8840
▁rescue	-8841
▁reflects	-8842
▁manusc	-8843
▁proposal	-8844
▁palace	-8845
▁totally	-8846
▁breakfast	-8847
▁broadcast	-8848
▁leak	-8849
▁cows	-8850
zer	-8851
▁utilize	-8852
▁2011.	-8853
awn	-8854
▁promotes	-8855
stru	-8856
found	-8857
▁bapt	-8858
▁zinc	-8859
person	-8860
unci	-8861
spr	-8862
▁indirect	-8863
▁tib	-8864
gm	-8865
▁autumn	-8866
▁botan	-8867
▁lasting	-8868
onso	-8869
▁utah	-8870
▁nevertheless	-8871
▁architectural	-8872
▁mosquitoes	-8873
▁artistic	-8874
▁voy	-8875
▁antibodies	-8876
▁establishing	-8877
▁abandoned	-8878
▁kat	-8879
ipher	-8880
▁(20	-8881
nn	-8882
▁guided	-8883
who	-8884
▁loan	-8885
▁ng	-8886
dimensional	-8887
▁circles	-8888
▁reproduction	-8889
▁dot	-8890
▁scal	-8891
▁corps	-8892
▁bottles	-8893
▁tubes	-8894
▁dollar	-8895
http	-8896
▁apples	-8897
▁absolutely	-8898
▁absorbed	-8899
▁intelligent	-8900
▁jerusal	-8901
5)	-8902
owed	-8903
▁sampling	-8904
gradu	-8905
▁sab	-8906
▁organism	-8907
▁therapeutic	-8908
▁2014.	-8909
▁ray	-8910
▁shield	-8911
▁abra	-8912
▁senate	-8913
▁bern	-8914
▁examines	-8915
▁ct	-8916
arth	-8917
enter	-8918
▁exceed	-8919
▁enemy	-8920
▁cp	-8921
idae	-8922
▁carries	-8923
▁explored	-8924
▁cooperative	-8925
▁boundary	-8926
▁transferred	-8927
▁toy	-8928
▁existed	-8929
▁confused	-8930
aters	-8931
▁bore	-8932
elihood	-8933
▁filling	-8934
▁entertain	-8935
▁regulatory	-8936
▁historians	-8937
keys	-8938
▁poul	-8939
▁amongst	-8940
▁translated	-8941
▁jar	-8942
▁collapse	-8943
▁interv	-8944
▁christians	-8945
▁offices	-8946
▁%	-8947
reprene	-8948
▁ker	-8949
auc	-8950
▁chord	-8951
▁needle	-8952
▁precision	-8953
▁14,	-8954
▁woods	-8955
aug	-8956
▁conducting	-8957
▁discomfort	-8958
specific	-8959
ulsion	-8960
▁simultaneously	-8961
▁(8	-8962
▁jon	-8963
▁progressive	-8964
▁bibli	-8965
▁acknowled	-8966
▁establishment	-8967
▁erect	-8968
▁abdominal	-8969
▁colleges	-8970
▁restrictions	-8971
▁unp	-8972
▁retail	-8973
▁promising	-8974
otypes	-8975
▁peanut	-8976
▁staying	-8977
nia	-8978
▁churches	-8979
▁thoroughly	-8980
▁paste	-8981
▁wax	-8982
▁striking	-8983
iants	-8984
▁honest	-8985
▁tags	-8986
▁odd	-8987
▁biof	-8988
▁talks	-8989
▁football	-8990
uv	-8991
▁basket	-8992
▁patch	-8993
▁likelihood	-8994
▁unemploy	-8995
▁confusion	-8996
▁angles	-8997
▁nether	-8998
▁instant	-8999
▁rocky	-9000
▁heaven	-9001
▁freshwater	-9002
▁queens	-9003
stration	-9004
▁constra	-9005
▁armed	-9006
screen	-9007
tube	-9008
engers	-9009
▁descend	-9010
9)	-9011
▁bh	-9012
▁bug	-9013
date	-9014
asm	-9015
▁20,	-9016
▁directory	-9017
▁circuits	-9018
▁procl	-9019
icular	-9020
▁nurse	-9021
▁tracks	-9022
▁licensed	-9023
▁jerusalem	-9024
acc	-9025
▁dragon	-9026
play	-9027
owners	-9028
sub	-9029
▁assignments	-9030
▁herbs	-9031
▁candidate	-9032
▁dinosaurs	-9033
▁prevented	-9034
▁alab	-9035
▁biomass	-9036
rens	-9037
cover	-9038
utical	-9039
▁consisting	-9040
▁cope	-9041
▁appointed	-9042
▁isolation	-9043
▁departments	-9044
▁lifes	-9045
atories	-9046
▁metres	-9047
▁restricted	-9048
▁favour	-9049
▁utilized	-9050
original	-9051
▁sharks	-9052
▁camps	-9053
▁boil	-9054
▁tolerance	-9055
▁ink	-9056
▁grace	-9057
▁olive	-9058
▁100,000	-9059
anas	-9060
▁flowering	-9061
▁collective	-9062
▁gau	-9063
▁recess	-9064
▁fertility	-9065
just	-9066
▁locally	-9067
▁veterin	-9068
▁entreprene	-9069
igned	-9070
▁attributes	-9071
▁devastating	-9072
even	-9073
▁adjacent	-9074
▁distances	-9075
▁environmentally	-9076
▁pipes	-9077
otes	-9078
▁gross	-9079
tail	-9080
▁tribe	-9081
icides	-9082
▁springs	-9083
▁corporation	-9084
▁bowel	-9085
lab	-9086
▁beef	-9087
▁returning	-9088
phe	-9089
rels	-9090
aved	-9091
▁permit	-9092
▁combust	-9093
47	-9094
ooked	-9095
▁volcano	-9096
pted	-9097
amps	-9098
▁178	-9099
▁hier	-9100
▁pyram	-9101
▁petro	-9102
▁iowa	-9103
▁arise	-9104
▁distinctive	-9105
▁osc	-9106
▁diamond	-9107
▁separation	-9108
▁brill	-9109
▁fossils	-9110
▁explaining	-9111
▁cited	-9112
chester	-9113
after	-9114
▁16,	-9115
burgh	-9116
▁documentation	-9117
▁exams	-9118
▁spider	-9119
▁shopping	-9120
terior	-9121
oding	-9122
▁navigation	-9123
▁earthquakes	-9124
▁robust	-9125
▁perceived	-9126
▁beds	-9127
jan	-9128
oded	-9129
isons	-9130
▁colours	-9131
▁crafts	-9132
▁smallest	-9133
▁texture	-9134
▁analyzing	-9135
▁bike	-9136
▁estate	-9137
raine	-9138
▁twist	-9139
bury	-9140
▁gaps	-9141
sk	-9142
▁careers	-9143
▁bowl	-9144
▁soul	-9145
▁puzzle	-9146
iments	-9147
▁comet	-9148
▁ll	-9149
▁curious	-9150
▁earned	-9151
▁assumed	-9152
▁stuck	-9153
aws	-9154
▁pix	-9155
▁operated	-9156
olf	-9157
stud	-9158
▁cemetery	-9159
▁damaging	-9160
▁contributes	-9161
▁villages	-9162
▁institutes	-9163
▁intention	-9164
▁mobility	-9165
▁prosper	-9166
idays	-9167
▁ornam	-9168
▁guarantee	-9169
▁saturn	-9170
cus	-9171
▁bridges	-9172
▁caribbean	-9173
▁ninet	-9174
▁civilization	-9175
▁quit	-9176
▁3)	-9177
▁printable	-9178
▁calculations	-9179
ilitation	-9180
▁destination	-9181
▁orch	-9182
▁conflicts	-9183
nals	-9184
▁tired	-9185
▁1800	-9186
ilson	-9187
▁fathers	-9188
▁scenarios	-9189
97	-9190
rons	-9191
67	-9192
▁examining	-9193
▁charts	-9194
▁hemisphere	-9195
▁rash	-9196
▁gathering	-9197
▁ownership	-9198
▁explos	-9199
▁cany	-9200
▁juven	-9201
▁ka	-9202
▁quote	-9203
▁borders	-9204
▁resilience	-9205
▁jacob	-9206
▁lon	-9207
▁cin	-9208
▁situated	-9209
▁veterans	-9210
▁il	-9211
▁gay	-9212
▁ark	-9213
▁egyptian	-9214
generation	-9215
▁bought	-9216
▁socio	-9217
▁18,	-9218
▁arrive	-9219
▁2015.	-9220
▁coordination	-9221
▁sne	-9222
▁vacuum	-9223
▁singing	-9224
▁partially	-9225
▁attributed	-9226
▁floating	-9227
▁receives	-9228
▁cataly	-9229
▁plastics	-9230
▁maths	-9231
▁inhabitants	-9232
letter	-9233
▁salv	-9234
1).	-9235
▁arteries	-9236
cp	-9237
▁struck	-9238
▁yields	-9239
may	-9240
▁illustrate	-9241
▁dialogue	-9242
▁transformation	-9243
▁alike	-9244
ciplinary	-9245
▁weed	-9246
compass	-9247
▁dict	-9248
▁perenn	-9249
▁2,000	-9250
▁gentle	-9251
asses	-9252
▁workshops	-9253
▁coloring	-9254
▁colum	-9255
▁precipitation	-9256
▁orthod	-9257
▁scottish	-9258
▁champ	-9259
▁entrance	-9260
▁nodes	-9261
▁revenue	-9262
▁candidates	-9263
▁100%	-9264
▁liberty	-9265
cos	-9266
iors	-9267
▁stood	-9268
▁rotation	-9269
tech	-9270
▁bicy	-9271
▁forever	-9272
icting	-9273
stra	-9274
atile	-9275
▁retain	-9276
▁davis	-9277
apping	-9278
unning	-9279
▁enabling	-9280
▁manifest	-9281
iah	-9282
▁barb	-9283
▁meditation	-9284
▁turtles	-9285
▁crystal	-9286
▁orientation	-9287
▁originated	-9288
▁ros	-9289
▁coin	-9290
▁electrom	-9291
▁instructional	-9292
▁melting	-9293
▁filters	-9294
▁victoria	-9295
▁decreases	-9296
▁evident	-9297
▁17,	-9298
▁employers	-9299
▁reson	-9300
300	-9301
▁amph	-9302
ceptions	-9303
▁rip	-9304
▁combining	-9305
▁chat	-9306
▁qualified	-9307
ipse	-9308
▁1900	-9309
▁corporate	-9310
▁sophisticated	-9311
▁adoption	-9312
imeter	-9313
▁shortly	-9314
▁announce	-9315
▁cooked	-9316
▁timing	-9317
▁divers	-9318
otechnology	-9319
abled	-9320
▁peninsula	-9321
▁substitute	-9322
arians	-9323
▁13,	-9324
▁assessed	-9325
▁demonstration	-9326
▁toilet	-9327
▁integrity	-9328
▁premature	-9329
wr	-9330
▁cs	-9331
▁locate	-9332
▁stack	-9333
▁fallen	-9334
leton	-9335
▁harsh	-9336
fi	-9337
▁sap	-9338
▁spoke	-9339
▁designers	-9340
▁adject	-9341
▁fungi	-9342
▁om	-9343
▁blu	-9344
▁dip	-9345
▁integral	-9346
▁authentic	-9347
▁synthesis	-9348
▁ingest	-9349
▁shipping	-9350
▁furniture	-9351
▁ingredient	-9352
▁44	-9353
aceutical	-9354
▁builds	-9355
▁minority	-9356
izz	-9357
▁forgot	-9358
economic	-9359
▁lind	-9360
inery	-9361
▁instances	-9362
▁editing	-9363
▁10%	-9364
▁unhealthy	-9365
▁snakes	-9366
▁holocaust	-9367
▁notable	-9368
▁osteop	-9369
▁arrival	-9370
▁exem	-9371
▁settlers	-9372
▁pathogens	-9373
▁harbor	-9374
▁reli	-9375
▁nurses	-9376
▁pharmac	-9377
▁freely	-9378
▁bias	-9379
▁glasses	-9380
▁systematic	-9381
orie	-9382
▁pigs	-9383
▁progression	-9384
▁defines	-9385
▁lion	-9386
▁millenn	-9387
▁ultras	-9388
▁checking	-9389
▁pathways	-9390
▁matrix	-9391
▁distinguished	-9392
rat	-9393
▁astronauts	-9394
▁convenient	-9395
ople	-9396
▁careg	-9397
▁tennes	-9398
aine	-9399
▁stimulate	-9400
▁netherlands	-9401
▁consciousness	-9402
▁arranged	-9403
▁ank	-9404
▁ry	-9405
▁footprint	-9406
▁bullet	-9407
▁teenagers	-9408
▁broader	-9409
iti	-9410
▁caring	-9411
▁lewis	-9412
▁routes	-9413
mond	-9414
▁dermat	-9415
▁inclusion	-9416
▁cups	-9417
▁fungus	-9418
cor	-9419
▁birthday	-9420
▁melt	-9421
▁elig	-9422
▁icon	-9423
▁seas	-9424
▁altered	-9425
lock	-9426
▁occupational	-9427
▁extraordinary	-9428
▁diver	-9429
▁sectors	-9430
▁acceptable	-9431
▁independently	-9432
▁pride	-9433
▁hypertension	-9434
▁payment	-9435
▁incredibly	-9436
▁hed	-9437
▁immunity	-9438
▁alliance	-9439
▁rebu	-9440
▁spotted	-9441
▁explicit	-9442
▁177	-9443
▁blacks	-9444
▁sher	-9445
▁inspire	-9446
▁subsequently	-9447
▁newborn	-9448
▁platforms	-9449
▁bibl	-9450
▁asbest	-9451
income	-9452
mel	-9453
▁lev	-9454
▁rises	-9455
▁hispan	-9456
▁append	-9457
▁microbi	-9458
▁abraham	-9459
md	-9460
illance	-9461
▁columns	-9462
▁editors	-9463
▁commands	-9464
▁cater	-9465
▁revised	-9466
▁decomp	-9467
▁korean	-9468
▁entitled	-9469
▁panic	-9470
▁stops	-9471
feeding	-9472
lete	-9473
▁alabama	-9474
▁cock	-9475
spring	-9476
▁brushing	-9477
2).	-9478
▁injection	-9479
effective	-9480
▁floss	-9481
parts	-9482
▁tomatoes	-9483
▁artifacts	-9484
▁radioactive	-9485
itus	-9486
▁2013,	-9487
esthetic	-9488
▁advertising	-9489
▁hindu	-9490
▁clusters	-9491
▁certificate	-9492
irable	-9493
▁landscapes	-9494
▁radar	-9495
▁mt	-9496
▁databases	-9497
ador	-9498
▁gaz	-9499
▁christianity	-9500
copes	-9501
▁hamm	-9502
▁convin	-9503
▁trash	-9504
▁steady	-9505
iral	-9506
▁occurrence	-9507
▁jones	-9508
▁accord	-9509
itate	-9510
▁gland	-9511
bird	-9512
▁ira	-9513
▁unne	-9514
▁occupied	-9515
lah	-9516
▁extinct	-9517
▁template	-9518
▁nause	-9519
▁ig	-9520
ogram	-9521
▁vapor	-9522
formation	-9523
▁lad	-9524
▁comparative	-9525
▁merch	-9526
▁prair	-9527
▁ak	-9528
▁haven	-9529
▁releases	-9530
▁5:	-9531
athan	-9532
▁yeast	-9533
wind	-9534
▁ants	-9535
▁gps	-9536
▁asks	-9537
▁dinner	-9538
▁readings	-9539
▁coding	-9540
gon	-9541
▁thickness	-9542
amic	-9543
▁oxide	-9544
▁organize	-9545
▁journals	-9546
▁telephone	-9547
▁implant	-9548
▁introducing	-9549
weed	-9550
▁saturated	-9551
▁appetite	-9552
▁antioxidants	-9553
▁colorful	-9554
tim	-9555
▁selling	-9556
▁scheduled	-9557
▁headache	-9558
▁stressed	-9559
▁conversations	-9560
▁undergo	-9561
▁dirt	-9562
▁poultry	-9563
▁incorrect	-9564
▁textbook	-9565
▁cathed	-9566
inch	-9567
▁crater	-9568
enti	-9569
▁captain	-9570
▁animation	-9571
▁(6	-9572
▁meetings	-9573
▁dak	-9574
▁jane	-9575
▁passive	-9576
▁tremend	-9577
▁phenomena	-9578
build	-9579
▁modules	-9580
ques	-9581
▁uter	-9582
▁intra	-9583
▁weeds	-9584
.).	-9585
▁sweden	-9586
▁kidneys	-9587
▁indiana	-9588
▁neurological	-9589
▁nobel	-9590
iner	-9591
▁youtube	-9592
▁potato	-9593
▁disposal	-9594
▁indicator	-9595
restrial	-9596
▁surveillance	-9597
commun	-9598
unciation	-9599
▁bbc	-9600
▁peng	-9601
▁va	-9602
▁meg	-9603
lem	-9604
▁plains	-9605
▁answered	-9606
▁consistently	-9607
▁masters	-9608
▁northeast	-9609
▁semin	-9610
▁aquarium	-9611
▁foundations	-9612
▁2-	-9613
▁iran	-9614
▁closest	-9615
▁meanings	-9616
▁luther	-9617
▁kentucky	-9618
high	-9619
▁moth	-9620
96	-9621
▁naval	-9622
itt	-9623
▁mans	-9624
▁myself	-9625
inte	-9626
▁scenes	-9627
▁cookies	-9628
▁butterflies	-9629
▁tuber	-9630
▁practicing	-9631
▁wilson	-9632
▁clicking	-9633
▁discussing	-9634
▁organisations	-9635
▁ruled	-9636
▁sugars	-9637
▁trading	-9638
▁investigated	-9639
▁duct	-9640
writing	-9641
▁crossing	-9642
▁coronavirus	-9643
▁tale	-9644
▁prol	-9645
olis	-9646
isible	-9647
▁descriptions	-9648
▁crash	-9649
▁ridge	-9650
▁cavity	-9651
▁planetary	-9652
▁distribut	-9653
aic	-9654
▁lenses	-9655
▁tennessee	-9656
hour	-9657
first	-9658
▁incom	-9659
▁static	-9660
▁inflammatory	-9661
▁cha	-9662
▁treas	-9663
▁movies	-9664
▁acquire	-9665
▁moments	-9666
▁ie	-9667
▁bil	-9668
rium	-9669
▁berlin	-9670
▁inflation	-9671
▁elephant	-9672
▁publisher	-9673
▁immigration	-9674
▁seism	-9675
▁thumb	-9676
▁42	-9677
▁ky	-9678
thood	-9679
▁patri	-9680
▁asbestos	-9681
▁attor	-9682
▁picked	-9683
aver	-9684
uble	-9685
▁sandy	-9686
▁gloss	-9687
▁	-9688
e	-9689
t	-9690
a	-9691
o	-9692
i	-9693
n	-9694
s	-9695
r	-9696
h	-9697
l	-9698
d	-9699
c	-9700
u	-9701
m	-9702
p	-9703
f	-9704
g	-9705
y	-9706
w	-9707
b	-9708
.	-9709
v	-9710
,	-9711
k	-9712
-	-9713
x	-9714
0	-9715
1	-9716
j	-9717
2	-9718
)	-9719
(	-9720
q	-9721
:	-9722
z	-9723
'	-9724
9	-9725
"	-9726
3	-9727
5	-9728
4	-9729
8	-9730
6	-9731
7	-9732
/	-9733
?	-9734
|	-9735
;	-9736
!	-9737
%	-9738
_	-9739
