{
  "version": "1.0",
  "truncation": null,
  "padding": null,
  "added_tokens": [
    {
      "id": 0,
      "content": "<s>",
      "single_word": false,
      "lstrip": false,
      "rstrip": false,
      "normalized": false,
      "special": true
    },
    {
      "id": 1,
      "content": "</s>",
      "single_word": false,
      "lstrip": false,
      "rstrip": false,
      "normalized": false,
      "special": true
    },
    {
      "id": 2,
      "content": "<pad>",
      "single_word": false,
      "lstrip": false,
      "rstrip": false,
      "normalized": false,
      "special": true
    },
    {
      "id": 3,
      "content": "<unk>",
      "single_word": false,
      "lstrip": false,
      "rstrip": false,
      "normalized": false,
      "special": true
    }
  ],
  "normalizer": {
    "type": "Sequence",
    "normalizers": [
      {
        "type": "NFC"
      },
      {
        "type": "Replace",
        "pattern": {
          "String": "’"
        },
        "content": "'"
      },
      {
        "type": "Replace",
        "pattern": {
          "String": "‘"
        },
        "content": "'"
      },
      {
        "type": "Replace",
        "pattern": {
          "String": "ʼ"
        },
        "content": "'"
      },
      {
        "type": "Replace",
        "pattern": {
          "String": "＇"
        },
        "content": "'"
      },
      {
        "type": "Replace",
        "pattern": {
          "String": "`"
        },
        "content": "'"
      },
      {
        "type": "Replace",
        "pattern": {
          "String": "´"
        },
        "content": "'"
      },
      {
        "type": "Lowercase"
      },
      {
        "type": "Replace",
        "pattern": {
          "Regex": "\\s+"
        },
        "content": " "
      },
      {
        "type": "Strip",
        "strip_left": true,
        "strip_right": true
      },
      {
        "type": "Prepend",
        "prepend": "▁"
      },
      {
        "type": "Replace",
        "pattern": {
          "String": " "
        },
        "content": "▁"
      }
    ]
  },
  "pre_tokenizer": null,
  "post_processor": {
    "type": "TemplateProcessing",
    "single": [
      {
        "SpecialToken": {
          "id": "<s>",
          "type_id": 0
        }
      },
      {
        "Sequence": {
          "id": "A",
          "type_id": 0
        }
      }
    ],
    "pair": [
      {
        "SpecialToken": {
          "id": "<s>",
          "type_id": 0
        }
      },
      {
        "Sequence": {
          "id": "A",
          "type_id": 0
        }
      },
      {
        "SpecialToken": {
          "id": "<s>",
          "type_id": 1
        }
      },
      {
        "Sequence": {
          "id": "B",
          "type_id": 1
        }
      }
    ],
    "special_tokens": {
      "<s>": {
        "id": "<s>",
        "ids": [
          0
        ],
        "tokens": [
          "<s>"
        ]
      }
    }
  },
  "decoder": {
    "type": "Sequence",
    "decoders": [
      {
        "type": "Replace",
        "pattern": {
          "String": "▁"
        },
        "content": " "
      },
      {
        "type": "ByteFallback"
      },
      {
        "type": "Fuse"
      },
      {
        "type": "Strip",
        "content": " ",
        "start": 1,
        "stop": 0
      }
    ]
  },
  "model": {
    "type": "Unigram",
    "unk_id": 0,
    "vocab": [
      [
        "<s>",
        0.0
      ],
      [
        "</s>",
        0.0
      ],
      [
        "<pad>",
        0.0
      ],
      [
        "<unk>",
        0.0
      ],
      [
        "<0x00>",
        0.0
      ],
      [
        "<0x01>",
        0.0
      ],
      [
        "<0x02>",
        0.0
      ],
      [
        "<0x03>",
        0.0
      ],
      [
        "<0x04>",
        0.0
      ],
      [
        "<0x05>",
        0.0
      ],
      [
        "<0x06>",
        0.0
      ],
      [
        "<0x07>",
        0.0
      ],
      [
        "<0x08>",
        0.0
      ],
      [
        "<0x09>",
        0.0
      ],
      [
        "<0x0A>",
        0.0
      ],
      [
        "<0x0B>",
        0.0
      ],
      [
        "<0x0C>",
        0.0
      ],
      [
        "<0x0D>",
        0.0
      ],
      [
        "<0x0E>",
        0.0
      ],
      [
        "<0x0F>",
        0.0
      ],
      [
        "<0x10>",
        0.0
      ],
      [
        "<0x11>",
        0.0
      ],
      [
        "<0x12>",
        0.0
      ],
      [
        "<0x13>",
        0.0
      ],
      [
        "<0x14>",
        0.0
      ],
      [
        "<0x15>",
        0.0
      ],
      [
        "<0x16>",
        0.0
      ],
      [
        "<0x17>",
        0.0
      ],
      [
        "<0x18>",
        0.0
      ],
      [
        "<0x19>",
        0.0
      ],
      [
        "<0x1A>",
        0.0
      ],
      [
        "<0x1B>",
        0.0
      ],
      [
        "<0x1C>",
        0.0
      ],
      [
        "<0x1D>",
        0.0
      ],
      [
        "<0x1E>",
        0.0
      ],
      [
        "<0x1F>",
        0.0
      ],
      [
        "<0x20>",
        0.0
      ],
      [
        "<0x21>",
        0.0
      ],
      [
        "<0x22>",
        0.0
      ],
      [
        "<0x23>",
        0.0
      ],
      [
        "<0x24>",
        0.0
      ],
      [
        "<0x25>",
        0.0
      ],
      [
        "<0x26>",
        0.0
      ],
      [
        "<0x27>",
        0.0
      ],
      [
        "<0x28>",
        0.0
      ],
      [
        "<0x29>",
        0.0
      ],
      [
        "<0x2A>",
        0.0
      ],
      [
        "<0x2B>",
        0.0
      ],
      [
        "<0x2C>",
        0.0
      ],
      [
        "<0x2D>",
        0.0
      ],
      [
        "<0x2E>",
        0.0
      ],
      [
        "<0x2F>",
        0.0
      ],
      [
        "<0x30>",
        0.0
      ],
      [
        "<0x31>",
        0.0
      ],
      [
        "<0x32>",
        0.0
      ],
      [
        "<0x33>",
        0.0
      ],
      [
        "<0x34>",
        0.0
      ],
      [
        "<0x35>",
        0.0
      ],
      [
        "<0x36>",
        0.0
      ],
      [
        "<0x37>",
        0.0
      ],
      [
        "<0x38>",
        0.0
      ],
      [
        "<0x39>",
        0.0
      ],
      [
        "<0x3A>",
        0.0
      ],
      [
        "<0x3B>",
        0.0
      ],
      [
        "<0x3C>",
        0.0
      ],
      [
        "<0x3D>",
        0.0
      ],
      [
        "<0x3E>",
        0.0
      ],
      [
        "<0x3F>",
        0.0
      ],
      [
        "<0x40>",
        0.0
      ],
      [
        "<0x41>",
        0.0
      ],
      [
        "<0x42>",
        0.0
      ],
      [
        "<0x43>",
        0.0
      ],
      [
        "<0x44>",
        0.0
      ],
      [
        "<0x45>",
        0.0
      ],
      [
        "<0x46>",
        0.0
      ],
      [
        "<0x47>",
        0.0
      ],
      [
        "<0x48>",
        0.0
      ],
      [
        "<0x49>",
        0.0
      ],
      [
        "<0x4A>",
        0.0
      ],
      [
        "<0x4B>",
        0.0
      ],
      [
        "<0x4C>",
        0.0
      ],
      [
        "<0x4D>",
        0.0
      ],
      [
        "<0x4E>",
        0.0
      ],
      [
        "<0x4F>",
        0.0
      ],
      [
        "<0x50>",
        0.0
      ],
      [
        "<0x51>",
        0.0
      ],
      [
        "<0x52>",
        0.0
      ],
      [
        "<0x53>",
        0.0
      ],
      [
        "<0x54>",
        0.0
      ],
      [
        "<0x55>",
        0.0
      ],
      [
        "<0x56>",
        0.0
      ],
      [
        "<0x57>",
        0.0
      ],
      [
        "<0x58>",
        0.0
      ],
      [
        "<0x59>",
        0.0
      ],
      [
        "<0x5A>",
        0.0
      ],
      [
        "<0x5B>",
        0.0
      ],
      [
        "<0x5C>",
        0.0
      ],
      [
        "<0x5D>",
        0.0
      ],
      [
        "<0x5E>",
        0.0
      ],
      [
        "<0x5F>",
        0.0
      ],
      [
        "<0x60>",
        0.0
      ],
      [
        "<0x61>",
        0.0
      ],
      [
        "<0x62>",
        0.0
      ],
      [
        "<0x63>",
        0.0
      ],
      [
        "<0x64>",
        0.0
      ],
      [
        "<0x65>",
        0.0
      ],
      [
        "<0x66>",
        0.0
      ],
      [
        "<0x67>",
        0.0
      ],
      [
        "<0x68>",
        0.0
      ],
      [
        "<0x69>",
        0.0
      ],
      [
        "<0x6A>",
        0.0
      ],
      [
        "<0x6B>",
        0.0
      ],
      [
        "<0x6C>",
        0.0
      ],
      [
        "<0x6D>",
        0.0
      ],
      [
        "<0x6E>",
        0.0
      ],
      [
        "<0x6F>",
        0.0
      ],
      [
        "<0x70>",
        0.0
      ],
      [
        "<0x71>",
        0.0
      ],
      [
        "<0x72>",
        0.0
      ],
      [
        "<0x73>",
        0.0
      ],
      [
        "<0x74>",
        0.0
      ],
      [
        "<0x75>",
        0.0
      ],
      [
        "<0x76>",
        0.0
      ],
      [
        "<0x77>",
        0.0
      ],
      [
        "<0x78>",
        0.0
      ],
      [
        "<0x79>",
        0.0
      ],
      [
        "<0x7A>",
        0.0
      ],
      [
        "<0x7B>",
        0.0
      ],
      [
        "<0x7C>",
        0.0
      ],
      [
        "<0x7D>",
        0.0
      ],
      [
        "<0x7E>",
        0.0
      ],
      [
        "<0x7F>",
        0.0
      ],
      [
        "<0x80>",
        0.0
      ],
      [
        "<0x81>",
        0.0
      ],
      [
        "<0x82>",
        0.0
      ],
      [
        "<0x83>",
        0.0
      ],
      [
        "<0x84>",
        0.0
      ],
      [
        "<0x85>",
        0.0
      ],
      [
        "<0x86>",
        0.0
      ],
      [
        "<0x87>",
        0.0
      ],
      [
        "<0x88>",
        0.0
      ],
      [
        "<0x89>",
        0.0
      ],
      [
        "<0x8A>",
        0.0
      ],
      [
        "<0x8B>",
        0.0
      ],
      [
        "<0x8C>",
        0.0
      ],
      [
        "<0x8D>",
        0.0
      ],
      [
        "<0x8E>",
        0.0
      ],
      [
        "<0x8F>",
        0.0
      ],
      [
        "<0x90>",
        0.0
      ],
      [
        "<0x91>",
        0.0
      ],
      [
        "<0x92>",
        0.0
      ],
      [
        "<0x93>",
        0.0
      ],
      [
        "<0x94>",
        0.0
      ],
      [
        "<0x95>",
        0.0
      ],
      [
        "<0x96>",
        0.0
      ],
      [
        "<0x97>",
        0.0
      ],
      [
        "<0x98>",
        0.0
      ],
      [
        "<0x99>",
        0.0
      ],
      [
        "<0x9A>",
        0.0
      ],
      [
        "<0x9B>",
        0.0
      ],
      [
        "<0x9C>",
        0.0
      ],
      [
        "<0x9D>",
        0.0
      ],
      [
        "<0x9E>",
        0.0
      ],
      [
        "<0x9F>",
        0.0
      ],
      [
        "<0xA0>",
        0.0
      ],
      [
        "<0xA1>",
        0.0
      ],
      [
        "<0xA2>",
        0.0
      ],
      [
        "<0xA3>",
        0.0
      ],
      [
        "<0xA4>",
        0.0
      ],
      [
        "<0xA5>",
        0.0
      ],
      [
        "<0xA6>",
        0.0
      ],
      [
        "<0xA7>",
        0.0
      ],
      [
        "<0xA8>",
        0.0
      ],
      [
        "<0xA9>",
        0.0
      ],
      [
        "<0xAA>",
        0.0
      ],
      [
        "<0xAB>",
        0.0
      ],
      [
        "<0xAC>",
        0.0
      ],
      [
        "<0xAD>",
        0.0
      ],
      [
        "<0xAE>",
        0.0
      ],
      [
        "<0xAF>",
        0.0
      ],
      [
        "<0xB0>",
        0.0
      ],
      [
        "<0xB1>",
        0.0
      ],
      [
        "<0xB2>",
        0.0
      ],
      [
        "<0xB3>",
        0.0
      ],
      [
        "<0xB4>",
        0.0
      ],
      [
        "<0xB5>",
        0.0
      ],
      [
        "<0xB6>",
        0.0
      ],
      [
        "<0xB7>",
        0.0
      ],
      [
        "<0xB8>",
        0.0
      ],
      [
        "<0xB9>",
        0.0
      ],
      [
        "<0xBA>",
        0.0
      ],
      [
        "<0xBB>",
        0.0
      ],
      [
        "<0xBC>",
        0.0
      ],
      [
        "<0xBD>",
        0.0
      ],
      [
        "<0xBE>",
        0.0
      ],
      [
        "<0xBF>",
        0.0
      ],
      [
        "<0xC0>",
        0.0
      ],
      [
        "<0xC1>",
        0.0
      ],
      [
        "<0xC2>",
        0.0
      ],
      [
        "<0xC3>",
        0.0
      ],
      [
        "<0xC4>",
        0.0
      ],
      [
        "<0xC5>",
        0.0
      ],
      [
        "<0xC6>",
        0.0
      ],
      [
        "<0xC7>",
        0.0
      ],
      [
        "<0xC8>",
        0.0
      ],
      [
        "<0xC9>",
        0.0
      ],
      [
        "<0xCA>",
        0.0
      ],
      [
        "<0xCB>",
        0.0
      ],
      [
        "<0xCC>",
        0.0
      ],
      [
        "<0xCD>",
        0.0
      ],
      [
        "<0xCE>",
        0.0
      ],
      [
        "<0xCF>",
        0.0
      ],
      [
        "<0xD0>",
        0.0
      ],
      [
        "<0xD1>",
        0.0
      ],
      [
        "<0xD2>",
        0.0
      ],
      [
        "<0xD3>",
        0.0
      ],
      [
        "<0xD4>",
        0.0
      ],
      [
        "<0xD5>",
        0.0
      ],
      [
        "<0xD6>",
        0.0
      ],
      [
        "<0xD7>",
        0.0
      ],
      [
        "<0xD8>",
        0.0
      ],
      [
        "<0xD9>",
        0.0
      ],
      [
        "<0xDA>",
        0.0
      ],
      [
        "<0xDB>",
        0.0
      ],
      [
        "<0xDC>",
        0.0
      ],
      [
        "<0xDD>",
        0.0
      ],
      [
        "<0xDE>",
        0.0
      ],
      [
        "<0xDF>",
        0.0
      ],
      [
        "<0xE0>",
        0.0
      ],
      [
        "<0xE1>",
        0.0
      ],
      [
        "<0xE2>",
        0.0
      ],
      [
        "<0xE3>",
        0.0
      ],
      [
        "<0xE4>",
        0.0
      ],
      [
        "<0xE5>",
        0.0
      ],
      [
        "<0xE6>",
        0.0
      ],
      [
        "<0xE7>",
        0.0
      ],
      [
        "<0xE8>",
        0.0
      ],
      [
        "<0xE9>",
        0.0
      ],
      [
        "<0xEA>",
        0.0
      ],
      [
        "<0xEB>",
        0.0
      ],
      [
        "<0xEC>",
        0.0
      ],
      [
        "<0xED>",
        0.0
      ],
      [
        "<0xEE>",
        0.0
      ],
      [
        "<0xEF>",
        0.0
      ],
      [
        "<0xF0>",
        0.0
      ],
      [
        "<0xF1>",
        0.0
      ],
      [
        "<0xF2>",
        0.0
      ],
      [
        "<0xF3>",
        0.0
      ],
      [
        "<0xF4>",
        0.0
      ],
      [
        "<0xF5>",
        0.0
      ],
      [
        "<0xF6>",
        0.0
      ],
      [
        "<0xF7>",
        0.0
      ],
      [
        "<0xF8>",
        0.0
      ],
      [
        "<0xF9>",
        0.0
      ],
      [
        "<0xFA>",
        0.0
      ],
      [
        "<0xFB>",
        0.0
      ],
      [
        "<0xFC>",
        0.0
      ],
      [
        "<0xFD>",
        0.0
      ],
      [
        "<0xFE>",
        0.0
      ],
      [
        "<0xFF>",
        0.0
      ],
      [
        "s",
        -3.2123022079467773
      ],
      [
        "▁de",
        -3.289949893951416
      ],
      [
        ",",
        -3.4945292472839355
      ],
      [
        "'",
        -3.5119504928588867
      ],
      [
        ".",
        -3.5919148921966553
      ],
      [
        "▁la",
        -4.060120582580566
      ],
      [
        "▁et",
        -4.166774749755859
      ],
      [
        "▁le",
        -4.234953880310059
      ],
      [
        "▁à",
        -4.360462665557861
      ],
      [
        "▁l",
        -4.385717391967773
      ],
      [
        "▁d",
        -4.483139991760254
      ],
      [
        "▁les",
        -4.492964744567871
      ],
      [
        "▁en",
        -4.60795783996582
      ],
      [
        "e",
        -4.7358174324035645
      ],
      [
        "▁des",
        -4.794775485992432
      ],
      [
        "▁",
        -4.819761276245117
      ],
      [
        "▁pour",
        -4.8405327796936035
      ],
      [
        "▁un",
        -4.894184589385986
      ],
      [
        "-",
        -4.9401350021362305
      ],
      [
        "▁du",
        -5.027825355529785
      ],
      [
        "▁une",
        -5.148161888122559
      ],
      [
        "▁a",
        -5.1684794425964355
      ],
      [
        "▁dans",
        -5.273080825805664
      ],
      [
        "▁vous",
        -5.3009796142578125
      ],
      [
        "r",
        -5.320781707763672
      ],
      [
        "▁est",
        -5.327748775482178
      ],
      [
        "▁sur",
        -5.3320183753967285
      ],
      [
        "▁que",
        -5.4095892906188965
      ],
      [
        "▁qui",
        -5.519463062286377
      ],
      [
        "▁au",
        -5.556875705718994
      ],
      [
        "▁par",
        -5.607644557952881
      ],
      [
        "▁avec",
        -5.678603172302246
      ],
      [
        "▁:",
        -5.701414108276367
      ],
      [
        "▁-",
        -5.71441650390625
      ],
      [
        "▁ce",
        -5.72258186340332
      ],
      [
        "▁plus",
        -5.750123023986816
      ],
      [
        "▁il",
        -5.803906440734863
      ],
      [
        "▁pas",
        -5.808828353881836
      ],
      [
        "a",
        -5.849170684814453
      ],
      [
        "▁s",
        -5.889217376708984
      ],
      [
        "▁c",
        -5.954695224761963
      ],
      [
        "es",
        -5.95651388168335
      ],
      [
        "▁ou",
        -5.957690715789795
      ],
      [
        "est",
        -5.961554050445557
      ],
      [
        "▁(",
        -6.0122480392456055
      ],
      [
        "t",
        -6.015328407287598
      ],
      [
        "▁se",
        -6.0246806144714355
      ],
      [
        "▁votre",
        -6.036829948425293
      ],
      [
        "▁n",
        -6.0831170082092285
      ],
      [
        "▁nous",
        -6.114268779754639
      ],
      [
        "er",
        -6.122537136077881
      ],
      [
        "▁ne",
        -6.206117153167725
      ],
      [
        "▁sont",
        -6.2203145027160645
      ],
      [
        "un",
        -6.242149829864502
      ],
      [
        "é",
        -6.248072147369385
      ],
      [
        "▁son",
        -6.251159191131592
      ],
      [
        "▁qu",
        -6.288484573364258
      ],
      [
        ")",
        -6.294400215148926
      ],
      [
        "▁je",
        -6.352660655975342
      ],
      [
        "y",
        -6.367204189300537
      ],
      [
        "d",
        -6.369633197784424
      ],
      [
        "il",
        -6.383964538574219
      ],
      [
        "c",
        -6.389322280883789
      ],
      [
        "h",
        -6.404822826385498
      ],
      [
        "▁cette",
        -6.425688743591309
      ],
      [
        "▁sa",
        -6.4335618019104
      ],
      [
        "▁aux",
        -6.456974029541016
      ],
      [
        "nt",
        -6.4579386711120605
      ],
      [
        "ment",
        -6.538965225219727
      ],
      [
        "▁!",
        -6.549736499786377
      ],
      [
        "une",
        -6.551352500915527
      ],
      [
        "▁mais",
        -6.580027103424072
      ],
      [
        "z",
        -6.589290618896484
      ],
      [
        "▁«",
        -6.596472263336182
      ],
      [
        "▁tout",
        -6.621099472045898
      ],
      [
        "▁si",
        -6.629260540008545
      ],
      [
        ":",
        -6.662145614624023
      ],
      [
        "en",
        -6.666325092315674
      ],
      [
        "on",
        -6.681962490081787
      ],
      [
        "▁j",
        -6.694619178771973
      ],
      [
        "n",
        -6.714049816131592
      ],
      [
        "o",
        -6.727703094482422
      ],
      [
        "▁?",
        -6.7372026443481445
      ],
      [
        "l",
        -6.759727478027344
      ],
      [
        "▁bien",
        -6.773272514343262
      ],
      [
        "ant",
        -6.793606281280518
      ],
      [
        "▁ont",
        -6.835416793823242
      ],
      [
        "▁on",
        -6.835798263549805
      ],
      [
        "▁comme",
        -6.8377275466918945
      ],
      [
        "▁faire",
        -6.849633693695068
      ],
      [
        "m",
        -6.863033294677734
      ],
      [
        "p",
        -6.889317512512207
      ],
      [
        "▁notre",
        -6.8938140869140625
      ],
      [
        "▁été",
        -6.901949405670166
      ],
      [
        "▁vos",
        -6.907520294189453
      ],
      [
        "le",
        -6.91139030456543
      ],
      [
        "▁m",
        -6.920271396636963
      ],
      [
        "▁fait",
        -6.9228692054748535
      ],
      [
        "▁ses",
        -6.9473161697387695
      ],
      [
        "▁très",
        -6.987066268920898
      ],
      [
        "ai",
        -6.988441467285156
      ],
      [
        "▁être",
        -6.9969072341918945
      ],
      [
        "/",
        -6.997897148132324
      ],
      [
        "▁leur",
        -7.005661964416504
      ],
      [
        "▁y",
        -7.006109714508057
      ],
      [
        "g",
        -7.014455318450928
      ],
      [
        "f",
        -7.015568256378174
      ],
      [
        "▁aussi",
        -7.021580696105957
      ],
      [
        "▁tous",
        -7.034629821777344
      ],
      [
        "▁elle",
        -7.050238609313965
      ],
      [
        "▁peut",
        -7.069202423095703
      ],
      [
        "▁|",
        -7.0810627937316895
      ],
      [
        "in",
        -7.083164215087891
      ],
      [
        "▁re",
        -7.08758020401001
      ],
      [
        "u",
        -7.091037750244141
      ],
      [
        "re",
        -7.112252712249756
      ],
      [
        "▁\"",
        -7.1169257164001465
      ],
      [
        "al",
        -7.134515285491943
      ],
      [
        "▁1",
        -7.138659477233887
      ],
      [
        "▁sans",
        -7.140957355499268
      ],
      [
        "▁même",
        -7.161242961883545
      ],
      [
        "▁2",
        -7.162138938903809
      ],
      [
        "▁nos",
        -7.181910037994385
      ],
      [
        "▁site",
        -7.1836628913879395
      ],
      [
        "▁deux",
        -7.201542377471924
      ],
      [
        "b",
        -7.204192638397217
      ],
      [
        "▁ces",
        -7.212330341339111
      ],
      [
        "▁»",
        -7.2358317375183105
      ],
      [
        "i",
        -7.2449049949646
      ],
      [
        "ra",
        -7.248456001281738
      ],
      [
        "▁ma",
        -7.259241580963135
      ],
      [
        "▁in",
        -7.266662120819092
      ],
      [
        "▁entre",
        -7.277105331420898
      ],
      [
        "▁3",
        -7.278018951416016
      ],
      [
        "or",
        -7.278425693511963
      ],
      [
        "...",
        -7.293867588043213
      ],
      [
        "|",
        -7.297056198120117
      ],
      [
        "▁ans",
        -7.338996887207031
      ],
      [
        "ent",
        -7.355734348297119
      ],
      [
        "ur",
        -7.367434024810791
      ],
      [
        "▁après",
        -7.369992733001709
      ],
      [
        "ez",
        -7.371756076812744
      ],
      [
        "la",
        -7.371809482574463
      ],
      [
        "▁me",
        -7.386101722717285
      ],
      [
        "||",
        -7.395381450653076
      ],
      [
        "▁également",
        -7.404428482055664
      ],
      [
        "k",
        -7.414899826049805
      ],
      [
        "x",
        -7.421196460723877
      ],
      [
        "▁depuis",
        -7.423897743225098
      ],
      [
        "▁ainsi",
        -7.43146276473999
      ],
      [
        "de",
        -7.442122459411621
      ],
      [
        "▁temps",
        -7.455046653747559
      ],
      [
        "elle",
        -7.470173835754395
      ],
      [
        "v",
        -7.4804606437683105
      ],
      [
        "ne",
        -7.481874465942383
      ],
      [
        "it",
        -7.482614994049072
      ],
      [
        "▁–",
        -7.486442089080811
      ],
      [
        "ing",
        -7.4866228103637695
      ],
      [
        "!",
        -7.493980407714844
      ],
      [
        "▁dé",
        -7.516462326049805
      ],
      [
        "▁car",
        -7.523656845092773
      ],
      [
        "▁mon",
        -7.527476787567139
      ],
      [
        "▁place",
        -7.53387451171875
      ],
      [
        "ci",
        -7.5516037940979
      ],
      [
        "▁france",
        -7.554849147796631
      ],
      [
        "ou",
        -7.5581254959106445
      ],
      [
        "▁g",
        -7.571386814117432
      ],
      [
        "ée",
        -7.572588920593262
      ],
      [
        "▁encore",
        -7.57280969619751
      ],
      [
        "an",
        -7.576863765716553
      ],
      [
        "▁r",
        -7.585296630859375
      ],
      [
        "ch",
        -7.585312366485596
      ],
      [
        "▁sous",
        -7.585608005523682
      ],
      [
        "▁vie",
        -7.588008403778076
      ],
      [
        "▁va",
        -7.594666481018066
      ],
      [
        "▁t",
        -7.60325813293457
      ],
      [
        "\"",
        -7.603535175323486
      ],
      [
        "ons",
        -7.603621959686279
      ],
      [
        "ation",
        -7.613443851470947
      ],
      [
        "▁monde",
        -7.61616849899292
      ],
      [
        "▁4",
        -7.620409488677979
      ],
      [
        "▁5",
        -7.622386932373047
      ],
      [
        "▁lui",
        -7.622795581817627
      ],
      [
        "▁avant",
        -7.622885704040527
      ],
      [
        ").",
        -7.623815059661865
      ],
      [
        "is",
        -7.638890743255615
      ],
      [
        "au",
        -7.639216899871826
      ],
      [
        "▁prix",
        -7.640767097473144
      ],
      [
        "▁the",
        -7.643357753753662
      ],
      [
        "▁maison",
        -7.643671989440918
      ],
      [
        "▁où",
        -7.647671699523926
      ],
      [
        "▁ré",
        -7.647936820983887
      ],
      [
        "00",
        -7.653927803039551
      ],
      [
        "et",
        -7.654272079467773
      ],
      [
        "age",
        -7.657613277435303
      ],
      [
        "ie",
        -7.660363674163818
      ],
      [
        "▁rencontre",
        -7.67186164855957
      ],
      [
        "…",
        -7.672989368438721
      ],
      [
        "?",
        -7.68526029586792
      ],
      [
        "ait",
        -7.68633508682251
      ],
      [
        "▁jour",
        -7.687016487121582
      ],
      [
        "▁pouvez",
        -7.690652847290039
      ],
      [
        "▁sera",
        -7.69601583480835
      ],
      [
        "vous",
        -7.699132442474365
      ],
      [
        "▁grand",
        -7.699330806732178
      ],
      [
        "▁19",
        -7.699465751647949
      ],
      [
        "▁peu",
        -7.709578990936279
      ],
      [
        "▁fois",
        -7.712676525115967
      ],
      [
        "▁bon",
        -7.713621139526367
      ],
      [
        "▁cas",
        -7.714054584503174
      ],
      [
        "▁donc",
        -7.717164516448975
      ],
      [
        "▁toutes",
        -7.7173285484313965
      ],
      [
        "ce",
        -7.73450231552124
      ],
      [
        "te",
        -7.736514568328857
      ],
      [
        "à",
        -7.740525722503662
      ],
      [
        "▁alors",
        -7.741194248199463
      ],
      [
        "▁cela",
        -7.750165939331055
      ],
      [
        "▁e",
        -7.756540775299072
      ],
      [
        "▁toute",
        -7.757153034210205
      ],
      [
        "▁leurs",
        -7.759612083435059
      ],
      [
        "▁chaque",
        -7.766050815582275
      ],
      [
        "▁pro",
        -7.766478061676025
      ],
      [
        "▁cet",
        -7.769284725189209
      ],
      [
        "▁toujours",
        -7.771933555603027
      ],
      [
        "▁quelques",
        -7.77734899520874
      ],
      [
        "té",
        -7.779841423034668
      ],
      [
        "▁b",
        -7.78465461730957
      ],
      [
        "▁10",
        -7.786003112792969
      ],
      [
        "▁non",
        -7.793448448181152
      ],
      [
        "▁comment",
        -7.799547672271728
      ],
      [
        "w",
        -7.80369758605957
      ],
      [
        "▁tu",
        -7.8068413734436035
      ],
      [
        "eau",
        -7.809704780578613
      ],
      [
        "être",
        -7.8100385665893555
      ],
      [
        "ine",
        -7.810264587402344
      ],
      [
        "▁avoir",
        -7.811439037322998
      ],
      [
        "com",
        -7.823840141296387
      ],
      [
        "▁fin",
        -7.825759887695312
      ],
      [
        "▁ligne",
        -7.828114986419678
      ],
      [
        "el",
        -7.837422847747803
      ],
      [
        "▁plusieurs",
        -7.840975761413574
      ],
      [
        "les",
        -7.849533557891846
      ],
      [
        "▁p",
        -7.855955123901367
      ],
      [
        "▁afin",
        -7.857767105102539
      ],
      [
        "at",
        -7.866699695587158
      ],
      [
        "ar",
        -7.8701863288879395
      ],
      [
        "▁contre",
        -7.875223159790039
      ],
      [
        "eur",
        -7.878828048706055
      ],
      [
        "2",
        -7.88295841217041
      ],
      [
        "▁dont",
        -7.883184432983398
      ],
      [
        "▁f",
        -7.892461776733398
      ],
      [
        "▁moins",
        -7.895042419433594
      ],
      [
        "▁qualité",
        -7.897486686706543
      ],
      [
        "▁nouveau",
        -7.898216724395752
      ],
      [
        "▁travail",
        -7.899349689483643
      ],
      [
        "▁mois",
        -7.903411865234375
      ],
      [
        "ir",
        -7.904766082763672
      ],
      [
        "ma",
        -7.906457424163818
      ],
      [
        "▁service",
        -7.912452220916748
      ],
      [
        "▁ils",
        -7.919559001922607
      ],
      [
        "▁nouvelle",
        -7.923201560974121
      ],
      [
        "▁personnes",
        -7.923464775085449
      ],
      [
        "▁compte",
        -7.925210475921631
      ],
      [
        "ta",
        -7.94033670425415
      ],
      [
        "),",
        -7.94531774520874
      ],
      [
        "▁h",
        -7.9458746910095215
      ],
      [
        "▁premier",
        -7.946548938751221
      ],
      [
        "▁chez",
        -7.950815677642822
      ],
      [
        "és",
        -7.951868057250977
      ],
      [
        "▁produits",
        -7.959228515625
      ],
      [
        "me",
        -7.960118770599365
      ],
      [
        "na",
        -7.962831497192383
      ],
      [
        "ement",
        -7.967488288879395
      ],
      [
        "▁jusqu",
        -7.967541694641113
      ],
      [
        "us",
        -7.9702467918396
      ],
      [
        "▁vers",
        -7.971243858337402
      ],
      [
        "aux",
        -7.975983142852783
      ],
      [
        "▁lors",
        -7.977408409118652
      ],
      [
        "▁petit",
        -7.977723598480225
      ],
      [
        "▁recherche",
        -7.979739665985107
      ],
      [
        "▁6",
        -7.987970352172852
      ],
      [
        "▁voir",
        -7.989283561706543
      ],
      [
        "▁ville",
        -7.993750095367432
      ],
      [
        "▁permet",
        -7.994668960571289
      ],
      [
        "co",
        -7.995007038116455
      ],
      [
        "di",
        -7.995237350463867
      ],
      [
        "▁soit",
        -7.997688293457031
      ],
      [
        "▁autres",
        -7.998584270477295
      ],
      [
        "▁to",
        -8.002060890197754
      ],
      [
        "ro",
        -8.006832122802734
      ],
      [
        "▁pays",
        -8.014384269714355
      ],
      [
        "▁jours",
        -8.015320777893066
      ],
      [
        "▁projet",
        -8.02527904510498
      ],
      [
        "▁suis",
        -8.032218933105469
      ],
      [
        "▁était",
        -8.03368091583252
      ],
      [
        "▁beaucoup",
        -8.038012504577637
      ],
      [
        "▁selon",
        -8.039913177490234
      ],
      [
        "▁savoir",
        -8.046343803405762
      ],
      [
        "▁co",
        -8.047494888305664
      ],
      [
        "▁plan",
        -8.04860782623291
      ],
      [
        "ter",
        -8.04928970336914
      ],
      [
        "▁peuvent",
        -8.050211906433105
      ],
      [
        "▁produit",
        -8.053621292114258
      ],
      [
        "▁ça",
        -8.054136276245117
      ],
      [
        "▁avez",
        -8.063359260559082
      ],
      [
        "1",
        -8.067985534667969
      ],
      [
        "ad",
        -8.070145606994629
      ],
      [
        "▁grande",
        -8.070523262023926
      ],
      [
        "▁première",
        -8.074376106262207
      ],
      [
        "li",
        -8.077067375183105
      ],
      [
        "lo",
        -8.08159351348877
      ],
      [
        "ac",
        -8.08229923248291
      ],
      [
        "▁bonne",
        -8.0860595703125
      ],
      [
        "▁20",
        -8.08802318572998
      ],
      [
        "▁déjà",
        -8.088845252990723
      ],
      [
        "ité",
        -8.089993476867676
      ],
      [
        "▁7",
        -8.093907356262207
      ],
      [
        "▁k",
        -8.097442626953125
      ],
      [
        "▁faut",
        -8.097898483276367
      ],
      [
        "ex",
        -8.101314544677734
      ],
      [
        "▁jeu",
        -8.105661392211914
      ],
      [
        "able",
        -8.110395431518555
      ],
      [
        "▁suite",
        -8.113024711608887
      ],
      [
        "am",
        -8.113146781921387
      ],
      [
        "▁quand",
        -8.120084762573242
      ],
      [
        "j",
        -8.122359275817871
      ],
      [
        "▁paris",
        -8.126276969909668
      ],
      [
        "▁gratuit",
        -8.129586219787598
      ],
      [
        "▁moment",
        -8.133642196655273
      ],
      [
        "▁femme",
        -8.13687801361084
      ],
      [
        "que",
        -8.137384414672852
      ],
      [
        "▁avait",
        -8.137386322021484
      ],
      [
        "▁cours",
        -8.13784408569336
      ],
      [
        "5",
        -8.138011932373047
      ],
      [
        "ées",
        -8.138800621032715
      ],
      [
        "3",
        -8.140945434570312
      ],
      [
        "hui",
        -8.143704414367676
      ],
      [
        "▁an",
        -8.145686149597168
      ],
      [
        "autres",
        -8.14660930633545
      ],
      [
        "▁partie",
        -8.150409698486328
      ],
      [
        "▁grâce",
        -8.153154373168945
      ],
      [
        "▁mise",
        -8.161088943481445
      ],
      [
        "▁8",
        -8.165379524230957
      ],
      [
        "▁é",
        -8.165578842163086
      ],
      [
        "▁avons",
        -8.167680740356445
      ],
      [
        "▁pendant",
        -8.174819946289062
      ],
      [
        "▁groupe",
        -8.17495346069336
      ],
      [
        "ard",
        -8.177315711975098
      ],
      [
        "go",
        -8.181975364685059
      ],
      [
        "▁x",
        -8.182079315185547
      ],
      [
        "ed",
        -8.185627937316895
      ],
      [
        "▁trois",
        -8.203941345214844
      ],
      [
        "▁ta",
        -8.204668998718262
      ],
      [
        "▁pré",
        -8.207033157348633
      ],
      [
        "▁of",
        -8.207755088806152
      ],
      [
        "▁services",
        -8.207855224609375
      ],
      [
        "▁enfants",
        -8.209818840026855
      ],
      [
        "▁dernier",
        -8.21841812133789
      ],
      [
        "▁ici",
        -8.219308853149414
      ],
      [
        "ont",
        -8.220754623413086
      ],
      [
        "▁trouver",
        -8.22276782989502
      ],
      [
        "▁/",
        -8.22770881652832
      ],
      [
        "im",
        -8.2293062210083
      ],
      [
        "▁15",
        -8.230216026306152
      ],
      [
        "▁forum",
        -8.243176460266113
      ],
      [
        "ti",
        -8.244341850280762
      ],
      [
        "th",
        -8.24654483795166
      ],
      [
        "▁autre",
        -8.251707077026367
      ],
      [
        "▁lieu",
        -8.254312515258789
      ],
      [
        "ot",
        -8.25812816619873
      ],
      [
        "▁partir",
        -8.261591911315918
      ],
      [
        "▁;",
        -8.261956214904785
      ],
      [
        "▁9",
        -8.26728630065918
      ],
      [
        "ge",
        -8.272489547729492
      ],
      [
        "▁possible",
        -8.272665023803711
      ],
      [
        "ale",
        -8.273049354553223
      ],
      [
        "▁saint",
        -8.275315284729004
      ],
      [
        "▁puis",
        -8.278891563415527
      ],
      [
        "▁effet",
        -8.282307624816895
      ],
      [
        "to",
        -8.28742504119873
      ],
      [
        "▁centre",
        -8.2887601852417
      ],
      [
        "▁v",
        -8.289170265197754
      ],
      [
        "▁12",
        -8.290133476257324
      ],
      [
        "▁»,",
        -8.295141220092773
      ],
      [
        "▁offre",
        -8.29568862915039
      ],
      [
        "ia",
        -8.29642105102539
      ],
      [
        "fr",
        -8.299140930175781
      ],
      [
        "▁aujourd",
        -8.299224853515625
      ],
      [
        "▁propose",
        -8.300060272216797
      ],
      [
        "4",
        -8.300456047058105
      ],
      [
        "▁al",
        -8.305712699890137
      ],
      [
        "▁prendre",
        -8.306017875671387
      ],
      [
        "▁mettre",
        -8.307551383972168
      ],
      [
        "▁18",
        -8.314899444580078
      ],
      [
        "▁choix",
        -8.316483497619629
      ],
      [
        "▁ci",
        -8.316683769226074
      ],
      [
        "▁mes",
        -8.320961952209473
      ],
      [
        "ner",
        -8.3233642578125
      ],
      [
        "ve",
        -8.326665878295898
      ],
      [
        "ier",
        -8.330599784851074
      ],
      [
        "▁con",
        -8.332441329956055
      ],
      [
        "ver",
        -8.342142105102539
      ],
      [
        "▁besoin",
        -8.342228889465332
      ],
      [
        "ique",
        -8.34250545501709
      ],
      [
        "ré",
        -8.34338092803955
      ],
      [
        "ils",
        -8.34814167022705
      ],
      [
        "▁mal",
        -8.348209381103516
      ],
      [
        "▁français",
        -8.349554061889648
      ],
      [
        "▁saison",
        -8.350162506103516
      ],
      [
        "▁30",
        -8.350998878479004
      ],
      [
        "che",
        -8.356046676635742
      ],
      [
        "▁ni",
        -8.35700511932373
      ],
      [
        "▁doit",
        -8.359381675720215
      ],
      [
        "id",
        -8.36032485961914
      ],
      [
        "▁and",
        -8.360675811767578
      ],
      [
        "▁point",
        -8.362648963928223
      ],
      [
        "▁porte",
        -8.36638355255127
      ],
      [
        "ri",
        -8.369149208068848
      ],
      [
        "▁moi",
        -8.371577262878418
      ],
      [
        "▁formation",
        -8.375219345092773
      ],
      [
        "▁nom",
        -8.376741409301758
      ],
      [
        "▁demande",
        -8.37878131866455
      ],
      [
        "▁santé",
        -8.378799438476562
      ],
      [
        "▁part",
        -8.379515647888184
      ],
      [
        "as",
        -8.380528450012207
      ],
      [
        "▁sécurité",
        -8.381061553955078
      ],
      [
        "ance",
        -8.38455581665039
      ],
      [
        "30",
        -8.39389705657959
      ],
      [
        "▁meilleur",
        -8.398101806640625
      ],
      [
        "ba",
        -8.401313781738281
      ],
      [
        "▁mi",
        -8.401819229125977
      ],
      [
        "▁personne",
        -8.404109001159668
      ],
      [
        "ni",
        -8.405325889587402
      ],
      [
        "▁tour",
        -8.408126831054688
      ],
      [
        "▁coup",
        -8.411314964294434
      ],
      [
        "▁clients",
        -8.41222858428955
      ],
      [
        "▁années",
        -8.414424896240234
      ],
      [
        "▁début",
        -8.41650104522705
      ],
      [
        "ol",
        -8.416711807250977
      ],
      [
        "if",
        -8.416873931884766
      ],
      [
        "ga",
        -8.423114776611328
      ],
      [
        "▁mieux",
        -8.425724983215332
      ],
      [
        "ca",
        -8.427528381347656
      ],
      [
        "▁be",
        -8.429125785827637
      ],
      [
        "▁jeux",
        -8.430392265319824
      ],
      [
        "ic",
        -8.43243408203125
      ],
      [
        "▁or",
        -8.433853149414062
      ],
      [
        "▁rapport",
        -8.436052322387695
      ],
      [
        "▁dit",
        -8.438163757324219
      ],
      [
        "▁per",
        -8.44044017791748
      ],
      [
        "▁salle",
        -8.442131042480469
      ],
      [
        "▁belle",
        -8.442344665527344
      ],
      [
        "▁président",
        -8.442935943603516
      ],
      [
        "qu",
        -8.443886756896973
      ],
      [
        "tte",
        -8.444982528686523
      ],
      [
        "▁niveau",
        -8.445292472839355
      ],
      [
        "art",
        -8.447647094726562
      ],
      [
        "▁famille",
        -8.448259353637695
      ],
      [
        "▁société",
        -8.44839096069336
      ],
      [
        "▁film",
        -8.452838897705078
      ],
      [
        "du",
        -8.452983856201172
      ],
      [
        "ul",
        -8.453991889953613
      ],
      [
        "▁mis",
        -8.455619812011719
      ],
      [
        "▁cadre",
        -8.45620346069336
      ],
      [
        "▁reste",
        -8.45740795135498
      ],
      [
        "va",
        -8.458022117614746
      ],
      [
        "▁i",
        -8.458033561706543
      ],
      [
        "▁ca",
        -8.458179473876953
      ],
      [
        "▁cuisine",
        -8.460021018981934
      ],
      [
        "▁pu",
        -8.46038818359375
      ],
      [
        "ite",
        -8.461838722229004
      ],
      [
        "be",
        -8.462050437927246
      ],
      [
        "mi",
        -8.46217155456543
      ],
      [
        "▁retour",
        -8.466776847839355
      ],
      [
        "▁vidéo",
        -8.46737003326416
      ],
      [
        "▁découvrir",
        -8.467947959899902
      ],
      [
        "um",
        -8.47083568572998
      ],
      [
        "eurs",
        -8.470980644226074
      ],
      [
        "▁informations",
        -8.475190162658691
      ],
      [
        "▁eu",
        -8.475957870483398
      ],
      [
        "▁face",
        -8.477611541748047
      ],
      [
        "▁ex",
        -8.477785110473633
      ],
      [
        "▁journée",
        -8.478485107421875
      ],
      [
        "▁année",
        -8.478517532348633
      ],
      [
        "▁merci",
        -8.479713439941406
      ],
      [
        "▁notamment",
        -8.47988224029541
      ],
      [
        "▁semaine",
        -8.481419563293457
      ],
      [
        "▁nombre",
        -8.482309341430664
      ],
      [
        "▁trop",
        -8.485427856445312
      ],
      [
        "▁simple",
        -8.4866943359375
      ],
      [
        "▁dès",
        -8.488089561462402
      ],
      [
        "▁êtes",
        -8.488204002380371
      ],
      [
        "mo",
        -8.488405227661133
      ],
      [
        "ère",
        -8.490302085876465
      ],
      [
        "da",
        -8.490729331970215
      ],
      [
        "▁livre",
        -8.494733810424805
      ],
      [
        "ure",
        -8.496021270751953
      ],
      [
        "▁bois",
        -8.497541427612305
      ],
      [
        "année",
        -8.499320030212402
      ],
      [
        "▁page",
        -8.50247573852539
      ],
      [
        "▁web",
        -8.506302833557129
      ],
      [
        "▁marque",
        -8.507702827453613
      ],
      [
        "ut",
        -8.508406639099121
      ],
      [
        "▁photo",
        -8.508599281311035
      ],
      [
        "do",
        -8.51186466217041
      ],
      [
        "▁14",
        -8.512754440307617
      ],
      [
        "▁petite",
        -8.513779640197754
      ],
      [
        "▁ceux",
        -8.515023231506348
      ],
      [
        "▁certains",
        -8.516135215759277
      ],
      [
        "▁bar",
        -8.516243934631348
      ],
      [
        "▁avis",
        -8.516433715820312
      ],
      [
        "▁système",
        -8.51651382446289
      ],
      [
        "▁rien",
        -8.519250869750977
      ],
      [
        "▁tant",
        -8.521327018737793
      ],
      [
        "▁nombreux",
        -8.522869110107422
      ],
      [
        "né",
        -8.52501392364502
      ],
      [
        "▁travers",
        -8.52503490447998
      ],
      [
        "▁lire",
        -8.525262832641602
      ],
      [
        "▁po",
        -8.526885986328125
      ],
      [
        "ion",
        -8.527643203735352
      ],
      [
        "▁développement",
        -8.528406143188477
      ],
      [
        "▁seront",
        -8.535748481750488
      ],
      [
        "▁pouvoir",
        -8.537564277648926
      ],
      [
        "▁long",
        -8.537712097167969
      ],
      [
        "▁marché",
        -8.538399696350098
      ],
      [
        "▁jamais",
        -8.538665771484375
      ],
      [
        "▁haut",
        -8.539069175720215
      ],
      [
        "▁“",
        -8.539488792419434
      ],
      [
        "op",
        -8.542352676391602
      ],
      [
        "▁femmes",
        -8.544410705566406
      ],
      [
        "▁mode",
        -8.547091484069824
      ],
      [
        "iste",
        -8.547327995300293
      ],
      [
        "dé",
        -8.549302101135254
      ],
      [
        "ront",
        -8.550576210021973
      ],
      [
        "▁mar",
        -8.550623893737793
      ],
      [
        "0",
        -8.551527976989746
      ],
      [
        "▁&",
        -8.551861763000488
      ],
      [
        "▁».",
        -8.552130699157715
      ],
      [
        "▁là",
        -8.557066917419434
      ],
      [
        "▁charge",
        -8.560345649719238
      ],
      [
        "aient",
        -8.565669059753418
      ],
      [
        "▁te",
        -8.56725025177002
      ],
      [
        "▁photos",
        -8.568574905395508
      ],
      [
        "▁date",
        -8.569966316223145
      ],
      [
        "▁jeune",
        -8.57214069366455
      ],
      [
        "▁données",
        -8.573041915893555
      ],
      [
        "▁base",
        -8.57386302947998
      ],
      [
        "▁région",
        -8.574115753173828
      ],
      [
        "▁question",
        -8.576469421386719
      ],
      [
        "20",
        -8.579136848449707
      ],
      [
        "▁expérience",
        -8.581680297851562
      ],
      [
        "▁pi",
        -8.582773208618164
      ],
      [
        "▁programme",
        -8.584765434265137
      ],
      [
        "pe",
        -8.585372924804688
      ],
      [
        "▁forme",
        -8.58692455291748
      ],
      [
        "ais",
        -8.587468147277832
      ],
      [
        "▁ha",
        -8.587628364562988
      ],
      [
        "je",
        -8.58973217010498
      ],
      [
        "▁public",
        -8.591827392578125
      ],
      [
        "lé",
        -8.593465805053711
      ],
      [
        "▁.",
        -8.593734741210938
      ],
      [
        "▁seulement",
        -8.593770027160645
      ],
      [
        "▁€",
        -8.595787048339844
      ],
      [
        "9",
        -8.595880508422852
      ],
      [
        "▁mai",
        -8.596443176269531
      ],
      [
        "▁club",
        -8.597413063049316
      ],
      [
        "con",
        -8.598679542541504
      ],
      [
        "▁bi",
        -8.59955883026123
      ],
      [
        "▁sommes",
        -8.604931831359863
      ],
      [
        "▁internet",
        -8.605029106140137
      ],
      [
        "▁côté",
        -8.606098175048828
      ],
      [
        "use",
        -8.606810569763184
      ],
      [
        "▁but",
        -8.60745906829834
      ],
      [
        "▁disponible",
        -8.608376502990723
      ],
      [
        "▁sol",
        -8.609884262084961
      ],
      [
        "tu",
        -8.611786842346191
      ],
      [
        "ly",
        -8.612860679626465
      ],
      [
        "▁droit",
        -8.613213539123535
      ],
      [
        "ab",
        -8.613577842712402
      ],
      [
        "▁16",
        -8.614396095275879
      ],
      [
        "▁homme",
        -8.61449146270752
      ],
      [
        "(",
        -8.615668296813965
      ],
      [
        "▁vue",
        -8.61609935760498
      ],
      [
        "▁série",
        -8.616719245910645
      ],
      [
        "▁11",
        -8.617403030395508
      ],
      [
        "▁celui",
        -8.617513656616211
      ],
      [
        "ille",
        -8.62081241607666
      ],
      [
        "▁taille",
        -8.622485160827637
      ],
      [
        "▁dernière",
        -8.624216079711914
      ],
      [
        "▁exemple",
        -8.624343872070312
      ],
      [
        "up",
        -8.624686241149902
      ],
      [
        "▁seul",
        -8.625176429748535
      ],
      [
        "fi",
        -8.62720775604248
      ],
      [
        "ton",
        -8.628849983215332
      ],
      [
        "ise",
        -8.629050254821777
      ],
      [
        "▁17",
        -8.6304349899292
      ],
      [
        "▁fonction",
        -8.630542755126953
      ],
      [
        "▁for",
        -8.630989074707031
      ],
      [
        "bi",
        -8.632486343383789
      ],
      [
        "▁type",
        -8.633434295654297
      ],
      [
        "▁créer",
        -8.633804321289062
      ],
      [
        "▁jean",
        -8.634934425354004
      ],
      [
        "bo",
        -8.637495994567871
      ],
      [
        "▁ba",
        -8.638774871826172
      ],
      [
        "▁article",
        -8.64180850982666
      ],
      [
        "man",
        -8.642342567443848
      ],
      [
        "▁13",
        -8.64487075805664
      ],
      [
        "ag",
        -8.647305488586426
      ],
      [
        "▁heures",
        -8.647459983825684
      ],
      [
        "▁pourquoi",
        -8.648414611816406
      ],
      [
        "▁frais",
        -8.649943351745605
      ],
      [
        "entreprise",
        -8.650337219238281
      ],
      [
        "end",
        -8.65060043334961
      ],
      [
        "no",
        -8.651248931884766
      ],
      [
        "▁façon",
        -8.65237808227539
      ],
      [
        "ry",
        -8.655489921569824
      ],
      [
        "rie",
        -8.659457206726074
      ],
      [
        "▁près",
        -8.65999698638916
      ],
      [
        "▁24",
        -8.660584449768066
      ],
      [
        "oc",
        -8.661702156066895
      ],
      [
        "▁pratique",
        -8.662588119506836
      ],
      [
        "▁souvent",
        -8.663396835327148
      ],
      [
        "▁situation",
        -8.66373062133789
      ],
      [
        "▁différents",
        -8.66518497467041
      ],
      [
        "▁mo",
        -8.666954040527344
      ],
      [
        "▁fa",
        -8.670111656188965
      ],
      [
        "▁maintenant",
        -8.673666000366211
      ],
      [
        "sse",
        -8.674715042114258
      ],
      [
        "▁cher",
        -8.675293922424316
      ],
      [
        "▁minutes",
        -8.675737380981445
      ],
      [
        ";",
        -8.675949096679688
      ],
      [
        "▁mesure",
        -8.678937911987305
      ],
      [
        "▁su",
        -8.682159423828125
      ],
      [
        "▁chambre",
        -8.682982444763184
      ],
      [
        "▁carte",
        -8.684569358825684
      ],
      [
        "▁conseil",
        -8.687836647033691
      ],
      [
        "▁main",
        -8.688008308410645
      ],
      [
        "▁di",
        -8.688132286071777
      ],
      [
        "ign",
        -8.688214302062988
      ],
      [
        "▁important",
        -8.688328742980957
      ],
      [
        "▁dire",
        -8.689340591430664
      ],
      [
        "▁gestion",
        -8.690402030944824
      ],
      [
        "▁équipe",
        -8.692100524902344
      ],
      [
        "▁bas",
        -8.693052291870117
      ],
      [
        "po",
        -8.695690155029297
      ],
      [
        "▁w",
        -8.695843696594238
      ],
      [
        "▁création",
        -8.696500778198242
      ],
      [
        "▁lorsque",
        -8.698932647705078
      ],
      [
        "▁version",
        -8.699257850646973
      ],
      [
        "▁vraiment",
        -8.70034408569336
      ],
      [
        "pa",
        -8.701666831970215
      ],
      [
        "tre",
        -8.702016830444336
      ],
      [
        "▁inter",
        -8.70238208770752
      ],
      [
        "▁voici",
        -8.702832221984863
      ],
      [
        "urs",
        -8.702893257141113
      ],
      [
        "6",
        -8.70341682434082
      ],
      [
        "▁ar",
        -8.705129623413086
      ],
      [
        "▁blanc",
        -8.70644474029541
      ],
      [
        "▁vol",
        -8.706486701965332
      ],
      [
        "ive",
        -8.71061897277832
      ],
      [
        "”",
        -8.710801124572754
      ],
      [
        "▁...",
        -8.711134910583496
      ],
      [
        "pi",
        -8.712385177612305
      ],
      [
        "ins",
        -8.71530532836914
      ],
      [
        "▁passer",
        -8.715662956237793
      ],
      [
        "▁entreprise",
        -8.716449737548828
      ],
      [
        "▁contact",
        -8.717936515808105
      ],
      [
        "▁o",
        -8.719195365905762
      ],
      [
        "per",
        -8.721385955810547
      ],
      [
        "▁st",
        -8.722423553466797
      ],
      [
        "▁jardin",
        -8.723099708557129
      ],
      [
        "8",
        -8.728096961975098
      ],
      [
        "ue",
        -8.7282075881958
      ],
      [
        "▁facile",
        -8.731035232543945
      ],
      [
        "aire",
        -8.731070518493652
      ],
      [
        "ck",
        -8.731123924255371
      ],
      [
        "min",
        -8.7327299118042
      ],
      [
        "▁ad",
        -8.734574317932129
      ],
      [
        "▁comp",
        -8.735727310180664
      ],
      [
        "équipe",
        -8.739563941955566
      ],
      [
        "▁mars",
        -8.742403030395508
      ],
      [
        "▁vente",
        -8.743429183959961
      ],
      [
        "▁code",
        -8.743451118469238
      ],
      [
        "os",
        -8.743851661682129
      ],
      [
        "▁manière",
        -8.7439603805542
      ],
      [
        "qui",
        -8.744763374328613
      ],
      [
        "▁nouvelles",
        -8.745007514953613
      ],
      [
        "ante",
        -8.745864868164062
      ],
      [
        "\",",
        -8.747862815856934
      ],
      [
        "▁surtout",
        -8.750487327575684
      ],
      [
        "▁jeunes",
        -8.750579833984375
      ],
      [
        "▁donner",
        -8.751300811767578
      ],
      [
        "agit",
        -8.752436637878418
      ],
      [
        "▁ri",
        -8.753336906433105
      ],
      [
        "▁livraison",
        -8.756006240844727
      ],
      [
        "▁juste",
        -8.756767272949219
      ],
      [
        "▁découvrez",
        -8.757173538208008
      ],
      [
        "▁2020",
        -8.759726524353027
      ],
      [
        "▁aider",
        -8.760420799255371
      ],
      [
        "▁secteur",
        -8.760775566101074
      ],
      [
        "▁juin",
        -8.764054298400879
      ],
      [
        "q",
        -8.764318466186523
      ],
      [
        "▁raison",
        -8.766753196716309
      ],
      [
        "▁man",
        -8.767030715942383
      ],
      [
        "▁politique",
        -8.768362998962402
      ],
      [
        "iv",
        -8.768779754638672
      ],
      [
        "▁celle",
        -8.770928382873535
      ],
      [
        "▁vu",
        -8.771427154541016
      ],
      [
        "▁unique",
        -8.771499633789062
      ],
      [
        "▁port",
        -8.771942138671875
      ],
      [
        "▁fond",
        -8.772970199584961
      ],
      [
        "▁000",
        -8.773515701293945
      ],
      [
        "▁millions",
        -8.773942947387695
      ],
      [
        "▁rue",
        -8.775339126586914
      ],
      [
        "▁fil",
        -8.776617050170898
      ],
      [
        "://",
        -8.778050422668457
      ],
      [
        "était",
        -8.77944564819336
      ],
      [
        "em",
        -8.77966022491455
      ],
      [
        "par",
        -8.780593872070312
      ],
      [
        "hi",
        -8.780919075012207
      ],
      [
        "lu",
        -8.781126022338867
      ],
      [
        "€",
        -8.781278610229492
      ],
      [
        "▁autour",
        -8.781510353088379
      ],
      [
        "▁super",
        -8.781588554382324
      ],
      [
        "▁design",
        -8.784209251403809
      ],
      [
        "car",
        -8.78650951385498
      ],
      [
        "▁nouveaux",
        -8.786599159240723
      ],
      [
        "▁parce",
        -8.78769302368164
      ],
      [
        "▁met",
        -8.787922859191895
      ],
      [
        "ence",
        -8.788713455200195
      ],
      [
        "▁style",
        -8.789390563964844
      ],
      [
        "▁septembre",
        -8.78945255279541
      ],
      [
        "▁bo",
        -8.790886878967285
      ],
      [
        "▁font",
        -8.792569160461426
      ],
      [
        "▁mort",
        -8.79396915435791
      ],
      [
        "▁sens",
        -8.796465873718262
      ],
      [
        "ux",
        -8.796936988830566
      ],
      [
        "▁2019",
        -8.799310684204102
      ],
      [
        "▁table",
        -8.802675247192383
      ],
      [
        "▁fort",
        -8.803033828735352
      ],
      [
        "▁moyen",
        -8.80492877960205
      ],
      [
        "▁passe",
        -8.805788040161133
      ],
      [
        "▁cm",
        -8.807943344116211
      ],
      [
        "▁haute",
        -8.808134078979492
      ],
      [
        "isation",
        -8.809739112854004
      ],
      [
        "▁25",
        -8.810637474060059
      ],
      [
        "▁personnel",
        -8.813326835632324
      ],
      [
        "▁ver",
        -8.816884994506836
      ],
      [
        "▁dis",
        -8.817964553833008
      ],
      [
        "vi",
        -8.818696022033691
      ],
      [
        "ke",
        -8.819530487060547
      ],
      [
        "ème",
        -8.820101737976074
      ],
      [
        "▁couleurs",
        -8.820548057556152
      ],
      [
        "▁choisir",
        -8.821849822998047
      ],
      [
        "▁musique",
        -8.822562217712402
      ],
      [
        "▁chef",
        -8.823506355285645
      ],
      [
        "▁aucun",
        -8.823719024658203
      ],
      [
        "▁%",
        -8.824563026428223
      ],
      [
        "▁na",
        -8.825998306274414
      ],
      [
        "▁so",
        -8.827821731567383
      ],
      [
        "ap",
        -8.828012466430664
      ],
      [
        "▁entreprises",
        -8.82862663269043
      ],
      [
        "ateur",
        -8.828629493713379
      ],
      [
        "io",
        -8.831236839294434
      ],
      [
        "▁tra",
        -8.833027839660645
      ],
      [
        "▁chose",
        -8.834952354431152
      ],
      [
        "▁ra",
        -8.838177680969238
      ],
      [
        "▁noir",
        -8.840612411499023
      ],
      [
        "der",
        -8.841517448425293
      ],
      [
        "▁quel",
        -8.841896057128906
      ],
      [
        "▁beau",
        -8.842220306396484
      ],
      [
        "avoir",
        -8.842243194580078
      ],
      [
        "▁nuit",
        -8.842519760131836
      ],
      [
        "▁corps",
        -8.843076705932617
      ],
      [
        "son",
        -8.843294143676758
      ],
      [
        "▁conditions",
        -8.844768524169922
      ],
      [
        "▁trouve",
        -8.845582962036133
      ],
      [
        "▁can",
        -8.848784446716309
      ],
      [
        "▁général",
        -8.849778175354004
      ],
      [
        "▁rapide",
        -8.850258827209473
      ],
      [
        "▁elles",
        -8.850857734680176
      ],
      [
        "▁fi",
        -8.850858688354492
      ],
      [
        "mb",
        -8.851734161376953
      ],
      [
        "▁sein",
        -8.851910591125488
      ],
      [
        "▁visite",
        -8.852065086364746
      ],
      [
        "autre",
        -8.852134704589844
      ],
      [
        "10",
        -8.852168083190918
      ],
      [
        "▁val",
        -8.853231430053711
      ],
      [
        "▁aide",
        -8.854093551635742
      ],
      [
        "des",
        -8.855015754699707
      ],
      [
        "▁samedi",
        -8.855157852172852
      ],
      [
        "aide",
        -8.855611801147461
      ],
      [
        "▁ton",
        -8.855705261230469
      ],
      [
        "▁go",
        -8.856344223022461
      ],
      [
        "▁match",
        -8.857301712036133
      ],
      [
        "▁travaux",
        -8.85998821258545
      ],
      [
        "▁mer",
        -8.861762046813965
      ],
      [
        "▁rencontres",
        -8.863842010498047
      ],
      [
        "▁voyage",
        -8.864310264587402
      ],
      [
        "▁gouvernement",
        -8.866223335266113
      ],
      [
        "▁tête",
        -8.866691589355469
      ],
      [
        "histoire",
        -8.867233276367188
      ],
      [
        "▁ensuite",
        -8.867513656616211
      ],
      [
        "▁plaisir",
        -8.868263244628906
      ],
      [
        "▁titre",
        -8.868610382080078
      ],
      [
        "ché",
        -8.869168281555176
      ],
      [
        "▁vi",
        -8.86965274810791
      ],
      [
        "▁vendredi",
        -8.869715690612793
      ],
      [
        "si",
        -8.870012283325195
      ],
      [
        "▁différentes",
        -8.870589256286621
      ],
      [
        "▁ministre",
        -8.871835708618164
      ],
      [
        "ide",
        -8.872923851013184
      ],
      [
        "ka",
        -8.875884056091309
      ],
      [
        "and",
        -8.87722110748291
      ],
      [
        "▁janvier",
        -8.87772274017334
      ],
      [
        "▁ro",
        -8.87849235534668
      ],
      [
        "▁propre",
        -8.87906551361084
      ],
      [
        "▁présente",
        -8.880332946777344
      ],
      [
        "gue",
        -8.88033676147461
      ],
      [
        "▁production",
        -8.880833625793457
      ],
      [
        "elles",
        -8.881983757019043
      ],
      [
        "▁sou",
        -8.882528305053711
      ],
      [
        "▁com",
        -8.884493827819824
      ],
      [
        "7",
        -8.884708404541016
      ],
      [
        "ha",
        -8.885453224182129
      ],
      [
        "▁pris",
        -8.886848449707031
      ],
      [
        "▁nombreuses",
        -8.887621879577637
      ],
      [
        "om",
        -8.888182640075684
      ],
      [
        "eux",
        -8.8890962600708
      ],
      [
        "▁2018",
        -8.889389038085938
      ],
      [
        "mar",
        -8.890618324279785
      ],
      [
        "▁appel",
        -8.890798568725586
      ],
      [
        "▁via",
        -8.8920259475708
      ],
      [
        "▁liste",
        -8.89242935180664
      ],
      [
        "▁poste",
        -8.893424987792969
      ],
      [
        "▁histoire",
        -8.893594741821289
      ],
      [
        "nd",
        -8.896011352539062
      ],
      [
        "▁br",
        -8.89663314819336
      ],
      [
        "▁sé",
        -8.897723197937012
      ],
      [
        "▁terre",
        -8.900391578674316
      ],
      [
        "occasion",
        -8.901174545288086
      ],
      [
        "▁plein",
        -8.901612281799316
      ],
      [
        "▁anti",
        -8.902880668640137
      ],
      [
        "▁sortie",
        -8.903793334960938
      ],
      [
        "▁enfin",
        -8.903804779052734
      ],
      [
        "nous",
        -8.904023170471191
      ],
      [
        "▁réseau",
        -8.90445613861084
      ],
      [
        "▁lit",
        -8.905168533325195
      ],
      [
        "▁quoi",
        -8.905725479125977
      ],
      [
        "air",
        -8.906599044799805
      ],
      [
        "▁couleur",
        -8.906627655029297
      ],
      [
        "utilisation",
        -8.907331466674805
      ],
      [
        "ensemble",
        -8.909202575683594
      ],
      [
        "ger",
        -8.911877632141113
      ],
      [
        "▁utiliser",
        -8.915474891662598
      ],
      [
        "▁commande",
        -8.917001724243164
      ],
      [
        "▁parmi",
        -8.919197082519531
      ],
      [
        "▁is",
        -8.91948413848877
      ],
      [
        "▁dimanche",
        -8.921395301818848
      ],
      [
        "▁am",
        -8.922204971313477
      ],
      [
        "▁donne",
        -8.922240257263184
      ],
      [
        "▁devant",
        -8.923324584960938
      ],
      [
        "ér",
        -8.923846244812012
      ],
      [
        "▁pourrait",
        -8.923954963684082
      ],
      [
        "▁lundi",
        -8.924703598022461
      ],
      [
        "▁pierre",
        -8.926008224487305
      ],
      [
        "▁cause",
        -8.929998397827148
      ],
      [
        "▁soir",
        -8.931485176086426
      ],
      [
        "▁activités",
        -8.931854248046875
      ],
      [
        "▁gamme",
        -8.936263084411621
      ],
      [
        "▁ensemble",
        -8.937241554260254
      ],
      [
        "▁voiture",
        -8.937784194946289
      ],
      [
        "ière",
        -8.94167423248291
      ],
      [
        "fa",
        -8.941888809204102
      ],
      [
        "ette",
        -8.941902160644531
      ],
      [
        "cé",
        -8.943766593933105
      ],
      [
        "▁collection",
        -8.944125175476074
      ],
      [
        "▁novembre",
        -8.945402145385742
      ],
      [
        "▁+",
        -8.945440292358398
      ],
      [
        "ler",
        -8.94566535949707
      ],
      [
        "▁21",
        -8.947134971618652
      ],
      [
        "▁octobre",
        -8.94931697845459
      ],
      [
        "▁membres",
        -8.95057201385498
      ],
      [
        "▁rendez",
        -8.950922966003418
      ],
      [
        "▁client",
        -8.951584815979004
      ],
      [
        "▁2021",
        -8.95202922821045
      ],
      [
        "ki",
        -8.952093124389648
      ],
      [
        "▁petits",
        -8.952569007873535
      ],
      [
        "même",
        -8.954095840454102
      ],
      [
        "val",
        -8.954139709472656
      ],
      [
        "°",
        -8.955340385437012
      ],
      [
        "▁questions",
        -8.956632614135742
      ],
      [
        "▁quatre",
        -8.956942558288574
      ],
      [
        "▁cul",
        -8.957447052001953
      ],
      [
        "ist",
        -8.963967323303223
      ],
      [
        "mé",
        -8.963997840881348
      ],
      [
        "▁50",
        -8.96451473236084
      ],
      [
        "▁disponibles",
        -8.964792251586914
      ],
      [
        "▁no",
        -8.965048789978027
      ],
      [
        "▁2017",
        -8.965205192565918
      ],
      [
        "▁sexe",
        -8.965439796447754
      ],
      [
        "cu",
        -8.967508316040039
      ],
      [
        ":||",
        -8.968769073486328
      ],
      [
        "▁professionnels",
        -8.968867301940918
      ],
      [
        "▁100",
        -8.968950271606445
      ],
      [
        "▁protection",
        -8.969948768615723
      ],
      [
        "▁passé",
        -8.970256805419922
      ],
      [
        "▁cœur",
        -8.971138000488281
      ],
      [
        "▁ga",
        -8.971162796020508
      ],
      [
        "sion",
        -8.972016334533691
      ],
      [
        "50",
        -8.972367286682129
      ],
      [
        "▁sud",
        -8.97325325012207
      ],
      [
        "▁prêt",
        -8.973350524902344
      ],
      [
        "]",
        -8.973589897155762
      ],
      [
        "▁ja",
        -8.974804878234863
      ],
      [
        "▁fille",
        -8.97561264038086
      ],
      [
        "▁projets",
        -8.976300239562988
      ],
      [
        "▁française",
        -8.976683616638184
      ],
      [
        "▁salon",
        -8.978686332702637
      ],
      [
        "▁souhaitez",
        -8.97900104522705
      ],
      [
        "▁loi",
        -8.97927474975586
      ],
      [
        "▁modèle",
        -8.979701042175293
      ],
      [
        "▁points",
        -8.98015308380127
      ],
      [
        "▁domaine",
        -8.980478286743164
      ],
      [
        "▁regard",
        -8.981703758239746
      ],
      [
        "▁besoins",
        -8.982715606689453
      ],
      [
        "▁problème",
        -8.985340118408203
      ],
      [
        "▁particulier",
        -8.987541198730469
      ],
      [
        "▁direct",
        -8.987687110900879
      ],
      [
        "ig",
        -8.987711906433105
      ],
      [
        "▁faites",
        -8.991634368896484
      ],
      [
        "▁gros",
        -8.991853713989258
      ],
      [
        "▁meilleure",
        -8.994183540344238
      ],
      [
        "▁conseils",
        -8.994526863098145
      ],
      [
        "▁rapidement",
        -8.994617462158203
      ],
      [
        "▁décembre",
        -8.99474048614502
      ],
      [
        "▁technique",
        -8.996196746826172
      ],
      [
        "▁cor",
        -8.996390342712402
      ],
      [
        "_",
        -8.99683666229248
      ],
      [
        "mm",
        -8.997175216674805
      ],
      [
        "▁respect",
        -8.997214317321777
      ],
      [
        "▁jouer",
        -8.998109817504883
      ],
      [
        "▁sûr",
        -8.999066352844238
      ],
      [
        "▁rouge",
        -8.999390602111816
      ],
      [
        "▁sujet",
        -8.99949836730957
      ],
      [
        "▁sites",
        -8.999761581420898
      ],
      [
        "▁source",
        -9.000188827514648
      ],
      [
        "▁environ",
        -9.000587463378906
      ],
      [
        "▁nord",
        -9.00062370300293
      ],
      [
        "▁vient",
        -9.000858306884766
      ],
      [
        "▁période",
        -9.001522064208984
      ],
      [
        "▁solution",
        -9.002058982849121
      ],
      [
        "»",
        -9.003150939941406
      ],
      [
        "isme",
        -9.003284454345703
      ],
      [
        "euse",
        -9.003988265991211
      ],
      [
        "▁pa",
        -9.005558013916016
      ],
      [
        "▁juillet",
        -9.005614280700684
      ],
      [
        "▁fr",
        -9.006117820739746
      ],
      [
        "ienne",
        -9.007055282592773
      ],
      [
        "pro",
        -9.00898265838623
      ],
      [
        "▁matière",
        -9.011082649230955
      ],
      [
        "ect",
        -9.012383460998535
      ],
      [
        "ction",
        -9.013635635375977
      ],
      [
        "ations",
        -9.01453685760498
      ],
      [
        "▁espace",
        -9.015692710876465
      ],
      [
        "erie",
        -9.015891075134276
      ],
      [
        "▁présent",
        -9.01589584350586
      ],
      [
        "▁air",
        -9.016460418701172
      ],
      [
        "▁commun",
        -9.01647663116455
      ],
      [
        "iser",
        -9.019304275512695
      ],
      [
        "▁hommes",
        -9.021353721618652
      ],
      [
        "▁fer",
        -9.02267360687256
      ],
      [
        "nes",
        -9.022682189941406
      ],
      [
        "tin",
        -9.023028373718262
      ],
      [
        "▁route",
        -9.02381992340088
      ],
      [
        "▁téléphone",
        -9.024168968200684
      ],
      [
        "▁pé",
        -9.02645778656006
      ],
      [
        "intérieur",
        -9.027299880981444
      ],
      [
        "▁assez",
        -9.027406692504885
      ],
      [
        "▁prochain",
        -9.027750015258787
      ],
      [
        "▁situé",
        -9.027968406677246
      ],
      [
        "▁prise",
        -9.028231620788574
      ],
      [
        "▁22",
        -9.028329849243164
      ],
      [
        "ici",
        -9.028986930847168
      ],
      [
        "tra",
        -9.029115676879885
      ],
      [
        "▁libre",
        -9.0294771194458
      ],
      [
        "▁lien",
        -9.03056526184082
      ],
      [
        "▁eux",
        -9.030610084533691
      ],
      [
        "ph",
        -9.030927658081056
      ],
      [
        "▁sélection",
        -9.032376289367676
      ],
      [
        "▁existe",
        -9.032950401306152
      ],
      [
        "▁2022",
        -9.033143997192385
      ],
      [
        "action",
        -9.033803939819336
      ],
      [
        "▁articles",
        -9.034475326538086
      ],
      [
        "▁nature",
        -9.035103797912598
      ],
      [
        "▁jo",
        -9.035292625427246
      ],
      [
        "\".",
        -9.036383628845217
      ],
      [
        "▁avril",
        -9.036613464355469
      ],
      [
        "▁mé",
        -9.0375337600708
      ],
      [
        "▁auprès",
        -9.03808879852295
      ],
      [
        "▁parti",
        -9.03952407836914
      ],
      [
        "▁mot",
        -9.03964614868164
      ],
      [
        "▁nationale",
        -9.041818618774414
      ],
      [
        "▁rendre",
        -9.04182243347168
      ],
      [
        "▁publié",
        -9.042106628417969
      ],
      [
        "vent",
        -9.04232120513916
      ],
      [
        "▁serait",
        -9.042376518249512
      ],
      [
        "mer",
        -9.044126510620115
      ],
      [
        "▁transport",
        -9.044564247131348
      ],
      [
        "ade",
        -9.04470443725586
      ],
      [
        "▁0",
        -9.045241355895996
      ],
      [
        "▁professionnel",
        -9.04574489593506
      ],
      [
        "▁vacances",
        -9.048614501953123
      ],
      [
        "▁guide",
        -9.050517082214355
      ],
      [
        "▁obtenir",
        -9.050860404968262
      ],
      [
        "ions",
        -9.05315399169922
      ],
      [
        "▁meilleurs",
        -9.054254531860352
      ],
      [
        "▁sport",
        -9.058551788330078
      ],
      [
        "argent",
        -9.059799194335938
      ],
      [
        "▁culture",
        -9.060693740844728
      ],
      [
        "▁réaliser",
        -9.061609268188477
      ],
      [
        "▁li",
        -9.062628746032717
      ],
      [
        "▁contrôle",
        -9.063058853149414
      ],
      [
        "▁suivi",
        -9.063302040100098
      ],
      [
        "▁départ",
        -9.064014434814451
      ],
      [
        "▁ju",
        -9.064992904663086
      ],
      [
        "tant",
        -9.065951347351074
      ],
      [
        "▁th",
        -9.06610107421875
      ],
      [
        "▁communication",
        -9.066659927368164
      ],
      [
        "▁peau",
        -9.066667556762695
      ],
      [
        "▁auto",
        -9.069828987121582
      ],
      [
        "▁national",
        -9.070293426513672
      ],
      [
        "▁casino",
        -9.070363998413086
      ],
      [
        "rons",
        -9.07042407989502
      ],
      [
        "▁aller",
        -9.071982383728027
      ],
      [
        "▁télécharger",
        -9.07203769683838
      ],
      [
        "état",
        -9.072504043579102
      ],
      [
        "ll",
        -9.073060989379885
      ],
      [
        "▁semble",
        -9.073206901550291
      ],
      [
        "tro",
        -9.074226379394531
      ],
      [
        "▁traitement",
        -9.074556350708008
      ],
      [
        "▁chat",
        -9.075206756591797
      ],
      [
        "port",
        -9.075481414794922
      ],
      [
        "▁large",
        -9.07783317565918
      ],
      [
        "▁soutien",
        -9.08029556274414
      ],
      [
        "▁séjour",
        -9.080618858337402
      ],
      [
        "tri",
        -9.08073616027832
      ],
      [
        "ville",
        -9.08100128173828
      ],
      [
        "▁cependant",
        -9.082490921020508
      ],
      [
        "ens",
        -9.083695411682127
      ],
      [
        "ire",
        -9.083876609802246
      ],
      [
        "▁ayant",
        -9.08413028717041
      ],
      [
        "▁pourrez",
        -9.08437728881836
      ],
      [
        "activité",
        -9.086109161376951
      ],
      [
        "▁profiter",
        -9.086565971374512
      ],
      [
        "▁cap",
        -9.09007740020752
      ],
      [
        "▁construction",
        -9.090399742126465
      ],
      [
        "▁loin",
        -9.091137886047363
      ],
      [
        "▁jeudi",
        -9.091629028320312
      ],
      [
        "▁pièces",
        -9.093302726745604
      ],
      [
        "▁km",
        -9.093405723571776
      ],
      [
        "iers",
        -9.093520164489746
      ],
      [
        "▁certaines",
        -9.093616485595703
      ],
      [
        "▁simplement",
        -9.0947847366333
      ],
      [
        "▁difficile",
        -9.097124099731444
      ],
      [
        "▁rôle",
        -9.098512649536133
      ],
      [
        "entre",
        -9.102222442626951
      ],
      [
        "hôtel",
        -9.102327346801758
      ],
      [
        "lle",
        -9.102880477905272
      ],
      [
        "▁gu",
        -9.103190422058104
      ],
      [
        "▁vivre",
        -9.10339641571045
      ],
      [
        "▁bord",
        -9.10379123687744
      ],
      [
        "▁quelque",
        -9.10406494140625
      ],
      [
        "▁terrain",
        -9.10534954071045
      ],
      [
        "▁gay",
        -9.105606079101562
      ],
      [
        "▁gens",
        -9.105894088745115
      ],
      [
        "▁cour",
        -9.106740951538086
      ],
      [
        "▁bureau",
        -9.10737419128418
      ],
      [
        "ten",
        -9.110183715820312
      ],
      [
        "▁grands",
        -9.113367080688477
      ],
      [
        "▁dernières",
        -9.114019393920898
      ],
      [
        "▁nécessaire",
        -9.116798400878906
      ],
      [
        "▁direction",
        -9.117391586303713
      ],
      [
        "▁partager",
        -9.117756843566896
      ],
      [
        "▁envie",
        -9.1185941696167
      ],
      [
        "gi",
        -9.11988925933838
      ],
      [
        "▁efficace",
        -9.121625900268556
      ],
      [
        "▁mardi",
        -9.123542785644531
      ],
      [
        "▁joueurs",
        -9.123743057250977
      ],
      [
        "▁el",
        -9.124699592590332
      ],
      [
        "▁concernant",
        -9.126029014587402
      ],
      [
        "▁mercredi",
        -9.1260347366333
      ],
      [
        "▁février",
        -9.126697540283203
      ],
      [
        "▁valeur",
        -9.128697395324709
      ],
      [
        "▁contenu",
        -9.128893852233888
      ],
      [
        "▁devrait",
        -9.130398750305176
      ],
      [
        "▁disposition",
        -9.132445335388184
      ],
      [
        "ois",
        -9.132661819458008
      ],
      [
        "▁suivre",
        -9.13486385345459
      ],
      [
        "vé",
        -9.135720252990724
      ],
      [
        "▁ch",
        -9.135910034179688
      ],
      [
        "ix",
        -9.136567115783691
      ],
      [
        "▁scène",
        -9.136693000793455
      ],
      [
        "▁répondre",
        -9.13740348815918
      ],
      [
        "▁permettre",
        -9.138490676879885
      ],
      [
        "▁aura",
        -9.13892936706543
      ],
      [
        "▁seule",
        -9.13942050933838
      ],
      [
        "isé",
        -9.140567779541016
      ],
      [
        "rait",
        -9.14084243774414
      ],
      [
        "tes",
        -9.14084529876709
      ],
      [
        "▁longue",
        -9.140985488891602
      ],
      [
        "▁•",
        -9.142215728759766
      ],
      [
        "▁mobile",
        -9.142780303955078
      ],
      [
        "▁communauté",
        -9.144186973571776
      ],
      [
        "▁deuxième",
        -9.144244194030762
      ],
      [
        "▁matin",
        -9.145283699035645
      ],
      [
        "ron",
        -9.146641731262209
      ],
      [
        "▁risque",
        -9.147310256958008
      ],
      [
        "ible",
        -9.147419929504396
      ],
      [
        "ak",
        -9.148529052734377
      ],
      [
        "ko",
        -9.148563385009766
      ],
      [
        "ho",
        -9.149724960327148
      ],
      [
        "▁annonce",
        -9.150083541870115
      ],
      [
        "▁dés",
        -9.150535583496094
      ],
      [
        "▁résultats",
        -9.150959968566896
      ],
      [
        "▁rep",
        -9.151291847229004
      ],
      [
        "▁[",
        -9.151796340942385
      ],
      [
        "▁rou",
        -9.15232276916504
      ],
      [
        "▁trans",
        -9.1533784866333
      ],
      [
        "▁enfant",
        -9.15345287322998
      ],
      [
        "gu",
        -9.154677391052246
      ],
      [
        "▁bou",
        -9.155025482177734
      ],
      [
        "▁description",
        -9.155869483947754
      ],
      [
        "▁amis",
        -9.156045913696287
      ],
      [
        "▁mont",
        -9.15699291229248
      ],
      [
        "▁contrat",
        -9.157553672790527
      ],
      [
        "non",
        -9.158265113830566
      ],
      [
        "igne",
        -9.158989906311035
      ],
      [
        "▁mou",
        -9.160139083862305
      ],
      [
        "homme",
        -9.160693168640137
      ],
      [
        "▁ren",
        -9.160721778869627
      ],
      [
        "▁désormais",
        -9.16106414794922
      ],
      [
        "▁quotidien",
        -9.162473678588867
      ],
      [
        "cher",
        -9.163269996643066
      ],
      [
        "ang",
        -9.16343879699707
      ],
      [
        "▁quelle",
        -9.163552284240724
      ],
      [
        "▁déclaré",
        -9.16387176513672
      ],
      [
        "▁23",
        -9.164785385131836
      ],
      [
        "lin",
        -9.166159629821776
      ],
      [
        "▁réponse",
        -9.16629123687744
      ],
      [
        "▁etc",
        -9.16635799407959
      ],
      [
        "\\",
        -9.166436195373535
      ],
      [
        "▁prend",
        -9.168166160583496
      ],
      [
        "ow",
        -9.168171882629396
      ],
      [
        "▁you",
        -9.16853141784668
      ],
      [
        "ty",
        -9.16857624053955
      ],
      [
        "▁solutions",
        -9.168598175048828
      ],
      [
        "▁blog",
        -9.168893814086914
      ],
      [
        "▁fe",
        -9.169114112854004
      ],
      [
        "▁2016",
        -9.16914176940918
      ],
      [
        "▁numéro",
        -9.170268058776855
      ],
      [
        "▁donné",
        -9.170836448669434
      ],
      [
        "▁sac",
        -9.171032905578612
      ],
      [
        "unis",
        -9.171224594116213
      ],
      [
        "▁sp",
        -9.172179222106934
      ],
      [
        "▁2023",
        -9.1734037399292
      ],
      [
        "▁location",
        -9.173724174499512
      ],
      [
        "▁chambres",
        -9.173969268798828
      ],
      [
        "▁images",
        -9.174077987670898
      ],
      [
        "association",
        -9.174309730529783
      ],
      [
        "▁durée",
        -9.175564765930176
      ],
      [
        "sur",
        -9.176265716552734
      ],
      [
        "▁durant",
        -9.176462173461914
      ],
      [
        "chi",
        -9.17720890045166
      ],
      [
        "▁euros",
        -9.177224159240724
      ],
      [
        "▁post",
        -9.177587509155272
      ],
      [
        "▁all",
        -9.178264617919922
      ],
      [
        "▁oui",
        -9.178813934326172
      ],
      [
        "▁hôtel",
        -9.17896842956543
      ],
      [
        "▁montre",
        -9.179283142089844
      ],
      [
        "▁soirée",
        -9.17995834350586
      ],
      [
        "tique",
        -9.180399894714355
      ],
      [
        "été",
        -9.18040657043457
      ],
      [
        "▁veut",
        -9.181262016296388
      ],
      [
        "▁directement",
        -9.18239688873291
      ],
      [
        "▁plutôt",
        -9.182611465454102
      ],
      [
        "▁retrouver",
        -9.18280029296875
      ],
      [
        "▁directeur",
        -9.18302059173584
      ],
      [
        "gé",
        -9.187633514404297
      ],
      [
        "▁bio",
        -9.188095092773438
      ],
      [
        "▁top",
        -9.188399314880373
      ],
      [
        "▁bonjour",
        -9.188745498657228
      ],
      [
        "▁parc",
        -9.188790321350098
      ],
      [
        "▁confiance",
        -9.18938159942627
      ],
      [
        "▁attention",
        -9.190389633178713
      ],
      [
        "▁décision",
        -9.193860054016112
      ],
      [
        "org",
        -9.194807052612305
      ],
      [
        "▁tri",
        -9.1958589553833
      ],
      [
        "ate",
        -9.197535514831545
      ],
      [
        "▁techniques",
        -9.198723793029783
      ],
      [
        "▁accord",
        -9.200406074523926
      ],
      [
        "▁choisi",
        -9.201258659362791
      ],
      [
        "land",
        -9.202466011047363
      ],
      [
        "▁garde",
        -9.202630996704102
      ],
      [
        "▁support",
        -9.203133583068848
      ],
      [
        "lement",
        -9.203142166137695
      ],
      [
        "ja",
        -9.203424453735352
      ],
      [
        "ants",
        -9.20522689819336
      ],
      [
        "▁ka",
        -9.205345153808594
      ],
      [
        "od",
        -9.205469131469728
      ],
      [
        "ê",
        -9.206331253051758
      ],
      [
        "▁profil",
        -9.20639419555664
      ],
      [
        "▁possibilité",
        -9.20811653137207
      ],
      [
        "▁doivent",
        -9.20813274383545
      ],
      [
        "▁véritable",
        -9.208742141723633
      ],
      [
        "▁adresse",
        -9.209094047546388
      ],
      [
        "▁*",
        -9.210461616516112
      ],
      [
        "▁étaient",
        -9.21102809906006
      ],
      [
        "▁vert",
        -9.211414337158203
      ],
      [
        "aï",
        -9.211603164672852
      ],
      [
        "▁pre",
        -9.211742401123049
      ],
      [
        "▁numérique",
        -9.212618827819824
      ],
      [
        "▁pièce",
        -9.21370792388916
      ],
      [
        "▁presse",
        -9.21459674835205
      ],
      [
        "▁édition",
        -9.215750694274902
      ],
      [
        "▁choses",
        -9.215962409973145
      ],
      [
        "▁paiement",
        -9.217677116394045
      ],
      [
        "▁ouvert",
        -9.218799591064451
      ],
      [
        "▁coupe",
        -9.219193458557127
      ],
      [
        "serv",
        -9.21963882446289
      ],
      [
        "▁parfois",
        -9.22000217437744
      ],
      [
        "article",
        -9.220088005065918
      ],
      [
        "▁he",
        -9.220099449157717
      ],
      [
        "▁cha",
        -9.221224784851074
      ],
      [
        "▁complet",
        -9.222785949707031
      ],
      [
        "▁min",
        -9.223027229309082
      ],
      [
        "▁compagnie",
        -9.223509788513184
      ],
      [
        "▁thème",
        -9.223511695861816
      ],
      [
        "▁pe",
        -9.223618507385254
      ],
      [
        "▁chance",
        -9.224859237670898
      ],
      [
        "▁logement",
        -9.225666046142578
      ],
      [
        "▁chacun",
        -9.226784706115724
      ],
      [
        "è",
        -9.226873397827148
      ],
      [
        "abord",
        -9.22776699066162
      ],
      [
        "▁sociaux",
        -9.228164672851562
      ],
      [
        "vr",
        -9.229710578918455
      ],
      [
        "▁double",
        -9.230740547180176
      ],
      [
        "ud",
        -9.23089599609375
      ],
      [
        "▁sc",
        -9.23151683807373
      ],
      [
        "▁facilement",
        -9.233535766601562
      ],
      [
        "▁idéal",
        -9.23393726348877
      ],
      [
        "▁vrai",
        -9.234065055847168
      ],
      [
        "▁#",
        -9.234540939331056
      ],
      [
        "▁marche",
        -9.235105514526367
      ],
      [
        "▁tard",
        -9.235247611999512
      ],
      [
        "▁devez",
        -9.235535621643066
      ],
      [
        "▁rec",
        -9.236786842346191
      ],
      [
        "▁z",
        -9.236989974975586
      ],
      [
        "▁propriété",
        -9.238122940063477
      ],
      [
        "ables",
        -9.238924026489258
      ],
      [
        "▁accès",
        -9.238981246948242
      ],
      [
        "▁vont",
        -9.2400484085083
      ],
      [
        "tion",
        -9.240375518798828
      ],
      [
        "▁département",
        -9.240549087524414
      ],
      [
        "mon",
        -9.24066925048828
      ],
      [
        "rou",
        -9.241641998291016
      ],
      [
        "▁40",
        -9.241952896118164
      ],
      [
        "▁annoncé",
        -9.242669105529783
      ],
      [
        "▁gra",
        -9.24545955657959
      ],
      [
        "▁œuvre",
        -9.246277809143066
      ],
      [
        "▁gratuitement",
        -9.247917175292969
      ],
      [
        "amour",
        -9.248101234436035
      ],
      [
        "▁déc",
        -9.24825954437256
      ],
      [
        "▁ru",
        -9.249134063720703
      ],
      [
        "▁zone",
        -9.249342918395996
      ],
      [
        "▁fou",
        -9.249404907226562
      ],
      [
        "▁professionnelle",
        -9.24976634979248
      ],
      [
        "▁mouvement",
        -9.25009059906006
      ],
      [
        "▁im",
        -9.25011920928955
      ],
      [
        "▁acheter",
        -9.250293731689451
      ],
      [
        "▁propos",
        -9.252201080322266
      ],
      [
        "▁cou",
        -9.25262451171875
      ],
      [
        "▁aucune",
        -9.252815246582031
      ],
      [
        "ative",
        -9.254035949707031
      ],
      [
        "▁logiciel",
        -9.255173683166504
      ],
      [
        "▁laquelle",
        -9.256425857543944
      ],
      [
        "▁bain",
        -9.257224082946776
      ],
      [
        "▁gi",
        -9.258050918579102
      ],
      [
        "ile",
        -9.258386611938477
      ],
      [
        "▁mariage",
        -9.258953094482422
      ],
      [
        "jo",
        -9.25942611694336
      ],
      [
        "▁contacter",
        -9.2595853805542
      ],
      [
        "don",
        -9.26068115234375
      ],
      [
        "▁réalisé",
        -9.263032913208008
      ],
      [
        "▁char",
        -9.26465892791748
      ],
      [
        "▁stock",
        -9.265201568603516
      ],
      [
        "▁publique",
        -9.26539707183838
      ],
      [
        "▁relation",
        -9.265741348266602
      ],
      [
        "▁autant",
        -9.266289710998535
      ],
      [
        "▁parler",
        -9.26681137084961
      ],
      [
        "12",
        -9.26696491241455
      ],
      [
        "▁milieu",
        -9.267173767089844
      ],
      [
        "ét",
        -9.267311096191406
      ],
      [
        "▁confort",
        -9.267552375793455
      ],
      [
        "emploi",
        -9.26764678955078
      ],
      [
        "ales",
        -9.268816947937012
      ],
      [
        "▁classe",
        -9.26895809173584
      ],
      [
        "▁structure",
        -9.26961612701416
      ],
      [
        "▁référence",
        -9.269801139831545
      ],
      [
        "▁venir",
        -9.270150184631348
      ],
      [
        "▁lumière",
        -9.270755767822266
      ],
      [
        "▁mor",
        -9.271191596984863
      ],
      [
        "▁laisser",
        -9.27184772491455
      ],
      [
        "▁op",
        -9.272042274475098
      ],
      [
        "+",
        -9.27206802368164
      ],
      [
        "▁pense",
        -9.272086143493652
      ],
      [
        "▁mission",
        -9.272180557250977
      ],
      [
        "image",
        -9.272232055664062
      ],
      [
        "▁cookies",
        -9.27268886566162
      ],
      [
        "▁gratuite",
        -9.273215293884276
      ],
      [
        "tic",
        -9.27342414855957
      ],
      [
        "▁écrit",
        -9.27421760559082
      ],
      [
        "▁es",
        -9.275453567504885
      ],
      [
        "▁chi",
        -9.276211738586426
      ],
      [
        "▁force",
        -9.276575088500977
      ],
      [
        "▁matériel",
        -9.276922225952148
      ],
      [
        "▁village",
        -9.277250289916992
      ],
      [
        "nom",
        -9.279237747192385
      ],
      [
        "aime",
        -9.279610633850098
      ],
      [
        "▁quartier",
        -9.280069351196287
      ],
      [
        "teur",
        -9.280606269836426
      ],
      [
        "▁offres",
        -9.281052589416504
      ],
      [
        "▁plateforme",
        -9.281397819519045
      ],
      [
        "achat",
        -9.28166961669922
      ],
      [
        "▁verre",
        -9.282600402832031
      ],
      [
        "▁boutique",
        -9.284669876098633
      ],
      [
        "▁actuellement",
        -9.285730361938477
      ],
      [
        "lant",
        -9.28626537322998
      ],
      [
        "istes",
        -9.286848068237305
      ],
      [
        "▁piscine",
        -9.287925720214844
      ],
      [
        "▁responsable",
        -9.28850555419922
      ],
      [
        "▁mini",
        -9.288599967956545
      ],
      [
        "▁fl",
        -9.28905200958252
      ],
      [
        "▁territoire",
        -9.289302825927734
      ],
      [
        "▁train",
        -9.28963565826416
      ],
      [
        "▁cons",
        -9.289965629577637
      ],
      [
        "▁…",
        -9.29129409790039
      ],
      [
        "application",
        -9.291448593139648
      ],
      [
        "▁ob",
        -9.291715621948242
      ],
      [
        "▁prochaine",
        -9.292488098144531
      ],
      [
        "mp",
        -9.29340648651123
      ],
      [
        "▁succès",
        -9.293822288513184
      ],
      [
        "ven",
        -9.29464340209961
      ],
      [
        "▁permis",
        -9.29468059539795
      ],
      [
        "▁pose",
        -9.29548454284668
      ],
      [
        "▁vis",
        -9.29671573638916
      ],
      [
        "▁we",
        -9.297547340393066
      ],
      [
        "lon",
        -9.298940658569336
      ],
      [
        "▁genre",
        -9.29917812347412
      ],
      [
        "nel",
        -9.299205780029297
      ],
      [
        "▁couple",
        -9.300314903259276
      ],
      [
        "▁proposer",
        -9.303314208984377
      ],
      [
        "▁rêve",
        -9.303855895996094
      ],
      [
        "▁réseaux",
        -9.303905487060549
      ],
      [
        "▁new",
        -9.305928230285645
      ],
      [
        "enne",
        -9.306122779846191
      ],
      [
        "▁manque",
        -9.306612968444824
      ],
      [
        "▁fête",
        -9.3069429397583
      ],
      [
        "▁lecture",
        -9.309171676635742
      ],
      [
        "espace",
        -9.309245109558104
      ],
      [
        "▁cra",
        -9.309301376342772
      ],
      [
        "▁août",
        -9.31069278717041
      ],
      [
        "▁travailler",
        -9.311299324035645
      ],
      [
        "▁malgré",
        -9.312240600585938
      ],
      [
        "▁compris",
        -9.313241958618164
      ],
      [
        "▁vite",
        -9.314422607421877
      ],
      [
        "▁parfait",
        -9.314923286437988
      ],
      [
        "information",
        -9.315671920776367
      ],
      [
        "ène",
        -9.316563606262209
      ],
      [
        "▁étant",
        -9.31887149810791
      ],
      [
        "ru",
        -9.321144104003906
      ],
      [
        "▁caractéristique",
        -9.322064399719238
      ],
      [
        "▁campagne",
        -9.322505950927734
      ],
      [
        "▁google",
        -9.322942733764648
      ],
      [
        "▁connu",
        -9.32357692718506
      ],
      [
        "▁note",
        -9.323872566223145
      ],
      [
        "▁utilisé",
        -9.324224472045898
      ],
      [
        "ran",
        -9.324341773986816
      ],
      [
        "▁commune",
        -9.325363159179688
      ],
      [
        "▁cherche",
        -9.32536792755127
      ],
      [
        "▁physique",
        -9.325637817382812
      ],
      [
        "▁art",
        -9.326111793518066
      ],
      [
        "ber",
        -9.326236724853516
      ],
      [
        "aires",
        -9.32665729522705
      ],
      [
        "▁mac",
        -9.327902793884276
      ],
      [
        "▁position",
        -9.32798194885254
      ],
      [
        "ien",
        -9.328702926635742
      ],
      [
        "ana",
        -9.329859733581545
      ],
      [
        "▁chemin",
        -9.33006477355957
      ],
      [
        "▁décidé",
        -9.330155372619627
      ],
      [
        "▁course",
        -9.331260681152344
      ],
      [
        "▁cinq",
        -9.331443786621094
      ],
      [
        "▁pied",
        -9.33149528503418
      ],
      [
        "école",
        -9.331936836242676
      ],
      [
        "▁classique",
        -9.331961631774902
      ],
      [
        "▁terme",
        -9.33250331878662
      ],
      [
        "tt",
        -9.333548545837402
      ],
      [
        "ub",
        -9.335235595703123
      ],
      [
        "ailleurs",
        -9.33632469177246
      ],
      [
        "▁hu",
        -9.337872505187988
      ],
      [
        "pl",
        -9.338038444519045
      ],
      [
        "▁do",
        -9.33811378479004
      ],
      [
        "cha",
        -9.338265419006348
      ],
      [
        "▁ti",
        -9.33890438079834
      ],
      [
        "ay",
        -9.33945655822754
      ],
      [
        "▁générale",
        -9.33975315093994
      ],
      [
        "origine",
        -9.339826583862305
      ],
      [
        "▁état",
        -9.34108543395996
      ],
      [
        "▁format",
        -9.34217357635498
      ],
      [
        "▁gr",
        -9.34227466583252
      ],
      [
        "▁processus",
        -9.342541694641112
      ],
      [
        "▁économique",
        -9.342759132385254
      ],
      [
        "▁moderne",
        -9.344298362731934
      ],
      [
        "▁message",
        -9.344722747802734
      ],
      [
        "▁continue",
        -9.345080375671388
      ],
      [
        "ob",
        -9.346023559570312
      ],
      [
        "▁2015",
        -9.34743595123291
      ],
      [
        "▁dép",
        -9.347885131835938
      ],
      [
        "▁semaines",
        -9.349011421203612
      ],
      [
        "hésitez",
        -9.349017143249512
      ],
      [
        "▁offrir",
        -9.349408149719238
      ],
      [
        "▁gagner",
        -9.350123405456545
      ],
      [
        "ace",
        -9.350236892700195
      ],
      [
        "▁imp",
        -9.350322723388672
      ],
      [
        "▁rend",
        -9.350628852844238
      ],
      [
        "▁bel",
        -9.350977897644045
      ],
      [
        "ès",
        -9.35150146484375
      ],
      [
        "ali",
        -9.352429389953612
      ],
      [
        "▁mu",
        -9.353907585144045
      ],
      [
        "▁col",
        -9.354239463806152
      ],
      [
        "▁associé",
        -9.3545503616333
      ],
      [
        "▁my",
        -9.35647678375244
      ],
      [
        "offre",
        -9.356703758239746
      ],
      [
        "▁micro",
        -9.357137680053713
      ],
      [
        "▁éléments",
        -9.357306480407717
      ],
      [
        "▁guerre",
        -9.357401847839355
      ],
      [
        "▁droits",
        -9.35742473602295
      ],
      [
        "▁it",
        -9.358242988586426
      ],
      [
        "▁nu",
        -9.359003067016602
      ],
      [
        "▁soleil",
        -9.35950756072998
      ],
      [
        "▁multi",
        -9.359522819519045
      ],
      [
        "▁divers",
        -9.36021900177002
      ],
      [
        "▁parents",
        -9.360647201538086
      ],
      [
        "▁star",
        -9.360713958740234
      ],
      [
        "▁partage",
        -9.36206340789795
      ],
      [
        "▁joue",
        -9.363182067871094
      ],
      [
        "▁préparation",
        -9.363409996032717
      ],
      [
        "expérience",
        -9.363786697387695
      ],
      [
        "aud",
        -9.363819122314451
      ],
      [
        "▁commentaires",
        -9.36467456817627
      ],
      [
        "▁28",
        -9.365546226501465
      ],
      [
        "www",
        -9.366813659667969
      ],
      [
        "▁court",
        -9.367226600646973
      ],
      [
        "ris",
        -9.368393898010254
      ],
      [
        "▁test",
        -9.368404388427734
      ],
      [
        "vis",
        -9.368485450744627
      ],
      [
        "▁cl",
        -9.36920166015625
      ],
      [
        "▁restaurant",
        -9.370304107666016
      ],
      [
        "tation",
        -9.370954513549805
      ],
      [
        "isée",
        -9.37099266052246
      ],
      [
        "▁26",
        -9.371711730957031
      ],
      [
        "vo",
        -9.371784210205078
      ],
      [
        "▁changer",
        -9.372784614562988
      ],
      [
        "▁gar",
        -9.372817993164062
      ],
      [
        "▁roman",
        -9.37311553955078
      ],
      [
        "alité",
        -9.37313175201416
      ],
      [
        "▁doute",
        -9.373794555664062
      ],
      [
        "br",
        -9.373969078063965
      ],
      [
        "▁wi",
        -9.373979568481444
      ],
      [
        "av",
        -9.37498950958252
      ],
      [
        "▁durable",
        -9.375429153442385
      ],
      [
        "▁commencer",
        -9.375982284545898
      ],
      [
        "line",
        -9.377232551574709
      ],
      [
        "accès",
        -9.37770652770996
      ],
      [
        "▁devenir",
        -9.377762794494627
      ],
      [
        "pos",
        -9.378326416015623
      ],
      [
        "▁comprendre",
        -9.378704071044922
      ],
      [
        "▁us",
        -9.379179000854492
      ],
      [
        "▁commerce",
        -9.379228591918944
      ],
      [
        "▁forte",
        -9.380281448364258
      ],
      [
        "ttes",
        -9.380292892456056
      ],
      [
        "▁réel",
        -9.380414009094238
      ],
      [
        "app",
        -9.380681037902832
      ],
      [
        "▁reçu",
        -9.381268501281738
      ],
      [
        "▁goût",
        -9.3814058303833
      ],
      [
        "▁soi",
        -9.382447242736816
      ],
      [
        "15",
        -9.383451461791992
      ],
      [
        "▁papier",
        -9.385231971740724
      ],
      [
        "▁surface",
        -9.385756492614746
      ],
      [
        "▁trouverez",
        -9.386488914489746
      ],
      [
        "rant",
        -9.38751220703125
      ],
      [
        "après",
        -9.38769817352295
      ],
      [
        "heure",
        -9.388407707214355
      ],
      [
        "▁social",
        -9.389810562133787
      ],
      [
        "▁u",
        -9.390548706054688
      ],
      [
        "▁bu",
        -9.390625
      ],
      [
        "▁décoration",
        -9.391326904296877
      ],
      [
        "▁tel",
        -9.392230987548828
      ],
      [
        "▁vin",
        -9.392541885375977
      ],
      [
        "▁27",
        -9.393797874450684
      ],
      [
        "▁trouvé",
        -9.39388942718506
      ],
      [
        "▁bleu",
        -9.394021034240724
      ],
      [
        "▁derniers",
        -9.39424991607666
      ],
      [
        "▁agréable",
        -9.394269943237305
      ],
      [
        "▁outils",
        -9.39488410949707
      ],
      [
        "▁voulez",
        -9.395097732543944
      ],
      [
        "▁problèmes",
        -9.396047592163086
      ],
      [
        "éré",
        -9.396492004394531
      ],
      [
        "tor",
        -9.396504402160645
      ],
      [
        "▁plage",
        -9.39662265777588
      ],
      [
        "â",
        -9.396727561950684
      ],
      [
        "▁proche",
        -9.396857261657717
      ],
      [
        "▁pla",
        -9.397397994995115
      ],
      [
        "▁cheveux",
        -9.39749526977539
      ],
      [
        "▁bébé",
        -9.397711753845217
      ],
      [
        "▁inc",
        -9.397916793823242
      ],
      [
        "▁stratégie",
        -9.398148536682127
      ],
      [
        "éli",
        -9.399558067321776
      ],
      [
        "ren",
        -9.40040111541748
      ],
      [
        "▁père",
        -9.400410652160645
      ],
      [
        "▁endroit",
        -9.40066623687744
      ],
      [
        "▁présence",
        -9.400923728942873
      ],
      [
        "▁banque",
        -9.401240348815918
      ],
      [
        "▁ami",
        -9.401289939880373
      ],
      [
        "▁bâtiment",
        -9.401939392089844
      ],
      [
        "▁cro",
        -9.402351379394531
      ],
      [
        "▁touche",
        -9.40303897857666
      ],
      [
        "▁feu",
        -9.40304183959961
      ],
      [
        "11",
        -9.403143882751465
      ],
      [
        "▁facebook",
        -9.403194427490234
      ],
      [
        "▁allez",
        -9.403206825256348
      ],
      [
        "ill",
        -9.403953552246094
      ],
      [
        "▁détails",
        -9.40429973602295
      ],
      [
        "▁taux",
        -9.404550552368164
      ],
      [
        "▁lu",
        -9.405146598815918
      ],
      [
        "▁rose",
        -9.405898094177246
      ],
      [
        "énergie",
        -9.406061172485352
      ],
      [
        "▁siècle",
        -9.407308578491213
      ],
      [
        "▁ajouter",
        -9.408303260803224
      ],
      [
        "▁meilleures",
        -9.408405303955078
      ],
      [
        "atif",
        -9.40871810913086
      ],
      [
        "▁wa",
        -9.409249305725098
      ],
      [
        "▁aurait",
        -9.409547805786133
      ],
      [
        "▁ho",
        -9.41122341156006
      ],
      [
        "▁modèles",
        -9.41214370727539
      ],
      [
        "▁lorsqu",
        -9.413193702697754
      ],
      [
        "pé",
        -9.413976669311523
      ],
      [
        "gre",
        -9.414640426635742
      ],
      [
        "▁développer",
        -9.415250778198242
      ],
      [
        "▁télé",
        -9.41599178314209
      ],
      [
        "▁magnifique",
        -9.416973114013672
      ],
      [
        "▁machine",
        -9.41788101196289
      ],
      [
        "▁activité",
        -9.41879653930664
      ],
      [
        "ologie",
        -9.418893814086914
      ],
      [
        "▁permettant",
        -9.419201850891112
      ],
      [
        "▁souhaite",
        -9.4207763671875
      ],
      [
        "▁mur",
        -9.42250156402588
      ],
      [
        "atrice",
        -9.422585487365724
      ],
      [
        "▁hotel",
        -9.42502212524414
      ],
      [
        "▁parcours",
        -9.425132751464844
      ],
      [
        "▁ve",
        -9.425337791442873
      ],
      [
        "nant",
        -9.425487518310549
      ],
      [
        "▁proximité",
        -9.42601203918457
      ],
      [
        "ast",
        -9.426788330078123
      ],
      [
        "tal",
        -9.426942825317385
      ],
      [
        "▁intérieur",
        -9.427035331726074
      ],
      [
        "▁ko",
        -9.42713737487793
      ],
      [
        "▁mots",
        -9.427146911621094
      ],
      [
        "▁conception",
        -9.427831649780272
      ],
      [
        "▁international",
        -9.428452491760254
      ],
      [
        "naire",
        -9.42863941192627
      ],
      [
        "▁pc",
        -9.42864227294922
      ],
      [
        "▁lieux",
        -9.42963695526123
      ],
      [
        "lan",
        -9.429695129394531
      ],
      [
        "▁capacité",
        -9.430285453796388
      ],
      [
        "net",
        -9.430623054504396
      ],
      [
        "▁spectacle",
        -9.433332443237305
      ],
      [
        "▁devis",
        -9.434131622314451
      ],
      [
        "▁réalisation",
        -9.434292793273926
      ],
      [
        "▁internationale",
        -9.434677124023438
      ],
      [
        "▁pr",
        -9.43565845489502
      ],
      [
        "dessous",
        -9.435941696166992
      ],
      [
        "▁pot",
        -9.435959815979004
      ],
      [
        "▁meubles",
        -9.43614387512207
      ],
      [
        "▁festival",
        -9.43626308441162
      ],
      [
        "▁café",
        -9.437061309814451
      ],
      [
        "oir",
        -9.43770694732666
      ],
      [
        "▁ab",
        -9.438799858093262
      ],
      [
        "▁cliquez",
        -9.439146995544434
      ],
      [
        "▁idées",
        -9.439992904663086
      ],
      [
        "▁email",
        -9.440918922424316
      ],
      [
        "▁crise",
        -9.441055297851562
      ],
      [
        "bre",
        -9.442378044128418
      ],
      [
        "▁poids",
        -9.443084716796877
      ],
      [
        "▁européenne",
        -9.444786071777344
      ],
      [
        "▁crédit",
        -9.444849014282228
      ],
      [
        "ssant",
        -9.44530200958252
      ],
      [
        "▁moteur",
        -9.445361137390137
      ],
      [
        "▁hors",
        -9.44545078277588
      ],
      [
        "▁réduction",
        -9.446613311767578
      ],
      [
        "▁red",
        -9.447030067443848
      ],
      [
        "▁grandes",
        -9.447175979614258
      ],
      [
        "ami",
        -9.447376251220703
      ],
      [
        "uve",
        -9.448175430297852
      ],
      [
        "tel",
        -9.448880195617676
      ],
      [
        "▁magasin",
        -9.448899269104004
      ],
      [
        "▁compétences",
        -9.449231147766112
      ],
      [
        "▁agence",
        -9.450416564941406
      ],
      [
        "▁bande",
        -9.450828552246094
      ],
      [
        "▁windows",
        -9.451001167297363
      ],
      [
        "▁généralement",
        -9.452265739440918
      ],
      [
        "▁domicile",
        -9.452713966369627
      ],
      [
        "érer",
        -9.453377723693848
      ],
      [
        "▁noël",
        -9.453845024108888
      ],
      [
        "▁pourtant",
        -9.454011917114258
      ],
      [
        "mail",
        -9.454915046691896
      ],
      [
        "▁signe",
        -9.455172538757324
      ],
      [
        "▁gaz",
        -9.456364631652832
      ],
      [
        "▁yeux",
        -9.456915855407717
      ],
      [
        "ight",
        -9.45706272125244
      ],
      [
        "▁résultat",
        -9.457353591918944
      ],
      [
        "▁commentaire",
        -9.458614349365234
      ],
      [
        "▁60",
        -9.46013355255127
      ],
      [
        "▁améliorer",
        -9.462684631347656
      ],
      [
        "▁soins",
        -9.462810516357422
      ],
      [
        "▁garantie",
        -9.46297550201416
      ],
      [
        "▁total",
        -9.463475227355955
      ],
      [
        "▁parle",
        -9.463617324829102
      ],
      [
        "▁riche",
        -9.46511936187744
      ],
      [
        "▁cam",
        -9.467564582824709
      ],
      [
        "90",
        -9.468219757080078
      ],
      [
        "▁ag",
        -9.468717575073242
      ],
      [
        "issant",
        -9.46892261505127
      ],
      [
        "▁mère",
        -9.469409942626951
      ],
      [
        "▁présentation",
        -9.469908714294434
      ],
      [
        "ze",
        -9.470065116882324
      ],
      [
        "@",
        -9.470547676086426
      ],
      [
        "pin",
        -9.470908164978027
      ],
      [
        "avais",
        -9.47153663635254
      ],
      [
        "▁complète",
        -9.471659660339355
      ],
      [
        "▁image",
        -9.472325325012209
      ],
      [
        "annonce",
        -9.47372055053711
      ],
      [
        "▁by",
        -9.473958969116213
      ],
      [
        "▁partenaires",
        -9.473984718322754
      ],
      [
        "▁population",
        -9.47398853302002
      ],
      [
        "40",
        -9.474493980407717
      ],
      [
        "▁permettent",
        -9.47462272644043
      ],
      [
        "▁bout",
        -9.474945068359377
      ],
      [
        "▁franc",
        -9.476237297058104
      ],
      [
        "mat",
        -9.47843074798584
      ],
      [
        "rez",
        -9.478729248046877
      ],
      [
        "▁organisation",
        -9.47877597808838
      ],
      [
        "ies",
        -9.479050636291504
      ],
      [
        "chant",
        -9.47955322265625
      ],
      [
        "▁recette",
        -9.480548858642578
      ],
      [
        "▁américain",
        -9.481026649475098
      ],
      [
        "▁https",
        -9.481171607971191
      ],
      [
        "uv",
        -9.48207664489746
      ],
      [
        "▁passage",
        -9.482318878173828
      ],
      [
        "▁quant",
        -9.48268222808838
      ],
      [
        "voi",
        -9.483904838562012
      ],
      [
        "▁petites",
        -9.484121322631836
      ],
      [
        "▁animaux",
        -9.484333992004396
      ],
      [
        "▁découverte",
        -9.484429359436035
      ],
      [
        "▁vo",
        -9.485864639282228
      ],
      [
        "▁voie",
        -9.485936164855955
      ],
      [
        "accord",
        -9.486323356628418
      ],
      [
        "▁repas",
        -9.486369132995604
      ],
      [
        "▁coeur",
        -9.487434387207031
      ],
      [
        "▁bri",
        -9.487541198730469
      ],
      [
        "▁futur",
        -9.48927402496338
      ],
      [
        "out",
        -9.490331649780272
      ],
      [
        "mont",
        -9.490724563598633
      ],
      [
        "ind",
        -9.490939140319824
      ],
      [
        "▁2014",
        -9.490979194641112
      ],
      [
        "▁explique",
        -9.491004943847656
      ],
      [
        "▁réunion",
        -9.491171836853027
      ],
      [
        "▁sal",
        -9.492524147033691
      ],
      [
        "▁local",
        -9.492730140686035
      ],
      [
        "ya",
        -9.493632316589355
      ],
      [
        "anne",
        -9.494638442993164
      ],
      [
        "▁four",
        -9.49466323852539
      ],
      [
        "cor",
        -9.495077133178713
      ],
      [
        "ong",
        -9.49562644958496
      ],
      [
        "▁fourni",
        -9.49581527709961
      ],
      [
        "let",
        -9.496153831481934
      ],
      [
        "▁technologie",
        -9.4979829788208
      ],
      [
        "▁participer",
        -9.498320579528809
      ],
      [
        "▁concerne",
        -9.498490333557127
      ],
      [
        "▁dossier",
        -9.498944282531738
      ],
      [
        "▁ailleurs",
        -9.499063491821287
      ],
      [
        "▁week",
        -9.499795913696287
      ],
      [
        "▁bro",
        -9.500242233276367
      ],
      [
        "18",
        -9.501032829284668
      ],
      [
        "▁rem",
        -9.501084327697754
      ],
      [
        "▁anglais",
        -9.50201416015625
      ],
      [
        "enfant",
        -9.502034187316896
      ],
      [
        "lot",
        -9.504611015319824
      ],
      [
        "▁bal",
        -9.504664421081545
      ],
      [
        "▁réservation",
        -9.507022857666016
      ],
      [
        "▁tels",
        -9.507640838623049
      ],
      [
        "▁hauteur",
        -9.508001327514648
      ],
      [
        "▁mari",
        -9.508225440979004
      ],
      [
        "za",
        -9.50887966156006
      ],
      [
        "▁ben",
        -9.509037017822266
      ],
      [
        "▁pat",
        -9.509563446044922
      ],
      [
        "▁soin",
        -9.510191917419434
      ],
      [
        "▁conférence",
        -9.510749816894531
      ],
      [
        "inter",
        -9.51136589050293
      ],
      [
        "rage",
        -9.512313842773438
      ],
      [
        "▁promotion",
        -9.512409210205078
      ],
      [
        "▁cal",
        -9.51290798187256
      ],
      [
        "▁29",
        -9.513004302978516
      ],
      [
        "▁réussi",
        -9.513113975524902
      ],
      [
        "ost",
        -9.513588905334473
      ],
      [
        "▁conc",
        -9.514692306518556
      ],
      [
        "▁privé",
        -9.51470947265625
      ],
      [
        "▁plat",
        -9.515310287475586
      ],
      [
        "▁utilisateurs",
        -9.515639305114746
      ],
      [
        "vers",
        -9.51565933227539
      ],
      [
        "▁police",
        -9.515869140625
      ],
      [
        "cul",
        -9.518242835998535
      ],
      [
        "▁commence",
        -9.51862907409668
      ],
      [
        "▁permettra",
        -9.518868446350098
      ],
      [
        "▁équipes",
        -9.51979160308838
      ],
      [
        "organisation",
        -9.520559310913086
      ],
      [
        "née",
        -9.52065372467041
      ],
      [
        "▁immobilier",
        -9.52200698852539
      ],
      [
        "▁avantages",
        -9.522388458251951
      ],
      [
        "nelle",
        -9.522493362426758
      ],
      [
        "ieux",
        -9.522500991821287
      ],
      [
        "▁outre",
        -9.52284049987793
      ],
      [
        "▁étape",
        -9.52293872833252
      ],
      [
        "▁vidéos",
        -9.523324966430664
      ],
      [
        "▁livres",
        -9.523653030395508
      ],
      [
        "▁types",
        -9.52411937713623
      ],
      [
        "▁occasion",
        -9.524654388427734
      ],
      [
        "▁beauté",
        -9.525474548339844
      ],
      [
        "▁covid",
        -9.525690078735352
      ],
      [
        "▁texte",
        -9.525796890258787
      ],
      [
        "▁concert",
        -9.526090621948242
      ],
      [
        "▁connaître",
        -9.526315689086914
      ],
      [
        "cer",
        -9.526331901550291
      ],
      [
        "inc",
        -9.528010368347168
      ],
      [
        "ouverture",
        -9.528032302856444
      ],
      [
        "▁pratiques",
        -9.528559684753418
      ],
      [
        "▁élèves",
        -9.528613090515137
      ],
      [
        "nu",
        -9.52872371673584
      ],
      [
        "agence",
        -9.52887725830078
      ],
      [
        "ole",
        -9.529353141784668
      ],
      [
        "adresse",
        -9.5293607711792
      ],
      [
        "▁confortable",
        -9.530511856079102
      ],
      [
        "60",
        -9.530776977539062
      ],
      [
        "▁véhicule",
        -9.53173542022705
      ],
      [
        "▁options",
        -9.53183364868164
      ],
      [
        "▁concept",
        -9.532026290893556
      ],
      [
        "▁uniquement",
        -9.532402992248535
      ],
      [
        "▁sorte",
        -9.533105850219728
      ],
      [
        "▁application",
        -9.533706665039062
      ],
      [
        "tan",
        -9.534111976623535
      ],
      [
        "▁terrasse",
        -9.53462028503418
      ],
      [
        "▁ressources",
        -9.534963607788086
      ],
      [
        "▁pan",
        -9.535593032836914
      ],
      [
        "▁chaîne",
        -9.535601615905762
      ],
      [
        "su",
        -9.53650951385498
      ],
      [
        "onne",
        -9.537361145019531
      ],
      [
        "ira",
        -9.537516593933104
      ],
      [
        "▁plupart",
        -9.53786277770996
      ],
      [
        "▁environnement",
        -9.53810214996338
      ],
      [
        "environnement",
        -9.538564682006836
      ],
      [
        "▁grosse",
        -9.539250373840332
      ],
      [
        "▁créé",
        -9.542352676391602
      ],
      [
        "auteur",
        -9.542658805847168
      ],
      [
        "the",
        -9.542665481567385
      ],
      [
        "▁suisse",
        -9.543815612792969
      ],
      [
        "▁passion",
        -9.54417610168457
      ],
      [
        "isse",
        -9.54548454284668
      ],
      [
        "19",
        -9.545515060424805
      ],
      [
        "▁ordinateur",
        -9.546518325805664
      ],
      [
        "▁concours",
        -9.546963691711426
      ],
      [
        "▁ram",
        -9.548091888427734
      ],
      [
        "▁100%",
        -9.548294067382812
      ],
      [
        "▁comprend",
        -9.548335075378418
      ],
      [
        "▁mesures",
        -9.549558639526367
      ],
      [
        "▁exp",
        -9.549747467041016
      ],
      [
        "▁retrouvez",
        -9.549890518188477
      ],
      [
        "▁univers",
        -9.550833702087402
      ],
      [
        "▁moyenne",
        -9.550982475280762
      ],
      [
        "▁accessible",
        -9.551660537719728
      ],
      [
        "▁changement",
        -9.552457809448242
      ],
      [
        "▁lequel",
        -9.552766799926758
      ],
      [
        "int",
        -9.552882194519045
      ],
      [
        "all",
        -9.553147315979004
      ],
      [
        "▁retrouve",
        -9.55605697631836
      ],
      [
        "▁veuillez",
        -9.556082725524902
      ],
      [
        "▁arrive",
        -9.557140350341797
      ],
      [
        "isant",
        -9.557231903076172
      ],
      [
        "▁album",
        -9.55739688873291
      ],
      [
        "▁limite",
        -9.557418823242188
      ],
      [
        "lier",
        -9.558539390563965
      ],
      [
        "esprit",
        -9.559303283691406
      ],
      [
        "▁ke",
        -9.560019493103027
      ],
      [
        "▁sociale",
        -9.560909271240234
      ],
      [
        "rain",
        -9.560932159423828
      ],
      [
        "▁objectif",
        -9.56102466583252
      ],
      [
        "▁android",
        -9.562211990356444
      ],
      [
        "▁31",
        -9.56254768371582
      ],
      [
        "▁assurer",
        -9.562858581542969
      ],
      [
        "▁sortir",
        -9.56289005279541
      ],
      [
        "▁cre",
        -9.563541412353516
      ],
      [
        "▁courant",
        -9.56439208984375
      ],
      [
        "tent",
        -9.56520175933838
      ],
      [
        "▁voilà",
        -9.566094398498535
      ],
      [
        "▁fu",
        -9.56678295135498
      ],
      [
        "example",
        -9.567095756530762
      ],
      [
        "fe",
        -9.567412376403809
      ],
      [
        "qué",
        -9.56761074066162
      ],
      [
        "ff",
        -9.568243026733398
      ],
      [
        "wa",
        -9.568841934204102
      ],
      [
        "13",
        -9.568885803222656
      ],
      [
        "▁analyse",
        -9.569189071655272
      ],
      [
        "▁électrique",
        -9.569815635681152
      ],
      [
        "ari",
        -9.571148872375488
      ],
      [
        "-19",
        -9.571659088134766
      ],
      [
        "mor",
        -9.57200050354004
      ],
      [
        "▁video",
        -9.572033882141112
      ],
      [
        "▁différence",
        -9.572336196899414
      ],
      [
        "▁clé",
        -9.574463844299316
      ],
      [
        "▁pal",
        -9.575024604797363
      ],
      [
        "▁em",
        -9.575210571289062
      ],
      [
        "▁tissu",
        -9.575400352478027
      ],
      [
        "lor",
        -9.575496673583984
      ],
      [
        "▁désir",
        -9.575617790222168
      ],
      [
        "▁vélo",
        -9.576733589172363
      ],
      [
        "▁dispose",
        -9.577089309692385
      ],
      [
        "▁membre",
        -9.577253341674805
      ],
      [
        "▁moto",
        -9.577688217163086
      ],
      [
        "ip",
        -9.57823085784912
      ],
      [
        "iens",
        -9.578392028808594
      ],
      [
        "▁peux",
        -9.579097747802734
      ],
      [
        "▁éviter",
        -9.579183578491213
      ],
      [
        "▁pen",
        -9.579277992248535
      ],
      [
        "▁cré",
        -9.579779624938965
      ],
      [
        "▁précise",
        -9.581146240234377
      ],
      [
        "▁célèbre",
        -9.58118724822998
      ],
      [
        "ification",
        -9.58312702178955
      ],
      [
        "oise",
        -9.58350944519043
      ],
      [
        "25",
        -9.585443496704102
      ],
      [
        "▁parking",
        -9.58619499206543
      ],
      [
        "▁appartement",
        -9.587636947631836
      ],
      [
        "idée",
        -9.5894136428833
      ],
      [
        "ane",
        -9.589495658874512
      ],
      [
        "▁venez",
        -9.589510917663574
      ],
      [
        "we",
        -9.589862823486328
      ],
      [
        "80",
        -9.590648651123049
      ],
      [
        "▁longtemps",
        -9.591065406799316
      ],
      [
        "▁locaux",
        -9.592095375061035
      ],
      [
        "▁presque",
        -9.592547416687012
      ],
      [
        "▁http",
        -9.593506813049316
      ],
      [
        "illon",
        -9.594260215759276
      ],
      [
        "▁neuf",
        -9.594412803649902
      ],
      [
        "ssent",
        -9.59463119506836
      ],
      [
        "»,",
        -9.595412254333496
      ],
      [
        "▁ouverte",
        -9.596532821655272
      ],
      [
        "▁catégorie",
        -9.59698486328125
      ],
      [
        "han",
        -9.597201347351074
      ],
      [
        "▁tv",
        -9.597384452819824
      ],
      [
        "▁fais",
        -9.597859382629396
      ],
      [
        "▁maire",
        -9.599042892456056
      ],
      [
        "▁naturel",
        -9.599892616271973
      ],
      [
        "▁naturelle",
        -9.60138702392578
      ],
      [
        "▁parfaitement",
        -9.601994514465332
      ],
      [
        "▁présenté",
        -9.602096557617188
      ],
      [
        "▁dos",
        -9.603696823120115
      ],
      [
        "▁déco",
        -9.60414981842041
      ],
      [
        "iques",
        -9.60446548461914
      ],
      [
        "nement",
        -9.60489559173584
      ],
      [
        "▁musée",
        -9.605806350708008
      ],
      [
        "▁rendu",
        -9.605956077575684
      ],
      [
        "▁tendance",
        -9.606060028076172
      ],
      [
        "▁ét",
        -9.60678768157959
      ],
      [
        "ines",
        -9.606900215148926
      ],
      [
        "▁conçu",
        -9.60703468322754
      ],
      [
        "▁2013",
        -9.607556343078612
      ],
      [
        "▁spa",
        -9.607667922973633
      ],
      [
        "▁marie",
        -9.608209609985352
      ],
      [
        "▁vision",
        -9.608380317687988
      ],
      [
        "▁historique",
        -9.608943939208984
      ],
      [
        "▁journal",
        -9.609552383422852
      ],
      [
        "▁langue",
        -9.61003875732422
      ],
      [
        "▁ferme",
        -9.610358238220217
      ],
      [
        "pour",
        -9.610620498657228
      ],
      [
        "▁os",
        -9.610895156860352
      ],
      [
        "ration",
        -9.610942840576172
      ],
      [
        "▁don",
        -9.611112594604492
      ],
      [
        "▁canada",
        -9.61119556427002
      ],
      [
        "▁continuer",
        -9.61122703552246
      ],
      [
        "▁présenter",
        -9.61129379272461
      ],
      [
        "▁rester",
        -9.611486434936523
      ],
      [
        "▁coût",
        -9.61149787902832
      ],
      [
        "▁décor",
        -9.611595153808594
      ],
      [
        "▁aff",
        -9.611822128295898
      ],
      [
        "▁nouvel",
        -9.612237930297852
      ],
      [
        "▁états",
        -9.612287521362305
      ],
      [
        "▁distance",
        -9.612485885620115
      ],
      [
        "▁mélange",
        -9.612564086914062
      ],
      [
        "▁mail",
        -9.61268424987793
      ],
      [
        "▁côte",
        -9.612720489501951
      ],
      [
        "▁robe",
        -9.612852096557615
      ],
      [
        "téri",
        -9.614716529846191
      ],
      [
        "▁soient",
        -9.61489963531494
      ],
      [
        "mes",
        -9.615029335021973
      ],
      [
        "bl",
        -9.615519523620604
      ],
      [
        "▁sanitaire",
        -9.616233825683594
      ],
      [
        "gra",
        -9.61668586730957
      ],
      [
        "issement",
        -9.617749214172363
      ],
      [
        "▁partenaire",
        -9.617828369140623
      ],
      [
        "▁suivant",
        -9.6195707321167
      ],
      [
        "▁ai",
        -9.619701385498049
      ],
      [
        "etat",
        -9.620150566101074
      ],
      [
        "▁lot",
        -9.620221138000488
      ],
      [
        "▁hi",
        -9.620597839355469
      ],
      [
        "att",
        -9.62078094482422
      ],
      [
        "▁peinture",
        -9.620999336242676
      ],
      [
        "▁with",
        -9.622159004211426
      ],
      [
        "▁2012",
        -9.622782707214355
      ],
      [
        "▁perdu",
        -9.623808860778809
      ],
      [
        "▁films",
        -9.6238431930542
      ],
      [
        "informations",
        -9.623876571655272
      ],
      [
        "▁vit",
        -9.624123573303224
      ],
      [
        "iez",
        -9.625551223754885
      ],
      [
        "▁fera",
        -9.625755310058594
      ],
      [
        "entrée",
        -9.626296043395996
      ],
      [
        "▁québec",
        -9.627135276794434
      ],
      [
        "▁fé",
        -9.62771701812744
      ],
      [
        "▁certain",
        -9.627772331237791
      ],
      [
        "rée",
        -9.628263473510742
      ],
      [
        "▁cadeau",
        -9.629606246948242
      ],
      [
        "▁actions",
        -9.631040573120115
      ],
      [
        "▁six",
        -9.63253688812256
      ],
      [
        "bou",
        -9.632659912109377
      ],
      [
        "ina",
        -9.63523769378662
      ],
      [
        "huile",
        -9.635838508605955
      ],
      [
        "▁celles",
        -9.637001037597656
      ],
      [
        "ice",
        -9.63747215270996
      ],
      [
        "▁sort",
        -9.63763427734375
      ],
      [
        "installation",
        -9.639379501342772
      ],
      [
        "▁fo",
        -9.640204429626465
      ],
      [
        "▁gre",
        -9.641183853149414
      ],
      [
        "gan",
        -9.641447067260742
      ],
      [
        "he",
        -9.64153289794922
      ],
      [
        "ara",
        -9.642014503479004
      ],
      [
        "ama",
        -9.642069816589355
      ],
      [
        "resse",
        -9.642719268798828
      ],
      [
        "▁budget",
        -9.643126487731934
      ],
      [
        "▁massage",
        -9.643458366394045
      ],
      [
        "exploitation",
        -9.644416809082031
      ],
      [
        "▁température",
        -9.644753456115724
      ],
      [
        "▁bientôt",
        -9.644804954528809
      ],
      [
        "dre",
        -9.645325660705566
      ],
      [
        "▁dessin",
        -9.645500183105469
      ],
      [
        "▁fut",
        -9.648077011108398
      ],
      [
        "01",
        -9.648594856262209
      ],
      [
        "▁idée",
        -9.650105476379396
      ],
      [
        "▁pages",
        -9.650524139404297
      ],
      [
        "tur",
        -9.650611877441406
      ],
      [
        "▁cinéma",
        -9.651204109191896
      ],
      [
        "▁faible",
        -9.651905059814451
      ],
      [
        "wi",
        -9.652485847473145
      ],
      [
        "▁faisant",
        -9.65293312072754
      ],
      [
        "étude",
        -9.654858589172363
      ],
      [
        "▁indiqué",
        -9.655465126037598
      ],
      [
        "17",
        -9.656039237976074
      ],
      [
        "▁toutefois",
        -9.65635108947754
      ],
      [
        "▁not",
        -9.656397819519045
      ],
      [
        "▁publicité",
        -9.656712532043455
      ],
      [
        "▁bénéficier",
        -9.656779289245604
      ],
      [
        "▁coin",
        -9.65737247467041
      ],
      [
        "aise",
        -9.65756607055664
      ],
      [
        "ik",
        -9.657634735107422
      ],
      [
        "vant",
        -9.658025741577148
      ],
      [
        "▁élevé",
        -9.65825653076172
      ],
      [
        "▁commercial",
        -9.658451080322266
      ],
      [
        "▁ev",
        -9.658784866333008
      ],
      [
        "▁her",
        -9.659496307373049
      ],
      [
        "▁possède",
        -9.65994358062744
      ],
      [
        "▁heure",
        -9.660666465759276
      ],
      [
        "▁chaud",
        -9.661269187927246
      ],
      [
        "▁réalité",
        -9.661574363708496
      ],
      [
        "▁scolaire",
        -9.662257194519045
      ],
      [
        "▁carrière",
        -9.662763595581056
      ],
      [
        "avez",
        -9.662992477416992
      ],
      [
        "▁toi",
        -9.663209915161133
      ],
      [
        "▁cartes",
        -9.663742065429688
      ],
      [
        "▁ministère",
        -9.664267539978027
      ],
      [
        "▁voix",
        -9.66434383392334
      ],
      [
        "iné",
        -9.664668083190918
      ],
      [
        "▁ge",
        -9.664850234985352
      ],
      [
        "▁tenue",
        -9.665243148803713
      ],
      [
        "res",
        -9.666289329528809
      ],
      [
        "▁avaient",
        -9.6670560836792
      ],
      [
        "▁blanche",
        -9.667173385620115
      ],
      [
        "▁liberté",
        -9.667584419250488
      ],
      [
        "%",
        -9.667731285095217
      ],
      [
        "▁lyon",
        -9.668715476989746
      ],
      [
        "▁europe",
        -9.669021606445312
      ],
      [
        "bus",
        -9.669225692749023
      ],
      [
        "▁eff",
        -9.669720649719238
      ],
      [
        "▁matériaux",
        -9.66975212097168
      ],
      [
        "ng",
        -9.670690536499023
      ],
      [
        "bert",
        -9.67075538635254
      ],
      [
        "▁rare",
        -9.671396255493164
      ],
      [
        "ticulièrement",
        -9.671735763549805
      ],
      [
        "▁radio",
        -9.672143936157228
      ],
      [
        "ans",
        -9.674152374267578
      ],
      [
        "▁mondiale",
        -9.674155235290527
      ],
      [
        "▁démarche",
        -9.674456596374512
      ],
      [
        "▁recevoir",
        -9.674999237060549
      ],
      [
        "▁suffit",
        -9.675655364990234
      ],
      [
        "▁montant",
        -9.675788879394531
      ],
      [
        "▁douce",
        -9.676801681518556
      ],
      [
        "▁communiqué",
        -9.677079200744627
      ],
      [
        "▁règles",
        -9.677127838134766
      ],
      [
        "▁né",
        -9.677383422851562
      ],
      [
        "▁rencontrer",
        -9.677470207214355
      ],
      [
        "can",
        -9.677563667297363
      ],
      [
        "ian",
        -9.677775382995604
      ],
      [
        "▁partenariat",
        -9.677826881408691
      ],
      [
        "affaires",
        -9.67799472808838
      ],
      [
        "our",
        -9.67899227142334
      ],
      [
        "▁mm",
        -9.680222511291504
      ],
      [
        "▁sait",
        -9.680303573608398
      ],
      [
        "▁at",
        -9.680307388305664
      ],
      [
        "▁accessoires",
        -9.6804838180542
      ],
      [
        "▁football",
        -9.680770874023438
      ],
      [
        "men",
        -9.681635856628418
      ],
      [
        "▁sais",
        -9.681802749633787
      ],
      [
        "▁commission",
        -9.683300018310549
      ],
      [
        "▁tr",
        -9.684146881103516
      ],
      [
        "▁réuni",
        -9.684179306030272
      ],
      [
        "▁fils",
        -9.68471622467041
      ],
      [
        "▁pourra",
        -9.684918403625488
      ],
      [
        "▁médecin",
        -9.685266494750977
      ],
      [
        "ordre",
        -9.685269355773926
      ],
      [
        "▁troisième",
        -9.685296058654783
      ],
      [
        "▁pleine",
        -9.68681812286377
      ],
      [
        "▁emploi",
        -9.687339782714844
      ],
      [
        "▁int",
        -9.687515258789062
      ],
      [
        "▁joueur",
        -9.68773078918457
      ],
      [
        "établissement",
        -9.688451766967772
      ],
      [
        "ov",
        -9.688709259033203
      ],
      [
        "▁chant",
        -9.69100856781006
      ],
      [
        "▁cuir",
        -9.69133472442627
      ],
      [
        "▁connaissance",
        -9.691390991210938
      ],
      [
        "ny",
        -9.691408157348633
      ],
      [
        "▁bouton",
        -9.691492080688477
      ],
      [
        "accueil",
        -9.69150161743164
      ],
      [
        "cm",
        -9.692524909973145
      ],
      [
        "▁jou",
        -9.692821502685549
      ],
      [
        "▁bienvenue",
        -9.694771766662598
      ],
      [
        "▁ajouté",
        -9.695136070251465
      ],
      [
        "▁européen",
        -9.69564151763916
      ],
      [
        "ateurs",
        -9.695841789245604
      ],
      [
        "▁200",
        -9.69593334197998
      ],
      [
        "▁visage",
        -9.697115898132324
      ],
      [
        "iel",
        -9.697309494018556
      ],
      [
        "▁ya",
        -9.69736671447754
      ],
      [
        "objet",
        -9.69849967956543
      ],
      [
        "ric",
        -9.6985445022583
      ],
      [
        "ches",
        -9.698636054992676
      ],
      [
        "▁acteurs",
        -9.69888401031494
      ],
      [
        "cro",
        -9.698968887329102
      ],
      [
        "▁utilisation",
        -9.699499130249023
      ],
      [
        "70",
        -9.69956874847412
      ],
      [
        "ange",
        -9.700590133666992
      ],
      [
        "▁acc",
        -9.700653076171877
      ],
      [
        "ente",
        -9.701370239257812
      ],
      [
        "▁pou",
        -9.70217514038086
      ],
      [
        "▁victoire",
        -9.702496528625488
      ],
      [
        "antes",
        -9.702703475952148
      ],
      [
        "▁manger",
        -9.703161239624023
      ],
      [
        "▁porter",
        -9.70360279083252
      ],
      [
        "▁conte",
        -9.70366382598877
      ],
      [
        "tine",
        -9.70413875579834
      ],
      [
        "▁conseiller",
        -9.70415496826172
      ],
      [
        "importe",
        -9.705097198486328
      ],
      [
        "pre",
        -9.70515251159668
      ],
      [
        "▁assure",
        -9.706710815429688
      ],
      [
        "▁ép",
        -9.707785606384276
      ],
      [
        "bar",
        -9.708189964294434
      ],
      [
        "ssé",
        -9.708273887634276
      ],
      [
        "▁fabriqué",
        -9.70959186553955
      ],
      [
        "▁sub",
        -9.710834503173828
      ],
      [
        "▁chien",
        -9.711198806762695
      ],
      [
        "▁game",
        -9.711724281311035
      ],
      [
        "14",
        -9.712442398071287
      ],
      [
        "otte",
        -9.71259307861328
      ],
      [
        "▁escort",
        -9.712767601013184
      ],
      [
        "16",
        -9.712918281555176
      ],
      [
        "▁bonnes",
        -9.713619232177734
      ],
      [
        "ick",
        -9.71396255493164
      ],
      [
        "▁performance",
        -9.71411418914795
      ],
      [
        "▁your",
        -9.71445655822754
      ],
      [
        "ord",
        -9.714751243591309
      ],
      [
        "▁meuble",
        -9.716544151306152
      ],
      [
        "nne",
        -9.717157363891602
      ],
      [
        "euros",
        -9.717476844787598
      ],
      [
        "nce",
        -9.717803001403809
      ],
      [
        "▁vitesse",
        -9.717865943908691
      ],
      [
        "voir",
        -9.717950820922852
      ],
      [
        "▁free",
        -9.718084335327148
      ],
      [
        "▁entièrement",
        -9.718183517456056
      ],
      [
        "▁studio",
        -9.718783378601074
      ],
      [
        "▁protéger",
        -9.719613075256348
      ],
      [
        "▁action",
        -9.720290184020996
      ],
      [
        "▁demander",
        -9.720399856567385
      ],
      [
        "tif",
        -9.721288681030272
      ],
      [
        "▁sha",
        -9.721534729003906
      ],
      [
        "tré",
        -9.722052574157717
      ],
      [
        "bé",
        -9.722125053405762
      ],
      [
        "ature",
        -9.722490310668944
      ],
      [
        "▁réduire",
        -9.722935676574709
      ],
      [
        "éro",
        -9.723358154296877
      ],
      [
        "▁consulter",
        -9.72336196899414
      ],
      [
        "▁secret",
        -9.723670959472656
      ],
      [
        "rc",
        -9.724547386169434
      ],
      [
        "▁consommation",
        -9.725279808044434
      ],
      [
        "▁destination",
        -9.725618362426758
      ],
      [
        "fer",
        -9.726076126098633
      ],
      [
        "▁hé",
        -9.72691249847412
      ],
      [
        "▁maximum",
        -9.7269926071167
      ],
      [
        "▁électronique",
        -9.72729206085205
      ],
      [
        "▁fonctionne",
        -9.72744083404541
      ],
      [
        "▁moyens",
        -9.727899551391602
      ],
      [
        "▁av",
        -9.728130340576172
      ],
      [
        "tout",
        -9.729292869567873
      ],
      [
        "▁alimentaire",
        -9.729442596435549
      ],
      [
        "▁parfum",
        -9.729670524597168
      ],
      [
        "▁maître",
        -9.729828834533691
      ],
      [
        "▁capable",
        -9.729863166809082
      ],
      [
        "lique",
        -9.729950904846191
      ],
      [
        "nn",
        -9.731624603271484
      ],
      [
        "▁q",
        -9.732012748718262
      ],
      [
        "▁préparer",
        -9.732065200805664
      ],
      [
        "▁ski",
        -9.732511520385742
      ],
      [
        "▁publication",
        -9.732585906982422
      ],
      [
        "▁black",
        -9.732770919799805
      ],
      [
        "uc",
        -9.73304557800293
      ],
      [
        "▁van",
        -9.733210563659668
      ],
      [
        "▁boîte",
        -9.73328971862793
      ],
      [
        "âge",
        -9.733291625976562
      ],
      [
        "▁gauche",
        -9.734312057495115
      ],
      [
        "ule",
        -9.734506607055664
      ],
      [
        "ome",
        -9.734807014465332
      ],
      [
        "▁bac",
        -9.735777854919434
      ],
      [
        "▁pilote",
        -9.736427307128906
      ],
      [
        "ç",
        -9.736873626708984
      ],
      [
        "▁premiers",
        -9.737229347229004
      ],
      [
        "ev",
        -9.737252235412598
      ],
      [
        "oy",
        -9.737382888793944
      ],
      [
        "▁peine",
        -9.737744331359863
      ],
      [
        "▁bus",
        -9.737900733947754
      ],
      [
        "▁portes",
        -9.738099098205566
      ],
      [
        "▁fonctionnement",
        -9.7390775680542
      ],
      [
        "europe",
        -9.739152908325195
      ],
      [
        "▁prévu",
        -9.740036010742188
      ],
      [
        "▁croissance",
        -9.74018669128418
      ],
      [
        "▁conf",
        -9.740266799926758
      ],
      [
        "▁fonds",
        -9.740274429321287
      ],
      [
        "université",
        -9.740424156188965
      ],
      [
        "▁collaboration",
        -9.740878105163574
      ],
      [
        "▁sept",
        -9.741107940673828
      ],
      [
        "▁fabrication",
        -9.741238594055176
      ],
      [
        "çon",
        -9.741829872131348
      ],
      [
        "▁station",
        -9.742413520812988
      ],
      [
        "▁république",
        -9.743494033813477
      ],
      [
        "▁partout",
        -9.743537902832031
      ],
      [
        "ster",
        -9.74357795715332
      ],
      [
        "▁seconde",
        -9.743671417236328
      ],
      [
        "▁inscription",
        -9.744144439697266
      ],
      [
        "▁fleurs",
        -9.744495391845703
      ],
      [
        "▁particulière",
        -9.745065689086914
      ],
      [
        "▁privée",
        -9.745108604431152
      ],
      [
        "▁500",
        -9.745229721069336
      ],
      [
        "af",
        -9.745482444763184
      ],
      [
        "ose",
        -9.74555778503418
      ],
      [
        "▁réservé",
        -9.746928215026855
      ],
      [
        "▁pic",
        -9.747064590454102
      ],
      [
        "▁indique",
        -9.747099876403809
      ],
      [
        "▁combat",
        -9.747726440429688
      ],
      [
        "vol",
        -9.747764587402344
      ],
      [
        "▁garder",
        -9.74787139892578
      ],
      [
        "▁défi",
        -9.7479829788208
      ],
      [
        "▁80",
        -9.748069763183594
      ],
      [
        "lou",
        -9.7482328414917
      ],
      [
        "ancien",
        -9.748492240905762
      ],
      [
        "▁id",
        -9.748493194580078
      ],
      [
        "▁att",
        -9.748605728149414
      ],
      [
        "▁accueil",
        -9.748650550842283
      ],
      [
        "oli",
        -9.748830795288086
      ],
      [
        "intérêt",
        -9.749799728393556
      ],
      [
        "▁finale",
        -9.74994945526123
      ],
      [
        "▁dispositif",
        -9.750191688537598
      ],
      [
        "dou",
        -9.750383377075195
      ],
      [
        "▁devient",
        -9.751164436340332
      ],
      [
        "▁objectifs",
        -9.751253128051758
      ],
      [
        "▁potentiel",
        -9.751917839050291
      ],
      [
        "▁dix",
        -9.752370834350586
      ],
      [
        "rais",
        -9.752490043640137
      ],
      [
        "pt",
        -9.753265380859377
      ],
      [
        "▁puissance",
        -9.753459930419922
      ],
      [
        "nais",
        -9.753714561462402
      ],
      [
        "▁détail",
        -9.754705429077148
      ],
      [
        "▁outil",
        -9.754790306091309
      ],
      [
        "ct",
        -9.754799842834473
      ],
      [
        "▁habitants",
        -9.755075454711914
      ],
      [
        "▁écran",
        -9.755125999450684
      ],
      [
        "▁demandé",
        -9.755261421203612
      ],
      [
        "euses",
        -9.755314826965332
      ],
      [
        "fo",
        -9.755492210388184
      ],
      [
        "ture",
        -9.755585670471191
      ],
      [
        "▁fruits",
        -9.755905151367188
      ],
      [
        "▁connexion",
        -9.756467819213867
      ],
      [
        "▁principe",
        -9.756468772888184
      ],
      [
        "▁affaires",
        -9.757113456726074
      ],
      [
        "▁—",
        -9.757308959960938
      ],
      [
        "▁responsabilité",
        -9.75849151611328
      ],
      [
        "▁change",
        -9.758578300476074
      ],
      [
        "▁crème",
        -9.75869083404541
      ],
      [
        "abilité",
        -9.758994102478027
      ],
      [
        "utiliser",
        -9.759224891662598
      ],
      [
        "▁vent",
        -9.759431838989258
      ],
      [
        "▁financière",
        -9.759615898132324
      ],
      [
        "▁kit",
        -9.76053237915039
      ],
      [
        "▁soyez",
        -9.760534286499023
      ],
      [
        "▁champion",
        -9.761513710021973
      ],
      [
        "lic",
        -9.762225151062012
      ],
      [
        "objectif",
        -9.764979362487791
      ],
      [
        "▁château",
        -9.7655611038208
      ],
      [
        "▁chaleur",
        -9.765787124633787
      ],
      [
        "nier",
        -9.766595840454102
      ],
      [
        "▁étudiants",
        -9.767778396606444
      ],
      [
        "▁active",
        -9.768319129943848
      ],
      [
        "▁représente",
        -9.768475532531738
      ],
      [
        "▁fiche",
        -9.768513679504396
      ],
      [
        "éducation",
        -9.768884658813477
      ],
      [
        "▁accompagné",
        -9.768978118896484
      ],
      [
        "gin",
        -9.769044876098633
      ],
      [
        "▁méthode",
        -9.769149780273438
      ],
      [
        "▁thé",
        -9.769639015197754
      ],
      [
        "▁contactez",
        -9.769649505615234
      ],
      [
        "▁professeur",
        -9.769770622253418
      ],
      [
        "▁excellent",
        -9.77022933959961
      ],
      [
        "▁puisque",
        -9.770431518554688
      ],
      [
        "▁entretien",
        -9.77045440673828
      ],
      [
        "dy",
        -9.770962715148926
      ],
      [
        "▁calme",
        -9.771073341369627
      ],
      [
        "▁argent",
        -9.771280288696287
      ],
      [
        "▁fichier",
        -9.77206802368164
      ],
      [
        "▁smartphone",
        -9.772228240966797
      ],
      [
        "▁apprendre",
        -9.77224826812744
      ],
      [
        "▁répond",
        -9.773784637451172
      ],
      [
        "▁lutte",
        -9.774447441101074
      ],
      [
        "▁derrière",
        -9.775075912475586
      ],
      [
        "▁bons",
        -9.77530002593994
      ],
      [
        "lée",
        -9.775324821472168
      ],
      [
        "21",
        -9.775704383850098
      ],
      [
        "ques",
        -9.775801658630373
      ],
      [
        "nie",
        -9.77604866027832
      ],
      [
        "cy",
        -9.776935577392578
      ],
      [
        "▁importante",
        -9.777303695678713
      ],
      [
        "moi",
        -9.777700424194336
      ],
      [
        "▁discussion",
        -9.778099060058594
      ],
      [
        "▁chanson",
        -9.77856731414795
      ],
      [
        "▁veille",
        -9.778773307800291
      ],
      [
        "▁regarder",
        -9.77923583984375
      ],
      [
        "▁cru",
        -9.779955863952637
      ],
      [
        "▁génération",
        -9.780028343200684
      ],
      [
        "▁pression",
        -9.781952857971191
      ],
      [
        "▁menu",
        -9.782329559326172
      ],
      [
        "▁ass",
        -9.78236198425293
      ],
      [
        "gar",
        -9.782423973083496
      ],
      [
        "oo",
        -9.783987998962402
      ],
      [
        "▁mètres",
        -9.784048080444336
      ],
      [
        "▁événement",
        -9.78413200378418
      ],
      [
        "fin",
        -9.784605979919434
      ],
      [
        "▁bé",
        -9.785074234008787
      ],
      [
        "▁chocolat",
        -9.785079002380373
      ],
      [
        "▁aventure",
        -9.785550117492676
      ],
      [
        "bu",
        -9.786879539489746
      ],
      [
        "▁située",
        -9.78740692138672
      ],
      [
        "▁profitez",
        -9.787775039672852
      ],
      [
        "▁parties",
        -9.787827491760254
      ],
      [
        "▁droite",
        -9.787848472595217
      ],
      [
        "²",
        -9.788031578063965
      ],
      [
        "assurance",
        -9.78842830657959
      ],
      [
        "▁perte",
        -9.788453102111816
      ],
      [
        "▁siège",
        -9.788870811462402
      ],
      [
        "▁atteint",
        -9.78931713104248
      ],
      [
        "▁sportif",
        -9.789345741271973
      ],
      [
        "▁minimum",
        -9.789774894714355
      ],
      [
        "og",
        -9.790221214294434
      ],
      [
        "▁entier",
        -9.790337562561035
      ],
      [
        "ath",
        -9.790834426879885
      ],
      [
        "▁final",
        -9.7911958694458
      ],
      [
        "▁ligue",
        -9.791475296020508
      ],
      [
        "ker",
        -9.791897773742676
      ],
      [
        "ouille",
        -9.792049407958984
      ],
      [
        "bon",
        -9.792160034179688
      ],
      [
        "industrie",
        -9.792219161987305
      ],
      [
        "▁gérer",
        -9.792455673217772
      ],
      [
        "▁porno",
        -9.79263973236084
      ],
      [
        "▁machines",
        -9.79299259185791
      ],
      [
        "▁tarif",
        -9.793119430541992
      ],
      [
        "vin",
        -9.793128967285156
      ],
      [
        "▁informatique",
        -9.7931547164917
      ],
      [
        "ition",
        -9.79347038269043
      ],
      [
        "▁lancer",
        -9.793822288513184
      ],
      [
        "▁souci",
        -9.79420280456543
      ],
      [
        "by",
        -9.794857025146484
      ],
      [
        "ban",
        -9.795035362243652
      ],
      [
        "▁filles",
        -9.795087814331056
      ],
      [
        "▁vais",
        -9.795248985290527
      ],
      [
        "▁françois",
        -9.795860290527344
      ],
      [
        "*",
        -9.79599666595459
      ],
      [
        "▁achat",
        -9.796063423156738
      ],
      [
        "▁pri",
        -9.796984672546388
      ],
      [
        "▁dollars",
        -9.798013687133787
      ],
      [
        "99",
        -9.79815673828125
      ],
      [
        "▁tandis",
        -9.798516273498535
      ],
      [
        "▁ki",
        -9.800422668457031
      ],
      [
        "▁espaces",
        -9.800668716430664
      ],
      [
        "▁laisse",
        -9.800670623779297
      ],
      [
        "bas",
        -9.800755500793455
      ],
      [
        "▁www",
        -9.800986289978027
      ],
      [
        "▁devenu",
        -9.801307678222656
      ],
      [
        "▁aime",
        -9.80240535736084
      ],
      [
        "dd",
        -9.802629470825195
      ],
      [
        "▁dieu",
        -9.802678108215332
      ],
      [
        "▁michel",
        -9.804959297180176
      ],
      [
        "lie",
        -9.805953025817873
      ],
      [
        "▁régulièrement",
        -9.80659008026123
      ],
      [
        "uel",
        -9.807196617126465
      ],
      [
        "▁maladie",
        -9.80810260772705
      ],
      [
        "▁finalement",
        -9.808510780334473
      ],
      [
        "ah",
        -9.808552742004396
      ],
      [
        "▁principal",
        -9.809407234191896
      ],
      [
        "▁nécessaires",
        -9.809515953063965
      ],
      [
        "▁surprise",
        -9.809900283813477
      ],
      [
        "vie",
        -9.81152057647705
      ],
      [
        "▁fournir",
        -9.811795234680176
      ],
      [
        "▁heureux",
        -9.813311576843262
      ],
      [
        "▁reprise",
        -9.813425064086914
      ],
      [
        "▁mains",
        -9.813864707946776
      ],
      [
        "▁travaille",
        -9.81407356262207
      ],
      [
        "ley",
        -9.814126014709473
      ],
      [
        "▁mod",
        -9.814191818237305
      ],
      [
        "▁mat",
        -9.814556121826172
      ],
      [
        "fort",
        -9.81508445739746
      ],
      [
        "▁remise",
        -9.81516170501709
      ],
      [
        "▁aurez",
        -9.81525993347168
      ],
      [
        "éri",
        -9.8153715133667
      ],
      [
        "▁sent",
        -9.815546989440918
      ],
      [
        "▁promo",
        -9.81597900390625
      ],
      [
        "▁marketing",
        -9.816025733947754
      ],
      [
        "▁cho",
        -9.816205978393556
      ],
      [
        "nique",
        -9.816390991210938
      ],
      [
        "ach",
        -9.816874504089355
      ],
      [
        "lire",
        -9.816999435424805
      ],
      [
        "▁correspond",
        -9.817158699035645
      ],
      [
        "0%",
        -9.817197799682615
      ],
      [
        "▁essentiel",
        -9.817911148071287
      ],
      [
        "▁dynamique",
        -9.818553924560549
      ],
      [
        "▁paul",
        -9.81885814666748
      ],
      [
        "arrivée",
        -9.81914520263672
      ],
      [
        "▁justice",
        -9.819992065429688
      ],
      [
        "▁quantité",
        -9.820406913757324
      ],
      [
        "pp",
        -9.820415496826172
      ],
      [
        "tour",
        -9.820444107055664
      ],
      [
        "▁preuve",
        -9.820748329162598
      ],
      [
        "▁risques",
        -9.821173667907717
      ],
      [
        "▁belles",
        -9.821621894836426
      ],
      [
        "avait",
        -9.821797370910645
      ],
      [
        "▁enquête",
        -9.821843147277832
      ],
      [
        "▁hier",
        -9.822019577026367
      ],
      [
        "▁offert",
        -9.82221794128418
      ],
      [
        "▁théâtre",
        -9.823235511779783
      ],
      [
        "▁comité",
        -9.823393821716309
      ],
      [
        "▁organisé",
        -9.824089050292969
      ],
      [
        "▁viol",
        -9.824398040771484
      ],
      [
        "▁engagement",
        -9.824865341186523
      ],
      [
        "ît",
        -9.82519245147705
      ],
      [
        "administration",
        -9.825504302978516
      ],
      [
        "▁gal",
        -9.825563430786133
      ],
      [
        "▁har",
        -9.825657844543455
      ],
      [
        "▁lancé",
        -9.826179504394531
      ],
      [
        "▁métier",
        -9.826580047607422
      ],
      [
        "▁disponibilité",
        -9.826667785644531
      ],
      [
        "▁apporter",
        -9.827255249023438
      ],
      [
        "▁officiel",
        -9.827616691589355
      ],
      [
        "info",
        -9.828803062438965
      ],
      [
        "▁chaussures",
        -9.829646110534668
      ],
      [
        "▁calcul",
        -9.82998275756836
      ],
      [
        "▁payer",
        -9.830080032348633
      ],
      [
        "▁apporte",
        -9.831168174743652
      ],
      [
        "ib",
        -9.831390380859377
      ],
      [
        "▁résidence",
        -9.832170486450195
      ],
      [
        "▁mondial",
        -9.832723617553713
      ],
      [
        "cri",
        -9.833087921142578
      ],
      [
        "▁this",
        -9.83313274383545
      ],
      [
        "▁fri",
        -9.833154678344728
      ],
      [
        "▁gl",
        -9.833255767822266
      ],
      [
        "▁more",
        -9.83420181274414
      ],
      [
        "…)",
        -9.834270477294922
      ],
      [
        "ult",
        -9.8347806930542
      ],
      [
        "organisme",
        -9.835220336914062
      ],
      [
        "▁option",
        -9.835930824279783
      ],
      [
        "▁laissez",
        -9.83755588531494
      ],
      [
        "▁bra",
        -9.839072227478027
      ],
      [
        "van",
        -9.839176177978516
      ],
      [
        "ep",
        -9.839991569519045
      ],
      [
        "▁médias",
        -9.841392517089844
      ],
      [
        "▁wo",
        -9.84235668182373
      ],
      [
        "cre",
        -9.84256076812744
      ],
      [
        "▁vote",
        -9.84283447265625
      ],
      [
        "tage",
        -9.843311309814451
      ],
      [
        "▁montagne",
        -9.843607902526855
      ],
      [
        "▁artistes",
        -9.84405517578125
      ],
      [
        "▁choisissez",
        -9.844085693359377
      ],
      [
        "▁accompagner",
        -9.844775199890137
      ],
      [
        "cl",
        -9.844797134399414
      ],
      [
        "▁zones",
        -9.845004081726074
      ],
      [
        "ani",
        -9.845226287841797
      ],
      [
        "én",
        -9.845252990722656
      ],
      [
        "part",
        -9.845566749572754
      ],
      [
        "▁gris",
        -9.846104621887209
      ],
      [
        "▁information",
        -9.846380233764648
      ],
      [
        "▁documents",
        -9.848161697387695
      ],
      [
        "▁section",
        -9.848727226257324
      ],
      [
        "entretien",
        -9.849506378173828
      ],
      [
        "▁cabinet",
        -9.849721908569336
      ],
      [
        "▁baisse",
        -9.84988498687744
      ],
      [
        "=",
        -9.850800514221191
      ],
      [
        "stitu",
        -9.851133346557615
      ],
      [
        "▁trait",
        -9.8511962890625
      ],
      [
        "ling",
        -9.851232528686523
      ],
      [
        "▁35",
        -9.851353645324709
      ],
      [
        "▁poser",
        -9.852103233337402
      ],
      [
        "▁atelier",
        -9.852213859558104
      ],
      [
        "▁relations",
        -9.852444648742676
      ],
      [
        "ji",
        -9.852946281433104
      ],
      [
        "▁complexe",
        -9.85310173034668
      ],
      [
        "▁entrée",
        -9.853415489196776
      ],
      [
        "▁proposons",
        -9.853897094726562
      ],
      [
        "▁nettoyage",
        -9.854066848754885
      ],
      [
        "pu",
        -9.854104042053224
      ],
      [
        "▁indispensable",
        -9.854324340820312
      ],
      [
        "▁mémoire",
        -9.85466766357422
      ],
      [
        "ame",
        -9.855534553527832
      ],
      [
        "▁fini",
        -9.855805397033691
      ],
      [
        "era",
        -9.855833053588867
      ],
      [
        "▁ancien",
        -9.855948448181152
      ],
      [
        "▁interne",
        -9.856043815612791
      ],
      [
        "▁pouvons",
        -9.856470108032228
      ],
      [
        "▁2011",
        -9.857436180114746
      ],
      [
        "ting",
        -9.85769271850586
      ],
      [
        "gen",
        -9.858304023742676
      ],
      [
        "▁clo",
        -9.8585786819458
      ],
      [
        "▁pont",
        -9.85873317718506
      ],
      [
        "▁jolie",
        -9.85899257659912
      ],
      [
        "▁variété",
        -9.859209060668944
      ],
      [
        "▁bouche",
        -9.859590530395508
      ],
      [
        "gg",
        -9.859810829162598
      ],
      [
        "union",
        -9.860358238220217
      ],
      [
        "▁graphique",
        -9.860414505004885
      ],
      [
        "▁bonheur",
        -9.860644340515137
      ],
      [
        "▁pâte",
        -9.861660957336426
      ],
      [
        "45",
        -9.861754417419434
      ],
      [
        "▁participation",
        -9.863158226013184
      ],
      [
        "mie",
        -9.863367080688477
      ],
      [
        "▁convient",
        -9.863409042358398
      ],
      [
        "ity",
        -9.86341381072998
      ],
      [
        "▁régime",
        -9.864577293395996
      ],
      [
        "▁procédure",
        -9.864763259887695
      ],
      [
        "▁paysage",
        -9.864940643310549
      ],
      [
        "▁pur",
        -9.865449905395508
      ],
      [
        "▁$",
        -9.86558437347412
      ],
      [
        "▁formule",
        -9.865774154663086
      ],
      [
        "nc",
        -9.865837097167969
      ],
      [
        "▁basse",
        -9.865852355957031
      ],
      [
        "▁sentir",
        -9.866632461547852
      ],
      [
        "▁inf",
        -9.866865158081056
      ],
      [
        "▁déplacement",
        -9.867194175720217
      ],
      [
        "22",
        -9.867566108703612
      ],
      [
        "▁content",
        -9.867768287658691
      ],
      [
        "▁applications",
        -9.868291854858398
      ],
      [
        "▁fans",
        -9.868369102478027
      ],
      [
        "▁color",
        -9.869691848754885
      ],
      [
        "▁réduit",
        -9.870000839233398
      ],
      [
        "▁extérieur",
        -9.87041473388672
      ],
      [
        "▁continu",
        -9.870433807373049
      ],
      [
        "ave",
        -9.87044906616211
      ],
      [
        "▁clair",
        -9.870509147644045
      ],
      [
        "▁rejoindre",
        -9.871642112731934
      ],
      [
        "▁dia",
        -9.87175178527832
      ],
      [
        "▁talent",
        -9.872258186340332
      ],
      [
        "▁patrimoine",
        -9.872576713562012
      ],
      [
        "▁formulaire",
        -9.872729301452637
      ],
      [
        "▁trouvez",
        -9.872753143310549
      ],
      [
        "▁proposition",
        -9.872929573059082
      ],
      [
        "dessus",
        -9.87302017211914
      ],
      [
        "▁lo",
        -9.873661994934082
      ],
      [
        "univers",
        -9.873883247375488
      ],
      [
        "▁voit",
        -9.874266624450684
      ],
      [
        "▁document",
        -9.874470710754396
      ],
      [
        "▁cur",
        -9.875003814697266
      ],
      [
        "▁séance",
        -9.875360488891602
      ],
      [
        "ano",
        -9.875585556030272
      ],
      [
        "appel",
        -9.87561321258545
      ],
      [
        "▁événements",
        -9.875930786132812
      ],
      [
        "▁changements",
        -9.875985145568848
      ],
      [
        "▁journaliste",
        -9.876118659973145
      ],
      [
        "▁marques",
        -9.876599311828612
      ],
      [
        "▁attend",
        -9.87721824645996
      ],
      [
        "▁lettre",
        -9.877830505371094
      ],
      [
        "ives",
        -9.87803554534912
      ],
      [
        "▁obligatoire",
        -9.878493309020996
      ],
      [
        "▁figure",
        -9.878861427307127
      ],
      [
        "▁jaune",
        -9.878944396972656
      ],
      [
        "||1",
        -9.879860877990724
      ],
      [
        "ages",
        -9.880051612854004
      ],
      [
        "one",
        -9.881423950195312
      ],
      [
        "▁contexte",
        -9.882201194763184
      ],
      [
        "▁association",
        -9.88284397125244
      ],
      [
        "my",
        -9.882862091064451
      ],
      [
        "ume",
        -9.882892608642578
      ],
      [
        "▁condition",
        -9.88299560546875
      ],
      [
        "▁parfaite",
        -9.883011817932127
      ],
      [
        "▁martin",
        -9.88333797454834
      ],
      [
        "▁quels",
        -9.885143280029297
      ],
      [
        "▁ultra",
        -9.885822296142578
      ],
      [
        "her",
        -9.886554718017578
      ],
      [
        "▁débat",
        -9.886948585510254
      ],
      [
        "▁appareil",
        -9.88713550567627
      ],
      [
        "▁ancienne",
        -9.887436866760254
      ],
      [
        "▁souhait",
        -9.88745403289795
      ],
      [
        "aille",
        -9.888463973999023
      ],
      [
        "▁réception",
        -9.888484001159668
      ],
      [
        "ures",
        -9.889086723327637
      ],
      [
        "▁véhicules",
        -9.889188766479492
      ],
      [
        "ug",
        -9.889625549316406
      ],
      [
        "▁play",
        -9.889869689941406
      ],
      [
        "▁ber",
        -9.890717506408691
      ],
      [
        "enseignement",
        -9.890792846679688
      ],
      [
        "▁45",
        -9.890802383422852
      ],
      [
        "▁quelqu",
        -9.89086627960205
      ],
      [
        "▁ceci",
        -9.89126682281494
      ],
      [
        "▁cat",
        -9.89128875732422
      ],
      [
        "là",
        -9.891413688659668
      ],
      [
        "roy",
        -9.891561508178713
      ],
      [
        "▁adapté",
        -9.89185905456543
      ],
      [
        "bri",
        -9.89295768737793
      ],
      [
        "▁totalement",
        -9.893113136291504
      ],
      [
        "▁crois",
        -9.89335823059082
      ],
      [
        "▁pieds",
        -9.8939790725708
      ],
      [
        "▁war",
        -9.894078254699709
      ],
      [
        "▁70",
        -9.894391059875488
      ],
      [
        "▁lance",
        -9.894644737243652
      ],
      [
        "▁champ",
        -9.895464897155762
      ],
      [
        "▁belgique",
        -9.89566707611084
      ],
      [
        "▁tom",
        -9.89572048187256
      ],
      [
        "oire",
        -9.896445274353027
      ],
      [
        "▁tes",
        -9.89681339263916
      ],
      [
        "▁représentant",
        -9.897133827209473
      ],
      [
        "▁composé",
        -9.897368431091309
      ],
      [
        "▁camp",
        -9.897513389587402
      ],
      [
        "▁téléchargement",
        -9.89759349822998
      ],
      [
        "24",
        -9.898012161254885
      ],
      [
        "dia",
        -9.898200035095217
      ],
      [
        "▁che",
        -9.89846134185791
      ],
      [
        "ym",
        -9.89906883239746
      ],
      [
        "▁milliards",
        -9.8991060256958
      ],
      [
        "▁développé",
        -9.8993558883667
      ],
      [
        "▁1.",
        -9.899574279785156
      ],
      [
        "▁rempli",
        -9.89967155456543
      ],
      [
        "▁90",
        -9.900272369384766
      ],
      [
        "▁mag",
        -9.90030002593994
      ],
      [
        "▁pourront",
        -9.900327682495115
      ],
      [
        "▁placé",
        -9.901083946228027
      ],
      [
        "▁épisode",
        -9.901093482971191
      ],
      [
        "tain",
        -9.901482582092283
      ],
      [
        "000",
        -9.90164279937744
      ],
      [
        "▁inclus",
        -9.901881217956545
      ],
      [
        "▁bras",
        -9.902003288269045
      ],
      [
        "▁masque",
        -9.902981758117676
      ],
      [
        "den",
        -9.903190612792969
      ],
      [
        "ham",
        -9.904032707214355
      ],
      [
        "▁télévision",
        -9.906530380249023
      ],
      [
        "ève",
        -9.906710624694824
      ],
      [
        "▁récemment",
        -9.907061576843262
      ],
      [
        "▁approche",
        -9.907782554626465
      ],
      [
        "ft",
        -9.907980918884276
      ],
      [
        "▁phase",
        -9.90813446044922
      ],
      [
        "ial",
        -9.908343315124512
      ],
      [
        "ières",
        -9.908916473388672
      ],
      [
        "auto",
        -9.908968925476074
      ],
      [
        "▁militaire",
        -9.909235000610352
      ],
      [
        "▁kar",
        -9.90941333770752
      ],
      [
        "ble",
        -9.909854888916016
      ],
      [
        "cal",
        -9.909955978393556
      ],
      [
        "▁chauffage",
        -9.910012245178224
      ],
      [
        "▁stage",
        -9.910048484802246
      ],
      [
        "▁sucre",
        -9.910528182983398
      ],
      [
        "▁politiques",
        -9.9105863571167
      ],
      [
        "▁utilise",
        -9.911465644836426
      ],
      [
        "▁vir",
        -9.912193298339844
      ],
      [
        "bel",
        -9.91258430480957
      ],
      [
        "rique",
        -9.912606239318848
      ],
      [
        "ino",
        -9.913147926330566
      ],
      [
        "▁personnages",
        -9.913233757019045
      ],
      [
        "nent",
        -9.913434028625488
      ],
      [
        "▁commencé",
        -9.913519859313965
      ],
      [
        "ju",
        -9.913690567016602
      ],
      [
        "▁adaptée",
        -9.91390895843506
      ],
      [
        "▁maîtrise",
        -9.9139404296875
      ],
      [
        "actualité",
        -9.914023399353027
      ],
      [
        "▁plastique",
        -9.914250373840332
      ],
      [
        "▁chine",
        -9.914283752441406
      ],
      [
        "ères",
        -9.914761543273926
      ],
      [
        "ain",
        -9.9152250289917
      ],
      [
        "▁anne",
        -9.91599178314209
      ],
      [
        "▁sec",
        -9.916054725646973
      ],
      [
        "anc",
        -9.916058540344238
      ],
      [
        "▁défense",
        -9.916337966918944
      ],
      [
        "▁vendu",
        -9.917009353637695
      ],
      [
        "▁douche",
        -9.917417526245115
      ],
      [
        "▁assurance",
        -9.917460441589355
      ],
      [
        "▁spécialisé",
        -9.917865753173828
      ],
      [
        "▁familles",
        -9.919112205505373
      ],
      [
        "zi",
        -9.919585227966309
      ],
      [
        "omb",
        -9.919816970825195
      ],
      [
        "asse",
        -9.920044898986816
      ],
      [
        "▁tenu",
        -9.920238494873049
      ],
      [
        "▁vêtements",
        -9.920624732971191
      ],
      [
        "▁servir",
        -9.921309471130373
      ],
      [
        "▁dédié",
        -9.921645164489746
      ],
      [
        "▁artistique",
        -9.922323226928713
      ],
      [
        ".000",
        -9.922683715820312
      ],
      [
        "▁équipements",
        -9.922734260559082
      ],
      [
        "▁2010",
        -9.922800064086914
      ],
      [
        "▁raconte",
        -9.923362731933594
      ],
      [
        "▁personnalisé",
        -9.923514366149902
      ],
      [
        "émission",
        -9.923589706420898
      ],
      [
        "23",
        -9.924110412597656
      ],
      [
        "lais",
        -9.924503326416016
      ],
      [
        "itaire",
        -9.924561500549316
      ],
      [
        "▁are",
        -9.924720764160156
      ],
      [
        "▁objets",
        -9.925281524658203
      ],
      [
        "▁passant",
        -9.925421714782717
      ],
      [
        "▁invite",
        -9.925787925720217
      ],
      [
        "▁compétition",
        -9.925996780395508
      ],
      [
        "▁panier",
        -9.92631721496582
      ],
      [
        "mand",
        -9.927324295043944
      ],
      [
        "▁look",
        -9.927488327026367
      ],
      [
        "▁arm",
        -9.929397583007812
      ],
      [
        "▁streaming",
        -9.929609298706056
      ],
      [
        "▁proposé",
        -9.929638862609863
      ],
      [
        "▁annonces",
        -9.929986953735352
      ],
      [
        "igu",
        -9.930782318115234
      ],
      [
        "▁fan",
        -9.931021690368652
      ],
      [
        "▁standard",
        -9.931157112121582
      ],
      [
        "▁bref",
        -9.931187629699709
      ],
      [
        "avis",
        -9.931533813476562
      ],
      [
        "▁peur",
        -9.931639671325684
      ],
      [
        "&",
        -9.93172836303711
      ],
      [
        "▁ban",
        -9.932126998901367
      ],
      [
        "▁frère",
        -9.93233871459961
      ],
      [
        "fl",
        -9.932365417480469
      ],
      [
        "imp",
        -9.932613372802734
      ],
      [
        "isent",
        -9.933507919311523
      ],
      [
        "▁ed",
        -9.933717727661133
      ],
      [
        "pr",
        -9.933838844299316
      ],
      [
        "▁liens",
        -9.934270858764648
      ],
      [
        "▁gou",
        -9.9343843460083
      ],
      [
        "▁artisan",
        -9.934796333312988
      ],
      [
        "▁ph",
        -9.934857368469238
      ],
      [
        "ifié",
        -9.935291290283203
      ],
      [
        "▁ap",
        -9.938258171081545
      ],
      [
        "▁davantage",
        -9.938289642333984
      ],
      [
        "ox",
        -9.938983917236328
      ],
      [
        "faire",
        -9.939119338989258
      ],
      [
        "▁stade",
        -9.93932819366455
      ],
      [
        "▁volume",
        -9.939340591430664
      ],
      [
        "ède",
        -9.939420700073242
      ],
      [
        "cho",
        -9.939455032348633
      ],
      [
        "▁cent",
        -9.939471244812012
      ],
      [
        "▁pin",
        -9.939620971679688
      ],
      [
        "▁veux",
        -9.940322875976562
      ],
      [
        "▁batterie",
        -9.940630912780762
      ],
      [
        "▁doux",
        -9.940866470336914
      ],
      [
        "▁parole",
        -9.941075325012209
      ],
      [
        "iz",
        -9.941131591796877
      ],
      [
        "itude",
        -9.94191551208496
      ],
      [
        "france",
        -9.942276000976562
      ],
      [
        "▁huile",
        -9.942845344543455
      ],
      [
        "mètre",
        -9.942934036254885
      ],
      [
        "▁signifie",
        -9.943467140197754
      ],
      [
        "▁tarifs",
        -9.943796157836914
      ],
      [
        "▁impact",
        -9.943833351135254
      ],
      [
        "▁leader",
        -9.944061279296877
      ],
      [
        "▁ingrédients",
        -9.944107055664062
      ],
      [
        "▁études",
        -9.944415092468262
      ],
      [
        "▁championnat",
        -9.944818496704102
      ],
      [
        "▁maman",
        -9.945359230041504
      ],
      [
        "▁publics",
        -9.945487022399902
      ],
      [
        "avance",
        -9.94583225250244
      ],
      [
        "▁classement",
        -9.946303367614746
      ],
      [
        "for",
        -9.9465970993042
      ],
      [
        "▁joli",
        -9.946683883666992
      ],
      [
        "▁beaux",
        -9.947200775146484
      ],
      [
        "▁marseille",
        -9.947423934936523
      ],
      [
        "▁intéressant",
        -9.947558403015137
      ],
      [
        "ige",
        -9.948101997375488
      ],
      [
        "▁serez",
        -9.948227882385254
      ],
      [
        "▁éco",
        -9.948284149169922
      ],
      [
        "hy",
        -9.948389053344728
      ],
      [
        "▁envoyé",
        -9.948443412780762
      ],
      [
        "▁venu",
        -9.948793411254885
      ],
      [
        "▁énergie",
        -9.948918342590332
      ],
      [
        "sol",
        -9.949393272399902
      ],
      [
        "▁amour",
        -9.949499130249023
      ],
      [
        "plus",
        -9.94964599609375
      ],
      [
        "▁propriétaire",
        -9.950093269348145
      ],
      [
        "▁spécialiste",
        -9.950316429138184
      ],
      [
        "ori",
        -9.95053482055664
      ],
      [
        "illustr",
        -9.95076847076416
      ],
      [
        "▁connecté",
        -9.951096534729004
      ],
      [
        "applique",
        -9.95175838470459
      ],
      [
        "▁chaise",
        -9.951915740966797
      ],
      [
        "▁recettes",
        -9.952160835266112
      ],
      [
        "écran",
        -9.953638076782228
      ],
      [
        "▁exposition",
        -9.953828811645508
      ],
      [
        "▁fermé",
        -9.954218864440918
      ],
      [
        "▁compter",
        -9.9542236328125
      ],
      [
        "économie",
        -9.954413414001465
      ],
      [
        "▁cache",
        -9.955025672912598
      ],
      [
        "▁tar",
        -9.955737113952637
      ],
      [
        "▁systèmes",
        -9.955862998962402
      ],
      [
        "▁russe",
        -9.955939292907717
      ],
      [
        "▁second",
        -9.956053733825684
      ],
      [
        "▁valeurs",
        -9.956096649169922
      ],
      [
        "▁serveur",
        -9.956510543823242
      ],
      [
        "▁luc",
        -9.95680046081543
      ],
      [
        "▁ten",
        -9.95689582824707
      ],
      [
        "cour",
        -9.957317352294922
      ],
      [
        "berg",
        -9.957401275634766
      ],
      [
        "▁caractère",
        -9.95803928375244
      ],
      [
        "▁actuelle",
        -9.95804214477539
      ],
      [
        "▁portable",
        -9.95853042602539
      ],
      [
        "▁dû",
        -9.958905220031738
      ],
      [
        "just",
        -9.960137367248535
      ],
      [
        "▁sch",
        -9.961244583129885
      ],
      [
        "▁rat",
        -9.96198558807373
      ],
      [
        "lect",
        -9.962140083312988
      ],
      [
        "▁forêt",
        -9.962884902954102
      ],
      [
        "ifs",
        -9.962979316711426
      ],
      [
        "rin",
        -9.962980270385742
      ],
      [
        "▁couverture",
        -9.963089942932127
      ],
      [
        "▁ventes",
        -9.9639253616333
      ],
      [
        "▁premières",
        -9.964061737060549
      ],
      [
        "lay",
        -9.96428108215332
      ],
      [
        "▁arrivée",
        -9.964293479919434
      ],
      [
        "▁auteur",
        -9.964479446411133
      ],
      [
        "▁utilisant",
        -9.964547157287598
      ],
      [
        "▁allemand",
        -9.964762687683104
      ],
      [
        "▁recommande",
        -9.964765548706056
      ],
      [
        "▁déclaration",
        -9.964922904968262
      ],
      [
        "▁sang",
        -9.965120315551758
      ],
      [
        "▁pl",
        -9.965229034423828
      ],
      [
        "▁navigateur",
        -9.965456008911133
      ],
      [
        "▁assuré",
        -9.965572357177734
      ],
      [
        "iller",
        -9.965639114379885
      ],
      [
        "ica",
        -9.966392517089844
      ],
      [
        "▁technologies",
        -9.96743392944336
      ],
      [
        "▁proches",
        -9.967476844787598
      ],
      [
        "nk",
        -9.967581748962402
      ],
      [
        "lage",
        -9.968314170837402
      ],
      [
        "dit",
        -9.96863842010498
      ],
      [
        "êt",
        -9.969172477722168
      ],
      [
        "▁bloc",
        -9.96950340270996
      ],
      [
        "assi",
        -9.969645500183104
      ],
      [
        "▁>",
        -9.970121383666992
      ],
      [
        "avenir",
        -9.970752716064451
      ],
      [
        "▁up",
        -9.972043991088867
      ],
      [
        "▁telles",
        -9.972073554992676
      ],
      [
        "▁naissance",
        -9.972529411315918
      ],
      [
        "▁candidat",
        -9.973175048828123
      ],
      [
        "▁animal",
        -9.97329044342041
      ],
      [
        "tou",
        -9.97359848022461
      ],
      [
        "▁utilisez",
        -9.973670959472656
      ],
      [
        "ute",
        -9.974212646484377
      ],
      [
        "nière",
        -9.974469184875488
      ],
      [
        "▁han",
        -9.974666595458984
      ],
      [
        "gon",
        -9.976187705993652
      ],
      [
        "analyse",
        -9.977041244506836
      ],
      [
        "▁pêche",
        -9.977532386779783
      ],
      [
        "▁experts",
        -9.977842330932615
      ],
      [
        "▁favori",
        -9.978129386901855
      ],
      [
        "▁sel",
        -9.978201866149902
      ],
      [
        "▁manuel",
        -9.97839069366455
      ],
      [
        "▁voyageurs",
        -9.979324340820312
      ],
      [
        "▁demi",
        -9.980009078979492
      ],
      [
        "▁barre",
        -9.980579376220703
      ],
      [
        "▁délai",
        -9.980768203735352
      ],
      [
        "▁inscrit",
        -9.981316566467283
      ],
      [
        "assemblée",
        -9.981471061706545
      ],
      [
        "▁solide",
        -9.98184871673584
      ],
      [
        "▁sentiment",
        -9.982186317443848
      ],
      [
        "hor",
        -9.9828462600708
      ],
      [
        "chet",
        -9.98303508758545
      ],
      [
        "nal",
        -9.983434677124023
      ],
      [
        "way",
        -9.9837007522583
      ],
      [
        "▁américaine",
        -9.983723640441896
      ],
      [
        "▁prenez",
        -9.984100341796877
      ],
      [
        "▁etats",
        -9.984657287597656
      ],
      [
        "usage",
        -9.984933853149414
      ],
      [
        "▁vide",
        -9.984933853149414
      ],
      [
        "ps",
        -9.985153198242188
      ],
      [
        "▁superbe",
        -9.985520362854004
      ],
      [
        "▁supérieur",
        -9.985525131225586
      ],
      [
        "arch",
        -9.986384391784668
      ],
      [
        "midi",
        -9.986552238464355
      ],
      [
        "bit",
        -9.98682975769043
      ],
      [
        "▁effectuer",
        -9.98802089691162
      ],
      [
        "▁propres",
        -9.988078117370604
      ],
      [
        "ifier",
        -9.988165855407717
      ],
      [
        "▁principalement",
        -9.988497734069824
      ],
      [
        "col",
        -9.9891939163208
      ],
      [
        "▁signé",
        -9.98937702178955
      ],
      [
        "▁perdre",
        -9.989920616149902
      ],
      [
        "arrêt",
        -9.98992919921875
      ],
      [
        "▁dessus",
        -9.989950180053713
      ],
      [
        "▁original",
        -9.990316390991213
      ],
      [
        "▁froid",
        -9.990571975708008
      ],
      [
        "▁incroyable",
        -9.990683555603027
      ],
      [
        "▁populaire",
        -9.990716934204102
      ],
      [
        "▁obtenu",
        -9.991058349609377
      ],
      [
        "▁âge",
        -9.991140365600586
      ],
      [
        "▁boule",
        -9.991759300231934
      ],
      [
        "▁capitale",
        -9.99208927154541
      ],
      [
        "lf",
        -9.992216110229492
      ],
      [
        "euil",
        -9.992351531982422
      ],
      [
        "▁men",
        -9.992609977722168
      ],
      [
        "tier",
        -9.993072509765623
      ],
      [
        "▁utile",
        -9.993812561035156
      ],
      [
        "▁noire",
        -9.993972778320312
      ],
      [
        "▁chaude",
        -9.994179725646973
      ],
      [
        "▁gratuits",
        -9.996009826660156
      ],
      [
        "off",
        -9.996042251586914
      ],
      [
        "▁ravi",
        -9.99634075164795
      ],
      [
        "▁installation",
        -9.99655818939209
      ],
      [
        "▁plu",
        -9.996914863586426
      ],
      [
        "▁grave",
        -9.998116493225098
      ],
      [
        "▁prestations",
        -9.998174667358398
      ],
      [
        "▁chercher",
        -9.998387336730955
      ],
      [
        "▁profit",
        -9.99907112121582
      ],
      [
        "met",
        -9.999406814575195
      ],
      [
        "▁disc",
        -9.999420166015623
      ],
      [
        "▁énergétique",
        -9.99968719482422
      ],
      [
        "avec",
        -9.999738693237305
      ],
      [
        "ich",
        -9.999995231628418
      ],
      [
        "▁accueille",
        -10.000055313110352
      ],
      [
        "▁autorités",
        -10.001211166381836
      ],
      [
        "▁médi",
        -10.00190258026123
      ],
      [
        "cré",
        -10.002025604248049
      ],
      [
        "oux",
        -10.002269744873049
      ],
      [
        "▁collectif",
        -10.00233554840088
      ],
      [
        "▁vieux",
        -10.00291347503662
      ],
      [
        "az",
        -10.003058433532717
      ],
      [
        "ense",
        -10.003076553344728
      ],
      [
        "ini",
        -10.00310230255127
      ],
      [
        "▁financement",
        -10.00333023071289
      ],
      [
        "▁iphone",
        -10.004054069519045
      ],
      [
        "illé",
        -10.004268646240234
      ],
      [
        "▁lait",
        -10.004857063293455
      ],
      [
        "▁coton",
        -10.005081176757812
      ],
      [
        "▁sta",
        -10.005533218383787
      ],
      [
        "▁rac",
        -10.005632400512695
      ],
      [
        "▁connaissances",
        -10.005852699279783
      ],
      [
        "▁formes",
        -10.005927085876465
      ],
      [
        "▁intervention",
        -10.006094932556152
      ],
      [
        "▁coll",
        -10.006433486938477
      ],
      [
        "78",
        -10.006473541259766
      ],
      [
        "▁réserve",
        -10.006719589233398
      ],
      [
        "▁modification",
        -10.007020950317385
      ],
      [
        "▁déroule",
        -10.007057189941406
      ],
      [
        "▁soumis",
        -10.007153511047363
      ],
      [
        "▁plantes",
        -10.00720500946045
      ],
      [
        "▁groupes",
        -10.0073881149292
      ],
      [
        "▁commerciale",
        -10.007583618164062
      ],
      [
        "cle",
        -10.007771492004396
      ],
      [
        "oul",
        -10.007850646972656
      ],
      [
        "nage",
        -10.00837230682373
      ],
      [
        "▁centrale",
        -10.008374214172363
      ],
      [
        "ui",
        -10.00879955291748
      ],
      [
        "poli",
        -10.009427070617676
      ],
      [
        "apprentissage",
        -10.00971508026123
      ],
      [
        "▁appelé",
        -10.009722709655762
      ],
      [
        "▁réparation",
        -10.010124206542969
      ],
      [
        "graph",
        -10.0106840133667
      ],
      [
        "▁app",
        -10.011136054992676
      ],
      [
        "▁longueur",
        -10.01115894317627
      ],
      [
        "▁lycée",
        -10.01137924194336
      ],
      [
        "▁personnage",
        -10.011387825012209
      ],
      [
        "▁navigation",
        -10.011554718017578
      ],
      [
        "dans",
        -10.011601448059082
      ],
      [
        "▁live",
        -10.012357711791992
      ],
      [
        "▁chantier",
        -10.012954711914062
      ],
      [
        "▁originale",
        -10.013032913208008
      ],
      [
        "eaux",
        -10.014018058776855
      ],
      [
        "lev",
        -10.014492988586426
      ],
      [
        "▁rappel",
        -10.014877319335938
      ],
      [
        "échange",
        -10.014922142028809
      ],
      [
        "table",
        -10.015034675598145
      ],
      [
        "▁violence",
        -10.0152587890625
      ],
      [
        "▁san",
        -10.015310287475586
      ],
      [
        "▁esprit",
        -10.015555381774902
      ],
      [
        "aller",
        -10.016270637512209
      ],
      [
        "▁photographie",
        -10.016472816467283
      ],
      [
        "▁rénovation",
        -10.01665496826172
      ],
      [
        "▁chargé",
        -10.017082214355469
      ],
      [
        "ô",
        -10.017251014709473
      ],
      [
        "▁sélectionné",
        -10.017772674560549
      ],
      [
        "▁plaque",
        -10.018902778625488
      ],
      [
        "tiques",
        -10.018963813781738
      ],
      [
        "▁intérêt",
        -10.019258499145508
      ],
      [
        "▁supérieure",
        -10.019903182983398
      ],
      [
        "▁pdf",
        -10.020681381225586
      ],
      [
        "▁roi",
        -10.021501541137695
      ],
      [
        "ient",
        -10.021576881408691
      ],
      [
        "▁bonus",
        -10.022507667541504
      ],
      [
        "▁avance",
        -10.022567749023438
      ],
      [
        "▁complètement",
        -10.022997856140137
      ],
      [
        "▁ven",
        -10.023553848266602
      ],
      [
        "▁finance",
        -10.024541854858398
      ],
      [
        "▁peuple",
        -10.02515697479248
      ],
      [
        "▁missions",
        -10.025904655456545
      ],
      [
        "▁réalisée",
        -10.026013374328612
      ],
      [
        "▁bru",
        -10.026076316833496
      ],
      [
        "▁retraite",
        -10.026693344116213
      ],
      [
        "écoute",
        -10.026778221130373
      ],
      [
        "▁dom",
        -10.02685260772705
      ],
      [
        "hu",
        -10.027191162109377
      ],
      [
        "ote",
        -10.02729320526123
      ],
      [
        "▁diverses",
        -10.02741527557373
      ],
      [
        "▁rythme",
        -10.02741527557373
      ],
      [
        "har",
        -10.029998779296877
      ],
      [
        "▁lou",
        -10.030535697937012
      ],
      [
        "issent",
        -10.03095245361328
      ],
      [
        "hiver",
        -10.031275749206545
      ],
      [
        "honneur",
        -10.031574249267578
      ],
      [
        "▁clés",
        -10.031577110290527
      ],
      [
        "▁quotidienne",
        -10.031702995300291
      ],
      [
        "▁quelles",
        -10.032397270202637
      ],
      [
        "yl",
        -10.03262996673584
      ],
      [
        "▁équipé",
        -10.032705307006836
      ],
      [
        "▁ps",
        -10.03283977508545
      ],
      [
        "▁raisons",
        -10.032968521118164
      ],
      [
        "viendra",
        -10.033164024353027
      ],
      [
        "▁performances",
        -10.033228874206545
      ],
      [
        "▁recommandé",
        -10.034011840820312
      ],
      [
        "▁erreur",
        -10.03459930419922
      ],
      [
        "▁termes",
        -10.034846305847168
      ],
      [
        "▁fermeture",
        -10.03504753112793
      ],
      [
        "▁vendre",
        -10.035511016845703
      ],
      [
        "▁marqué",
        -10.03571605682373
      ],
      [
        "▁allé",
        -10.035837173461914
      ],
      [
        "mobil",
        -10.035888671875
      ],
      [
        "▁installé",
        -10.036373138427734
      ],
      [
        "▁rédaction",
        -10.036499977111816
      ],
      [
        "▁imm",
        -10.037354469299316
      ],
      [
        "press",
        -10.037413597106934
      ],
      [
        "▁géo",
        -10.037467002868652
      ],
      [
        "▁twitter",
        -10.037514686584473
      ],
      [
        "▁(1",
        -10.037795066833496
      ],
      [
        "®",
        -10.038145065307615
      ],
      [
        "▁participants",
        -10.038174629211426
      ],
      [
        "pas",
        -10.038350105285645
      ],
      [
        "▁légère",
[...]
