{
  "version": "1.0",
  "truncation": null,
  "padding": null,
  "added_tokens": [
    {
      "id": 0,
      "content": "<s>",
      "single_word": false,
      "lstrip": false,
      "rstrip": false,
      "normalized": false,
      "special": true
    },
    {
      "id": 1,
      "content": "</s>",
      "single_word": false,
      "lstrip": false,
      "rstrip": false,
      "normalized": false,
      "special": true
    },
    {
      "id": 2,
      "content": "<pad>",
      "single_word": false,
      "lstrip": false,
      "rstrip": false,
      "normalized": false,
      "special": true
    },
    {
      "id": 3,
      "content": "<unk>",
      "single_word": false,
      "lstrip": false,
      "rstrip": false,
      "normalized": false,
      "special": true
    }
  ],
  "normalizer": {
    "type": "Sequence",
    "normalizers": [
      {
        "type": "NFC"
      },
      {
        "type": "Replace",
        "pattern": {
          "String": "’"
        },
        "content": "'"
      },
      {
        "type": "Replace",
        "pattern": {
          "String": "‘"
        },
        "content": "'"
      },
      {
        "type": "Replace",
        "pattern": {
          "String": "ʼ"
        },
        "content": "'"
      },
      {
        "type": "Replace",
        "pattern": {
          "String": "＇"
        },
        "content": "'"
      },
      {
        "type": "Replace",
        "pattern": {
          "String": "`"
        },
        "content": "'"
      },
      {
        "type": "Replace",
        "pattern": {
          "String": "´"
        },
        "content": "'"
      },
      {
        "type": "Lowercase"
      },
      {
        "type": "Replace",
        "pattern": {
          "Regex": "\\s+"
        },
        "content": " "
      },
      {
        "type": "Strip",
        "strip_left": true,
        "strip_right": true
      },
      {
        "type": "Prepend",
        "prepend": "▁"
      },
      {
        "type": "Replace",
        "pattern": {
          "String": " "
        },
        "content": "▁"
      }
    ]
  },
  "pre_tokenizer": null,
  "post_processor": {
    "type": "TemplateProcessing",
    "single": [
      {
        "SpecialToken": {
          "id": "<s>",
          "type_id": 0
        }
      },
      {
        "Sequence": {
          "id": "A",
          "type_id": 0
        }
      }
    ],
    "pair": [
      {
        "SpecialToken": {
          "id": "<s>",
          "type_id": 0
        }
      },
      {
        "Sequence": {
          "id": "A",
          "type_id": 0
        }
      },
      {
        "SpecialToken": {
          "id": "<s>",
          "type_id": 1
        }
      },
      {
        "Sequence": {
          "id": "B",
          "type_id": 1
        }
      }
    ],
    "special_tokens": {
      "<s>": {
        "id": "<s>",
        "ids": [
          0
        ],
        "tokens": [
          "<s>"
        ]
      }
    }
  },
  "decoder": {
    "type": "Sequence",
    "decoders": [
      {
        "type": "Replace",
        "pattern": {
          "String": "▁"
        },
        "content": " "
      },
      {
        "type": "ByteFallback"
      },
      {
        "type": "Fuse"
      },
      {
        "type": "Strip",
        "content": " ",
        "start": 1,
        "stop": 0
      }
    ]
  },
  "model": {
    "type": "Unigram",
    "unk_id": 0,
    "vocab": [
      [
        "<s>",
        0.0
      ],
      [
        "</s>",
        0.0
      ],
      [
        "<pad>",
        0.0
      ],
      [
        "<unk>",
        0.0
      ],
      [
        "<0x00>",
        0.0
      ],
      [
        "<0x01>",
        0.0
      ],
      [
        "<0x02>",
        0.0
      ],
      [
        "<0x03>",
        0.0
      ],
      [
        "<0x04>",
        0.0
      ],
      [
        "<0x05>",
        0.0
      ],
      [
        "<0x06>",
        0.0
      ],
      [
        "<0x07>",
        0.0
      ],
      [
        "<0x08>",
        0.0
      ],
      [
        "<0x09>",
        0.0
      ],
      [
        "<0x0A>",
        0.0
      ],
      [
        "<0x0B>",
        0.0
      ],
      [
        "<0x0C>",
        0.0
      ],
      [
        "<0x0D>",
        0.0
      ],
      [
        "<0x0E>",
        0.0
      ],
      [
        "<0x0F>",
        0.0
      ],
      [
        "<0x10>",
        0.0
      ],
      [
        "<0x11>",
        0.0
      ],
      [
        "<0x12>",
        0.0
      ],
      [
        "<0x13>",
        0.0
      ],
      [
        "<0x14>",
        0.0
      ],
      [
        "<0x15>",
        0.0
      ],
      [
        "<0x16>",
        0.0
      ],
      [
        "<0x17>",
        0.0
      ],
      [
        "<0x18>",
        0.0
      ],
      [
        "<0x19>",
        0.0
      ],
      [
        "<0x1A>",
        0.0
      ],
      [
        "<0x1B>",
        0.0
      ],
      [
        "<0x1C>",
        0.0
      ],
      [
        "<0x1D>",
        0.0
      ],
      [
        "<0x1E>",
        0.0
      ],
      [
        "<0x1F>",
        0.0
      ],
      [
        "<0x20>",
        0.0
      ],
      [
        "<0x21>",
        0.0
      ],
      [
        "<0x22>",
        0.0
      ],
      [
        "<0x23>",
        0.0
      ],
      [
        "<0x24>",
        0.0
      ],
      [
        "<0x25>",
        0.0
      ],
      [
        "<0x26>",
        0.0
      ],
      [
        "<0x27>",
        0.0
      ],
      [
        "<0x28>",
        0.0
      ],
      [
        "<0x29>",
        0.0
      ],
      [
        "<0x2A>",
        0.0
      ],
      [
        "<0x2B>",
        0.0
      ],
      [
        "<0x2C>",
        0.0
      ],
      [
        "<0x2D>",
        0.0
      ],
      [
        "<0x2E>",
        0.0
      ],
      [
        "<0x2F>",
        0.0
      ],
      [
        "<0x30>",
        0.0
      ],
      [
        "<0x31>",
        0.0
      ],
      [
        "<0x32>",
        0.0
      ],
      [
        "<0x33>",
        0.0
      ],
      [
        "<0x34>",
        0.0
      ],
      [
        "<0x35>",
        0.0
      ],
      [
        "<0x36>",
        0.0
      ],
      [
        "<0x37>",
        0.0
      ],
      [
        "<0x38>",
        0.0
      ],
      [
        "<0x39>",
        0.0
      ],
      [
        "<0x3A>",
        0.0
      ],
      [
        "<0x3B>",
        0.0
      ],
      [
        "<0x3C>",
        0.0
      ],
      [
        "<0x3D>",
        0.0
      ],
      [
        "<0x3E>",
        0.0
      ],
      [
        "<0x3F>",
        0.0
      ],
      [
        "<0x40>",
        0.0
      ],
      [
        "<0x41>",
        0.0
      ],
      [
        "<0x42>",
        0.0
      ],
      [
        "<0x43>",
        0.0
      ],
      [
        "<0x44>",
        0.0
      ],
      [
        "<0x45>",
        0.0
      ],
      [
        "<0x46>",
        0.0
      ],
      [
        "<0x47>",
        0.0
      ],
      [
        "<0x48>",
        0.0
      ],
      [
        "<0x49>",
        0.0
      ],
      [
        "<0x4A>",
        0.0
      ],
      [
        "<0x4B>",
        0.0
      ],
      [
        "<0x4C>",
        0.0
      ],
      [
        "<0x4D>",
        0.0
      ],
      [
        "<0x4E>",
        0.0
      ],
      [
        "<0x4F>",
        0.0
      ],
      [
        "<0x50>",
        0.0
      ],
      [
        "<0x51>",
        0.0
      ],
      [
        "<0x52>",
        0.0
      ],
      [
        "<0x53>",
        0.0
      ],
      [
        "<0x54>",
        0.0
      ],
      [
        "<0x55>",
        0.0
      ],
      [
        "<0x56>",
        0.0
      ],
      [
        "<0x57>",
        0.0
      ],
      [
        "<0x58>",
        0.0
      ],
      [
        "<0x59>",
        0.0
      ],
      [
        "<0x5A>",
        0.0
      ],
      [
        "<0x5B>",
        0.0
      ],
      [
        "<0x5C>",
        0.0
      ],
      [
        "<0x5D>",
        0.0
      ],
      [
        "<0x5E>",
        0.0
      ],
      [
        "<0x5F>",
        0.0
      ],
      [
        "<0x60>",
        0.0
      ],
      [
        "<0x61>",
        0.0
      ],
      [
        "<0x62>",
        0.0
      ],
      [
        "<0x63>",
        0.0
      ],
      [
        "<0x64>",
        0.0
      ],
      [
        "<0x65>",
        0.0
      ],
      [
        "<0x66>",
        0.0
      ],
      [
        "<0x67>",
        0.0
      ],
      [
        "<0x68>",
        0.0
      ],
      [
        "<0x69>",
        0.0
      ],
      [
        "<0x6A>",
        0.0
      ],
      [
        "<0x6B>",
        0.0
      ],
      [
        "<0x6C>",
        0.0
      ],
      [
        "<0x6D>",
        0.0
      ],
      [
        "<0x6E>",
        0.0
      ],
      [
        "<0x6F>",
        0.0
      ],
      [
        "<0x70>",
        0.0
      ],
      [
        "<0x71>",
        0.0
      ],
      [
        "<0x72>",
        0.0
      ],
      [
        "<0x73>",
        0.0
      ],
      [
        "<0x74>",
        0.0
      ],
      [
        "<0x75>",
        0.0
      ],
      [
        "<0x76>",
        0.0
      ],
      [
        "<0x77>",
        0.0
      ],
      [
        "<0x78>",
        0.0
      ],
      [
        "<0x79>",
        0.0
      ],
      [
        "<0x7A>",
        0.0
      ],
      [
        "<0x7B>",
        0.0
      ],
      [
        "<0x7C>",
        0.0
      ],
      [
        "<0x7D>",
        0.0
      ],
      [
        "<0x7E>",
        0.0
      ],
      [
        "<0x7F>",
        0.0
      ],
      [
        "<0x80>",
        0.0
      ],
      [
        "<0x81>",
        0.0
      ],
      [
        "<0x82>",
        0.0
      ],
      [
        "<0x83>",
        0.0
      ],
      [
        "<0x84>",
        0.0
      ],
      [
        "<0x85>",
        0.0
      ],
      [
        "<0x86>",
        0.0
      ],
      [
        "<0x87>",
        0.0
      ],
      [
        "<0x88>",
        0.0
      ],
      [
        "<0x89>",
        0.0
      ],
      [
        "<0x8A>",
        0.0
      ],
      [
        "<0x8B>",
        0.0
      ],
      [
        "<0x8C>",
        0.0
      ],
      [
        "<0x8D>",
        0.0
      ],
      [
        "<0x8E>",
        0.0
      ],
      [
        "<0x8F>",
        0.0
      ],
      [
        "<0x90>",
        0.0
      ],
      [
        "<0x91>",
        0.0
      ],
      [
        "<0x92>",
        0.0
      ],
      [
        "<0x93>",
        0.0
      ],
      [
        "<0x94>",
        0.0
      ],
      [
        "<0x95>",
        0.0
      ],
      [
        "<0x96>",
        0.0
      ],
      [
        "<0x97>",
        0.0
      ],
      [
        "<0x98>",
        0.0
      ],
      [
        "<0x99>",
        0.0
      ],
      [
        "<0x9A>",
        0.0
      ],
      [
        "<0x9B>",
        0.0
      ],
      [
        "<0x9C>",
        0.0
      ],
      [
        "<0x9D>",
        0.0
      ],
      [
        "<0x9E>",
        0.0
      ],
      [
        "<0x9F>",
        0.0
      ],
      [
        "<0xA0>",
        0.0
      ],
      [
        "<0xA1>",
        0.0
      ],
      [
        "<0xA2>",
        0.0
      ],
      [
        "<0xA3>",
        0.0
      ],
      [
        "<0xA4>",
        0.0
      ],
      [
        "<0xA5>",
        0.0
      ],
      [
        "<0xA6>",
        0.0
      ],
      [
        "<0xA7>",
        0.0
      ],
      [
        "<0xA8>",
        0.0
      ],
      [
        "<0xA9>",
        0.0
      ],
      [
        "<0xAA>",
        0.0
      ],
      [
        "<0xAB>",
        0.0
      ],
      [
        "<0xAC>",
        0.0
      ],
      [
        "<0xAD>",
        0.0
      ],
      [
        "<0xAE>",
        0.0
      ],
      [
        "<0xAF>",
        0.0
      ],
      [
        "<0xB0>",
        0.0
      ],
      [
        "<0xB1>",
        0.0
      ],
      [
        "<0xB2>",
        0.0
      ],
      [
        "<0xB3>",
        0.0
      ],
      [
        "<0xB4>",
        0.0
      ],
      [
        "<0xB5>",
        0.0
      ],
      [
        "<0xB6>",
        0.0
      ],
      [
        "<0xB7>",
        0.0
      ],
      [
        "<0xB8>",
        0.0
      ],
      [
        "<0xB9>",
        0.0
      ],
      [
        "<0xBA>",
        0.0
      ],
      [
        "<0xBB>",
        0.0
      ],
      [
        "<0xBC>",
        0.0
      ],
      [
        "<0xBD>",
        0.0
      ],
      [
        "<0xBE>",
        0.0
      ],
      [
        "<0xBF>",
        0.0
      ],
      [
        "<0xC0>",
        0.0
      ],
      [
        "<0xC1>",
        0.0
      ],
      [
        "<0xC2>",
        0.0
      ],
      [
        "<0xC3>",
        0.0
      ],
      [
        "<0xC4>",
        0.0
      ],
      [
        "<0xC5>",
        0.0
      ],
      [
        "<0xC6>",
        0.0
      ],
      [
        "<0xC7>",
        0.0
      ],
      [
        "<0xC8>",
        0.0
      ],
      [
        "<0xC9>",
        0.0
      ],
      [
        "<0xCA>",
        0.0
      ],
      [
        "<0xCB>",
        0.0
      ],
      [
        "<0xCC>",
        0.0
      ],
      [
        "<0xCD>",
        0.0
      ],
      [
        "<0xCE>",
        0.0
      ],
      [
        "<0xCF>",
        0.0
      ],
      [
        "<0xD0>",
        0.0
      ],
      [
        "<0xD1>",
        0.0
      ],
      [
        "<0xD2>",
        0.0
      ],
      [
        "<0xD3>",
        0.0
      ],
      [
        "<0xD4>",
        0.0
      ],
      [
        "<0xD5>",
        0.0
      ],
      [
        "<0xD6>",
        0.0
      ],
      [
        "<0xD7>",
        0.0
      ],
      [
        "<0xD8>",
        0.0
      ],
      [
        "<0xD9>",
        0.0
      ],
      [
        "<0xDA>",
        0.0
      ],
      [
        "<0xDB>",
        0.0
      ],
      [
        "<0xDC>",
        0.0
      ],
      [
        "<0xDD>",
        0.0
      ],
      [
        "<0xDE>",
        0.0
      ],
      [
        "<0xDF>",
        0.0
      ],
      [
        "<0xE0>",
        0.0
      ],
      [
        "<0xE1>",
        0.0
      ],
      [
        "<0xE2>",
        0.0
      ],
      [
        "<0xE3>",
        0.0
      ],
      [
        "<0xE4>",
        0.0
      ],
      [
        "<0xE5>",
        0.0
      ],
      [
        "<0xE6>",
        0.0
      ],
      [
        "<0xE7>",
        0.0
      ],
      [
        "<0xE8>",
        0.0
      ],
      [
        "<0xE9>",
        0.0
      ],
      [
        "<0xEA>",
        0.0
      ],
      [
        "<0xEB>",
        0.0
      ],
      [
        "<0xEC>",
        0.0
      ],
      [
        "<0xED>",
        0.0
      ],
      [
        "<0xEE>",
        0.0
      ],
      [
        "<0xEF>",
        0.0
      ],
      [
        "<0xF0>",
        0.0
      ],
      [
        "<0xF1>",
        0.0
      ],
      [
        "<0xF2>",
        0.0
      ],
      [
        "<0xF3>",
        0.0
      ],
      [
        "<0xF4>",
        0.0
      ],
      [
        "<0xF5>",
        0.0
      ],
      [
        "<0xF6>",
        0.0
      ],
      [
        "<0xF7>",
        0.0
      ],
      [
        "<0xF8>",
        0.0
      ],
      [
        "<0xF9>",
        0.0
      ],
      [
        "<0xFA>",
        0.0
      ],
      [
        "<0xFB>",
        0.0
      ],
      [
        "<0xFC>",
        0.0
      ],
      [
        "<0xFD>",
        0.0
      ],
      [
        "<0xFE>",
        0.0
      ],
      [
        "<0xFF>",
        0.0
      ],
      [
        "▁de",
        -3.153305768966675
      ],
      [
        "'",
        -3.3304717540740967
      ],
      [
        ",",
        -3.3476643562316895
      ],
      [
        ".",
        -3.445515394210815
      ],
      [
        "▁la",
        -3.906316041946411
      ],
      [
        "▁et",
        -3.9914705753326416
      ],
      [
        "▁le",
        -4.099665641784668
      ],
      [
        "▁à",
        -4.177319049835205
      ],
      [
        "▁les",
        -4.263648986816406
      ],
      [
        "▁l",
        -4.27314567565918
      ],
      [
        "▁d",
        -4.401717185974121
      ],
      [
        "▁en",
        -4.467868804931641
      ],
      [
        "▁des",
        -4.46927547454834
      ],
      [
        "▁pour",
        -4.666110038757324
      ],
      [
        "▁un",
        -4.735562801361084
      ],
      [
        "-",
        -4.81229305267334
      ],
      [
        "▁du",
        -4.871950626373291
      ],
      [
        "▁une",
        -4.954493045806885
      ],
      [
        "▁dans",
        -5.101028919219971
      ],
      [
        "▁vous",
        -5.11710262298584
      ],
      [
        "▁est",
        -5.150600433349609
      ],
      [
        "▁sur",
        -5.186809062957764
      ],
      [
        "▁a",
        -5.1983795166015625
      ],
      [
        "▁que",
        -5.229250907897949
      ],
      [
        "s",
        -5.2491960525512695
      ],
      [
        "▁qui",
        -5.354427814483643
      ],
      [
        "▁au",
        -5.408694267272949
      ],
      [
        "▁avec",
        -5.495603561401367
      ],
      [
        "▁:",
        -5.522693157196045
      ],
      [
        "▁-",
        -5.523462295532227
      ],
      [
        "▁par",
        -5.524359703063965
      ],
      [
        "▁plus",
        -5.566755294799805
      ],
      [
        "▁ce",
        -5.602292060852051
      ],
      [
        "▁pas",
        -5.647690296173096
      ],
      [
        "▁il",
        -5.65816593170166
      ],
      [
        "▁ou",
        -5.8270721435546875
      ],
      [
        "▁votre",
        -5.853916645050049
      ],
      [
        "est",
        -5.884879112243652
      ],
      [
        "▁(",
        -5.923576831817627
      ],
      [
        "▁nous",
        -5.930499076843262
      ],
      [
        "▁se",
        -5.99522590637207
      ],
      [
        "▁s",
        -6.032052516937256
      ],
      [
        "▁sont",
        -6.035281658172607
      ],
      [
        "▁ne",
        -6.0748291015625
      ],
      [
        "▁n",
        -6.076852321624756
      ],
      [
        "▁son",
        -6.1095404624938965
      ],
      [
        "▁qu",
        -6.151839256286621
      ],
      [
        "▁c",
        -6.165497779846191
      ],
      [
        "un",
        -6.197951793670654
      ],
      [
        "▁je",
        -6.227155685424805
      ],
      [
        "▁cette",
        -6.242018699645996
      ],
      [
        "▁aux",
        -6.272522449493408
      ],
      [
        ")",
        -6.2745256423950195
      ],
      [
        "▁!",
        -6.385477066040039
      ],
      [
        "▁mais",
        -6.393617153167725
      ],
      [
        "▁«",
        -6.413396835327148
      ],
      [
        "une",
        -6.417878150939941
      ],
      [
        "▁tout",
        -6.448627948760986
      ],
      [
        "e",
        -6.475523948669434
      ],
      [
        "▁sa",
        -6.532181262969971
      ],
      [
        "▁?",
        -6.5685038566589355
      ],
      [
        "▁si",
        -6.569191932678223
      ],
      [
        "il",
        -6.609856128692627
      ],
      [
        "▁bien",
        -6.623813152313232
      ],
      [
        "a",
        -6.628701686859131
      ],
      [
        "▁ont",
        -6.649425506591797
      ],
      [
        ":",
        -6.652638912200928
      ],
      [
        "▁comme",
        -6.662641525268555
      ],
      [
        "▁faire",
        -6.666345119476318
      ],
      [
        "▁ses",
        -6.671677589416504
      ],
      [
        "▁j",
        -6.697511196136475
      ],
      [
        "▁notre",
        -6.710840702056885
      ],
      [
        "▁on",
        -6.715410232543945
      ],
      [
        "▁été",
        -6.718055725097656
      ],
      [
        "▁vos",
        -6.728304386138916
      ],
      [
        "▁",
        -6.7611870765686035
      ],
      [
        "▁fait",
        -6.794037342071533
      ],
      [
        "▁très",
        -6.804081916809082
      ],
      [
        "▁être",
        -6.817264556884766
      ],
      [
        "▁aussi",
        -6.838619232177734
      ],
      [
        "▁leur",
        -6.847770690917969
      ],
      [
        "▁tous",
        -6.856189250946045
      ],
      [
        "▁peut",
        -6.8852691650390625
      ],
      [
        "▁elle",
        -6.899561405181885
      ],
      [
        "▁ces",
        -6.900913238525391
      ],
      [
        "h",
        -6.922567844390869
      ],
      [
        "▁\"",
        -6.929162502288818
      ],
      [
        "▁y",
        -6.934657573699951
      ],
      [
        "▁|",
        -6.950753688812256
      ],
      [
        "▁sans",
        -6.9563398361206055
      ],
      [
        "▁nos",
        -6.998920440673828
      ],
      [
        "▁deux",
        -7.011716842651367
      ],
      [
        "▁même",
        -7.027005195617676
      ],
      [
        "▁site",
        -7.035616874694824
      ],
      [
        "▁»",
        -7.059972286224365
      ],
      [
        "ai",
        -7.090746879577637
      ],
      [
        "/",
        -7.111284255981445
      ],
      [
        "▁ans",
        -7.144213676452637
      ],
      [
        "▁1",
        -7.169049263000488
      ],
      [
        "▁après",
        -7.1862030029296875
      ],
      [
        "...",
        -7.1877288818359375
      ],
      [
        "▁2",
        -7.211993217468262
      ],
      [
        "▁également",
        -7.221510887145996
      ],
      [
        "▁entre",
        -7.235077857971191
      ],
      [
        "▁m",
        -7.236394882202148
      ],
      [
        "▁depuis",
        -7.239598274230957
      ],
      [
        "en",
        -7.241530895233154
      ],
      [
        "▁ainsi",
        -7.248556613922119
      ],
      [
        "▁temps",
        -7.270104885101318
      ],
      [
        "▁3",
        -7.299503326416016
      ],
      [
        "▁–",
        -7.304133415222168
      ],
      [
        "|",
        -7.311464309692383
      ],
      [
        "on",
        -7.32443904876709
      ],
      [
        "!",
        -7.371932029724121
      ],
      [
        "▁france",
        -7.381108283996582
      ],
      [
        "▁encore",
        -7.389991760253906
      ],
      [
        "▁sous",
        -7.423209667205811
      ],
      [
        "▁avant",
        -7.438924789428711
      ],
      [
        "▁monde",
        -7.445374965667725
      ],
      [
        "▁lui",
        -7.4504313468933105
      ],
      [
        "▁vie",
        -7.455026626586914
      ],
      [
        "▁prix",
        -7.457304000854492
      ],
      [
        "▁où",
        -7.464350700378418
      ],
      [
        "▁ils",
        -7.478414058685303
      ],
      [
        "t",
        -7.481114387512207
      ],
      [
        "▁leurs",
        -7.493945121765137
      ],
      [
        "▁toutes",
        -7.493993759155273
      ],
      [
        "▁mon",
        -7.496817111968994
      ],
      [
        "▁me",
        -7.499546051025391
      ],
      [
        "▁pouvez",
        -7.507739067077637
      ],
      [
        "▁sera",
        -7.515772342681885
      ],
      [
        "vous",
        -7.523001670837402
      ],
      [
        "▁fois",
        -7.5315093994140625
      ],
      [
        "▁donc",
        -7.533979892730713
      ],
      [
        "…",
        -7.5420308113098145
      ],
      [
        "\"",
        -7.542462348937988
      ],
      [
        "▁peu",
        -7.548576354980469
      ],
      [
        "▁jour",
        -7.549759387969971
      ],
      [
        "▁place",
        -7.550906658172607
      ],
      [
        "y",
        -7.554085731506348
      ],
      [
        "▁alors",
        -7.558300018310547
      ],
      [
        "▁maison",
        -7.558422088623047
      ],
      [
        "▁cela",
        -7.5644097328186035
      ],
      [
        "▁cet",
        -7.570941925048828
      ],
      [
        "▁rencontre",
        -7.572183609008789
      ],
      [
        "?",
        -7.577125072479248
      ],
      [
        ").",
        -7.577846050262451
      ],
      [
        "▁chaque",
        -7.583078384399414
      ],
      [
        "▁quelques",
        -7.584843635559082
      ],
      [
        "▁toute",
        -7.58784818649292
      ],
      [
        "▁toujours",
        -7.589038848876953
      ],
      [
        "▁the",
        -7.594385623931885
      ],
      [
        "à",
        -7.598847389221191
      ],
      [
        "▁non",
        -7.609508991241455
      ],
      [
        "▁avoir",
        -7.6257548332214355
      ],
      [
        "▁4",
        -7.65424108505249
      ],
      [
        "▁grand",
        -7.656609535217285
      ],
      [
        "▁bon",
        -7.657581806182861
      ],
      [
        "▁plusieurs",
        -7.6580810546875
      ],
      [
        "▁comment",
        -7.669793128967285
      ],
      [
        "▁5",
        -7.673043251037598
      ],
      [
        "▁afin",
        -7.674116611480713
      ],
      [
        "être",
        -7.677241325378418
      ],
      [
        "▁ligne",
        -7.677300930023193
      ],
      [
        "▁dont",
        -7.6975250244140625
      ],
      [
        "▁moins",
        -7.712047100067139
      ],
      [
        "▁mois",
        -7.716562271118164
      ],
      [
        "▁personnes",
        -7.719099521636963
      ],
      [
        "▁10",
        -7.721023559570312
      ],
      [
        "||",
        -7.73007869720459
      ],
      [
        "▁travail",
        -7.740105628967285
      ],
      [
        "▁produits",
        -7.744762420654297
      ],
      [
        "▁nouveau",
        -7.750539779663086
      ],
      [
        "▁.",
        -7.751887321472168
      ],
      [
        "▁service",
        -7.7647881507873535
      ],
      [
        "▁contre",
        -7.7659783363342285
      ],
      [
        "▁chez",
        -7.767049312591553
      ],
      [
        "▁autres",
        -7.782608509063721
      ],
      [
        "▁jours",
        -7.784727573394775
      ],
      [
        "▁qualité",
        -7.786364078521728
      ],
      [
        "▁nouvelle",
        -7.786386013031006
      ],
      [
        "▁lors",
        -7.793940544128418
      ],
      [
        "▁premier",
        -7.8124799728393555
      ],
      [
        "▁soit",
        -7.814129829406738
      ],
      [
        "elle",
        -7.815029144287109
      ],
      [
        "▁car",
        -7.822276592254639
      ],
      [
        "▁voir",
        -7.823527336120605
      ],
      [
        "▁cas",
        -7.82514762878418
      ],
      [
        "▁jusqu",
        -7.830985069274902
      ],
      [
        "▁ma",
        -7.832230091094971
      ],
      [
        "▁petit",
        -7.840447425842285
      ],
      [
        "▁va",
        -7.847240924835205
      ],
      [
        "▁était",
        -7.847417831420898
      ],
      [
        "▁suis",
        -7.849687099456787
      ],
      [
        "▁permet",
        -7.854847431182861
      ],
      [
        "▁beaucoup",
        -7.8551025390625
      ],
      [
        "▁selon",
        -7.856292247772217
      ],
      [
        "es",
        -7.859673023223877
      ],
      [
        "▁pays",
        -7.86300802230835
      ],
      [
        "▁peuvent",
        -7.867148399353027
      ],
      [
        "le",
        -7.867334365844727
      ],
      [
        "▁ça",
        -7.870549201965332
      ],
      [
        "d",
        -7.872105598449707
      ],
      [
        "▁savoir",
        -7.874386310577393
      ],
      [
        "▁avez",
        -7.878458976745605
      ],
      [
        "),",
        -7.879769802093506
      ],
      [
        "▁déjà",
        -7.905944347381592
      ],
      [
        "com",
        -7.910415172576904
      ],
      [
        "▁jeu",
        -7.922632694244385
      ],
      [
        "▁ville",
        -7.923141956329346
      ],
      [
        "▁projet",
        -7.923608779907227
      ],
      [
        "▁,",
        -7.923667430877685
      ],
      [
        "▁compte",
        -7.930325508117676
      ],
      [
        "▁quand",
        -7.936461448669434
      ],
      [
        "▁première",
        -7.93895435333252
      ],
      [
        "▁paris",
        -7.941188335418701
      ],
      [
        "▁fin",
        -7.945539951324463
      ],
      [
        "▁grande",
        -7.949397563934326
      ],
      [
        "▁produit",
        -7.951270580291748
      ],
      [
        "▁avait",
        -7.9530863761901855
      ],
      [
        "autres",
        -7.953197479248047
      ],
      [
        "▁recherche",
        -7.962524890899658
      ],
      [
        "er",
        -7.967811107635498
      ],
      [
        "▁cours",
        -7.968751907348633
      ],
      [
        "▁suite",
        -7.969801902770996
      ],
      [
        "▁grâce",
        -7.970252990722656
      ],
      [
        "▁vers",
        -7.976024150848389
      ],
      [
        "▁services",
        -7.978951454162598
      ],
      [
        "▁bonne",
        -7.980358600616455
      ],
      [
        "▁avons",
        -7.9838433265686035
      ],
      [
        "▁femme",
        -7.989278316497803
      ],
      [
        "▁pendant",
        -7.994328498840332
      ],
      [
        "▁moment",
        -7.994351387023926
      ],
      [
        "eau",
        -7.997087478637695
      ],
      [
        "▁faut",
        -8.000298500061035
      ],
      [
        "c",
        -8.00045108795166
      ],
      [
        "▁gratuit",
        -8.007380485534668
      ],
      [
        "▁enfants",
        -8.013343811035156
      ],
      [
        "hui",
        -8.014592170715332
      ],
      [
        "l",
        -8.018860816955566
      ],
      [
        "▁trois",
        -8.023268699645996
      ],
      [
        "▁mise",
        -8.028382301330566
      ],
      [
        "▁ici",
        -8.032822608947754
      ],
      [
        "▁of",
        -8.033750534057617
      ],
      [
        "▁tu",
        -8.040278434753418
      ],
      [
        "▁partie",
        -8.046558380126953
      ],
      [
        "▁groupe",
        -8.057764053344727
      ],
      [
        "▁20",
        -8.060784339904785
      ],
      [
        "▁/",
        -8.062883377075195
      ],
      [
        "▁6",
        -8.067854881286621
      ],
      [
        "▁dernier",
        -8.080161094665527
      ],
      [
        "▁partir",
        -8.086958885192871
      ],
      [
        "▁lieu",
        -8.090298652648926
      ],
      [
        "▁trouver",
        -8.095670700073242
      ],
      [
        "▁autre",
        -8.099881172180176
      ],
      [
        "r",
        -8.108323097229004
      ],
      [
        "▁saint",
        -8.11572265625
      ],
      [
        "▁forum",
        -8.11842155456543
      ],
      [
        "▁»,",
        -8.123494148254395
      ],
      [
        "▁aujourd",
        -8.126267433166504
      ],
      [
        "▁mettre",
        -8.12726879119873
      ],
      [
        "▁;",
        -8.128716468811035
      ],
      [
        "▁prendre",
        -8.129498481750488
      ],
      [
        "▁choix",
        -8.133554458618164
      ],
      [
        "▁effet",
        -8.134011268615723
      ],
      [
        "ils",
        -8.142939567565918
      ],
      [
        "▁centre",
        -8.143227577209473
      ],
      [
        "▁puis",
        -8.148699760437012
      ],
      [
        "▁15",
        -8.159615516662598
      ],
      [
        "▁propose",
        -8.15961742401123
      ],
      [
        "m",
        -8.17116641998291
      ],
      [
        "▁doit",
        -8.176366806030273
      ],
      [
        "▁plan",
        -8.180765151977539
      ],
      [
        "▁français",
        -8.184868812561035
      ],
      [
        "00",
        -8.193316459655762
      ],
      [
        "▁besoin",
        -8.194991111755371
      ],
      [
        "▁santé",
        -8.195779800415039
      ],
      [
        "▁7",
        -8.195873260498047
      ],
      [
        "▁sécurité",
        -8.198161125183105
      ],
      [
        "▁années",
        -8.198995590209961
      ],
      [
        "▁mes",
        -8.200032234191895
      ],
      [
        "▁offre",
        -8.200286865234375
      ],
      [
        "▁clients",
        -8.208959579467773
      ],
      [
        "de",
        -8.224215507507324
      ],
      [
        "la",
        -8.22534465789795
      ],
      [
        "▁possible",
        -8.227058410644531
      ],
      [
        "▁formation",
        -8.227326393127441
      ],
      [
        "▁moi",
        -8.241697311401367
      ],
      [
        "▁mieux",
        -8.242359161376953
      ],
      [
        "▁jeux",
        -8.248466491699219
      ],
      [
        "▁8",
        -8.253996849060059
      ],
      [
        "▁30",
        -8.256551742553711
      ],
      [
        "▁personne",
        -8.257590293884277
      ],
      [
        "▁12",
        -8.258872032165527
      ],
      [
        "▁meilleur",
        -8.260586738586426
      ],
      [
        "▁niveau",
        -8.26281452178955
      ],
      [
        "▁in",
        -8.278294563293457
      ],
      [
        "▁informations",
        -8.281172752380371
      ],
      [
        "▁and",
        -8.290274620056152
      ],
      [
        "▁salle",
        -8.293911933898926
      ],
      [
        "▁notamment",
        -8.296993255615234
      ],
      [
        "▁dès",
        -8.300642013549805
      ],
      [
        "▁famille",
        -8.300901412963867
      ],
      [
        "▁société",
        -8.30095100402832
      ],
      [
        "▁êtes",
        -8.304261207580566
      ],
      [
        "▁merci",
        -8.30578327178955
      ],
      [
        "▁femmes",
        -8.310307502746582
      ],
      [
        "▁e",
        -8.312361717224121
      ],
      [
        "▁saison",
        -8.312740325927734
      ],
      [
        "▁to",
        -8.313994407653809
      ],
      [
        "u",
        -8.316040992736816
      ],
      [
        "▁belle",
        -8.320971488952637
      ],
      [
        "▁certains",
        -8.321743965148926
      ],
      [
        "▁année",
        -8.324518203735352
      ],
      [
        "▁point",
        -8.324844360351562
      ],
      [
        "▁dit",
        -8.325912475585938
      ],
      [
        "▁ceux",
        -8.328448295593262
      ],
      [
        "▁nombre",
        -8.331169128417969
      ],
      [
        "▁semaine",
        -8.3341646194458
      ],
      [
        "▁rien",
        -8.334546089172363
      ],
      [
        "▁lire",
        -8.33544921875
      ],
      [
        "▁nombreux",
        -8.339822769165039
      ],
      [
        "▁simple",
        -8.339886665344238
      ],
      [
        "▁vidéo",
        -8.34230899810791
      ],
      [
        "▁découvrir",
        -8.345255851745605
      ],
      [
        "▁trop",
        -8.348773956298828
      ],
      [
        "▁seront",
        -8.350605010986328
      ],
      [
        "▁t",
        -8.352113723754883
      ],
      [
        "▁page",
        -8.353869438171387
      ],
      [
        "▁petite",
        -8.354493141174316
      ],
      [
        "▁jamais",
        -8.35573959350586
      ],
      [
        "▁avis",
        -8.356071472167969
      ],
      [
        "▁“",
        -8.356230735778809
      ],
      [
        "▁photos",
        -8.358052253723145
      ],
      [
        "ci",
        -8.360081672668457
      ],
      [
        "▁bois",
        -8.360536575317383
      ],
      [
        "▁cadre",
        -8.361418724060059
      ],
      [
        "o",
        -8.36405086517334
      ],
      [
        "▁demande",
        -8.364786148071289
      ],
      [
        "▁face",
        -8.365530967712402
      ],
      [
        "▁&",
        -8.367238998413086
      ],
      [
        "▁système",
        -8.368433952331543
      ],
      [
        "▁développement",
        -8.372057914733887
      ],
      [
        "▁là",
        -8.37441349029541
      ],
      [
        "▁porte",
        -8.376615524291992
      ],
      [
        "▁cuisine",
        -8.379883766174316
      ],
      [
        "▁film",
        -8.381935119628906
      ],
      [
        "ont",
        -8.382956504821777
      ],
      [
        "▁part",
        -8.383136749267578
      ],
      [
        "▁».",
        -8.383162498474121
      ],
      [
        "▁18",
        -8.385168075561523
      ],
      [
        "▁reste",
        -8.385278701782227
      ],
      [
        "▁données",
        -8.38918399810791
      ],
      [
        "▁marché",
        -8.390869140625
      ],
      [
        "▁tant",
        -8.392698287963867
      ],
      [
        "2",
        -8.396641731262207
      ],
      [
        "▁président",
        -8.40413761138916
      ],
      [
        "▁eu",
        -8.409476280212402
      ],
      [
        "▁seulement",
        -8.409774780273438
      ],
      [
        "▁web",
        -8.41388988494873
      ],
      [
        "▁sommes",
        -8.414444923400879
      ],
      [
        "année",
        -8.415484428405762
      ],
      [
        "les",
        -8.418603897094727
      ],
      [
        "▁internet",
        -8.420750617980957
      ],
      [
        "▁jeune",
        -8.427501678466797
      ],
      [
        "▁celui",
        -8.434751510620117
      ],
      [
        "▁journée",
        -8.434837341308594
      ],
      [
        "▁pouvoir",
        -8.438800811767578
      ],
      [
        "▁14",
        -8.442246437072754
      ],
      [
        "▁heures",
        -8.45177936553955
      ],
      [
        "▁nom",
        -8.45424747467041
      ],
      [
        "▁public",
        -8.455770492553711
      ],
      [
        "▁x",
        -8.457059860229492
      ],
      [
        "▁créer",
        -8.457662582397461
      ],
      [
        "▁côté",
        -8.458763122558594
      ],
      [
        "▁disponible",
        -8.4606351852417
      ],
      [
        "▁homme",
        -8.46337604522705
      ],
      [
        "▁pourquoi",
        -8.46562671661377
      ],
      [
        "▁elles",
        -8.469161987304688
      ],
      [
        "▁mis",
        -8.471893310546875
      ],
      [
        "▁programme",
        -8.47423267364502
      ],
      [
        "▁différents",
        -8.476292610168457
      ],
      [
        "▁près",
        -8.477080345153809
      ],
      [
        "(",
        -8.479933738708496
      ],
      [
        "▁souvent",
        -8.480401039123535
      ],
      [
        "au",
        -8.482007026672363
      ],
      [
        "▁droit",
        -8.482415199279785
      ],
      [
        "▁région",
        -8.482975006103516
      ],
      [
        "▁type",
        -8.484949111938477
      ],
      [
        "▁nouvelles",
        -8.485225677490234
      ],
      [
        "▁minutes",
        -8.485931396484375
      ],
      [
        "▁article",
        -8.49063491821289
      ],
      [
        "▁maintenant",
        -8.49074935913086
      ],
      [
        "ce",
        -8.494122505187988
      ],
      [
        "▁marque",
        -8.498279571533203
      ],
      [
        "▁9",
        -8.505541801452637
      ],
      [
        "▁gestion",
        -8.506978034973145
      ],
      [
        "▁dernière",
        -8.511734008789062
      ],
      [
        "▁lorsque",
        -8.512296676635742
      ],
      [
        "▁jean",
        -8.514392852783203
      ],
      [
        "▁forme",
        -8.515082359313965
      ],
      [
        "▁long",
        -8.516057014465332
      ],
      [
        "▁vraiment",
        -8.516671180725098
      ],
      [
        "▁retour",
        -8.517595291137695
      ],
      [
        "▁voici",
        -8.51988410949707
      ],
      [
        "▁photo",
        -8.52105712890625
      ],
      [
        "▁dire",
        -8.524641990661621
      ],
      [
        "▁jeunes",
        -8.526124000549316
      ],
      [
        "▁livre",
        -8.527338027954102
      ],
      [
        "z",
        -8.528217315673828
      ],
      [
        "▁haut",
        -8.529358863830566
      ],
      [
        "▁chambre",
        -8.535675048828125
      ],
      [
        ";",
        -8.540719032287598
      ],
      [
        "▁mars",
        -8.542523384094238
      ],
      [
        "▁conseil",
        -8.544821739196777
      ],
      [
        "▁base",
        -8.545948028564453
      ],
      [
        "▁début",
        -8.546884536743164
      ],
      [
        "▁frais",
        -8.550372123718262
      ],
      [
        "▁question",
        -8.5553617477417
      ],
      [
        "▁...",
        -8.555868148803711
      ],
      [
        "▁entreprise",
        -8.561867713928223
      ],
      [
        "▁exemple",
        -8.563459396362305
      ],
      [
        "▁surtout",
        -8.566389083862305
      ],
      [
        "▁carte",
        -8.56718635559082
      ],
      [
        "fr",
        -8.567549705505371
      ],
      [
        "▁h",
        -8.569904327392578
      ],
      [
        "et",
        -8.570845603942871
      ],
      [
        "▁rencontres",
        -8.571459770202637
      ],
      [
        "▁date",
        -8.573763847351074
      ],
      [
        "▁découvrez",
        -8.573773384094238
      ],
      [
        "i",
        -8.574623107910156
      ],
      [
        "▁16",
        -8.574854850769043
      ],
      [
        "▁fonction",
        -8.57493782043457
      ],
      [
        "▁équipe",
        -8.57499885559082
      ],
      [
        "▁vue",
        -8.575180053710938
      ],
      [
        "▁11",
        -8.579489707946777
      ],
      [
        "▁juin",
        -8.580530166625977
      ],
      [
        "▁€",
        -8.583255767822266
      ],
      [
        "▁24",
        -8.584474563598633
      ],
      [
        "▁millions",
        -8.585111618041992
      ],
      [
        "▁expérience",
        -8.586812019348145
      ],
      [
        "▁17",
        -8.591155052185059
      ],
      [
        "x",
        -8.591428756713867
      ],
      [
        "▁mai",
        -8.592347145080566
      ],
      [
        "▁club",
        -8.592795372009277
      ],
      [
        "▁vente",
        -8.594367980957031
      ],
      [
        "://",
        -8.5951566696167
      ],
      [
        "▁autour",
        -8.597177505493164
      ],
      [
        "▁13",
        -8.599006652832031
      ],
      [
        "équipe",
        -8.599711418151855
      ],
      [
        "▁nouveaux",
        -8.60267448425293
      ],
      [
        "▁couleurs",
        -8.605957984924316
      ],
      [
        "▁septembre",
        -8.606561660766602
      ],
      [
        "▁entreprises",
        -8.607109069824219
      ],
      [
        "entreprise",
        -8.608479499816895
      ],
      [
        "▁tour",
        -8.611061096191406
      ],
      [
        "▁parce",
        -8.612349510192871
      ],
      [
        "\",",
        -8.613399505615234
      ],
      [
        "▁main",
        -8.613569259643555
      ],
      [
        "▁juste",
        -8.615108489990234
      ],
      [
        "était",
        -8.615124702453613
      ],
      [
        "▁travers",
        -8.61513900756836
      ],
      [
        "▁celle",
        -8.616622924804688
      ],
      [
        "▁rapport",
        -8.617680549621582
      ],
      [
        "▁série",
        -8.618424415588379
      ],
      [
        "▁manière",
        -8.620284080505371
      ],
      [
        "▁sites",
        -8.621559143066406
      ],
      [
        "▁000",
        -8.629185676574707
      ],
      [
        "▁livraison",
        -8.630372047424316
      ],
      [
        "▁cm",
        -8.635517120361328
      ],
      [
        "▁politique",
        -8.636460304260254
      ],
      [
        "▁passer",
        -8.641229629516602
      ],
      [
        "▁taille",
        -8.641868591308594
      ],
      [
        "▁seul",
        -8.644367218017578
      ],
      [
        "▁mode",
        -8.64465618133545
      ],
      [
        "▁façon",
        -8.6451416015625
      ],
      [
        "▁conditions",
        -8.648870468139648
      ],
      [
        "g",
        -8.651449203491211
      ],
      [
        "▁mesure",
        -8.652213096618652
      ],
      [
        "▁choisir",
        -8.654400825500488
      ],
      [
        "▁version",
        -8.658317565917969
      ],
      [
        "▁aucun",
        -8.659204483032227
      ],
      [
        "▁raison",
        -8.65929126739502
      ],
      [
        "▁corps",
        -8.6602144241333
      ],
      [
        "▁situation",
        -8.664105415344238
      ],
      [
        "▁quel",
        -8.6658935546875
      ],
      [
        "▁19",
        -8.669004440307617
      ],
      [
        "n",
        -8.669451713562012
      ],
      [
        "▁ni",
        -8.671562194824219
      ],
      [
        "avoir",
        -8.674643516540527
      ],
      [
        "▁travaux",
        -8.67708969116211
      ],
      [
        "▁petits",
        -8.680792808532715
      ],
      [
        "▁différentes",
        -8.682341575622559
      ],
      [
        "▁ci",
        -8.683695793151855
      ],
      [
        "▁création",
        -8.68437385559082
      ],
      [
        "▁ensuite",
        -8.684975624084473
      ],
      [
        "▁facile",
        -8.686999320983887
      ],
      [
        "▁chose",
        -8.68753719329834
      ],
      [
        "▁aider",
        -8.68850040435791
      ],
      [
        "▁mal",
        -8.69068717956543
      ],
      [
        "▁font",
        -8.691001892089844
      ],
      [
        "▁trouve",
        -8.69343376159668
      ],
      [
        "▁janvier",
        -8.694820404052734
      ],
      [
        "▁but",
        -8.695818901062012
      ],
      [
        "▁passe",
        -8.69693660736084
      ],
      [
        "▁design",
        -8.697311401367188
      ],
      [
        "▁samedi",
        -8.698561668395996
      ],
      [
        "▁moyen",
        -8.699000358581543
      ],
      [
        "▁nombreuses",
        -8.704806327819824
      ],
      [
        "▁an",
        -8.705039024353027
      ],
      [
        "▁projets",
        -8.706132888793945
      ],
      [
        "▁vendredi",
        -8.707100868225098
      ],
      [
        "▁coup",
        -8.708515167236328
      ],
      [
        "▁donner",
        -8.714790344238281
      ],
      [
        "▁enfin",
        -8.71737003326416
      ],
      [
        "▁charge",
        -8.7201566696167
      ],
      [
        "▁titre",
        -8.721138954162598
      ],
      [
        "▁25",
        -8.721981048583984
      ],
      [
        "▁questions",
        -8.722931861877441
      ],
      [
        "▁important",
        -8.724482536315918
      ],
      [
        "histoire",
        -8.726408004760742
      ],
      [
        "▁activités",
        -8.72761344909668
      ],
      [
        "nous",
        -8.728254318237305
      ],
      [
        "▁vu",
        -8.729647636413574
      ],
      [
        "▁pratique",
        -8.731710433959961
      ],
      [
        "▁unique",
        -8.732601165771484
      ],
      [
        "agit",
        -8.732908248901367
      ],
      [
        "▁disponibles",
        -8.733068466186523
      ],
      [
        "ensemble",
        -8.733122825622559
      ],
      [
        "▁points",
        -8.733386993408203
      ],
      [
        "▁pourrait",
        -8.73538875579834
      ],
      [
        "▁besoins",
        -8.73543930053711
      ],
      [
        "occasion",
        -8.736482620239258
      ],
      [
        "▁réseau",
        -8.736968040466309
      ],
      [
        "▁devant",
        -8.740678787231445
      ],
      [
        "▁parmi",
        -8.741615295410156
      ],
      [
        "▁plaisir",
        -8.742222785949707
      ],
      [
        "▁musique",
        -8.74311351776123
      ],
      [
        "▁%",
        -8.74514389038086
      ],
      [
        "nt",
        -8.745451927185059
      ],
      [
        "autre",
        -8.747540473937988
      ],
      [
        "▁membres",
        -8.74910831451416
      ],
      [
        "utilisation",
        -8.751784324645996
      ],
      [
        "▁professionnels",
        -8.754066467285156
      ],
      [
        "▁utiliser",
        -8.754942893981934
      ],
      [
        "▁lundi",
        -8.756403923034668
      ],
      [
        "▁couleur",
        -8.758683204650879
      ],
      [
        "▁g",
        -8.761975288391113
      ],
      [
        "▁quoi",
        -8.762029647827148
      ],
      [
        "▁novembre",
        -8.76251220703125
      ],
      [
        "▁conseils",
        -8.765047073364258
      ],
      [
        "aide",
        -8.765676498413086
      ],
      [
        "▁octobre",
        -8.765813827514648
      ],
      [
        "▁rue",
        -8.766006469726562
      ],
      [
        "▁tête",
        -8.76734733581543
      ],
      [
        "▁rendez",
        -8.767626762390137
      ],
      [
        "▁propre",
        -8.767871856689453
      ],
      [
        "▁dimanche",
        -8.770663261413574
      ],
      [
        "▁haute",
        -8.772510528564453
      ],
      [
        "▁quatre",
        -8.774063110351562
      ],
      [
        "ment",
        -8.777206420898438
      ],
      [
        "▁faites",
        -8.778042793273926
      ],
      [
        "1",
        -8.778544425964355
      ],
      [
        "▁via",
        -8.781059265136719
      ],
      [
        "30",
        -8.785737991333008
      ],
      [
        "▁production",
        -8.785901069641113
      ],
      [
        "▁hommes",
        -8.78708553314209
      ],
      [
        "▁pris",
        -8.787674903869629
      ],
      [
        "▁ensemble",
        -8.789445877075195
      ],
      [
        "▁table",
        -8.789849281311035
      ],
      [
        "▁liste",
        -8.79029655456543
      ],
      [
        "▁pu",
        -8.79134464263916
      ],
      [
        "▁secteur",
        -8.79338264465332
      ],
      [
        "▁sens",
        -8.794288635253906
      ],
      [
        "▁voiture",
        -8.794326782226562
      ],
      [
        "▁grands",
        -8.79439640045166
      ],
      [
        "▁souhaitez",
        -8.79505729675293
      ],
      [
        "▁blanc",
        -8.795475006103516
      ],
      [
        "▁ministre",
        -8.798852920532227
      ],
      [
        "ou",
        -8.800573348999023
      ],
      [
        "▁articles",
        -8.800965309143066
      ],
      [
        "▁sein",
        -8.801562309265137
      ],
      [
        "▁soir",
        -8.803051948547363
      ],
      [
        "▁gamme",
        -8.80372142791748
      ],
      [
        "▁code",
        -8.80438232421875
      ],
      [
        "▁meilleurs",
        -8.805904388427734
      ],
      [
        "▁plein",
        -8.806380271911621
      ],
      [
        "▁etc",
        -8.807202339172363
      ],
      [
        "▁sexe",
        -8.807897567749023
      ],
      [
        "▁rapidement",
        -8.81019115447998
      ],
      [
        "▁sud",
        -8.811497688293457
      ],
      [
        "▁décembre",
        -8.811847686767578
      ],
      [
        "▁rapide",
        -8.812028884887695
      ],
      [
        "▁nuit",
        -8.81324577331543
      ],
      [
        "▁vient",
        -8.813282012939453
      ],
      [
        "▁général",
        -8.816354751586914
      ],
      [
        "▁personnel",
        -8.816481590270996
      ],
      [
        "3",
        -8.81870174407959
      ],
      [
        "▁style",
        -8.819591522216797
      ],
      [
        "▁juillet",
        -8.822728157043457
      ],
      [
        "▁noir",
        -8.826911926269531
      ],
      [
        "▁protection",
        -8.829739570617676
      ],
      [
        "▁donne",
        -8.83087158203125
      ],
      [
        "je",
        -8.832149505615234
      ],
      [
        "▁modèle",
        -8.832477569580078
      ],
      [
        "▁21",
        -8.832869529724121
      ],
      [
        "▁domaine",
        -8.83320426940918
      ],
      [
        "▁meilleure",
        -8.834037780761719
      ],
      [
        "▁gouvernement",
        -8.836896896362305
      ],
      [
        "▁eux",
        -8.837510108947754
      ],
      [
        "▁problème",
        -8.837869644165039
      ],
      [
        "▁jardin",
        -8.838705062866211
      ],
      [
        "▁cœur",
        -8.839798927307129
      ],
      [
        "▁particulier",
        -8.840253829956055
      ],
      [
        "▁assez",
        -8.842368125915527
      ],
      [
        "▁voyage",
        -8.847782135009766
      ],
      [
        "▁contact",
        -8.84887409210205
      ],
      [
        "f",
        -8.850491523742676
      ],
      [
        "intérieur",
        -8.851197242736816
      ],
      [
        "▁source",
        -8.851917266845703
      ],
      [
        "▁avril",
        -8.853114128112793
      ],
      [
        "▁auprès",
        -8.85528564453125
      ],
      [
        "▁serait",
        -8.855323791503906
      ],
      [
        "▁100",
        -8.858562469482422
      ],
      [
        "▁client",
        -8.860213279724121
      ],
      [
        "▁nature",
        -8.862662315368652
      ],
      [
        "▁solution",
        -8.863263130187988
      ],
      [
        "▁matière",
        -8.863759994506836
      ],
      [
        "▁rendre",
        -8.864212989807129
      ],
      [
        "▁chef",
        -8.8653564453125
      ],
      [
        "▁obtenir",
        -8.865747451782227
      ],
      [
        "▁vacances",
        -8.865930557250977
      ],
      [
        "▁jouer",
        -8.866519927978516
      ],
      [
        "▁50",
        -8.867270469665527
      ],
      [
        "▁espace",
        -8.86795425415039
      ],
      [
        "▁prise",
        -8.871434211730957
      ],
      [
        "▁b",
        -8.871499061584473
      ],
      [
        "▁lien",
        -8.874531745910645
      ],
      [
        "▁dernières",
        -8.875215530395508
      ],
      [
        "art",
        -8.875350952148438
      ],
      [
        "▁sujet",
        -8.8775634765625
      ],
      [
        "▁i",
        -8.87834644317627
      ],
      [
        "▁pièces",
        -8.879793167114258
      ],
      [
        "▁fille",
        -8.881098747253418
      ],
      [
        "▁technique",
        -8.881704330444336
      ],
      [
        "\".",
        -8.885852813720703
      ],
      [
        "ème",
        -8.888544082641602
      ],
      [
        "▁télécharger",
        -8.88888931274414
      ],
      [
        "▁professionnel",
        -8.892632484436035
      ],
      [
        "▁pourrez",
        -8.896956443786621
      ],
      [
        "▁salon",
        -8.899431228637695
      ],
      [
        "▁cependant",
        -8.899658203125
      ],
      [
        "▁certaines",
        -8.900291442871094
      ],
      [
        "▁cher",
        -8.903939247131348
      ],
      [
        "▁peau",
        -8.905366897583008
      ],
      [
        "▁réaliser",
        -8.906840324401855
      ],
      [
        "▁ayant",
        -8.907522201538086
      ],
      [
        "▁présente",
        -8.908246040344238
      ],
      [
        "▁simplement",
        -8.909461975097656
      ],
      [
        "▁passé",
        -8.910188674926758
      ],
      [
        "▁terre",
        -8.910218238830566
      ],
      [
        "▁gens",
        -8.912049293518066
      ],
      [
        "▁beau",
        -8.918139457702637
      ],
      [
        "▁commande",
        -8.918408393859863
      ],
      [
        "▁nord",
        -8.92007064819336
      ],
      [
        "▁joueurs",
        -8.920816421508789
      ],
      [
        "▁te",
        -8.931479454040527
      ],
      [
        "▁for",
        -8.932079315185547
      ],
      [
        "▁jeudi",
        -8.934037208557129
      ],
      [
        "état",
        -8.9341402053833
      ],
      [
        "p",
        -8.934500694274902
      ],
      [
        "▁vivre",
        -8.935105323791504
      ],
      [
        "▁chambres",
        -8.93541431427002
      ],
      [
        "▁+",
        -8.937705993652344
      ],
      [
        "▁période",
        -8.937835693359375
      ],
      [
        "▁bas",
        -8.938583374023438
      ],
      [
        "▁sport",
        -8.939529418945312
      ],
      [
        "▁cause",
        -8.941322326660156
      ],
      [
        "▁22",
        -8.942076683044434
      ],
      [
        "▁résultats",
        -8.942561149597168
      ],
      [
        "▁concernant",
        -8.943126678466797
      ],
      [
        "▁gros",
        -8.943151473999023
      ],
      [
        "▁février",
        -8.943805694580078
      ],
      [
        "▁solutions",
        -8.945060729980469
      ],
      [
        "▁p",
        -8.945412635803223
      ],
      [
        "▁loi",
        -8.945538520812988
      ],
      [
        "argent",
        -8.945859909057617
      ],
      [
        "9",
        -8.946545600891113
      ],
      [
        "▁devrait",
        -8.947290420532227
      ],
      [
        "▁histoire",
        -8.948684692382812
      ],
      [
        "▁amis",
        -8.949764251708984
      ],
      [
        "▁répondre",
        -8.954000473022461
      ],
      [
        "▁pierre",
        -8.954620361328125
      ],
      [
        "▁permettre",
        -8.955070495605469
      ],
      [
        "▁suivre",
        -8.956894874572754
      ],
      [
        "▁partager",
        -8.957290649414062
      ],
      [
        "▁départ",
        -8.95870304107666
      ],
      [
        "même",
        -8.960760116577148
      ],
      [
        "▁super",
        -8.962143898010254
      ],
      [
        "▁mardi",
        -8.962493896484375
      ],
      [
        "▁•",
        -8.963371276855469
      ],
      [
        "▁sortie",
        -8.963401794433594
      ],
      [
        "▁nationale",
        -8.963822364807129
      ],
      [
        "▁profiter",
        -8.96433162689209
      ],
      [
        "▁images",
        -8.965336799621582
      ],
      [
        "▁aura",
        -8.966536521911621
      ],
      [
        "▁française",
        -8.966915130615234
      ],
      [
        "▁poste",
        -8.967893600463867
      ],
      [
        "▁is",
        -8.969771385192871
      ],
      [
        "▁techniques",
        -8.973593711853027
      ],
      [
        "▁construction",
        -8.973969459533691
      ],
      [
        "▁ton",
        -8.974869728088379
      ],
      [
        "▁mercredi",
        -8.975153923034668
      ],
      [
        "▁quelque",
        -8.975828170776367
      ],
      [
        "▁km",
        -8.976624488830566
      ],
      [
        "▁bureau",
        -8.97745132446289
      ],
      [
        "▁téléphone",
        -8.977599143981934
      ],
      [
        "▁désormais",
        -8.978157997131348
      ],
      [
        "▁loin",
        -8.978590965270996
      ],
      [
        "▁deuxième",
        -8.979920387268066
      ],
      [
        "▁choses",
        -8.982964515686035
      ],
      [
        "j",
        -8.983951568603516
      ],
      [
        "hôtel",
        -8.985176086425781
      ],
      [
        "▁publié",
        -8.987996101379395
      ],
      [
        "▁valeur",
        -8.988310813903809
      ],
      [
        "▁durant",
        -8.988319396972656
      ],
      [
        "▁large",
        -8.988608360290527
      ],
      [
        "b",
        -8.992487907409668
      ],
      [
        "▁situé",
        -8.994341850280762
      ],
      [
        "▁euros",
        -8.995388984680176
      ],
      [
        "or",
        -8.9959077835083
      ],
      [
        "▁communication",
        -8.997893333435059
      ],
      [
        "▁veut",
        -8.998189926147461
      ],
      [
        "▁aller",
        -8.99843978881836
      ],
      [
        "▁directement",
        -8.999095916748047
      ],
      [
        "▁plutôt",
        -8.999710083007812
      ],
      [
        "▁2020",
        -8.999786376953125
      ],
      [
        "▁direction",
        -9.000836372375488
      ],
      [
        "▁cul",
        -9.00189208984375
      ],
      [
        "▁durée",
        -9.002018928527832
      ],
      [
        "ait",
        -9.004644393920898
      ],
      [
        "▁bonjour",
        -9.005879402160645
      ],
      [
        "▁confiance",
        -9.006390571594238
      ],
      [
        "▁visite",
        -9.007696151733398
      ],
      [
        "▁offres",
        -9.007735252380373
      ],
      [
        "▁quelle",
        -9.0079345703125
      ],
      [
        "▁mer",
        -9.008413314819336
      ],
      [
        "▁oui",
        -9.00942325592041
      ],
      [
        "▁description",
        -9.016217231750488
      ],
      [
        "▁semble",
        -9.01686668395996
      ],
      [
        "air",
        -9.017287254333496
      ],
      [
        "▁réponse",
        -9.018658638000488
      ],
      [
        "é",
        -9.01928997039795
      ],
      [
        "▁gay",
        -9.019423484802246
      ],
      [
        "▁[",
        -9.022825241088867
      ],
      [
        "▁doivent",
        -9.025223731994627
      ],
      [
        "▁match",
        -9.025864601135254
      ],
      [
        "▁enfant",
        -9.026166915893556
      ],
      [
        "▁étaient",
        -9.026713371276855
      ],
      [
        "▁national",
        -9.02825164794922
      ],
      [
        "”",
        -9.02907943725586
      ],
      [
        "▁2019",
        -9.03159523010254
      ],
      [
        "▁rôle",
        -9.031939506530762
      ],
      [
        "association",
        -9.034104347229004
      ],
      [
        "▁contenu",
        -9.035311698913574
      ],
      [
        "▁parfois",
        -9.037141799926758
      ],
      [
        "an",
        -9.0396146774292
      ],
      [
        "▁culture",
        -9.040443420410156
      ],
      [
        "▁déclaré",
        -9.04175090789795
      ],
      [
        "▁r",
        -9.042006492614746
      ],
      [
        "▁devez",
        -9.04237937927246
      ],
      [
        "▁or",
        -9.042494773864746
      ],
      [
        "▁sociaux",
        -9.04517650604248
      ],
      [
        "▁facilement",
        -9.048460006713867
      ],
      [
        "▁nécessaire",
        -9.048486709594728
      ],
      [
        "▁aide",
        -9.048911094665527
      ],
      [
        "▁accès",
        -9.050121307373049
      ],
      [
        "▁chacun",
        -9.051095962524414
      ],
      [
        "▁fil",
        -9.053297996520996
      ],
      [
        "▁pro",
        -9.05459690093994
      ],
      [
        "▁traitement",
        -9.055010795593262
      ],
      [
        "▁vont",
        -9.055427551269531
      ],
      [
        "▁matin",
        -9.059388160705566
      ],
      [
        "▁possibilité",
        -9.060867309570312
      ],
      [
        "▁route",
        -9.060956001281738
      ],
      [
        "▁seule",
        -9.06250286102295
      ],
      [
        "▁gratuitement",
        -9.062718391418455
      ],
      [
        ":||",
        -9.06287670135498
      ],
      [
        "▁directeur",
        -9.063976287841797
      ],
      [
        "in",
        -9.064627647399902
      ],
      [
        "▁acheter",
        -9.064871788024902
      ],
      [
        "▁attention",
        -9.064976692199709
      ],
      [
        "▁pièce",
        -9.066025733947754
      ],
      [
        "\\",
        -9.066344261169434
      ],
      [
        "▁23",
        -9.06642723083496
      ],
      [
        "▁collection",
        -9.066691398620604
      ],
      [
        "▁met",
        -9.07138729095459
      ],
      [
        "▁idéal",
        -9.072243690490724
      ],
      [
        "▁quotidien",
        -9.072279930114746
      ],
      [
        "»",
        -9.07301425933838
      ],
      [
        "▁aucune",
        -9.073494911193848
      ],
      [
        "▁laquelle",
        -9.073987007141112
      ],
      [
        "▁professionnelle",
        -9.07422161102295
      ],
      [
        "▁existe",
        -9.076723098754885
      ],
      [
        "▁autant",
        -9.07683563232422
      ],
      [
        "▁terrain",
        -9.078897476196287
      ],
      [
        "▁*",
        -9.08317756652832
      ],
      [
        "▁sélection",
        -9.085943222045898
      ],
      [
        "▁rouge",
        -9.08596134185791
      ],
      [
        "▁semaines",
        -9.086040496826172
      ],
      [
        "▁venir",
        -9.087069511413574
      ],
      [
        "▁cookies",
        -9.09011173248291
      ],
      [
        "▁environ",
        -9.091816902160645
      ],
      [
        "▁prochain",
        -9.0944242477417
      ],
      [
        "▁fort",
        -9.0980863571167
      ],
      [
        "_",
        -9.098114013671877
      ],
      [
        "▁zone",
        -9.10177993774414
      ],
      [
        "▁contacter",
        -9.101901054382324
      ],
      [
        "▁actuellement",
        -9.1021146774292
      ],
      [
        "▁droits",
        -9.10318374633789
      ],
      [
        "▁derniers",
        -9.103760719299316
      ],
      [
        "▁gratuite",
        -9.104691505432127
      ],
      [
        "▁bain",
        -9.108099937438965
      ],
      [
        "▁succès",
        -9.11088752746582
      ],
      [
        "▁mort",
        -9.110932350158691
      ],
      [
        "▁contrôle",
        -9.11115837097168
      ],
      [
        "▁presse",
        -9.111260414123535
      ],
      [
        "▁location",
        -9.113059997558594
      ],
      [
        "▁sûr",
        -9.113604545593262
      ],
      [
        "▁suivi",
        -9.115700721740724
      ],
      [
        "▁disposition",
        -9.116751670837402
      ],
      [
        "▁parler",
        -9.117971420288086
      ],
      [
        "▁…",
        -9.120257377624512
      ],
      [
        "▁réseaux",
        -9.120376586914062
      ],
      [
        "▁grandes",
        -9.12094020843506
      ],
      [
        "▁vite",
        -9.123064994812012
      ],
      [
        "unis",
        -9.124632835388184
      ],
      [
        "▁août",
        -9.127080917358398
      ],
      [
        "▁malgré",
        -9.12925148010254
      ],
      [
        "▁propos",
        -9.131103515625
      ],
      [
        "▁confort",
        -9.131324768066406
      ],
      [
        "▁communauté",
        -9.13321590423584
      ],
      [
        "▁scène",
        -9.133455276489258
      ],
      [
        "▁étant",
        -9.134830474853516
      ],
      [
        "▁2018",
        -9.136567115783691
      ],
      [
        "]",
        -9.139740943908691
      ],
      [
        "▁responsable",
        -9.140395164489746
      ],
      [
        "▁relation",
        -9.141788482666016
      ],
      [
        "▁google",
        -9.142743110656738
      ],
      [
        "▁caractéristique",
        -9.144747734069824
      ],
      [
        "▁casino",
        -9.147871971130373
      ],
      [
        "▁direct",
        -9.14930820465088
      ],
      [
        "▁commentaires",
        -9.149993896484377
      ],
      [
        "▁présent",
        -9.15364933013916
      ],
      [
        "▁coupe",
        -9.154020309448242
      ],
      [
        "▁cinq",
        -9.15546417236328
      ],
      [
        "▁laisser",
        -9.155924797058104
      ],
      [
        "▁risque",
        -9.157772064208984
      ],
      [
        "▁fond",
        -9.158291816711426
      ],
      [
        "4",
        -9.1587495803833
      ],
      [
        "▁processus",
        -9.159588813781738
      ],
      [
        "▁efficace",
        -9.159937858581545
      ],
      [
        "▁éléments",
        -9.160658836364746
      ],
      [
        "▁soutien",
        -9.161477088928224
      ],
      [
        "▁permis",
        -9.161702156066896
      ],
      [
        "▁problèmes",
        -9.161980628967283
      ],
      [
        "▁mot",
        -9.162169456481934
      ],
      [
        "▁mission",
        -9.162616729736328
      ],
      [
        "▁logiciel",
        -9.164436340332031
      ],
      [
        "▁mariage",
        -9.164776802062988
      ],
      [
        "k",
        -9.165069580078123
      ],
      [
        "▁numéro",
        -9.1653470993042
      ],
      [
        "▁retrouver",
        -9.165719985961914
      ],
      [
        "▁libre",
        -9.166333198547363
      ],
      [
        "▁commune",
        -9.166618347167969
      ],
      [
        "▁meilleures",
        -9.167207717895508
      ],
      [
        "▁you",
        -9.167223930358888
      ],
      [
        "▁travailler",
        -9.171692848205566
      ],
      [
        "origine",
        -9.171825408935549
      ],
      [
        "▁top",
        -9.172189712524414
      ],
      [
        "▁séjour",
        -9.173328399658203
      ],
      [
        "homme",
        -9.17476749420166
      ],
      [
        "▁envie",
        -9.17566967010498
      ],
      [
        "▁#",
        -9.175827980041504
      ],
      [
        "▁soleil",
        -9.176644325256348
      ],
      [
        "▁modèles",
        -9.176653861999512
      ],
      [
        "▁parents",
        -9.177383422851562
      ],
      [
        "▁40",
        -9.17749309539795
      ],
      [
        "▁prend",
        -9.183040618896484
      ],
      [
        "▁pied",
        -9.183762550354004
      ],
      [
        "▁sol",
        -9.185187339782717
      ],
      [
        "▁terme",
        -9.185317993164062
      ],
      [
        "▁proposer",
        -9.18567180633545
      ],
      [
        "▁utilisé",
        -9.186920166015623
      ],
      [
        "▁outils",
        -9.187599182128906
      ],
      [
        "▁paiement",
        -9.18820571899414
      ],
      [
        "école",
        -9.18963623046875
      ],
      [
        "www",
        -9.190587997436523
      ],
      [
        "▁mots",
        -9.191972732543944
      ],
      [
        "▁devenir",
        -9.195290565490724
      ],
      [
        "information",
        -9.195430755615234
      ],
      [
        "▁détails",
        -9.196245193481444
      ],
      [
        "▁double",
        -9.197213172912598
      ],
      [
        "achat",
        -9.19739818572998
      ],
      [
        "▁soirée",
        -9.199060440063477
      ],
      [
        "hésitez",
        -9.199858665466309
      ],
      [
        "▁difficile",
        -9.200597763061523
      ],
      [
        "ailleurs",
        -9.2012300491333
      ],
      [
        "accès",
        -9.201562881469728
      ],
      [
        "▁trouverez",
        -9.201654434204102
      ],
      [
        "▁petites",
        -9.201860427856444
      ],
      [
        "▁2017",
        -9.20251750946045
      ],
      [
        "▁lit",
        -9.204708099365234
      ],
      [
        "▁2021",
        -9.205121040344238
      ],
      [
        "espace",
        -9.206147193908691
      ],
      [
        "▁blog",
        -9.206244468688965
      ],
      [
        "▁état",
        -9.20645236968994
      ],
      [
        "▁complet",
        -9.206493377685549
      ],
      [
        "▁milieu",
        -9.20656681060791
      ],
      [
        "▁gagner",
        -9.209046363830566
      ],
      [
        "▁guide",
        -9.210844039916992
      ],
      [
        "ticulièrement",
        -9.21110725402832
      ],
      [
        "après",
        -9.211764335632324
      ],
      [
        "▁voulez",
        -9.212188720703123
      ],
      [
        "▁comprendre",
        -9.212822914123535
      ],
      [
        "▁new",
        -9.213196754455566
      ],
      [
        "▁cheveux",
        -9.21372413635254
      ],
      [
        "▁contrat",
        -9.21536636352539
      ],
      [
        "▁appel",
        -9.21605110168457
      ],
      [
        "▁vrai",
        -9.21635913848877
      ],
      [
        "▁force",
        -9.216543197631836
      ],
      [
        "▁économique",
        -9.21790885925293
      ],
      [
        "amour",
        -9.217972755432127
      ],
      [
        "▁présence",
        -9.217998504638672
      ],
      [
        "▁taux",
        -9.21916389465332
      ],
      [
        "▁allez",
        -9.219590187072754
      ],
      [
        "▁aurait",
        -9.220151901245115
      ],
      [
        "▁mobile",
        -9.220255851745604
      ],
      [
        "▁lecture",
        -9.222577095031738
      ],
      [
        "▁annonce",
        -9.22274684906006
      ],
      [
        "▁restaurant",
        -9.223024368286133
      ],
      [
        "▁facebook",
        -9.223125457763672
      ],
      [
        "▁co",
        -9.225244522094728
      ],
      [
        "▁message",
        -9.2253999710083
      ],
      [
        "▁piscine",
        -9.225652694702148
      ],
      [
        "application",
        -9.226333618164062
      ],
      [
        "emploi",
        -9.226656913757324
      ],
      [
        "▁meubles",
        -9.22706127166748
      ],
      [
        "▁parc",
        -9.227859497070312
      ],
      [
        "▁idées",
        -9.228830337524414
      ],
      [
        "▁changer",
        -9.22883129119873
      ],
      [
        "▁lumière",
        -9.232105255126951
      ],
      [
        "▁lieux",
        -9.234190940856934
      ],
      [
        "▁permettant",
        -9.235827445983888
      ],
      [
        "▁lorsqu",
        -9.236207962036133
      ],
      [
        "▁véritable",
        -9.23963451385498
      ],
      [
        "▁préparation",
        -9.241336822509766
      ],
      [
        "sur",
        -9.241511344909668
      ],
      [
        "▁proximité",
        -9.2431058883667
      ],
      [
        "▁guerre",
        -9.24316120147705
      ],
      [
        "▁genre",
        -9.244000434875488
      ],
      [
        "▁compris",
        -9.244058609008787
      ],
      [
        "▁parfait",
        -9.244796752929688
      ],
      [
        "▁vidéos",
        -9.245494842529297
      ],
      [
        "abord",
        -9.246481895446776
      ],
      [
        "▁soins",
        -9.246573448181152
      ],
      [
        "▁28",
        -9.247796058654783
      ],
      [
        "▁compagnie",
        -9.247800827026367
      ],
      [
        "▁proche",
        -9.248407363891602
      ],
      [
        "▁développer",
        -9.248454093933104
      ],
      [
        "▁ajouter",
        -9.24854564666748
      ],
      [
        "▁ouvert",
        -9.250290870666504
      ],
      [
        "▁commencer",
        -9.25101089477539
      ],
      [
        "▁livres",
        -9.251617431640623
      ],
      [
        "re",
        -9.25367259979248
      ],
      [
        "▁social",
        -9.253701210021973
      ],
      [
        "▁donné",
        -9.256014823913574
      ],
      [
        "▁cliquez",
        -9.256329536437988
      ],
      [
        "▁annoncé",
        -9.25705909729004
      ],
      [
        "article",
        -9.258818626403809
      ],
      [
        "▁équipes",
        -9.258837699890137
      ],
      [
        "▁poids",
        -9.258878707885742
      ],
      [
        "énergie",
        -9.258895874023438
      ],
      [
        "▁compétences",
        -9.259160995483398
      ],
      [
        "▁parcours",
        -9.259566307067873
      ],
      [
        "▁types",
        -9.259760856628418
      ],
      [
        "dessous",
        -9.259841918945312
      ],
      [
        "▁pourtant",
        -9.259892463684082
      ],
      [
        "▁département",
        -9.259947776794434
      ],
      [
        "▁anti",
        -9.26088523864746
      ],
      [
        "▁partenaires",
        -9.26125717163086
      ],
      [
        "▁26",
        -9.261269569396973
      ],
      [
        "▁re",
        -9.26132583618164
      ],
      [
        "▁activité",
        -9.261584281921388
      ],
      [
        "▁pratiques",
        -9.263623237609863
      ],
      [
        "▁windows",
        -9.266515731811523
      ],
      [
        "▁généralement",
        -9.267267227172852
      ],
      [
        "▁https",
        -9.26745319366455
      ],
      [
        "▁2022",
        -9.267562866210938
      ],
      [
        "▁international",
        -9.267934799194336
      ],
      [
        "▁décidé",
        -9.268508911132812
      ],
      [
        "▁v",
        -9.268531799316406
      ],
      [
        "▁f",
        -9.269553184509276
      ],
      [
        "▁tard",
        -9.269763946533203
      ],
      [
        "▁domicile",
        -9.269821166992188
      ],
      [
        "▁yeux",
        -9.272744178771973
      ],
      [
        "expérience",
        -9.272923469543455
      ],
      [
        "▁ta",
        -9.27440357208252
      ],
      [
        "▁noël",
        -9.277052879333496
      ],
      [
        "v",
        -9.277165412902832
      ],
      [
        "▁conception",
        -9.280095100402832
      ],
      [
        "▁hors",
        -9.281305313110352
      ],
      [
        "▁offrir",
        -9.282649040222168
      ],
      [
        "été",
        -9.282662391662598
      ],
      [
        "ing",
        -9.282867431640623
      ],
      [
        "▁capacité",
        -9.283061027526855
      ],
      [
        "▁père",
        -9.28359317779541
      ],
      [
        "▁mesures",
        -9.28481388092041
      ],
      [
        "▁tels",
        -9.285399436950684
      ],
      [
        "▁machine",
        -9.287561416625977
      ],
      [
        "▁pense",
        -9.287649154663086
      ],
      [
        "▁27",
        -9.288439750671388
      ],
      [
        "▁air",
        -9.290164947509766
      ],
      [
        "▁permettent",
        -9.29141616821289
      ],
      [
        "▁réel",
        -9.292380332946776
      ],
      [
        "▁améliorer",
        -9.292999267578123
      ],
      [
        "▁note",
        -9.295320510864258
      ],
      [
        "▁tel",
        -9.298787117004396
      ],
      [
        "▁animaux",
        -9.300311088562012
      ],
      [
        "▁décoration",
        -9.305588722229004
      ],
      [
        "@",
        -9.306018829345703
      ],
      [
        "▁décision",
        -9.306968688964844
      ],
      [
        "▁ailleurs",
        -9.30813980102539
      ],
      [
        "▁cherche",
        -9.308157920837402
      ],
      [
        "▁parti",
        -9.31015396118164
      ],
      [
        "▁résultat",
        -9.310163497924805
      ],
      [
        "▁commentaire",
        -9.310572624206545
      ],
      [
        "aime",
        -9.310639381408691
      ],
      [
        "▁email",
        -9.310763359069824
      ],
      [
        "▁édition",
        -9.310985565185549
      ],
      [
        "▁prêt",
        -9.31210994720459
      ],
      [
        "▁adresse",
        -9.312152862548828
      ],
      [
        "▁fête",
        -9.313335418701172
      ],
      [
        "▁divers",
        -9.31422996520996
      ],
      [
        "▁campagne",
        -9.316641807556152
      ],
      [
        "▁avantages",
        -9.319863319396973
      ],
      [
        "▁utilisateurs",
        -9.320026397705078
      ],
      [
        "▁boutique",
        -9.321492195129396
      ],
      [
        "▁options",
        -9.323216438293455
      ],
      [
        "ne",
        -9.328251838684082
      ],
      [
        "▁village",
        -9.329216957092283
      ],
      [
        "▁numérique",
        -9.331732749938965
      ],
      [
        "▁2023",
        -9.331761360168455
      ],
      [
        "▁quartier",
        -9.332375526428224
      ],
      [
        "▁recette",
        -9.332985877990724
      ],
      [
        "▁films",
        -9.333202362060549
      ],
      [
        "elles",
        -9.33407974243164
      ],
      [
        "▁image",
        -9.334502220153809
      ],
      [
        "▁outre",
        -9.340846061706545
      ],
      [
        "▁matériel",
        -9.34195613861084
      ],
      [
        "▁plateforme",
        -9.342050552368164
      ],
      [
        "▁covid",
        -9.34273910522461
      ],
      [
        "▁ressources",
        -9.344112396240234
      ],
      [
        "▁longue",
        -9.345464706420898
      ],
      [
        "▁bord",
        -9.345681190490724
      ],
      [
        "▁élèves",
        -9.346518516540527
      ],
      [
        "▁uniquement",
        -9.346721649169922
      ],
      [
        "▁couple",
        -9.348149299621582
      ],
      [
        "▁chat",
        -9.349056243896484
      ],
      [
        "▁connaître",
        -9.349407196044922
      ],
      [
        "▁magasin",
        -9.349705696105955
      ],
      [
        "▁technologie",
        -9.35077667236328
      ],
      [
        "▁dossier",
        -9.351560592651367
      ],
      [
        "▁crise",
        -9.352343559265137
      ],
      [
        "▁week",
        -9.352469444274902
      ],
      [
        "▁plupart",
        -9.354942321777344
      ],
      [
        "▁papier",
        -9.355093955993652
      ],
      [
        "▁garde",
        -9.355463981628418
      ],
      [
        "activité",
        -9.356511116027832
      ],
      [
        "▁train",
        -9.356783866882324
      ],
      [
        "▁générale",
        -9.357568740844728
      ],
      [
        "▁by",
        -9.358682632446287
      ],
      [
        "image",
        -9.359537124633787
      ],
      [
        "▁soin",
        -9.359977722167969
      ],
      [
        "▁beauté",
        -9.36110496520996
      ],
      [
        "▁premiers",
        -9.363778114318848
      ],
      [
        "▁concours",
        -9.364155769348145
      ],
      [
        "▁coeur",
        -9.364343643188477
      ],
      [
        "▁territoire",
        -9.364996910095217
      ],
      [
        "▁100%",
        -9.36500644683838
      ],
      [
        "▁bonnes",
        -9.365299224853516
      ],
      [
        "▁pc",
        -9.36563491821289
      ],
      [
        "▁retrouvez",
        -9.365666389465332
      ],
      [
        "▁lequel",
        -9.365957260131836
      ],
      [
        "▁port",
        -9.366250991821287
      ],
      [
        "▁réalisé",
        -9.366615295410156
      ],
      [
        "▁logement",
        -9.366839408874512
      ],
      [
        "environnement",
        -9.366910934448242
      ],
      [
        "▁marche",
        -9.366912841796877
      ],
      [
        "▁bons",
        -9.367857933044434
      ],
      [
        "▁présentation",
        -9.367871284484863
      ],
      [
        "▁60",
        -9.36912441253662
      ],
      [
        "▁thème",
        -9.369855880737305
      ],
      [
        "▁celles",
        -9.370308876037598
      ],
      [
        "▁regard",
        -9.371499061584473
      ],
      [
        "▁sac",
        -9.371509552001951
      ],
      [
        "▁pages",
        -9.37188720703125
      ],
      [
        "▁agréable",
        -9.373037338256836
      ],
      [
        "▁veuillez",
        -9.37321949005127
      ],
      [
        "▁étape",
        -9.374567985534668
      ],
      [
        "▁transport",
        -9.376261711120604
      ],
      [
        "▁police",
        -9.376731872558594
      ],
      [
        "▁application",
        -9.377695083618164
      ],
      [
        "▁android",
        -9.378682136535645
      ],
      [
        "▁texte",
        -9.378861427307127
      ],
      [
        "heure",
        -9.379864692687988
      ],
      [
        "ons",
        -9.380874633789062
      ],
      [
        "▁connu",
        -9.382576942443848
      ],
      [
        "esprit",
        -9.383299827575684
      ],
      [
        "▁voilà",
        -9.383400917053224
      ],
      [
        "▁festival",
        -9.38564109802246
      ],
      [
        "▁états",
        -9.385979652404783
      ],
      [
        "▁profil",
        -9.387972831726074
      ],
      [
        "▁devis",
        -9.388060569763184
      ],
      [
        "▁bio",
        -9.38818073272705
      ],
      [
        "▁cartes",
        -9.390454292297363
      ],
      [
        "▁peux",
        -9.39254093170166
      ],
      [
        "▁référence",
        -9.39366626739502
      ],
      [
        "▁bout",
        -9.393716812133787
      ],
      [
        "▁hauteur",
        -9.395179748535156
      ],
      [
        "▁feu",
        -9.395268440246582
      ],
      [
        "▁bar",
        -9.397015571594238
      ],
      [
        "▁siècle",
        -9.397281646728516
      ],
      [
        "▁propriété",
        -9.397753715515137
      ],
      [
        "▁participer",
        -9.39815616607666
      ],
      [
        "▁total",
        -9.399611473083496
      ],
      [
        "informations",
        -9.401663780212402
      ],
      [
        "▁bébé",
        -9.402155876159668
      ],
      [
        "▁course",
        -9.404048919677734
      ],
      [
        "▁changement",
        -9.40415859222412
      ],
      [
        "▁trouvé",
        -9.404216766357422
      ],
      [
        "▁pose",
        -9.404458999633787
      ],
      [
        "▁verre",
        -9.40546417236328
      ],
      [
        "▁quant",
        -9.405689239501951
      ],
      [
        "▁repas",
        -9.40570831298828
      ],
      [
        "▁29",
        -9.406229972839355
      ],
      [
        "▁longtemps",
        -9.408150672912598
      ],
      [
        "▁objectif",
        -9.408291816711426
      ],
      [
        "▁tv",
        -9.408299446105955
      ],
      [
        "▁locaux",
        -9.409180641174316
      ],
      [
        "▁presque",
        -9.409802436828612
      ],
      [
        "▁véhicule",
        -9.410703659057615
      ],
      [
        "▁explique",
        -9.411937713623049
      ],
      [
        "example",
        -9.4122896194458
      ],
      [
        "▁fils",
        -9.413150787353516
      ],
      [
        "▁prochaine",
        -9.415508270263672
      ],
      [
        "▁actions",
        -9.41581916809082
      ],
      [
        "▁hôtel",
        -9.416584014892578
      ],
      [
        "▁portes",
        -9.41718864440918
      ],
      [
        "▁mère",
        -9.417288780212402
      ],
      [
        "end",
        -9.41734504699707
      ],
      [
        "organisation",
        -9.417381286621094
      ],
      [
        "▁parfaitement",
        -9.417643547058104
      ],
      [
        "▁œuvre",
        -9.41922378540039
      ],
      [
        "action",
        -9.419742584228516
      ],
      [
        "▁classe",
        -9.420719146728516
      ],
      [
        "▁mouvement",
        -9.42084789276123
      ],
      [
        "▁format",
        -9.423355102539062
      ],
      [
        "▁écrit",
        -9.424062728881836
      ],
      [
        "▁doute",
        -9.424100875854492
      ],
      [
        "»,",
        -9.426734924316406
      ],
      [
        "▁assurer",
        -9.427566528320312
      ],
      [
        "▁dispose",
        -9.428024291992188
      ],
      [
        "▁canada",
        -9.428279876708984
      ],
      [
        "▁chemin",
        -9.428675651550291
      ],
      [
        "▁membre",
        -9.43008041381836
      ],
      [
        "▁électrique",
        -9.430395126342772
      ],
      [
        "▁soient",
        -9.431158065795898
      ],
      [
        "▁2016",
        -9.431496620178224
      ],
      [
        "▁sociale",
        -9.432177543640137
      ],
      [
        "▁montre",
        -9.432849884033203
      ],
      [
        "▁éviter",
        -9.433188438415527
      ],
      [
        "▁parties",
        -9.433690071105955
      ],
      [
        "▁chance",
        -9.43595027923584
      ],
      [
        "▁permettra",
        -9.438220977783203
      ],
      [
        "▁nouvel",
        -9.43871021270752
      ],
      [
        "▁surface",
        -9.438713073730469
      ],
      [
        "▁intérieur",
        -9.439143180847168
      ],
      [
        "ez",
        -9.443846702575684
      ],
      [
        "▁http",
        -9.444457054138184
      ],
      [
        "▁bleu",
        -9.44580364227295
      ],
      [
        "▁cadeau",
        -9.446964263916016
      ],
      [
        "▁st",
        -9.447368621826172
      ],
      [
        "▁québec",
        -9.448492050170898
      ],
      [
        "▁catégorie",
        -9.4491548538208
      ],
      [
        "▁31",
        -9.452356338500977
      ],
      [
        "▁naturel",
        -9.455414772033691
      ],
      [
        "▁rester",
        -9.456530570983888
      ],
      [
        "▁venez",
        -9.456960678100586
      ],
      [
        "▁touche",
        -9.45713233947754
      ],
      [
        "▁café",
        -9.45774745941162
      ],
      [
        "▁tendance",
        -9.458698272705078
      ],
      [
        "▁parking",
        -9.459299087524414
      ],
      [
        "▁reçu",
        -9.460002899169922
      ],
      [
        "▁moyens",
        -9.460030555725098
      ],
      [
        "▁moderne",
        -9.460501670837402
      ],
      [
        "▁réalisation",
        -9.46079444885254
      ],
      [
        "▁bientôt",
        -9.461917877197266
      ],
      [
        "▁0",
        -9.46388339996338
      ],
      [
        "▁fonds",
        -9.464166641235352
      ],
      [
        "ant",
        -9.465681076049805
      ],
      [
        "▁six",
        -9.468061447143556
      ],
      [
        "▁souhaite",
        -9.46869659423828
      ],
      [
        "▁faisant",
        -9.468710899353027
      ],
      [
        "agence",
        -9.46902084350586
      ],
      [
        "▁sait",
        -9.46922206878662
      ],
      [
        "▁partenaire",
        -9.470503807067873
      ],
      [
        "▁continue",
        -9.472869873046877
      ],
      [
        "▁toutefois",
        -9.4734525680542
      ],
      [
        "▁manque",
        -9.475279808044434
      ],
      [
        "▁complète",
        -9.475945472717283
      ],
      [
        "▁respect",
        -9.480391502380373
      ],
      [
        "▁durable",
        -9.480428695678713
      ],
      [
        "▁règles",
        -9.481192588806152
      ],
      [
        "▁voix",
        -9.481335639953612
      ],
      [
        "▁rencontrer",
        -9.481731414794922
      ],
      [
        "▁suivant",
        -9.481831550598145
      ],
      [
        "▁avaient",
        -9.482592582702637
      ],
      [
        "▁suisse",
        -9.483002662658691
      ],
      [
        "offre",
        -9.483597755432127
      ],
      [
        "▁rose",
        -9.483677864074709
      ],
      [
        "affaires",
        -9.484172821044922
      ],
      [
        "▁forte",
        -9.48589038848877
      ],
      [
        "▁publique",
        -9.486305236816406
      ],
      [
        "▁matériaux",
        -9.486696243286133
      ],
      [
        "▁lyon",
        -9.487147331237791
      ],
      [
        "▁commerce",
        -9.487709999084473
      ],
      [
        "▁accessoires",
        -9.487802505493164
      ],
      [
        "▁vin",
        -9.488887786865234
      ],
      [
        "▁certain",
        -9.490859031677246
      ],
      [
        "▁toi",
        -9.49173641204834
      ],
      [
        "▁suffit",
        -9.49200439453125
      ],
      [
        "▁recevoir",
        -9.492098808288574
      ],
      [
        "▁idée",
        -9.494912147521973
      ],
      [
        "▁support",
        -9.495195388793944
      ],
      [
        "etat",
        -9.496240615844728
      ],
      [
        "▁créé",
        -9.4976167678833
      ],
      [
        "▁moyenne",
        -9.499217987060549
      ],
      [
        "▁physique",
        -9.5020751953125
      ],
      [
        "▁acteurs",
        -9.502511978149414
      ],
      [
        "▁structure",
        -9.502633094787598
      ],
      [
        "ouverture",
        -9.503047943115234
      ],
      [
        "▁passage",
        -9.503211975097656
      ],
      [
        "▁heure",
        -9.504340171813965
      ],
      [
        "▁hotel",
        -9.505511283874512
      ],
      [
        "▁garantie",
        -9.505592346191406
      ],
      [
        "▁belles",
        -9.506991386413574
      ],
      [
        "▁découverte",
        -9.507974624633787
      ],
      [
        "▁vert",
        -9.50819492340088
      ],
      [
        "▁vol",
        -9.509095191955566
      ],
      [
        "entre",
        -9.510616302490234
      ],
      [
        "▁plage",
        -9.51065444946289
      ],
      [
        "▁troisième",
        -9.511777877807615
      ],
      [
        "org",
        -9.513509750366213
      ],
      [
        "avez",
        -9.513683319091797
      ],
      [
        "ici",
        -9.51370334625244
      ],
      [
        "▁sortir",
        -9.51395034790039
      ],
      [
        "▁concerne",
        -9.514198303222656
      ],
      [
        "as",
        -9.51615047454834
      ],
      [
        "▁marie",
        -9.51653003692627
      ],
      [
        "huile",
        -9.517179489135742
      ],
      [
        "avais",
        -9.51760959625244
      ],
      [
        "▁pourra",
        -9.517656326293944
      ],
      [
        "▁manger",
        -9.517800331115724
      ],
      [
        "▁classique",
        -9.517826080322266
      ],
      [
        "▁présenter",
        -9.520881652832031
      ],
      [
        "▁internationale",
        -9.521793365478516
      ],
      [
        "▁soi",
        -9.522871017456056
      ],
      [
        "▁anglais",
        -9.525314331054688
      ],
      [
        "▁objectifs",
        -9.526572227478027
      ],
      [
        "▁mains",
        -9.526811599731444
      ],
      [
        "al",
        -9.52744483947754
      ],
      [
        "▁européenne",
        -9.529335975646973
      ],
      [
        "▁test",
        -9.529458999633787
      ],
      [
        "▁partage",
        -9.531328201293944
      ],
      [
        "▁distance",
        -9.532500267028809
      ],
      [
        "▁fut",
        -9.53276252746582
      ],
      [
        "▁fera",
        -9.532963752746582
      ],
      [
        "▁crédit",
        -9.53322982788086
      ],
      [
        "▁mi",
        -9.533343315124512
      ],
      [
        "▁fleurs",
        -9.534197807312012
      ],
      [
        "▁ministère",
        -9.534331321716309
      ],
      [
        "▁filles",
        -9.534456253051758
      ],
      [
        "▁entièrement",
        -9.534781455993652
      ],
      [
        "▁moteur",
        -9.53492546081543
      ],
      [
        "▁parle",
        -9.536938667297363
      ],
      [
        "5",
        -9.537339210510254
      ],
      [
        "euros",
        -9.539240837097168
      ],
      [
        "▁joueur",
        -9.539324760437012
      ],
      [
        "accueil",
        -9.539463996887209
      ],
      [
        "▁réduire",
        -9.540034294128418
      ],
      [
        "▁dos",
        -9.540068626403809
      ],
      [
        "▁consulter",
        -9.540502548217772
      ],
      [
        "▁bienvenue",
        -9.540541648864746
      ],
      [
        "▁cinéma",
        -9.541584014892578
      ],
      [
        "▁stratégie",
        -9.542634963989258
      ],
      [
        "▁europe",
        -9.54271125793457
      ],
      [
        "▁espaces",
        -9.543439865112305
      ],
      [
        "▁cuir",
        -9.543596267700195
      ],
      [
        "▁maximum",
        -9.544095993041992
      ],
      [
        "▁connaissance",
        -9.54417324066162
      ],
      [
        "▁continuer",
        -9.544865608215332
      ],
      [
        "ra",
        -9.545883178710938
      ],
      [
        "▁affaires",
        -9.54605770111084
      ],
      [
        "▁environnement",
        -9.546226501464844
      ],
      [
        "▁magnifique",
        -9.546377182006836
      ],
      [
        "installation",
        -9.546950340270996
      ],
      [
        "▁ordinateur",
        -9.54743766784668
      ],
      [
        "▁fruits",
        -9.54843807220459
      ],
      [
        "▁porter",
        -9.550496101379396
      ],
      [
        "▁protéger",
        -9.552002906799316
      ],
      [
        "entrée",
        -9.552986145019531
      ],
      [
        "▁endroit",
        -9.554037094116213
      ],
      [
        "▁terrasse",
        -9.554437637329102
      ],
      [
        "▁fonctionnement",
        -9.554654121398926
      ],
      [
        "▁auto",
        -9.554839134216309
      ],
      [
        "▁mm",
        -9.554957389831545
      ],
      [
        "▁réalité",
        -9.554964065551758
      ],
      [
        "adresse",
        -9.555132865905762
      ],
      [
        "▁maire",
        -9.555256843566896
      ],
      [
        "▁préparer",
        -9.556513786315918
      ],
      [
        "▁demander",
        -9.55682373046875
      ],
      [
        "▁croissance",
        -9.557279586791992
      ],
      [
        "▁partout",
        -9.557843208312988
      ],
      [
        "▁nécessaires",
        -9.558173179626465
      ],
      [
        "▁spectacle",
        -9.558340072631836
      ],
      [
        "▁goût",
        -9.5597505569458
      ],
      [
        "importe",
        -9.560544967651367
      ],
      [
        "▁république",
        -9.56059741973877
      ],
      [
        "▁as",
        -9.561453819274902
      ],
      [
        "▁machines",
        -9.56211757659912
      ],
      [
        "▁marques",
        -9.562832832336426
      ],
      [
        "▁immobilier",
        -9.563197135925291
      ],
      [
        "▁étudiants",
        -9.563405990600586
      ],
      [
        "▁comprend",
        -9.56386375427246
      ],
      [
        "université",
        -9.56406307220459
      ],
      [
        "▁habitants",
        -9.56443691253662
      ],
      [
        "▁pleine",
        -9.564690589904783
      ],
      [
        "▁carrière",
        -9.565342903137209
      ],
      [
        "▁mac",
        -9.56601333618164
      ],
      [
        "cm",
        -9.566485404968262
      ],
      [
        "▁performance",
        -9.566916465759276
      ],
      [
        "▁fabrication",
        -9.56872272491455
      ],
      [
        "▁devient",
        -9.569504737854004
      ],
      [
        "▁risques",
        -9.570430755615234
      ],
      [
        "▁ai",
        -9.570563316345217
      ],
      [
        "▁with",
        -9.57244110107422
      ],
      [
        "âge",
        -9.572868347167969
      ],
      [
        "▁premières",
        -9.573086738586426
      ],
      [
        "▁réduction",
        -9.575088500976562
      ],
      [
        "▁gauche",
        -9.57652473449707
      ],
      [
        "▁soyez",
        -9.577659606933594
      ],
      [
        "▁position",
        -9.57785701751709
      ],
      [
        "▁your",
        -9.578612327575684
      ],
      [
        "▁mini",
        -9.57986831665039
      ],
      [
        "▁puisque",
        -9.582469940185549
      ],
      [
        "▁utilisation",
        -9.582860946655272
      ],
      [
        "▁it",
        -9.583340644836426
      ],
      [
        "▁meuble",
        -9.584084510803224
      ],
      [
        "▁200",
        -9.584264755249023
      ],
      [
        "europe",
        -9.58446216583252
      ],
      [
        "▁population",
        -9.585004806518556
      ],
      [
        "▁contactez",
        -9.585112571716309
      ],
      [
        "▁langue",
        -9.585214614868164
      ],
      [
        "▁budget",
        -9.586318016052246
      ],
      [
        "▁ca",
        -9.586575508117676
      ],
      [
        "▁différence",
        -9.587469100952148
      ],
      [
        "▁art",
        -9.588190078735352
      ],
      [
        "co",
        -9.588290214538574
      ],
      [
        "▁bâtiment",
        -9.58856964111328
      ],
      [
        "▁passion",
        -9.588571548461914
      ],
      [
        "▁sais",
        -9.58948802947998
      ],
      [
        "▁consommation",
        -9.589550971984863
      ],
      [
        "▁neuf",
        -9.589930534362791
      ],
      [
        "▁réunion",
        -9.59074878692627
      ],
      [
        "▁—",
        -9.591896057128906
      ],
      [
        "▁derrière",
        -9.592175483703612
      ],
      [
        "▁regarder",
        -9.592358589172363
      ],
      [
        "pour",
        -9.594436645507812
      ],
      [
        "▁familles",
        -9.594738960266112
      ],
      [
        "▁seconde",
        -9.596884727478027
      ],
      [
        "ville",
        -9.598301887512209
      ],
      [
        "auteur",
        -9.599843978881836
      ],
      [
        "▁choisi",
        -9.600394248962402
      ],
      [
        "▁zones",
        -9.600607872009276
      ],
      [
        "▁mètres",
        -9.60171890258789
      ],
      [
        "▁commission",
        -9.602890968322754
      ],
      [
        "ur",
        -9.603889465332031
      ],
      [
        "▁profitez",
        -9.60396671295166
      ],
      [
        "▁quels",
        -9.604193687438965
      ],
      [
        "▁retrouve",
        -9.604329109191896
      ],
      [
        "aient",
        -9.606142044067385
      ],
      [
        "▁minimum",
        -9.606887817382812
      ],
      [
        "▁www",
        -9.607748985290527
      ],
      [
        "▁importante",
        -9.608114242553713
      ],
      [
        "▁relations",
        -9.608460426330566
      ],
      [
        "▁gérer",
        -9.60883331298828
      ],
      [
        "▁album",
        -9.60976219177246
      ],
      [
        "▁cour",
        -9.609859466552734
      ],
      [
        "▁dollars",
        -9.60987663269043
      ],
      [
        "du",
        -9.610052108764648
      ],
      [
        "▁gratuits",
        -9.610322952270508
      ],
      [
        "▁massage",
        -9.611211776733398
      ],
      [
        "▁micro",
        -9.61152458190918
      ],
      [
        "▁vais",
        -9.612115859985352
      ],
      [
        "▁droite",
        -9.612274169921877
      ],
      [
        "▁mail",
        -9.614452362060549
      ],
      [
        "▁mondiale",
        -9.61501407623291
      ],
      [
        "▁tandis",
        -9.61557960510254
      ],
      [
        "▁football",
        -9.615923881530762
      ],
      [
        "▁commence",
        -9.618462562561035
      ],
      [
        "utiliser",
        -9.620588302612305
      ],
      [
        "8",
        -9.620734214782717
      ],
      [
        "▁conférence",
        -9.621221542358398
      ],
      [
        "▁chien",
        -9.621307373046877
      ],
      [
        "▁stock",
        -9.62175178527832
      ],
      [
        "▁méthode",
        -9.621952056884766
      ],
      [
        "fi",
        -9.62216091156006
      ],
      [
        "▁fichier",
        -9.622197151184082
      ],
      [
        "▁régulièrement",
        -9.623199462890623
      ],
      [
        "▁politiques",
        -9.6234130859375
      ],
      [
        "▁finalement",
        -9.623871803283691
      ],
      [
        "▁aurez",
        -9.624939918518066
      ],
      [
        "▁star",
        -9.625494956970217
      ],
      [
        "▁groupes",
        -9.625633239746094
      ],
      [
        "▁banque",
        -9.62759494781494
      ],
      [
        "▁chaleur",
        -9.62795639038086
      ],
      [
        "▁bénéficier",
        -9.628076553344728
      ],
      [
        "▁this",
        -9.628093719482422
      ],
      [
        "▁500",
        -9.62814712524414
      ],
      [
        "▁bande",
        -9.628711700439451
      ],
      [
        "▁montant",
        -9.629473686218262
      ],
      [
        "▁réservation",
        -9.630075454711914
      ],
      [
        "▁collaboration",
        -9.630126953125
      ],
      [
        "▁heureux",
        -9.630297660827637
      ],
      [
        "▁puissance",
        -9.63037109375
      ],
      [
        "▁célèbre",
        -9.630797386169434
      ],
      [
        "▁documents",
        -9.631123542785645
      ],
      [
        "▁peinture",
        -9.631145477294922
      ],
      [
        "▁villes",
        -9.631555557250977
      ],
      [
        "▁court",
        -9.63184928894043
      ],
      [
        "▁marketing",
        -9.63304042816162
      ],
      [
        "objectif",
        -9.633865356445312
      ],
      [
        "▁garder",
        -9.63415813446045
      ],
      [
        "▁hier",
        -9.634992599487305
      ],
      [
        "ordre",
        -9.635184288024902
      ],
      [
        "▁systèmes",
        -9.635257720947266
      ],
      [
        "▁publics",
        -9.635421752929688
      ],
      [
        "▁action",
        -9.6355562210083
      ],
      [
        "▁principal",
        -9.636314392089844
      ],
      [
        "▁musée",
        -9.63645839691162
      ],
      [
        "▁chaussures",
        -9.636569023132324
      ],
      [
        "▁visage",
        -9.636914253234863
      ],
      [
        "▁finale",
        -9.636990547180176
      ],
      [
        "▁justice",
        -9.637060165405272
      ],
      [
        "▁applications",
        -9.637335777282717
      ],
      [
        "▁video",
        -9.637575149536133
      ],
      [
        "▁achat",
        -9.637901306152344
      ],
      [
        "▁ligue",
        -9.638720512390137
      ],
      [
        "▁o",
        -9.638832092285156
      ],
      [
        "▁médias",
        -9.640589714050291
      ],
      [
        "exploitation",
        -9.641825675964355
      ],
      [
        "arrivée",
        -9.642904281616213
      ],
      [
        "▁laisse",
        -9.643325805664062
      ],
      [
        "▁artistes",
        -9.64380168914795
      ],
      [
        "▁lancer",
        -9.644841194152832
      ],
      [
        "établissement",
        -9.645017623901367
      ],
      [
        "▁changements",
        -9.645707130432127
      ],
      [
        "▁local",
        -9.650561332702637
      ],
      [
        "▁communiqué",
        -9.651078224182127
      ],
      [
        "▁2015",
        -9.65114688873291
      ],
      [
        "▁pieds",
        -9.651437759399414
      ],
      [
        "▁plat",
        -9.651728630065918
      ],
      [
        "▁confortable",
        -9.652331352233888
      ],
      [
        "▁payer",
        -9.652530670166016
      ],
      [
        "▁liens",
        -9.652828216552734
      ],
      [
        "▁journal",
        -9.653003692626951
      ],
      [
        "▁chaîne",
        -9.65304946899414
      ],
      [
        "▁riche",
        -9.653213500976562
      ],
      [
        "▁dieu",
        -9.65355396270752
      ],
      [
        "▁laissez",
        -9.654000282287598
      ],
      [
        "▁possède",
        -9.654025077819824
      ],
      [
        "▁événements",
        -9.65479850769043
      ],
      [
        "▁crème",
        -9.655302047729492
      ],
      [
        "▁véhicules",
        -9.657251358032228
      ],
      [
        "0",
        -9.658601760864258
      ],
      [
        "▁fans",
        -9.659530639648438
      ],
      [
        "▁apprendre",
        -9.659655570983888
      ],
      [
        "▁min",
        -9.660037994384766
      ],
      [
        "▁80",
        -9.660740852355955
      ],
      [
        "▁maladie",
        -9.660860061645508
      ],
      [
        "▁choisissez",
        -9.66111660003662
      ],
      [
        "▁dix",
        -9.66187858581543
      ],
      [
        "▁accueil",
        -9.663338661193848
      ],
      [
        "6",
        -9.663874626159668
      ],
      [
        "▁partenariat",
        -9.664284706115724
      ],
      [
        "▁privé",
        -9.664599418640137
      ],
      [
        "▁peine",
        -9.665611267089844
      ],
      [
        "▁ventes",
        -9.665928840637209
      ],
      [
        "industrie",
        -9.666305541992188
      ],
      [
        "▁plans",
        -9.668070793151855
      ],
      [
        "▁proposons",
        -9.670132637023926
      ],
      [
        "▁appartement",
        -9.670454978942873
      ],
      [
        "▁annonces",
        -9.671213150024414
      ],
      [
        "▁nettoyage",
        -9.67141342163086
      ],
      [
        "▁poser",
        -9.67150592803955
      ],
      [
        "▁be",
        -9.67173671722412
      ],
      [
        "▁rend",
        -9.672670364379885
      ],
      [
        "▁côte",
        -9.672823905944824
      ],
      [
        "▁excellent",
        -9.672893524169922
      ],
      [
        "▁pouvons",
        -9.673559188842772
      ],
      [
        "▁robe",
        -9.67429542541504
      ],
      [
        "▁connexion",
        -9.674639701843262
      ],
      [
        "▁al",
        -9.675066947937012
      ],
      [
        "▁gaz",
        -9.675253868103027
      ],
      [
        "▁liberté",
        -9.675654411315918
      ],
      [
        "▁vitesse",
        -9.676194190979004
      ],
      [
        "▁post",
        -9.676522254943848
      ],
      [
        "▁moments",
        -9.6766996383667
      ],
      [
        "▁demi",
        -9.678060531616213
      ],
      [
        "si",
        -9.67839241027832
      ],
      [
        "▁métier",
        -9.679229736328123
      ],
      [
        "▁agence",
        -9.679357528686523
      ],
      [
        "▁convient",
        -9.680486679077148
      ],
      [
        "▁formes",
        -9.684334754943848
      ],
      [
        "ancien",
        -9.685674667358398
      ],
      [
        "assurance",
        -9.685805320739746
      ],
      [
        "▁trouvez",
        -9.686148643493652
      ],
      [
        "▁outil",
        -9.689927101135254
      ],
      [
        "▁pourront",
        -9.690014839172363
      ],
      [
        "▁black",
        -9.690051078796388
      ],
      [
        "▁fournir",
        -9.690804481506348
      ],
      [
        "ed",
        -9.691397666931152
      ],
      [
        "▁entier",
        -9.691532135009766
      ],
      [
        "▁théâtre",
        -9.69276237487793
      ],
      [
        "▁vélo",
        -9.695246696472168
      ],
      [
        "▁information",
        -9.695261001586914
      ],
      [
        "▁valeurs",
        -9.695408821105955
      ],
      [
        "▁coût",
        -9.696012496948242
      ],
      [
        "dessus",
        -9.696866989135742
      ],
      [
        "▁clé",
        -9.69744110107422
      ],
      [
        "us",
        -9.698166847229004
      ],
      [
        "▁personnages",
        -9.699033737182615
      ],
      [
        "▁atelier",
        -9.70025634765625
      ],
      [
        "▁more",
        -9.70155143737793
      ],
      [
        "+",
        -9.702588081359863
      ],
      [
        "▁pression",
        -9.70327854156494
      ],
      [
        "▁bonheur",
        -9.703372955322266
      ],
      [
        "▁porno",
        -9.7037992477417
      ],
      [
        "▁propres",
        -9.703895568847656
      ],
      [
        "▁rejoindre",
        -9.704351425170898
      ],
      [
        "▁grosse",
        -9.704617500305176
      ],
      [
        "▁el",
        -9.7046480178833
      ],
      [
        "▁milliards",
        -9.704663276672363
      ],
      [
        "°",
        -9.705107688903809
      ],
      [
        "▁commun",
        -9.705333709716797
      ],
      [
        "mail",
        -9.706435203552246
      ],
      [
        "▁arrive",
        -9.706588745117188
      ],
      [
        "▁patrimoine",
        -9.707117080688477
      ],
      [
        "▁ceci",
        -9.707332611083984
      ],
      [
        "▁salles",
        -9.708271980285645
      ],
      [
        "▁totalement",
        -9.70883560180664
      ],
      [
        "▁lutte",
        -9.709345817565918
      ],
      [
        "▁américain",
        -9.709722518920898
      ],
      [
        "aux",
        -9.71042823791504
      ],
      [
        "objet",
        -9.711713790893556
      ],
      [
        "▁belgique",
        -9.712745666503906
      ],
      [
        "▁tenue",
        -9.713473320007324
      ],
      [
        "▁située",
        -9.714723587036133
      ],
      [
        "annonce",
        -9.71514892578125
      ],
      [
        "▁voit",
        -9.71768569946289
      ],
      [
        "▁recettes",
        -9.717917442321776
      ],
      [
        "▁victoire",
        -9.718236923217772
      ],
      [
        "▁objets",
        -9.718557357788086
      ],
      [
        "▁tarifs",
        -9.720609664916992
      ],
      [
        "▁association",
        -9.721574783325195
      ],
      [
        "▁ancien",
        -9.722021102905272
      ],
      [
        "▁promotion",
        -9.722973823547363
      ],
      [
        "▁équipements",
        -9.72332763671875
      ],
      [
        "▁proches",
        -9.723791122436523
      ],
      [
        "▁récemment",
        -9.72415542602539
      ],
      [
        "▁sorte",
        -9.726810455322266
      ],
      [
        "▁événement",
        -9.727344512939451
      ],
      [
        "▁séance",
        -9.727506637573242
      ],
      [
        "▁comité",
        -9.728440284729004
      ],
      [
        "▁technologies",
        -9.72999095916748
      ],
      [
        "▁lettre",
        -9.730466842651367
      ],
      [
        "▁études",
        -9.730606079101562
      ],
      [
        "▁tarif",
        -9.731133460998535
      ],
      [
        "▁raisons",
        -9.732393264770508
      ],
      [
        "▁ouverte",
        -9.73355197906494
      ],
      [
        "▁françois",
        -9.734382629394531
      ],
      [
        "▁go",
        -9.734432220458984
      ],
      [
        "enfant",
        -9.734848022460938
      ],
      [
        "▁radio",
        -9.735161781311035
      ],
      [
        "▁chaud",
        -9.736181259155272
      ],
      [
        "▁roman",
        -9.738445281982422
      ],
      [
        "▁option",
        -9.738656044006348
      ],
      [
        "▁vêtements",
        -9.738861083984377
      ],
      [
        "▁participation",
        -9.739338874816896
      ],
      [
        "entretien",
        -9.739822387695312
      ],
      [
        "▁quelqu",
        -9.740365982055664
      ],
      [
        "▁accord",
        -9.741562843322754
      ],
      [
        "▁calme",
        -9.743378639221191
      ],
      [
        "▁compter",
        -9.744635581970217
      ],
      [
        "▁lancé",
        -9.74472713470459
      ],
      [
        "▁mondial",
        -9.744784355163574
      ],
      [
        "▁indiqué",
        -9.745590209960938
      ],
      [
        "▁chauffage",
        -9.746302604675291
      ],
      [
        "▁voie",
        -9.746630668640137
      ],
      [
        "▁streaming",
        -9.746740341186523
      ],
      [
        "intérêt",
        -9.74796199798584
      ],
      [
        "▁doux",
        -9.748275756835938
      ],
      [
        "▁ami",
        -9.749141693115234
      ],
      [
        "des",
        -9.751519203186035
      ],
      [
        "▁tes",
        -9.75185775756836
      ],
      [
        "▁contexte",
        -9.7520170211792
      ],
      [
        "▁conçu",
        -9.753756523132324
      ],
      [
        "7",
        -9.754453659057615
      ],
      [
        "▁davantage",
        -9.754627227783203
      ],
      [
        "▁accessible",
        -9.754873275756836
      ],
      [
        "▁tissu",
        -9.755084037780762
      ],
      [
        "▁fonctionne",
        -9.755304336547852
      ],
      [
        "▁commencé",
        -9.755634307861328
      ],
      [
        "▁publicité",
        -9.755691528320312
      ],
      [
        "▁utilise",
        -9.756014823913574
      ],
      [
        "▁veux",
        -9.75649356842041
      ],
      [
        "ia",
        -9.756592750549316
      ],
      [
        "▁telles",
        -9.756762504577637
      ],
      [
        "▁studio",
        -9.761190414428713
      ],
      [
        "▁ingrédients",
        -9.76174259185791
      ],
      [
        "▁serez",
        -9.761856079101562
      ],
      [
        "▁accompagner",
        -9.76262092590332
      ],
      [
        "▁vision",
        -9.76275634765625
      ],
      [
        "▁élevé",
        -9.762911796569824
      ],
      [
        "idée",
        -9.763343811035156
      ],
      [
        "▁beaux",
        -9.763385772705078
      ],
      [
        "▁experts",
        -9.763468742370604
      ],
      [
        "▁sentir",
        -9.763848304748535
      ],
      [
        "▁marseille",
        -9.764569282531738
      ],
      [
        "▁quelles",
        -9.765488624572754
      ],
      [
        "te",
        -9.765669822692873
      ],
      [
        "▁appareil",
        -9.766509056091309
      ],
      [
        "▁no",
        -9.76766300201416
      ],
      [
        "▁u",
        -9.76853370666504
      ],
      [
        "▁concept",
        -9.770153999328612
      ],
      [
        "▁température",
        -9.770705223083496
      ],
      [
        "▁missions",
        -9.77076530456543
      ],
      [
        "▁prévu",
        -9.770889282226562
      ],
      [
        "&",
        -9.771425247192385
      ],
      [
        "▁chine",
        -9.771440505981444
      ],
      [
        "▁boîte",
        -9.773706436157228
      ],
      [
        "▁pré",
        -9.774165153503418
      ],
      [
        "▁connaissances",
        -9.77605152130127
      ],
      [
        "is",
        -9.77880573272705
      ],
      [
        "▁fais",
        -9.779117584228516
      ],
      [
        "▁adapté",
        -9.779190063476562
      ],
      [
        "▁remise",
        -9.779459953308104
      ],
      [
        "▁es",
        -9.78041648864746
      ],
      [
        "▁bus",
        -9.781458854675291
      ],
      [
        "▁utilisant",
        -9.78165054321289
      ],
      [
        "▁formulaire",
        -9.78192138671875
      ],
      [
        "▁lignes",
        -9.782041549682615
      ],
      [
        "▁termes",
        -9.78365421295166
      ],
      [
        "▁>",
        -9.784131050109863
      ],
      [
        "▁rendu",
        -9.784416198730469
      ],
      [
        "▁blanche",
        -9.784531593322754
      ],
      [
        "▁disponibilité",
        -9.785306930541992
      ],
      [
        "▁château",
        -9.78627109527588
      ],
      [
        "▁précise",
        -9.78839874267578
      ],
      [
        "▁proposé",
        -9.788567543029783
      ],
      [
        "▁utilisez",
        -9.789590835571287
      ],
      [
        "▁70",
        -9.790437698364258
      ],
      [
        "▁occasion",
        -9.790969848632812
      ],
      [
        "▁peur",
        -9.791190147399902
      ],
      [
        "▁organisation",
        -9.791394233703612
      ],
      [
        "▁prestations",
        -9.791869163513184
      ],
      [
        "▁défense",
        -9.791939735412598
      ],
      [
        "▁clés",
        -9.791999816894531
      ],
      [
        "net",
        -9.793158531188965
      ],
      [
        "▁bel",
        -9.79344081878662
      ],
      [
        "▁forces",
        -9.79409408569336
      ],
      [
        "▁2014",
        -9.794421195983888
      ],
      [
        "avait",
        -9.794645309448242
      ],
      [
        "▁aime",
        -9.79471206665039
      ],
      [
        "avenir",
        -9.795090675354004
      ],
      [
        "▁présenté",
        -9.79573917388916
      ],
      [
        "▁cabinet",
        -9.796235084533691
      ],
      [
        "▁dessus",
        -9.796727180480955
      ],
      [
        "▁voyageurs",
        -9.79677391052246
      ],
      [
        "▁perdu",
        -9.796845436096191
      ],
      [
        "▁courant",
        -9.796936988830566
      ],
      [
        "▁réussi",
        -9.79730987548828
      ],
      [
        "▁historique",
        -9.797478675842283
      ],
      [
        "▁etats",
        -9.798744201660156
      ],
      [
        "▁plantes",
        -9.799266815185549
      ],
      [
        "▁free",
        -9.799352645874023
      ],
      [
        "▁we",
        -9.799918174743652
      ],
      [
        "▁parfaite",
        -9.801105499267578
      ],
      [
        "▁prenez",
        -9.801169395446776
      ],
      [
        "▁dû",
        -9.801877975463867
      ],
      [
        "▁télévision",
        -9.801997184753418
      ],
      [
        "▁escort",
        -9.802278518676758
      ],
      [
        "▁propriétaire",
        -9.802876472473145
      ],
      [
        "▁formations",
        -9.80291748046875
      ],
      [
        "univers",
        -9.8029203414917
      ],
      [
        "▁spécialiste",
        -9.802922248840332
      ],
      [
        "▁performances",
        -9.803234100341797
      ],
      [
        "▁principalement",
        -9.804058074951172
      ],
      [
        "▁mémoire",
        -9.804326057434082
      ],
      [
        "ex",
        -9.80465316772461
      ],
      [
        "▁voyages",
        -9.80593967437744
      ],
      [
        "▁eau",
        -9.807403564453123
      ],
      [
        "▁chocolat",
        -9.807480812072754
      ],
      [
        "union",
        -9.808063507080078
      ],
      [
        "▁publication",
        -9.808506965637209
      ],
      [
        "actualité",
        -9.809276580810549
      ],
      [
        "▁dynamique",
        -9.80987548828125
      ],
      [
        "▁futur",
        -9.810453414916992
      ],
      [
        "écran",
        -9.810531616210938
      ],
      [
        "▁ferme",
        -9.81106185913086
      ],
      [
        "▁sujets",
        -9.811966896057127
      ],
      [
        "▁destination",
        -9.81217098236084
      ],
      [
        "▁capable",
        -9.81417751312256
      ],
      [
        "▁résidence",
        -9.815597534179688
      ],
      [
        "▁k",
        -9.816015243530272
      ],
      [
        "▁mélange",
        -9.816034317016602
      ],
      [
        "▁35",
        -9.817476272583008
      ],
      [
        "▁vieux",
        -9.817740440368652
      ],
      [
        "▁officiel",
        -9.81818389892578
      ],
      [
        "▁autorités",
        -9.818867683410645
      ],
      [
        "▁réception",
        -9.820061683654783
      ],
      [
        "▁entretien",
        -9.822186470031738
      ],
      [
        "▁étapes",
        -9.823243141174316
      ],
      [
        "▁quantité",
        -9.82477855682373
      ],
      [
        "▁maisons",
        -9.825010299682615
      ],
      [
        "▁perdre",
        -9.82607650756836
      ],
      [
        "france",
        -9.826604843139648
      ],
      [
        "▁supplémentaires",
        -9.82737922668457
      ],
      [
        "▁)",
        -9.828059196472168
      ],
      [
        "▁demandé",
        -9.82846736907959
      ],
      [
        "▁chercher",
        -9.828536033630373
      ],
      [
        "▁appareils",
        -9.82907772064209
      ],
      [
        "▁45",
        -9.830425262451172
      ],
      [
        "▁naturelle",
        -9.830480575561523
      ],
      [
        "▁apporter",
        -9.83060073852539
      ],
      [
        "▁ateliers",
        -9.830913543701172
      ],
      [
        "▁douche",
        -9.832958221435549
      ],
      [
        "▁mises",
        -9.83371639251709
      ],
      [
        "▁iphone",
        -9.834206581115724
      ],
      [
        "▁one",
        -9.834986686706545
      ],
      [
        "▁pdf",
        -9.83536434173584
      ],
      [
        "▁places",
        -9.835646629333496
      ],
      [
        "▁effets",
        -9.83598518371582
      ],
      [
        "▁amour",
        -9.836827278137209
      ],
      [
        "▁faite",
        -9.837461471557615
      ],
      [
        "▁complètement",
        -9.837814331054688
      ],
      [
        "▁naissance",
        -9.838540077209473
      ],
      [
        "ma",
        -9.838661193847656
      ],
      [
        "▁installation",
        -9.839292526245115
      ],
      [
        "▁communes",
        -9.839357376098633
      ],
      [
        "▁ultra",
        -9.83942985534668
      ],
      [
        "▁diverses",
        -9.839573860168455
      ],
      [
        "avec",
        -9.83961296081543
      ],
      [
        "▁joue",
        -9.840450286865234
      ],
      [
        "▁sept",
        -9.840749740600586
      ],
      [
        "▁participants",
        -9.840920448303224
      ],
      [
        "w",
        -9.841267585754396
      ],
      [
        "▁conseiller",
        -9.842307090759276
      ],
      [
        "▁mur",
        -9.842822074890137
      ],
      [
        "▁bonus",
        -9.84315299987793
      ],
      [
        "▁populaire",
        -9.843453407287598
      ],
      [
        "▁stade",
        -9.844484329223633
      ],
      [
        "▁devenu",
        -9.844523429870604
      ],
      [
        "▁sucre",
        -9.844664573669434
      ],
      [
        "▁commercial",
        -9.844727516174316
      ],
      [
        "▁navigation",
        -9.845595359802246
      ],
      [
        "▁capitale",
        -9.846240997314451
      ],
      [
        "▁second",
        -9.846755981445312
      ],
      [
        "midi",
        -9.848270416259766
      ],
      [
        "▁écran",
        -9.84886646270752
      ],
      [
        "▁vendre",
        -9.851786613464355
      ],
      [
        "▁classement",
        -9.85269832611084
      ],
      [
        "▁twitter",
        -9.852825164794922
      ],
      [
        "▁panier",
        -9.854877471923828
      ],
      [
        "▁visiter",
        -9.855142593383787
      ],
      [
        "▁section",
        -9.85600471496582
      ],
      [
        "▁90",
        -9.856368064880373
      ],
      [
        "▁dimensions",
        -9.856477737426758
      ],
      [
        "▁effectuer",
        -9.856769561767578
      ],
      [
        "▁fichiers",
        -9.857086181640623
      ],
      [
        "▁tableau",
        -9.857427597045898
      ],
      [
        "▁horaires",
        -9.857812881469728
      ],
      [
        "▁utile",
        -9.857904434204102
      ],
      [
        "économie",
        -9.858431816101074
      ],
      [
        "▁programmes",
        -9.859448432922363
      ],
      [
        "▁délai",
        -9.86032772064209
      ],
      [
        "▁sanitaire",
        -9.860820770263672
      ],
      [
        "lire",
        -9.861193656921388
      ],
      [
        "▁maroc",
        -9.861468315124512
      ],
      [
        "▁siège",
        -9.862456321716309
      ],
      [
        "▁contient",
        -9.86250114440918
      ],
      [
        "▁perte",
        -9.863728523254396
      ],
      [
        "▁my",
        -9.863984107971191
      ],
      [
        "▁inscription",
        -9.864068031311035
      ],
      [
        "▁personnage",
        -9.864187240600586
      ],
      [
        "▁passant",
        -9.864267349243164
      ],
      [
        "▁principaux",
        -9.864434242248535
      ],
      [
        "▁détail",
        -9.86490535736084
      ],
      [
        "▁four",
        -9.865303993225098
      ],
      [
        "▁michel",
        -9.865500450134276
      ],
      [
        "▁printemps",
        -9.86566925048828
      ],
      [
        "▁document",
        -9.866914749145508
      ],
      [
        "▁arrivée",
        -9.868077278137209
      ],
      [
        "▁salariés",
        -9.86833667755127
      ],
      [
        "▁signifie",
        -9.868746757507324
      ],
      [
        "▁visiteurs",
        -9.86926555633545
      ],
      [
        "▁régime",
        -9.869915962219238
      ],
      [
        "▁faible",
        -9.871788024902344
      ],
      [
        "▁responsabilité",
        -9.87352180480957
      ],
      [
        "▁construire",
        -9.873595237731934
      ],
      [
        "accord",
        -9.873743057250977
      ],
      [
        "▁tourisme",
        -9.874075889587402
      ],
      [
        "▁organisé",
        -9.874262809753418
      ],
      [
        "▁étoiles",
        -9.87480354309082
      ],
      [
        "▁preuve",
        -9.875853538513184
      ],
      [
        "-19",
        -9.875896453857422
      ],
      [
        "▁live",
        -9.876221656799316
      ],
      [
        "là",
        -9.876227378845217
      ],
      [
        "▁rêve",
        -9.878804206848145
      ],
      [
        "▁all",
        -9.87899684906006
      ],
      [
        "▁milliers",
        -9.879801750183104
      ],
      [
        "▁bac",
        -9.880062103271484
      ],
      [
        "▁sort",
        -9.880186080932615
      ],
      [
        "▁luxe",
        -9.88056468963623
      ],
      [
        "hiver",
        -9.88062858581543
      ],
      [
        "▁liés",
        -9.881129264831545
      ],
      [
        "▁clair",
        -9.882024765014648
      ],
      [
        "▁basse",
        -9.882216453552246
      ],
      [
        "▁adultes",
        -9.882486343383787
      ],
      [
        "▁menu",
        -9.883038520812988
      ],
      [
        "▁privée",
        -9.883160591125488
      ],
      [
        "▁réponses",
        -9.88528537750244
      ],
      [
        "▁vérifier",
        -9.88609218597412
      ],
      [
        "▁demain",
        -9.886098861694336
      ],
      [
        "▁notes",
        -9.88644790649414
      ],
      [
        "▁coton",
        -9.886770248413086
      ],
      [
        "usage",
        -9.887192726135254
      ],
      [
        "▁original",
        -9.887700080871582
      ],
      [
        "▁su",
        -9.887853622436523
      ],
      [
        "▁faits",
        -9.887968063354492
      ],
      [
        "▁essayer",
        -9.88830280303955
      ],
      [
        "▁pourraient",
        -9.888397216796877
      ],
      [
        "▁assure",
        -9.888508796691896
      ],
      [
        "▁variété",
        -9.88923454284668
      ],
      [
        "▁électronique",
        -9.890151977539062
      ],
      [
        "▁bouton",
        -9.890294075012209
      ],
      [
        "▁tenu",
        -9.891483306884766
      ],
      [
        "▁noter",
        -9.891627311706545
      ],
      [
        "▁étude",
        -9.891642570495604
      ],
      [
        "ca",
        -9.892077445983888
      ],
      [
        "▁lait",
        -9.892170906066896
      ],
      [
        "▁auteur",
        -9.892996788024902
      ],
      [
        "▁servir",
        -9.893056869506836
      ],
      [
        "▁démarche",
        -9.89356803894043
      ],
      [
        "▁rénovation",
        -9.89357089996338
      ],
      [
        "▁téléchargement",
        -9.893839836120604
      ],
      [
        "it",
        -9.894083976745604
      ],
      [
        "▁sports",
        -9.894197463989258
      ],
      [
        "▁installer",
        -9.895386695861816
      ],
      [
        "▁composé",
        -9.896023750305176
      ],
      [
        "ouest",
        -9.896313667297363
      ],
      [
        "▁z",
        -9.897689819335938
      ],
      [
        "▁candidats",
        -9.897998809814451
      ],
      [
        "▁bref",
        -9.898193359375
      ],
      [
        "▁fonctionnalités",
        -9.898402214050291
      ],
      [
        "▁viennent",
        -9.898612022399902
      ],
      [
        "faire",
        -9.898873329162598
      ],
      [
        "▁coin",
        -9.89915657043457
      ],
      [
        "man",
        -9.899425506591797
      ],
      [
        "éducation",
        -9.899967193603516
      ],
      [
        "▁final",
        -9.900010108947754
      ],
      [
        "▁2013",
        -9.900126457214355
      ],
      [
        "▁$",
        -9.900470733642578
      ],
      [
        "▁paix",
        -9.900541305541992
      ],
      [
        "extérieur",
        -9.90199089050293
      ],
      [
        "tu",
        -9.902122497558594
      ],
      [
        "île",
        -9.902976036071776
      ],
      [
        "▁recherches",
        -9.90370273590088
      ],
      [
        "▁renforcer",
        -9.903983116149902
      ],
      [
        "▁représente",
        -9.904271125793455
      ],
      [
        "▁informatique",
        -9.904338836669922
      ],
      [
        "▁couverture",
        -9.905381202697754
      ],
      [
        "▁consultez",
        -9.905766487121582
      ],
      [
        "▁pensez",
        -9.906352996826172
      ],
      [
        "▁volonté",
        -9.90660285949707
      ],
      [
        "²",
        -9.90729808807373
      ],
      [
        "».",
        -9.907308578491213
      ],
      [
        "▁ajouté",
        -9.907940864562988
      ],
      [
        "▁voitures",
        -9.908907890319824
      ],
      [
        "▁domaines",
        -9.909134864807127
      ],
      [
        "▁soutenir",
        -9.909350395202637
      ],
      [
        "▁établissement",
        -9.909734725952148
      ],
      [
        "▁accéder",
        -9.910197257995604
      ],
      [
        "▁ios",
        -9.910832405090332
      ],
      [
        "▁bains",
        -9.911615371704102
      ],
      [
        "▁jeunesse",
        -9.91228199005127
      ],
      [
        "▁entrée",
        -9.91269302368164
      ],
      [
        "▁messages",
        -9.915372848510742
      ],
      [
        "▁côtés",
        -9.915701866149902
      ],
      [
        "ly",
        -9.916166305541992
      ],
      [
        "▁bordeaux",
        -9.917442321777344
      ],
      [
        "▁scolaire",
        -9.917466163635254
      ],
      [
        "▁apple",
        -9.917614936828612
      ],
      [
        "mm",
        -9.9176607131958
      ],
      [
        "▁logiciels",
        -9.920574188232422
      ],
      [
        "▁froid",
        -9.921102523803713
      ],
      [
        "▁combat",
        -9.92160987854004
      ],
      [
        "▁2012",
        -9.922658920288086
      ],
      [
        "age",
        -9.922941207885742
      ],
      [
        "▁engagement",
        -9.92336082458496
      ],
      [
        "se",
        -9.923517227172852
      ],
      [
        "▁majorité",
        -9.92445182800293
      ],
      [
        "▁marchés",
        -9.9251127243042
      ],
      [
        "▁puisse",
        -9.925504684448242
      ],
      [
        "▁particuliers",
        -9.92647647857666
      ],
      [
        "▁limite",
        -9.926712036132812
      ],
      [
        "na",
        -9.927282333374023
      ],
      [
        "administration",
        -9.927874565124512
      ],
      [
        "▁paul",
        -9.92991065979004
      ],
      [
        "▁david",
        -9.931812286376951
      ],
      [
        "▁fonctions",
        -9.93181610107422
      ],
      [
        "▁tellement",
        -9.932258605957031
      ],
      [
        "▁vent",
        -9.932347297668455
      ],
      [
        "▁ps",
        -9.932417869567873
      ],
      [
        "▁@",
        -9.932744979858398
      ],
      [
        "▁ambiance",
        -9.932916641235352
      ],
      [
        "▁instagram",
        -9.93317413330078
      ],
      [
        "▁travaille",
        -9.933907508850098
      ],
      [
        "▁jolie",
        -9.93461799621582
      ],
      [
        "▁bras",
        -9.93476104736328
      ],
      [
        "▁look",
        -9.935115814208984
      ],
      [
        "aéroport",
        -9.935458183288574
      ],
      [
        "▁vis",
        -9.935632705688477
      ],
      [
        "▁fiche",
        -9.93568515777588
      ],
      [
        "▁atteindre",
        -9.936376571655272
      ],
      [
        "▁offrant",
        -9.936838150024414
      ],
      [
        "▁dispositif",
        -9.937337875366213
      ],
      [
        "▁niveaux",
        -9.937421798706056
      ],
      [
        "▁station",
        -9.937588691711426
      ],
      [
        "▁telle",
        -9.938237190246582
      ],
      [
        ".\"",
        -9.938435554504396
      ],
      [
        "▁longueur",
        -9.93989086151123
      ],
      [
        "▁allons",
        -9.940375328063965
      ],
      [
        "▁distribution",
        -9.94046401977539
      ],
      [
        "▁rédaction",
        -9.9407320022583
      ],
      [
        "▁financement",
        -9.940937995910645
      ],
      [
        "▁modifier",
        -9.941035270690918
      ],
      [
        "▁bilan",
        -9.941387176513672
      ],
      [
        "▁certainement",
        -9.94166374206543
      ],
      [
        "▁maître",
        -9.942191123962402
      ],
      [
        "▁centres",
        -9.943806648254396
      ],
      [
        "▁douce",
        -9.94521427154541
      ],
      [
        "▁phase",
        -9.945771217346191
      ],
      [
        "▁01",
        -9.945926666259766
      ],
      [
        "▁concert",
        -9.946425437927246
      ],
      [
        "▁tenir",
        -9.946683883666992
      ],
      [
        "▁effectivement",
        -9.946938514709473
      ],
      [
        "▁faudra",
        -9.9473876953125
      ],
      [
        "avant",
        -9.94812297821045
      ],
      [
        "▁06",
        -9.9490385055542
      ],
      [
        "▁[…]",
        -9.949264526367188
      ],
      [
        "▁montrer",
        -9.949450492858888
      ],
      [
        "avis",
        -9.94953727722168
      ],
      [
        "▁gris",
        -9.950396537780762
      ],
      [
        "▁cadeaux",
        -9.9506196975708
      ],
      [
        "▁fer",
        -9.950695991516112
      ],
      [
        "▁are",
        -9.95141315460205
      ],
      [
        "▁plats",
        -9.951444625854492
      ],
      [
        "▁revenir",
        -9.952545166015623
      ],
      [
        "▁smartphone",
        -9.952759742736816
      ],
      [
        "up",
        -9.95290184020996
      ],
      [
        "to",
        -9.95398998260498
      ],
      [
        "▁patients",
        -9.954577445983888
      ],
      [
        "▁surprise",
        -9.954923629760742
      ],
      [
        "▁penser",
        -9.954962730407717
      ],
      [
        "impression",
        -9.955145835876465
      ],
      [
        "▁plastique",
        -9.95804500579834
      ],
      [
        "▁300",
        -9.958795547485352
      ],
      [
        "▁génération",
        -9.959064483642578
      ],
      [
        "▁lancement",
        -9.959601402282717
      ],
      [
        "▁principale",
        -9.960022926330566
      ],
      [
        "▁pâte",
        -9.960037231445312
      ],
      [
        "▁approche",
        -9.962559700012209
      ],
      [
        "▁déjeuner",
        -9.963611602783203
      ],
      [
        "▁veulent",
        -9.96533489227295
      ],
      [
        "▁emploi",
        -9.966147422790527
      ],
      [
        "▁cap",
        -9.96649932861328
      ],
      [
        "▁offrent",
        -9.96651554107666
      ],
      [
        "▁garantir",
        -9.966609001159668
      ],
      [
        "delà",
        -9.967378616333008
      ],
      [
        "▁attendre",
        -9.967824935913086
      ],
      [
        "▁fermeture",
        -9.968127250671388
      ],
      [
        "▁ya",
        -9.969038963317873
      ],
      [
        "▁caractère",
        -9.969050407409668
      ],
      [
        "▁ex",
        -9.969725608825684
      ],
      [
        "assurer",
        -9.97018051147461
      ],
      [
        "▁navigateur",
        -9.97114086151123
      ],
      [
        "▁métiers",
        -9.971973419189451
      ],
      [
        "▁télé",
        -9.975446701049805
      ],
      [
        "▁at",
        -9.975549697875977
      ],
      [
        "▁critique",
        -9.976340293884276
      ],
      [
        "▁maman",
        -9.976621627807615
      ],
      [
        "▁associations",
        -9.97705364227295
      ],
      [
        "▁tient",
        -9.97722339630127
      ],
      [
        "▁pointe",
        -9.979124069213867
      ],
      [
        "▁immédiatement",
        -9.979477882385254
      ],
      [
        "▁dédié",
        -9.979525566101074
      ],
      [
        "▁envoyer",
        -9.979716300964355
      ],
      [
        "▁interne",
        -9.979727745056152
      ],
      [
        "▁difficultés",
        -9.979974746704102
      ],
      [
        "▁demandes",
        -9.982138633728027
      ],
      [
        "▁commandes",
        -9.984097480773926
      ],
      [
        "▁supérieur",
        -9.984278678894045
      ],
      [
        "▁promo",
        -9.985308647155762
      ],
      [
        "▁anniversaire",
        -9.985392570495604
      ],
      [
        "▁utilisés",
        -9.985553741455078
      ],
      [
        "el",
        -9.986896514892578
      ],
      [
        "▁lance",
        -9.98694133758545
      ],
      [
        "▁prises",
        -9.98702335357666
      ],
      [
        "▁ait",
        -9.987060546875
      ],
      [
        "▁critères",
        -9.987709045410156
      ],
      [
        "ch",
        -9.988008499145508
      ],
      [
        "▁baisse",
        -9.988304138183594
      ],
      [
        "▁champ",
        -9.988641738891602
      ],
      [
        "▁sources",
        -9.989507675170898
      ],
      [
        "▁philippe",
        -9.991254806518556
      ],
      [
        "▁écoles",
        -9.992391586303713
      ],
      [
        "▁can",
        -9.992770195007324
      ],
      [
        "▁locale",
        -9.99326992034912
      ],
      [
        "▁portable",
        -9.993504524230955
      ],
      [
        "▁extérieur",
        -9.993562698364258
      ],
      [
        "▁univers",
        -9.994134902954102
      ],
      [
        "▁légumes",
        -9.994579315185549
      ],
      [
        "▁multi",
        -9.995224952697754
      ],
      [
        "▁sociétés",
        -9.995903968811035
      ],
      [
        "▁multiples",
        -9.996637344360352
      ],
      [
        "▁attentes",
        -9.996888160705566
      ],
      [
        "▁news",
        -9.997980117797852
      ],
      [
        "▁©",
        -9.998310089111328
      ],
      [
        "▁centrale",
        -9.999393463134766
      ],
      [
        "obtenir",
        -9.999542236328123
      ],
      [
        "▁argent",
        -10.000027656555176
      ],
      [
        "voir",
        -10.000853538513184
      ],
      [
        "▁volume",
        -10.001046180725098
      ],
      [
        "▁mêmes",
        -10.001703262329102
      ],
      [
        "▁tôt",
        -10.002080917358398
      ],
      [
        "▁signe",
        -10.002214431762695
      ],
      [
        "▁européen",
        -10.002269744873049
      ],
      [
        "▁professeur",
        -10.003677368164062
      ],
      [
        "▁connecter",
        -10.00538730621338
      ],
      [
        "▁maintenir",
        -10.005711555480955
      ],
      [
        "▁royaume",
        -10.005972862243652
      ],
      [
        "▁simples",
        -10.006242752075195
      ],
      [
        "▁apporte",
        -10.007657051086426
      ],
      [
        "▁compétition",
        -10.008291244506836
      ],
      [
        "▁associé",
        -10.008784294128418
      ],
      [
        "avance",
        -10.009177207946776
      ],
      [
        "▁amazon",
        -10.009217262268066
      ],
      [
        "▁opérations",
        -10.009231567382812
      ],
      [
        "▁sauf",
        -10.009478569030762
      ],
      [
        "▁tapis",
        -10.009635925292969
      ],
      [
        "▁mairie",
        -10.009984016418455
      ],
      [
        "▁résistance",
        -10.010005950927734
      ],
      [
        "▁toulouse",
        -10.010169982910156
      ],
      [
        "▁fêtes",
        -10.0106782913208
      ],
      [
        "▁noire",
        -10.010794639587402
      ],
      [
        "▁indispensable",
        -10.012272834777832
      ],
      [
        "▁batterie",
        -10.012449264526367
      ],
      [
        "▁camping",
        -10.01283836364746
      ],
      [
        "▁spécifiques",
        -10.01287078857422
      ],
      [
        "▁âge",
        -10.01297664642334
      ],
      [
        "▁pouvant",
        -10.013221740722656
      ],
      [
        "▁rythme",
        -10.014030456542969
      ],
      [
        "▁médecin",
        -10.014071464538574
      ],
      [
        "▁titres",
        -10.01459789276123
      ],
      [
        "▁supérieure",
        -10.014692306518556
      ],
      [
        "▁restauration",
        -10.014887809753418
      ],
      [
        "▁normes",
        -10.0156831741333
      ],
      [
        "▁respecter",
        -10.015875816345217
      ],
      [
        "me",
        -10.01641845703125
      ],
      [
        "époque",
        -10.017403602600098
      ],
      [
        "▁sexy",
        -10.018614768981934
      ],
      [
        "▁montréal",
        -10.018638610839844
      ],
      [
        "®",
        -10.01864242553711
      ],
      [
        "▁actualités",
        -10.019805908203123
      ],
      [
        "▁championnat",
        -10.020702362060549
      ],
      [
        "▁principales",
        -10.020931243896484
      ],
      [
        "plus",
        -10.021260261535645
      ],
      [
        "▁revient",
        -10.021848678588867
      ],
      [
        "▁monsieur",
        -10.022109031677246
      ],
      [
        "▁régions",
        -10.022708892822266
      ],
      [
        "▁formule",
        -10.022985458374023
      ],
      [
        "▁américaine",
        -10.023338317871094
      ],
      [
        "▁méthodes",
        -10.024118423461914
      ],
      [
        "▁sciences",
        -10.024222373962402
      ],
      [
        "▁magazine",
        -10.024561882019045
      ],
      [
        "que",
        -10.025144577026367
      ],
      [
        "▁infos",
        -10.025593757629396
      ],
      [
        "évolution",
        -10.025672912597656
      ],
      [
        "▁principe",
        -10.025911331176758
      ],
      [
        "▁présents",
        -10.026969909667969
      ],
      [
        "▁standard",
        -10.027027130126951
      ],
      [
        "▁business",
        -10.027050971984863
      ],
      [
        "▁invités",
        -10.027121543884276
      ],
      [
        "▁douceur",
        -10.02752685546875
      ],
      [
        "▁sel",
        -10.027820587158203
      ],
      [
        "▁évidemment",
        -10.028594017028809
      ],
      [
        "▁supplémentaire",
        -10.030325889587402
      ],
      [
        "étude",
        -10.030943870544434
      ],
      [
        "▁réparation",
        -10.031760215759276
      ],
      [
        "▁ski",
        -10.031795501708984
      ],
      [
        "▁leader",
        -10.031850814819336
      ],
      [
        "*",
        -10.032498359680176
      ],
      [
        "ère",
        -10.032779693603516
      ],
      [
        "▁assurance",
        -10.032899856567385
      ],
      [
        "▁idéale",
        -10.03318691253662
      ],
      [
        "▁retraite",
        -10.033536911010742
      ],
      [
        "▁change",
        -10.034197807312012
      ],
      [
        "▁essentiel",
        -10.034460067749023
      ],
      [
        "▁amateurs",
        -10.03481388092041
      ],
      [
        "▁sérieux",
        -10.037246704101562
      ],
      [
        "▁né",
        -10.037322998046877
      ],
      [
        "▁hausse",
        -10.038294792175291
      ],
      [
        "▁bijoux",
        -10.038503646850586
      ],
      [
        "▁ciel",
        -10.03921127319336
      ],
      [
        "▁moto",
        -10.039658546447754
      ],
      [
        "▁responsables",
        -10.041141510009766
      ],
      [
        "▁collectif",
        -10.041840553283691
      ],
      [
        "▁artistique",
        -10.042006492614746
      ],
      [
        "ais",
        -10.042412757873535
      ],
      [
        "▁kg",
        -10.04249095916748
      ],
      [
        "▁portée",
        -10.04261875152588
      ],
      [
        "▁kit",
        -10.04377555847168
      ],
      [
        "▁youtube",
        -10.044575691223145
      ],
      [
        "▁excellente",
        -10.045660018920898
      ],
      [
        "▁salope",
        -10.047741889953612
      ],
      [
        "▁mont",
        -10.048571586608888
      ],
      [
        "▁from",
        -10.048894882202148
      ],
      [
        "▁bouche",
        -10.049066543579102
      ],
      [
        "aller",
        -10.04917335510254
      ],
      [
        "▁diffusion",
        -10.049561500549316
      ],
      [
        "▁plateau",
        -10.049717903137209
      ],
      [
        "▁val",
        -10.04975414276123
      ],
      [
        "▁midi",
        -10.051259994506836
      ],
      [
        "▁thé",
        -10.052301406860352
      ],
      [
        "▁chargé",
        -10.052888870239258
      ],
      [
        "▁rentrée",
        -10.053451538085938
      ],
      [
        "10",
        -10.054339408874512
      ],
      [
        "▁alimentaire",
        -10.05447483062744
      ],
      [
        "▁malheureusement",
        -10.05491065979004
      ],
      [
        "étais",
        -10.05547332763672
      ],
      [
        "▁déco",
        -10.05575466156006
      ],
      [
        "▁établissements",
        -10.056072235107422
      ],
      [
        "par",
        -10.057740211486816
      ],
      [
        "▁savez",
        -10.05807399749756
      ],
      [
        "▁roi",
        -10.058409690856934
      ],
      [
        "▁stage",
        -10.058770179748535
      ],
      [
        "▁faciliter",
        -10.058815002441406
      ],
      [
        "▁net",
        -10.058979988098145
      ],
      [
        "▁contenus",
        -10.059545516967772
      ],
      [
        "▁ré",
        -10.05974578857422
      ],
      [
        "▁restaurants",
        -10.059926986694336
      ],
      [
        "▁magasins",
        -10.060101509094238
      ],
      [
        "▁école",
        -10.060893058776855
      ],
      [
        "▁défi",
        -10.061058044433594
      ],
      [
        "▁victimes",
        -10.061243057250977
      ],
      [
        "▁arts",
        -10.0614595413208
      ],
      [
        "▁home",
        -10.06148910522461
      ],
      [
        "”,",
        -10.061722755432127
      ],
      [
        "▁secret",
        -10.061919212341309
      ],
      [
        "▁analyse",
        -10.06375789642334
      ],
      [
        "▁réussite",
        -10.064075469970703
      ],
      [
        "▁arrière",
        -10.064748764038086
      ],
      [
        "analyse",
        -10.065068244934082
      ],
      [
        "▁microsoft",
        -10.065337181091309
      ],
      [
        "▁acier",
        -10.065410614013672
      ],
      [
        "▁anciens",
        -10.06589412689209
      ],
      [
        "▁stockage",
        -10.066489219665527
      ],
      [
        "▁loisirs",
        -10.06666088104248
      ],
      [
        "▁cherchez",
        -10.06749439239502
      ],
      [
        "▁pont",
        -10.067713737487791
      ],
      [
        "▁york",
        -10.06773281097412
      ],
      [
        "▁w",
        -10.067940711975098
      ],
      [
        "honneur",
        -10.067999839782717
      ],
      [
        "▁appelé",
        -10.068100929260254
      ],
      [
        "urgence",
        -10.068134307861328
      ],
      [
        "▁gare",
        -10.068710327148438
      ],
      [
        "▁esprit",
        -10.06872844696045
      ],
      [
        "▁délais",
        -10.068934440612791
      ],
      [
        "▁combien",
        -10.06900691986084
      ],
      [
        "▁circulation",
        -10.069844245910645
      ],
      [
        "▁possibilités",
        -10.069990158081056
      ],
      [
        "qui",
        -10.070420265197754
      ],
      [
        "exposition",
        -10.070637702941896
      ],
      [
        "enseignement",
        -10.07087230682373
      ],
      [
        "▁fini",
        -10.072519302368164
      ],
      [
        "▁nicolas",
        -10.07329559326172
      ],
      [
        "▁tests",
        -10.073360443115234
      ],
      [
        "▁intéressant",
        -10.074891090393066
      ],
      [
        "▁chiffre",
        -10.075249671936035
      ],
      [
        "▁complexe",
        -10.075825691223145
      ],
      [
        "▁don",
        -10.07813549041748
      ],
      [
        "▁énergétique",
        -10.07819652557373
      ],
      [
        "▁cuisson",
        -10.079038619995115
      ],
      [
        "▁réserve",
        -10.079243659973145
      ],
      [
        "▁vide",
        -10.081048965454102
      ],
      [
        "▁jaune",
        -10.081793785095217
      ],
      [
        "▁déclaration",
        -10.083575248718262
      ],
      [
        "▁somme",
        -10.083747863769531
      ],
      [
        "▁accueillir",
        -10.08409595489502
      ],
      [
        "▁composition",
        -10.085434913635254
      ],
      [
        "▁lot",
        -10.08594799041748
      ],
      [
        "▁stress",
        -10.086060523986816
      ],
      [
        "▁reprise",
        -10.086254119873049
      ],
      [
        "▁ben",
        -10.086650848388672
      ],
      [
        "▁mari",
        -10.088380813598633
      ],
      [
        "▁dur",
        -10.089192390441896
      ],
      [
        "▁superbe",
        -10.08921241760254
      ],
      [
        "▁moitié",
        -10.0894193649292
      ],
      [
        "▁invite",
        -10.0899076461792
      ],
      [
        "▁enquête",
        -10.09002685546875
      ],
      [
        "▁sang",
        -10.090411186218262
      ],
      [
        "▁aventure",
        -10.091479301452637
      ],
      [
        "▁montagne",
        -10.092382431030272
      ],
      [
        "afrique",
        -10.092406272888184
      ],
      [
        "▁indique",
        -10.09361457824707
      ],
      [
        "▁déchets",
        -10.094215393066406
      ],
      [
        "▁entendu",
        -10.09463119506836
      ],
      [
        "▁spécialisée",
        -10.096251487731934
      ],
      [
        "▁comptes",
        -10.096390724182127
      ],
      [
        "▁suivez",
        -10.096498489379885
      ],
      [
        "ent",
        -10.09748363494873
      ],
      [
        "▁!!",
        -10.09750270843506
      ],
      [
        "os",
        -10.09782600402832
      ],
      [
        "▁feuilles",
        -10.09846305847168
      ],
      [
        "▁amoureux",
        -10.0987548828125
      ],
      [
        "▁mp",
        -10.099340438842772
      ],
      [
        "▁150",
        -10.099542617797852
      ],
      [
        "▁coups",
        -10.10009479522705
      ],
      [
        "▁veille",
        -10.10054874420166
      ],
      [
        "▁voire",
        -10.102655410766602
      ],
      [
        "▁employés",
        -10.102774620056152
      ],
      [
        "▁léger",
        -10.10300350189209
      ],
      [
        "▁inter",
        -10.103279113769531
      ],
      [
        "▁dessin",
        -10.10340404510498
      ],
      [
        "▁dehors",
        -10.103888511657717
      ],
      [
        "▁cité",
        -10.105216979980469
      ],
      [
        "▁dépôt",
        -10.105525970458984
      ],
      [
        "▁procédure",
        -10.105889320373535
      ],
      [
        "▁consiste",
        -10.106173515319824
      ],
      [
        "▁automatique",
        -10.106698989868164
      ],
      [
        "environ",
        -10.106736183166504
      ],
      [
        "▁louis",
        -10.107622146606444
      ],
      [
        "▁métal",
        -10.107695579528809
      ],
      [
        "lastname",
        -10.108199119567873
      ],
      [
        "▁premium",
        -10.108565330505373
      ],
      [
        "▁serveur",
        -10.108781814575195
      ],
      [
        "▁suivants",
        -10.109374046325684
      ],
      [
        "écoute",
        -10.109566688537598
      ],
      [
        "▁astuces",
        -10.109676361083984
      ],
      [
        "▁matières",
        -10.109728813171388
      ],
      [
        "▁charme",
        -10.110084533691406
      ],
      [
        "▁planète",
        -10.11025619506836
      ],
      [
        "▁vaut",
        -10.111382484436035
      ],
      [
        "▁expert",
        -10.11181354522705
      ],
      [
        "▁probablement",
        -10.112187385559082
      ],
      [
        "▁proposés",
        -10.113971710205078
      ],
      [
        "▁vins",
        -10.11428451538086
      ],
      [
        "▁chaude",
        -10.11508083343506
      ],
      [
        "▁collaborateurs",
        -10.116119384765623
      ],
      [
        "▁joli",
        -10.116209030151367
      ],
      [
        "▁puisqu",
        -10.116661071777344
      ],
      [
        "nom",
        -10.116691589355469
      ],
      [
        "▁chiffres",
        -10.116710662841797
      ],
      [
        "▁sinon",
        -10.11732578277588
      ],
      [
        "▁tester",
        -10.117376327514648
      ],
      [
        "▁affaire",
        -10.118270874023438
      ],
      [
        "▁team",
        -10.118699073791504
      ],
      [
        "▁bite",
        -10.119840621948242
      ],
      [
        "▁basé",
        -10.120051383972168
      ],
      [
        "▁joie",
        -10.12030792236328
      ],
      [
        "artiste",
        -10.12058162689209
      ],
      [
        "appel",
        -10.12116813659668
      ],
      [
        "=",
        -10.121296882629396
      ],
      [
        "▁personnelles",
        -10.121536254882812
      ],
      [
        "▁discussion",
        -10.122690200805664
      ],
      [
        "▁produire",
        -10.12507152557373
      ],
      [
        "▁48",
        -10.126896858215332
      ],
      [
        "▁fr",
        -10.128355979919434
      ],
      [
        "▁financière",
        -10.129074096679688
      ],
      [
        "▁spécial",
        -10.130410194396973
      ],
      [
        "▁peuple",
        -10.130522727966309
      ],
      [
        "▁capital",
        -10.1306734085083
      ],
      [
        "▁max",
        -10.13082790374756
      ],
      [
        "▁candidat",
        -10.131022453308104
      ],
      [
        "▁forêt",
        -10.131685256958008
      ],
      [
        "▁néanmoins",
        -10.131796836853027
      ],
      [
        "▁09",
        -10.13237762451172
      ],
      [
        "inscription",
        -10.132458686828612
      ],
      [
        "▁automatiquement",
        -10.1325101852417
      ],
      [
        "▁actuelle",
        -10.13337230682373
      ],
      [
        "▁impossible",
        -10.13365077972412
      ],
      [
        "non",
        -10.134718894958496
      ],
      [
        "▁énergie",
        -10.135510444641112
      ],
      [
        "▁fédération",
        -10.135583877563477
      ],
      [
        "▁dis",
        -10.13580322265625
      ],
      [
        "émission",
        -10.136499404907228
      ],
      [
        "▁obligatoire",
        -10.137373924255373
      ],
      [
        "▁conduite",
        -10.138205528259276
      ],
      [
        "▁mobilier",
        -10.138994216918944
      ],
      [
        "▁·",
        -10.139325141906738
      ],
      [
        "▁murs",
        -10.139863014221191
      ],
      [
        "▁atteint",
        -10.14098834991455
      ],
      [
        "▁lecteur",
        -10.141036987304688
      ],
      [
        "▁originale",
        -10.141632080078123
      ],
      [
        "▁lettres",
        -10.141910552978516
      ],
      [
        "▁objet",
        -10.142354011535645
      ],
      [
        "▁conscience",
        -10.14285945892334
      ],
      [
        "▁transports",
        -10.142914772033691
      ],
      [
        "▁proposent",
        -10.14292812347412
      ],
      [
        "▁inclus",
        -10.143505096435549
      ],
      [
        "▁danse",
        -10.143531799316406
      ],
      [
        "avons",
        -10.144302368164062
      ],
      [
        "▁oublier",
        -10.14440631866455
      ],
      [
        "▁expériences",
        -10.144460678100586
      ],
      [
        "▁tours",
        -10.144740104675291
      ],
      [
        "▁recommande",
        -10.14621925354004
      ],
      [
        "▁exposition",
        -10.14665412902832
      ],
      [
        "▁citoyens",
        -10.147354125976562
      ],
      [
        "▁opération",
        -10.147714614868164
      ],
      [
        "▁utilisée",
        -10.147783279418944
      ],
      [
        "▁clientèle",
        -10.14786434173584
      ],
      [
        "▁totale",
        -10.148270606994627
      ],
      [
        "▁vaste",
        -10.149040222167969
      ],
      [
        "▁populaires",
        -10.149742126464844
      ],
      [
        "▁mme",
        -10.151885986328123
      ],
      [
        "▁digital",
        -10.152402877807615
      ],
      [
        "▁locales",
        -10.153142929077148
      ],
      [
        "▁secrétaire",
        -10.155526161193848
      ],
      [
        "▁audio",
        -10.156140327453612
      ],
      [
        "▁correspond",
        -10.156993865966797
      ],
      [
        "▁central",
        -10.157215118408203
      ],
      [
        "▁transition",
        -10.157363891601562
      ],
      [
        "▁suivantes",
        -10.157390594482422
      ],
      [
        "▁spa",
        -10.15786075592041
      ],
      [
        "▁revenus",
        -10.158263206481934
      ],
      [
        "▁city",
        -10.158842086791992
      ],
      [
        "▁firstname",
        -10.158869743347168
      ],
      [
        "▁électriques",
        -10.15959644317627
      ],
      [
        "▁cérémonie",
        -10.160035133361816
      ],
      [
        "▁!!!",
        -10.160292625427246
      ],
      [
        "▁graphique",
        -10.161447525024414
      ],
      [
        "▁fondation",
        -10.161831855773926
      ],
      [
        "▁sportif",
        -10.162196159362791
      ],
      [
        "▁agents",
        -10.162318229675291
      ],
      [
        "▁rappelle",
        -10.163042068481444
      ],
      [
        "▁répond",
        -10.163773536682127
      ],
      [
        "▁augmenter",
        -10.164108276367188
      ],
      [
        "▁lu",
        -10.1644926071167
      ],
      [
        "▁réserver",
        -10.165124893188477
      ],
      [
        "▁parfum",
        -10.165925979614258
      ],
      [
        "importance",
        -10.166166305541992
      ],
      [
        "▁adulte",
        -10.166268348693848
      ],
      [
        "▁wi",
        -10.16651439666748
      ],
      [
        "▁textes",
        -10.16653537750244
      ],
      [
        "▁chanson",
        -10.166776657104492
      ],
      [
        "▁rock",
        -10.167107582092283
      ],
      [
        "▁victime",
        -10.167736053466797
      ],
      [
        "▁déplacement",
        -10.16868019104004
      ],
      [
        "▁vise",
        -10.16887092590332
      ],
      [
        "▁masque",
        -10.168915748596191
      ],
      [
        "▁épisode",
        -10.169343948364258
      ],
      [
        "▁incroyable",
        -10.169811248779297
      ],
      [
        "▁largement",
        -10.170886039733888
      ],
      [
        "▁dr",
        -10.171185493469238
      ],
      [
        "▁joué",
        -10.172106742858888
      ],
      [
        "▁humain",
        -10.173099517822266
      ],
      [
        "▁profondeur",
        -10.173456192016602
      ],
      [
        "▁orange",
        -10.174260139465332
      ],
      [
        "espère",
        -10.174817085266112
      ],
      [
        "▁beurre",
        -10.174834251403809
      ],
      [
        "▁résumé",
        -10.174853324890137
      ],
      [
        "▁neige",
        -10.17556095123291
      ],
      [
        "▁licence",
        -10.175904273986816
      ],
      [
        "▁condition",
        -10.176469802856444
      ],
      [
        "▁world",
        -10.176617622375488
      ],
      [
        "▁possibles",
        -10.176841735839844
      ],
      [
        "15",
        -10.177042961120604
      ],
      [
        "▁usage",
        -10.177437782287598
      ],
      [
        "▁potentiel",
        -10.178081512451172
      ],
      [
        "▁us",
        -10.179018020629885
      ],
      [
        "▁ajoutez",
        -10.179505348205566
      ],
      [
        "▁importants",
        -10.179557800292969
      ],
      [
        "▁facteurs",
        -10.179654121398926
      ],
      [
        "▁management",
        -10.179667472839355
      ],
      [
        "▁reconnu",
        -10.180356979370115
      ],
      [
        "▁huit",
        -10.180947303771973
      ],
      [
        "apprentissage",
        -10.181117057800291
      ],
      [
        "▁obtenu",
        -10.182232856750488
      ],
      [
        "▁garage",
        -10.18239402770996
      ],
      [
        "▁solide",
        -10.183237075805664
      ],
      [
        "▁nice",
        -10.184481620788574
      ],
      [
        "▁exigences",
        -10.18484115600586
      ],
      [
        "▁arriver",
        -10.185930252075195
      ],
      [
        "▁toile",
        -10.185932159423828
      ],
      [
        "événement",
        -10.186515808105469
      ],
      [
        "▁vice",
        -10.187047004699709
      ],
      [
        "▁lac",
        -10.188068389892578
      ],
      [
        "▁montage",
        -10.188117980957031
      ],
      [
        "▁2011",
        -10.188472747802734
      ],
      [
        "▁02",
        -10.189342498779297
      ],
      [
        "ue",
        -10.189860343933104
      ],
      [
        "▁mauvais",
        -10.189879417419434
      ],
      [
        "▁recrutement",
        -10.190032958984377
      ],
      [
        "▁scientifique",
        -10.190316200256348
      ],
      [
        "▁flux",
        -10.19119930267334
      ],
      [
        "innovation",
        -10.191436767578123
      ],
      [
        "▁signé",
        -10.19200038909912
      ],
      [
        "▁pêche",
        -10.193787574768066
      ],
      [
        "▁sert",
        -10.193880081176758
      ],
      [
        "▁that",
        -10.19427490234375
      ],
      [
        "at",
        -10.195318222045898
      ],
      [
        "▁légèrement",
        -10.195938110351562
      ],
      [
        "▁dessins",
        -10.196695327758787
      ],
      [
        "▁ouvrir",
        -10.197126388549805
      ],
      [
        "▁russie",
        -10.197219848632812
      ],
      [
        "prix",
        -10.197308540344238
      ],
      [
        "▁prévention",
        -10.19759464263916
      ],
      [
        "▁calendrier",
        -10.198270797729492
      ],
      [
        "▁gratuites",
        -10.198807716369627
      ],
      [
        "▁vit",
        -10.199318885803224
      ],
      [
        "▁absolument",
        -10.199579238891602
      ],
      [
        "▁online",
        -10.199654579162598
      ],
      [
        "▁installé",
        -10.19993019104004
      ],
      [
        "mer",
        -10.199944496154783
      ],
      [
        "▁04",
        -10.2001314163208
      ],
      [
        "▁fenêtre",
        -10.200377464294434
      ],
      [
        "▁offert",
        -10.200385093688965
      ],
      [
        "▁liées",
        -10.201106071472168
      ],
      [
        "▁secondes",
        -10.202658653259276
      ],
      [
        "▁économiques",
        -10.20272445678711
      ],
      [
        "assemblée",
        -10.203208923339844
      ],
      [
        "▁développé",
        -10.203326225280762
      ],
      [
        "▁fan",
        -10.20337963104248
      ],
      [
        "20",
        -10.203585624694824
      ],
      [
        "▁32",
        -10.203804969787598
      ],
      [
        "▁enjeux",
        -10.20400619506836
      ],
      [
        "▁climat",
        -10.20401668548584
      ],
      [
        "▁palais",
        -10.20417308807373
      ],
      [
        "▁galerie",
        -10.20425033569336
      ],
      [
        "▁forcément",
        -10.205414772033691
      ],
      [
        "▁personnalisé",
        -10.20628547668457
      ],
      [
        "▁élections",
        -10.20681095123291
      ],
      [
        "▁jus",
        -10.206822395324709
      ],
      [
        "▁logo",
        -10.207504272460938
      ],
      [
        "▁minute",
        -10.207918167114258
      ],
      [
        "▁pilote",
        -10.208189964294434
      ],
      [
        "▁crée",
        -10.208246231079102
      ],
      [
        "▁auteurs",
        -10.208535194396973
      ],
      [
        "▁monter",
        -10.2085542678833
      ],
      [
        "▁laurent",
        -10.208642959594728
      ],
      [
        "▁chaise",
        -10.20881462097168
      ],
      [
        "▁remplacement",
        -10.208871841430664
      ],
      [
        "▁devraient",
        -10.209386825561523
      ],
      [
        "▁expertise",
        -10.209696769714355
      ],
      [
        "▁seuls",
        -10.210063934326172
      ],
      [
        "▁souvenir",
        -10.21036434173584
      ],
      [
        "▁macron",
        -10.210773468017578
      ],
      [
        "▁décor",
        -10.21104621887207
      ],
      [
        "institut",
        -10.211426734924316
      ],
      [
        "▁installations",
        -10.211427688598633
      ],
      [
        "be",
        -10.211540222167969
      ],
      [
        "▁maîtrise",
        -10.212684631347656
      ],
      [
        "▁japon",
        -10.212733268737791
      ],
      [
        "▁journaliste",
        -10.21308135986328
      ],
      [
        "▁pop",
        -10.21308708190918
      ],
      [
        "▁villa",
        -10.213316917419434
      ],
      [
        "▁conserver",
        -10.213428497314451
      ],
      [
        "▁chantier",
        -10.213509559631348
      ],
      [
        "améliorer",
        -10.213608741760254
      ],
      [
        "▁décès",
        -10.21362018585205
      ],
      [
        "▁poursuivre",
        -10.213953018188477
      ],
      [
        "▁huile",
        -10.21538543701172
      ],
      [
        "▁séries",
        -10.215697288513184
      ],
      [
        "▁débat",
        -10.216198921203612
      ],
      [
        "▁finir",
        -10.216382026672363
      ],
      [
        "▁visites",
        -10.216506958007812
      ],
      [
        "▁dossiers",
        -10.21739387512207
      ],
      [
        "▁secteurs",
        -10.218310356140137
      ],
      [
        "▁contraire",
        -10.219014167785645
      ],
      [
        "▁pain",
        -10.219423294067385
      ],
      [
        "▁codes",
        -10.219627380371094
      ],
      [
        "▁dates",
        -10.219724655151367
      ],
      [
        "acheter",
        -10.219942092895508
      ],
      [
        "▁ii",
        -10.220003128051758
      ],
      [
        "▁com",
        -10.22027587890625
      ],
      [
        "▁tiers",
        -10.220663070678713
      ],
      [
        "▁sorti",
        -10.220866203308104
      ],
      [
        "▁spécifique",
        -10.22112274169922
      ],
      [
        "▁sex",
        -10.221259117126465
      ],
      [
        "▁impact",
        -10.221697807312012
      ],
      [
        "▁traditionnelle",
        -10.223382949829102
      ],
      [
        "▁newsletter",
        -10.223719596862791
      ],
      [
        "▁spéciale",
        -10.224003791809082
      ],
      [
        "▁accueille",
        -10.224324226379396
      ],
      [
        "affaire",
        -10.225544929504396
      ],
      [
        "▁parole",
        -10.225763320922852
      ],
      [
        "▁sorties",
        -10.22605800628662
      ],
      [
        "▁londres",
        -10.226472854614258
      ],
      [
        "hôpital",
        -10.22658920288086
      ],
      [
        "▁catégories",
        -10.22673511505127
      ],
      [
        "▁défis",
        -10.22738265991211
      ],
      [
        "▁croire",
        -10.227689743041992
      ],
      [
        "▁renseignements",
        -10.227872848510742
      ],
      [
        "▁naturels",
        -10.227975845336914
      ],
      [
        "▁up",
        -10.22824764251709
      ],
      [
        "▁eaux",
        -10.228486061096191
      ],
      [
        "▁coronavirus",
        -10.228808403015137
      ],
      [
        "attention",
        -10.229915618896484
      ],
      [
        "atelier",
        -10.229986190795898
      ],
      [
        "église",
        -10.230064392089844
      ],
      [
        "▁histoires",
        -10.23037338256836
      ],
      [
        "▁rangement",
        -10.23068904876709
      ],
      [
        "▁réalisée",
        -10.23068904876709
      ],
      [
        "▁expliqué",
        -10.230754852294922
      ],
      [
        "▁propriétaires",
        -10.23119068145752
      ],
      [
        "▁restent",
        -10.23119831085205
      ],
      [
        "▁réussir",
        -10.232022285461426
      ],
      [
        "▁séances",
        -10.232050895690918
      ],
      [
        "▁trouvent",
        -10.232539176940918
      ],
      [
        "▁spécialisé",
        -10.232582092285156
      ],
      [
        "▁capacités",
        -10.23385524749756
      ],
      [
        "▁auront",
        -10.234583854675291
      ],
      [
        "▁extrêmement",
        -10.235815048217772
      ],
      [
        "▁circuit",
        -10.23613452911377
      ],
      [
        "▁précédent",
        -10.2365140914917
      ],
      [
        "▁prison",
        -10.237128257751465
      ],
      [
        "▁envoyé",
        -10.23727035522461
      ],
      [
        "▁exceptionnelle",
        -10.23845386505127
      ],
      [
        "▁transformation",
        -10.238637924194336
      ],
      [
        "▁box",
        -10.238851547241213
      ],
      [
        "▁russe",
        -10.240439414978027
      ],
      [
        "▁col",
        -10.240614891052246
      ],
      [
        "aventure",
        -10.24085807800293
      ],
      [
        "ta",
        -10.241155624389648
      ],
      [
        "▁arrivé",
        -10.241226196289062
      ],
      [
        "▁réflexion",
        -10.241244316101074
      ],
      [
        "▁tribunal",
        -10.241783142089844
      ],
      [
        "▁afrique",
        -10.242244720458984
      ],
      [
        "▁prestation",
        -10.243156433105469
      ],
      [
        "▁consommateurs",
        -10.243396759033203
      ],
      [
        "▁prime",
        -10.243721961975098
      ],
      [
        "▁chinois",
        -10.243849754333496
      ],
      [
        "▁humaine",
        -10.244084358215332
      ],
      [
        "▁claire",
        -10.244129180908203
      ],
      [
        "▁2010",
        -10.244230270385742
      ],
      [
        "▁adaptée",
        -10.244855880737305
      ],
      [
        "▁intérieure",
        -10.244959831237791
      ],
      [
        "▁sainte",
        -10.245140075683594
      ],
      [
        "▁statut",
        -10.245676040649414
      ],
      [
        "▁acheté",
        -10.245948791503906
      ],
      [
        "▁raconte",
        -10.246010780334473
      ],
      [
        "▁75",
        -10.246413230895996
      ],
      [
        "▁sociales",
        -10.24709701538086
      ],
      [
        "▁cycle",
        -10.247381210327148
      ],
      [
        "▁ouverture",
        -10.247735977172852
      ],
      [
        "▁coûts",
        -10.248014450073242
      ],
      [
        "▁échanges",
        -10.24892234802246
      ],
      [
        "▁lendemain",
        -10.249154090881348
      ],
      [
        "▁devra",
        -10.249341011047363
      ],
      [
        "▁suivante",
        -10.249725341796877
      ],
      [
        "▁vraie",
        -10.250271797180176
      ],
      [
        "▁découvert",
        -10.250537872314451
      ],
      [
        "▁revue",
        -10.251235008239746
      ],
      [
        "▁hd",
        -10.251242637634276
      ],
      [
        "▁utiles",
        -10.251611709594728
      ],
      [
        "▁constitue",
        -10.251675605773926
      ],
      [
        "▁créée",
        -10.253255844116213
      ],
      [
        "▁similaires",
        -10.253812789916992
      ],
      [
        "investissement",
        -10.25385570526123
      ],
      [
        "▁science",
        -10.254473686218262
      ],
      [
        "▁bruxelles",
        -10.254843711853027
      ],
      [
        "▁adaptés",
        -10.25487232208252
      ],
      [
        "▁virus",
        -10.255273818969728
      ],
      [
        "▁lesquels",
        -10.255327224731444
      ],
      [
        "▁samsung",
        -10.255340576171877
      ],
      [
        "▁barre",
        -10.25544548034668
      ],
      [
        "▁actif",
        -10.255489349365234
      ],
      [
        "▁devoir",
        -10.255565643310549
      ],
      [
        "▁langues",
        -10.256103515625
      ],
      [
        "▁réduit",
        -10.256489753723145
      ],
      [
        "▁allant",
        -10.256569862365724
      ],
      [
        "▁nantes",
        -10.256933212280272
      ],
      [
        "▁mobilité",
        -10.256994247436523
      ],
      [
        "▁san",
        -10.257513999938965
      ],
      [
        "▁particulière",
        -10.25753688812256
      ],
      [
        "▁accompagné",
        -10.25774383544922
      ],
      [
        "▁hommage",
        -10.258493423461914
      ],
      [
        "▁organiser",
        -10.258707046508787
      ],
      [
        "▁van",
        -10.259252548217772
      ],
      [
        "go",
        -10.25990104675293
      ],
      [
        "▁fabriqué",
        -10.261346817016602
      ],
      [
        "▁porté",
        -10.261466026306152
      ],
      [
        "▁girl",
        -10.261940002441406
      ],
      [
        "moi",
        -10.262388229370115
      ],
      [
        "▁martin",
        -10.262556076049805
      ],
      [
        "▁faveur",
        -10.262897491455078
      ],
      [
        "eux",
        -10.263163566589355
      ],
      [
        "▁tâches",
        -10.26463222503662
      ],
      [
        "▁nécessite",
        -10.265856742858888
      ],
      [
        "▁paramètres",
        -10.265918731689451
      ],
      [
        "▁difficulté",
        -10.266507148742676
      ],
      [
        "▁militaire",
        -10.266681671142578
      ],
      [
        "▁piste",
        -10.266812324523926
      ],
      [
        "▁marc",
        -10.267772674560549
      ],
      [
        "▁situations",
        -10.267815589904783
      ],
      [
        "▁charges",
        -10.268048286437988
      ],
      [
        "▁pandémie",
        -10.26834201812744
      ],
      [
        "▁fortement",
        -10.268397331237791
      ],
      [
        "▁modification",
        -10.269043922424316
      ],
      [
        "▁bateau",
        -10.269307136535645
      ],
      [
        "▁marine",
        -10.270103454589844
      ],
      [
        "▁rappel",
        -10.27012825012207
      ],
      [
        "▁assurez",
        -10.27171802520752
      ],
      [
        "▁di",
        -10.272021293640137
      ],
      [
        "▁discuter",
        -10.2721586227417
      ],
      [
        "▁best",
        -10.273561477661133
      ],
      [
        "▁jacques",
        -10.27443504333496
      ],
      [
        "▁publiée",
        -10.27475643157959
      ],
      [
        "▁ajoute",
        -10.275009155273438
      ],
      [
        "▁défaut",
        -10.27501106262207
      ],
      [
        "▁400",
        -10.275346755981444
      ],
      [
        "▁champs",
        -10.275938034057615
      ],
      [
        "▁serrurier",
        -10.276745796203612
      ],
      [
        "▁longues",
        -10.277298927307127
      ],
      [
        "▁figure",
        -10.277950286865234
      ],
      [
        "▁signaler",
        -10.278036117553713
      ],
      [
        "▁efforts",
        -10.278074264526367
      ],
      [
        "▁écologique",
        -10.278189659118652
      ],
      [
        "▁conséquences",
        -10.278438568115234
      ],
      [
        "▁détente",
        -10.27849578857422
      ],
      [
        "▁pouvait",
        -10.27871036529541
      ],
      [
        "▁hôtels",
        -10.27881908416748
      ],
      [
        "où",
        -10.278889656066896
      ],
      [
        "▁financier",
        -10.278965950012209
      ],
      [
        "▁récupérer",
        -10.279213905334473
      ],
      [
        "▁disque",
        -10.279468536376951
      ],
      [
        "▁prévue",
        -10.27980136871338
      ],
      [
        "▁proposition",
        -10.279866218566896
      ],
      [
        "▁revanche",
        -10.279877662658691
      ],
      [
        "eur",
        -10.280205726623535
      ],
      [
        "▁sécurisé",
        -10.28111457824707
      ],
      [
        "▁styles",
        -10.281450271606444
      ],
      [
        "▁transfert",
        -10.282485008239746
      ],
      [
        "▁maintenance",
        -10.282626152038574
      ],
      [
        "▁cliquant",
        -10.282785415649414
      ],
      [
        "impact",
        -10.28292465209961
      ],
      [
        "▁correctement",
        -10.283160209655762
      ],
      [
        "▁recherchez",
        -10.284071922302246
      ],
      [
        "▁transformer",
        -10.284317016601562
      ],
      [
        "▁animal",
        -10.28432273864746
      ],
      [
        "▁lycée",
        -10.28500270843506
      ],
      [
        "▁remplacer",
        -10.286144256591797
      ],
      [
        "▁faisait",
        -10.28681182861328
      ],
      [
        "▁vote",
        -10.287320137023926
      ],
      [
        "▁catalogue",
        -10.288544654846191
      ],
      [
        "▁vols",
        -10.28874397277832
      ],
      [
        "▁aimé",
        -10.288870811462402
      ],
      [
        "▁achats",
        -10.29025650024414
      ],
      [
        "▁énorme",
        -10.290741920471191
      ],
      [
        "▁remettre",
        -10.291558265686035
      ],
      [
        "▁satisfaction",
        -10.292101860046388
      ],
      [
        "▁ancienne",
        -10.292222023010254
      ],
      [
        "▁remplir",
        -10.292447090148926
      ],
      [
        "instant",
        -10.292502403259276
      ],
      [
        "▁chacune",
        -10.292774200439451
      ],
      [
        "▁actuel",
        -10.292824745178224
      ],
      [
        "▁propriétés",
        -10.293033599853516
      ],
      [
        "▁certaine",
        -10.29303741455078
      ],
      [
        "▁collège",
        -10.29310703277588
      ],
      [
        "▁cancer",
        -10.293230056762695
      ],
      [
        "▁thomas",
        -10.293416023254396
      ],
      [
        "taille",
        -10.293538093566896
      ],
      [
        "▁précision",
        -10.293869972229004
      ],
      [
        "▁chiens",
        -10.294784545898438
      ],
      [
        "▁bancaire",
        -10.294832229614258
      ],
      [
        "▁info",
        -10.295281410217283
      ],
      [
        "▁familiale",
        -10.295759201049805
      ],
      [
        "▁laissé",
        -10.297075271606444
      ],
      [
        "▁inscrivez",
        -10.297255516052246
      ],
      [
        "alimentation",
        -10.297850608825684
      ],
      [
        "▁camp",
        -10.29786777496338
      ],
      [
        "▁matchs",
        -10.29896354675293
      ],
      [
        "▁1.",
        -10.299117088317873
      ],
      [
        "▁règlement",
        -10.299834251403809
      ],
      [
        "▁canal",
        -10.300384521484377
      ],
      [
        "▁dois",
        -10.300697326660156
      ],
      [
        "▁tenter",
        -10.300950050354004
      ],
      [
        "œuvre",
        -10.301651000976562
      ],
      [
        "▁mauvaise",
        -10.302497863769531
      ],
      [
        "aider",
        -10.302520751953123
      ],
      [
        "▁planification",
        -10.302885055541992
      ],
      [
        "”.",
        -10.303205490112305
      ],
      [
        "▁nouveautés",
        -10.303531646728516
      ],
      [
        "▁faux",
        -10.303568840026855
      ],
      [
        "▁solaire",
        -10.30437469482422
      ],
      [
        "▁tendances",
        -10.304725646972656
      ],
      [
        "armée",
        -10.305806159973145
      ],
      [
        "▁colis",
        -10.305981636047363
      ],
      [
        "▁prêts",
        -10.306211471557615
      ],
      [
        "intervention",
        -10.306330680847168
      ],
      [
        "▁billets",
        -10.306548118591309
      ],
      [
        "▁voulu",
        -10.307059288024902
      ],
      [
        "étranger",
        -10.307241439819336
      ],
      [
        "enquête",
        -10.307369232177734
      ],
      [
        "▁rare",
        -10.307661056518556
      ],
      [
        "▁dirigeants",
        -10.308077812194824
      ],
      [
        "▁maladies",
        -10.308669090270996
      ],
      [
        "▁sec",
        -10.30898094177246
      ],
      [
        "▁spécialement",
        -10.309314727783203
      ],
      [
        "▁cheval",
        -10.309318542480469
      ],
      [
        "uni",
        -10.30940055847168
      ],
      [
        "▁will",
        -10.30959415435791
      ],
      [
        "▁motifs",
        -10.309686660766602
      ],
      [
        "▁centaines",
        -10.31015682220459
      ],
      [
        "bas",
        -10.310266494750977
      ],
      [
        "▁thèmes",
        -10.31112003326416
      ],
      [
        "▁loire",
        -10.311344146728516
      ],
      [
        "▁store",
        -10.311562538146973
      ],
      [
        "▁régional",
        -10.311726570129396
      ],
      [
        "▁morts",
        -10.311808586120604
      ],
      [
        "▁bibliothèque",
        -10.312432289123535
      ],
      [
        "▁nettoyer",
        -10.313002586364746
      ],
      [
        "▁gel",
        -10.313331604003906
      ],
      [
        "▁aimez",
        -10.313780784606934
      ],
      [
        "▁aperçu",
        -10.31483268737793
      ],
      [
        "▁08",
        -10.314903259277344
      ],
      [
        "info",
        -10.315314292907717
      ],
      [
        "▁sentiment",
        -10.315558433532717
      ],
      [
        "agriculture",
        -10.315645217895508
      ],
      [
        "▁intervention",
        -10.316307067871094
      ],
      [
        "▁commerciale",
        -10.316384315490724
      ],
      [
        "▁kilomètres",
        -10.316726684570312
      ],
      [
        "▁suit",
        -10.316925048828123
      ],
      [
        "électricité",
        -10.317879676818848
      ],
      [
        "▁souhaitent",
        -10.317987442016602
      ],
      [
        "ar",
        -10.318232536315918
      ],
      [
        "▁baise",
        -10.318994522094728
      ],
      [
        "▁reprendre",
        -10.319212913513184
      ],
      [
        "▁compréhension",
        -10.320695877075195
      ],
      [
        "▁bureaux",
        -10.320911407470703
      ],
      [
        "ie",
        -10.32097339630127
      ],
      [
        "▁clubs",
        -10.321642875671388
      ],
      [
        "▁frère",
        -10.32165241241455
      ],
      [
        "▁précis",
        -10.32205581665039
      ],
      [
        "▁viande",
        -10.322747230529783
      ],
      [
        "identité",
        -10.32309341430664
      ],
      [
        "▁05",
        -10.323314666748049
      ],
      [
        "▁vivant",
        -10.324567794799805
      ],
      [
        "▁avance",
        -10.325235366821287
      ],
      [
        "▁recommandé",
        -10.326000213623049
      ],
      [
        "▁afficher",
        -10.326233863830566
      ],
      [
        "▁charles",
        -10.32669448852539
      ],
      [
        "▁logements",
        -10.326800346374512
      ],
      [
        "▁spéciales",
        -10.327488899230955
      ],
      [
        "▁définition",
        -10.328537940979004
      ],
      [
        "▁placé",
        -10.328802108764648
      ],
      [
        "▁officielle",
        -10.32883071899414
      ],
      [
        "▁dé",
        -10.328924179077148
      ],
      [
        "▁attend",
        -10.33000946044922
      ],
      [
        "▁fleur",
        -10.330342292785645
      ],
      [
        "▁attendant",
        -10.33088493347168
      ],
      [
        "▁diversité",
        -10.330925941467283
      ],
      [
        "▁prochaines",
        -10.331395149230955
      ],
      [
        "opération",
        -10.331435203552246
      ],
      [
        "▁sommet",
        -10.332279205322266
      ],
      [
        "▁héros",
        -10.333456993103027
      ],
      [
        "▁importantes",
        -10.333572387695312
      ],
      [
        "min",
        -10.33393383026123
      ],
      [
        "▁pleinement",
        -10.334449768066406
      ],
      [
        "▁red",
        -10.334484100341797
      ],
      [
        "▁sèche",
        -10.3345308303833
      ],
      [
        "▁légère",
        -10.334885597229004
      ],
      [
        "▁journées",
        -10.33489227294922
      ],
      [
        "▁marqué",
        -10.335556030273438
      ],
      [
        "▁spécialistes",
        -10.336024284362791
      ],
      [
        "dans",
        -10.337028503417969
      ],
      [
        "saint",
        -10.337471961975098
      ],
      [
        "▁publiques",
        -10.337750434875488
      ],
      [
        "▁définir",
        -10.337779998779297
      ],
      [
        "▁fc",
        -10.33910083770752
      ],
      [
        "▁pluie",
        -10.339499473571776
      ],
      [
        "▁naturellement",
        -10.339516639709473
      ],
      [
        "ac",
        -10.339811325073242
      ],
      [
        "▁quitter",
        -10.339816093444824
      ],
      [
        "ine",
        -10.34223747253418
      ],
      [
        "▁humains",
        -10.342613220214844
      ],
      [
        "▁classiques",
        -10.34352684020996
      ],
      [
        "▁discours",
        -10.343908309936523
      ],
      [
        "ée",
        -10.344873428344728
      ],
      [
        "pas",
        -10.34534740447998
      ],
      [
        "▁province",
        -10.346393585205078
      ],
      [
        "▁entrer",
        -10.347399711608888
      ],
      [
        "▁civile",
        -10.347490310668944
      ],
      [
        "no",
        -10.34817600250244
      ],
      [
        "▁anne",
        -10.348377227783203
      ],
      [
        "édition",
        -10.348801612854004
      ],
      [
        "▁chasse",
        -10.348917007446287
      ],
      [
        "▁automobile",
        -10.34906005859375
      ],
      [
        "autant",
        -10.349103927612305
      ],
      [
        "▁viens",
        -10.351139068603516
      ],
      [
        "▁vigueur",
        -10.351415634155272
      ],
      [
        "▁abonnés",
        -10.351530075073242
      ],
      [
        "▁hiver",
        -10.35222339630127
      ],
      [
        "▁critiques",
        -10.3526029586792
      ],
      [
        "▁mec",
        -10.352609634399414
      ],
      [
        "absence",
        -10.35267734527588
      ],
      [
        "▁réservé",
        -10.353734970092772
      ],
      [
        "▁déterminer",
        -10.35388469696045
      ],
      [
        "▁bi",
        -10.354090690612791
      ],
      [
        "▁poursuit",
        -10.354193687438965
      ],
      [
        "▁surveillance",
        -10.354384422302246
      ],
      [
        "▁03",
        -10.35487461090088
      ],
      [
        "▁courses",
        -10.35517692565918
      ],
      [
        "▁amateur",
        -10.355228424072266
      ],
      [
        "▁venu",
        -10.355667114257812
      ],
      [
        "▁trafic",
        -10.355708122253418
      ],
      [
        "▁game",
        -10.35630702972412
      ],
      [
        "▁esthétique",
        -10.35647678375244
      ],
      [
        "▁tablette",
        -10.356590270996094
      ],
      [
        "▁poche",
        -10.356645584106444
      ],
      [
        "▁scientifiques",
        -10.356966018676758
      ],
      [
        "▁devait",
        -10.358370780944824
      ],
      [
        "▁visant",
        -10.359089851379396
      ],
      [
        "▁casinos",
        -10.359614372253418
      ],
      [
        "▁compatible",
        -10.35961627960205
      ],
      [
        "▁salaire",
        -10.359797477722168
      ],
      [
        "▁signature",
        -10.359862327575684
      ],
      [
        "▁solidarité",
        -10.35995101928711
      ],
      [
        "▁q",
        -10.360754013061523
      ],
      [
        "▁sympa",
        -10.361181259155272
      ],
      [
        "▁internautes",
        -10.361184120178224
      ],
      [
        "▁traiter",
        -10.361194610595703
      ],
      [
        "▁2020,",
        -10.361685752868652
      ],
      [
        "▁revenu",
        -10.361867904663086
      ],
      [
        "▁fournisseurs",
        -10.36193561553955
      ],
      [
        "▁forts",
        -10.361982345581056
      ],
      [
        "▁retirer",
        -10.362104415893556
      ],
      [
        "▁biens",
        -10.362531661987305
      ],
      [
        "▁créations",
        -10.36265754699707
      ],
      [
        "ni",
        -10.363107681274414
      ],
      [
        "▁normal",
        -10.363232612609863
      ],
      [
        "▁tomber",
        -10.363829612731934
      ],
      [
        "▁soumis",
        -10.364252090454102
      ],
      [
        "▁lesquelles",
        -10.365074157714844
      ],
      [
        "▁découvre",
        -10.366418838500977
      ],
      [
        "▁portant",
        -10.367570877075195
      ],
      [
        "▁donnent",
        -10.367900848388672
      ],
      [
        "▁organisations",
        -10.367942810058594
      ],
      [
        "▁effectué",
        -10.368043899536133
      ],
      [
        "▁tente",
        -10.368162155151367
      ],
      [
        "the",
        -10.36845588684082
      ],
      [
        "▁utilisateur",
        -10.368608474731444
      ],
      [
        "▁humaines",
        -10.369611740112305
      ],
      [
        "▁active",
        -10.3696870803833
      ],
      [
        "▁sensation",
        -10.370266914367676
      ],
      [
        "▁comportement",
        -10.370543479919434
      ],
      [
        "▁garçon",
        -10.370705604553224
      ],
      [
        "▁favoriser",
        -10.37071418762207
      ],
      [
        "▁louer",
        -10.371241569519045
      ],
      [
        "▁courte",
        -10.371271133422852
      ],
      [
        "▁mener",
        -10.371685981750488
      ],
      [
        "▁terminé",
        -10.372118949890137
      ],
      [
        "▁élégant",
        -10.372430801391602
      ],
      [
        "▁bretagne",
        -10.372702598571776
      ],
      [
        "▁britannique",
        -10.372742652893066
      ],
      [
        "▁commander",
        -10.373061180114746
      ],
      [
        "▁élément",
        -10.37327003479004
      ],
      [
        "▁champion",
        -10.373680114746094
      ],
      [
        "▁tradition",
        -10.373778343200684
      ],
      [
        "▁billet",
        -10.374000549316406
      ],
      [
        "▁mouvements",
        -10.374523162841797
      ],
      [
        "▁seine",
        -10.374663352966309
      ],
      [
        "▁souvenirs",
        -10.375041007995604
      ],
      [
        "▁chefs",
        -10.375856399536133
      ],
      [
        "▁intégré",
        -10.376058578491213
      ],
      [
        "▁œuvres",
        -10.376523971557615
      ],
      [
        "▁qualités",
        -10.37668514251709
      ],
      [
        "▁estime",
        -10.377150535583496
      ],
      [
        "▁usb",
        -10.377256393432615
      ],
      [
        "▁tourner",
        -10.37771224975586
      ],
      [
        "▁représentant",
        -10.377877235412598
      ],
      [
        "▁composée",
        -10.377986907958984
      ],
      [
        "▁liquide",
        -10.378156661987305
      ],
      [
        "▁lille",
        -10.378814697265623
      ],
      [
        "▁clairement",
        -10.378841400146484
      ],
      [
        "▁yoga",
        -10.379258155822754
      ],
      [
        "▁randonnée",
        -10.37941551208496
      ],
      [
        "▁matériau",
        -10.379465103149414
      ],
      [
        "▁explorer",
        -10.379612922668455
      ],
      [
        "▁compléter",
        -10.380522727966309
      ],
      [
        "accompagnement",
        -10.38098430633545
      ],
      [
        "▁sommeil",
        -10.381210327148438
      ],
      [
        "▁talent",
        -10.381247520446776
      ],
      [
[...]
